#version: 0.2
ï ¼
ä ¸
ï¼ Į
ç ļ
çļ Ħ
ã Ģ
ä º
ãĢ Ĥ
å ı
ä »
ã ģ
è ¿
æ Ī
å ¤
â Ģ
æ ľ
ä ½
æ ĺ
ä¸ Ģ
å ľ
äº Ĩ
å °
å ¥
å Ĳ
ä ¹
å Ī
æĺ ¯
å ħ
æĪ ĳ
ä¸ į
å ®
ç Ķ
è ¯
åľ ¨
æ Ŀ
æ ī
âĢ ¦
ç »
å Ĭ
æ Ĺ
ã Ĥ
å Ń
å ¾
ç Ŀ
å ĩ
äº º
Ġ t
å ·
e r
æľ ī
è¿ Ļ
å ¼
ä ¼
çĿ Ģ
i n
å Ĵ
ç ľ
æ ĸ
Ġ a
ĥ ½
æĿ ¥
ã ĥ
e n
ä¸ Ĭ
é ĩ
ä¸ ª
è ®
å¥ ¹
æ Ĭ
å į
å ¿
è Ģ
å Ľ
åĴ Į
æ Ģ
è µ
æ ĥ
è ĩ
å ¹
åĪ °
å ¦
å Ĩ
ä½ ł
çļĦ è
ä¸ ĭ
å ¸
ãĢ ģ
è §
h e
æ Ħ
æ Ń
å º
ç İ
ãĢ Į
é Ĺ
å¤ §
é Ģ
ãĢ į
å ĳ
å İ
è ¦
ä» ĸ
å ¯
ä» ¥
æ ²
é ģ
åĩ º
o n
æ ł
åı ¯
æ ķ
åŃ Ĳ
é Ŀ
è¦ ģ
å° ±
é Ĥ
å° ı
ä¸ Ń
å ĵ
ä¹ Ł
åľ °
ç Ľ
âĢ¦ âĢ¦
èĩ ª
e s
å¥ ½
è ¡
ï¼ ļ
æĹ ¶
ï¼ ģ
Ġ s
éĤ £
ä¸ º
è ĥ½
âĢ ľ
ç Ħ
âĢ Ŀ
ç §
ï¼ Ł
æ ĭ
æ °
å ½
Ġt he
a t
ä» ¬
º «
æ İ
o r
ç ī
æ Į
è¯ ´
çĶ ¨
çĦ ¶
éģ ĵ
ä¼ ļ
çľ ĭ
è Ĥ
æ ³
å ķ
åĲ İ
è¿ ĩ
èµ ·
ä¹ Ī
çļĦ ç
æ ¯
æī ĭ
æ ŀ
è ¢
å ī
ä ¾
å Į
å¾ Ĺ
éĩ Į
Ġ d
i t
i s
c h
é ĺ
å ±
æ ¬
Ġ w
a n
å¯ ¹
r e
è ¾
è ½
æ µ
å §
è¿ ĺ
çĶ Ł
æ Ķ
æ² ¡
è º«
é ĥ½
ç º
æ Ļ
é ¢
å¼ Ģ
ä ¿
å¥ ³
æĥ ³
åİ »
å· ±
æ ı
éĿ ¢
è¢ «
èĩª å·±
å¿ ĥ
Ġ o
å ģ
åı ĳ
æ Ľ
èĢ Į
å¦ Ĥ
æĦ Ł
é Ļ
æ ¸
åĬ ¨
n d
ç Ń
å £
ä¹ ĭ
a l
Ġ b
é Ľ
Ġ c
ç Ĥ
å¤ ´
å Ģ
Ġ f
è Ħ
è ´
ä½ ĵ
ç Ĳ
åķ Ĭ
è Ī
Ġ p
å¤ ļ
åı ª
in g
ç Ł
a r
ç «
Ġ m
å¤ ©
æ ·
è ī
æĪ Ĳ
æł ·
äº Ľ
ä¸Ģ ä¸ª
æ ´
ç ©
ç Ī
é ļ
ç ´
äº İ
è ·
ç ¾
åĬ Ľ
æĸ ¹
åī į
åı¯ ä»¥
e d
Ġ in
å ĸ
o u
é «
è ¶
è® ©
çİ °
ç ¬
å¾ Ī
åĪ Ĩ
ç» ı
æĥ ħ
éĹ ´
æĦ ı
é ľ
å® ¶
è¿ Ľ
é« ĺ
æ ±
Ļ ½
ä½ Ĩ
i on
çĤ ¹
l e
å¹ ´
å° Ĩ
æ »
æ ¶
åŃ ¦
æ ģ
å· ²
ä½ ľ
è¡ Į
Ġo f
ç ®
è ħ
æĬ Ĭ
æĽ ´
Ġt o
ãģ ®
. .
è £
a s
é £
ä¸ ¤
æĹ ł
é ķ
æľ Ģ
é ¡
äº ĭ
å ¨
å ĺ
é ĥ
åĲ Į
æ į
æ³ ķ
çľ ¼
ä» Ģ
å£ °
çŃ ī
çŁ ¥
åı Ī
è ĥ
æĢ §
å Ŀ
ç§ į
åĽ ŀ
i c
Ġa nd
ä» İ
ç ĥ
åı £
æ Ĥ
æī Ģ
ä½ ı
å® ļ
è °
r o
èĢ ģ
è Ĭ
èī ²
æ²¡ æľī
ä»Ģ ä¹Ī
é »
æ¬ ¡
Ġ e
æ Ł
æľ ¬
å¦ Ī
æĺ İ
åħ ¥
en t
åħ ¨
Ġ h
æŃ ¤
åħ ¶
æ° Ķ
ãĢĤ ãĢį
å¿ «
æĪĳ ä»¬
ãģ Ħ
å½ ĵ
ç» Ļ
Ċ Ċ
ç ĭ
ç¾ İ
ç ½
Ġ Ġ
ç ²
åĽ ł
e l
ä¸ »
è ĭ
çĲ Ĩ
åĬ ł
çľ Ł
Ġt h
å Ł
è¯ Ŀ
s t
æ° ´
ç ķ
éķ ¿
æĸ ĩ
æ ĳ
æŃ £
è§ ī
åĨ ħ
æķ °
åħ ¬
åº Ķ
éĥ ¨
äºĨ ä¸Ģ
çĶ ·
å¹ ¶
ç Ļ½
æŀ ľ
éĹ ®
çī ©
Ġ n
æ £
Ġ S
ç ¼
è¾ ¹
åĨ į
å ĥ
å® ŀ
å Ħ
å° ĳ
åĽ ½
ç ¥
i l
ç ¨
å Ķ
å¸ ¸
çĽ ´
ä½ ¿
æı Ĳ
Ġ u
æİ ¥
æ ħ
é ¦
ç ģ
åĦ ¿
åı Ĺ
è İ
Ġ A
ä¸ İ
o m
Ġ g
e t
å¤ ĸ
éĩ į
å· ¥
è¿Ļ ä¸ª
å·² ç»ı
æľ º
åĲ §
é ª
åĥ ı
è½ »
åĲ Ī
æī į
ãģ «
åº ¦
Ġ is
åĩ ł
æī ĵ
é ħ
ãģ Ĺ
è Ĳ
åĲ ĳ
åħ ³
æ¯ Ķ
æĶ ¾
ãĢĤ âĢĿ
èĤ ī
é Ł
ç ³
éĢ ļ
æĹ ¥
Ġ l
ç ±
å® Į
åģ ļ
åĮ ĸ
è§ ģ
é Ķ
i e
ãģ §
æľ į
ç´ §
ç ¡
èµ· æĿ¥
è§ £
åı Į
çĽ ¸
ãģ ¦
æĪĳ çļĦ
c t
å¤ Ħ
ãĥ ¼
ç¬ ĳ
ç Ĺ
åħ ī
å§ Ĳ
åı ĺ
ãģ Ł
æ» ¡
çŁ¥ éģĵ
ä¿ Ŀ
ç ¦
i g
æĸ °
ãģ ª
éľ Ģ
èµ °
å¥¹ çļĦ
ç ĸ
ä¸ ī
Ġ T
åĪ «
éĩ ı
ï ½
ç ¤
å¼ ł
i m
æĮ ĩ
ä½ į
ï¼ ī
æĪ ĸ
u t
o l
åĲ Ĺ
åĲ į
ï¼ Ī
ãģ ¨
u r
æ ¡
å§ ĭ
ä¾ ¿
å¤ ª
è į
r a
ä¸į æĺ¯
é ©
èĢ ħ
æľ Ī
å¸ ¦
åį ´
å ©
é¢ ĺ
å Ļ
æĢ İ
æł ¹
åĲ ¬
åĺ ´
å® ī
å ¢
åĵ ģ
ãģ Ļ
è¡ ¨
çĪ ±
éĹ ¨
ç¥ ŀ
é Ĵ
ãĤ Ĵ
ãĤ ĭ
ï¼Ł ãĢį
ä½ ķ
Ġ I
çī ¹
åĢ Ļ
è¯ Ń
å Ĺ
çĶ µ
æ£ Ĵ
çº ¢
ï¼ģ ãĢį
åĪ° äºĨ
ï¼ļ ãĢĮ
ãģ ¯
å¹ ³
æĤ ¨
ãģ Į
å »
è¿Ļ æł·
çĽ ®
ç ª
è ģ
0 0
éŁ ³
æµ ģ
i ch
o t
å¼ º
æ¸ ħ
å® ĥ
åĪ ļ
v e
è ĳ
Ġ re
æ ļ
æ ¢
è ¨
åĪ ¶
u n
ä» »
æ· ±
i d
äº ¤
ä¹ ³
çĶ ±
Ġb e
ç® Ĺ
å ĭ
çİ° åľ¨
æ ®
ãģ ¾
v er
è¯ ¥
æ´ »
èħ ¿
âĢ Ķ
åı į
ä¿ ¡
æ Ĵ
ç ł
çļĦè Ĥ
é ¾
é ¸
å½ ±
åĳ ¢
å¼Ģ å§ĭ
éľĢ è¦ģ
ä»ĸ ä»¬
è ¥
å¾ ®
es t
éĺ ´
éļ ı
æ ¼
åį ģ
u s
æĪ ¿
å°± æĺ¯
è· Ł
è Ļ
æĬ Ģ
é ¥
o w
èĩªå·± çļĦ
Ġ y
åİ Ł
i r
at ion
èĦ ¸
æĭ ī
é Ń
åı Ĭ
äº Į
æĢİ ä¹Ī
åħ Ī
åĩº æĿ¥
æ ¨
æį ®
æŃ »
æ¶ ²
å· ´
è¥ ¿
çİ ĭ
a m
é ĵ
åĮ ħ
åľ º
ç Į
å¸ ®
ç² ¾
Ġ 1
æ Ĳ
çĶ· äºº
ä¸ Ŀ
åĽł ä¸º
Ġ M
Ġ W
ç± »
çļĦè º«
æĹ¶ åĢĻ
åħ ·
Ġf or
å¼ ı
è ±
ç¨ ĭ
æ± Ĥ
è¿ĺ æĺ¯
ç© ´
è¶ Ĭ
l y
ç³ »
ä¸ ļ
åı¯ èĥ½
æ ĵ
æ· «
ãĥ ³
ç» ĵ
æĢ Ŀ
éĿ ŀ
Ġ B
æ º
äº ²
c e
è Į
é» ĳ
æģ ¯
Ġs t
åı «
ä» Ĭ
æ¯ ı
æĮ ģ
èĬ ±
èĩ ³
è® ¡
é£ İ
ç« ĭ
æĸ Ń
æ ¥
æľ ¯
ç¬ ¬
å ŀ
æı Ĵ
å¹ ²
æĺ¯ ä¸Ģ
ä» £
æķ ´
Ġ C
ç ¿
é º
t er
éļ ¾
æķ Ļ
æħ ¢
æľ Ľ
åĵ Ī
æĦŁ è§ī
å® ¹
èĪ ¬
èĤ ¡
e m
è¿ ŀ
ãģ £
ä¹ Ĳ
ãģ ĭ
ç Ĭ
ç ı
ä¼ ¼
æ ¿
åĪ ©
Ġ P
å «
çľĭ çĿĢ
Ġ on
åĬ ©
æĻ º
ãĢ Ģ
ä½Ĩ æĺ¯
æ¬ ¢
èĳ Ĺ
å» º
ä¸ Ķ
ä¸ ľ
âĢ¦âĢ¦ ãĢį
t h
æµ ·
åĸ ľ
Ġ D
çļĦ å°ı
å¸ Ī
å¦Ī å¦Ī
æŀ Ĺ
ç¡ ®
æĹ¶ éĹ´
å¦Ĥ æŀľ
åĲ ĥ
éĩ ĳ
éĹ® é¢ĺ
åŃ ©
u l
ç© º
çİ ©
s e
é© ¬
2 0
æĢ »
è¶ ³
æ ½
Ġth at
ï¼ģ âĢĿ
u m
å ²
ä¹ İ
ä½¿ çĶ¨
a y
ä¸Ģ ä¸ĭ
ä» ¶
è¡ £
éľ ²
g e
ä¼ ł
Ġy ou
è¨ Ģ
å¾ Ģ
æľ Ł
åŃ Ĺ
è¯ ·
Ġa n
è® ¸
åĲ ¸
åĹ ¯
å± ķ
ä¹ ł
åĳ ³
çĦ¶ åĲİ
é ĸ
å½ ¢
å¸ Ĥ
æĸ ¯
æ¯ į
ç® ¡
åĻ ¨
å ł
åĵ ¥
ï¼ļ âĢľ
Ġ v
ï¼Ł âĢĿ
çļĦè Ħ
æī ¾
Ã ¼
äº §
æĿ İ
ç Ļ
Ġw h
æ¿ Ģ
æŃ ¥
å° Ħ
è ı
a d
è¿Ļ ä¹Ī
æĹ ©
åĬ ¡
çļĦ ä¸Ģ
è¿Ļ äºĽ
æ ¹
ä¸į è¿ĩ
æĬ ½
ĠĠ Ġ
æ³ ¨
ãĤ Ĭ
er s
éĽ ª
ä¸ ĸ
è Ļ½
é¦ Ļ
è® ¤
è½ ¬
çī ĩ
äºº çļĦ
Ġ F
å° Ķ
i f
è¿ ĳ
æĿ ¡
æľ ª
ç¦ »
é£ Ł
åı ĸ
ç» Ĩ
æł ¼
ç© ¿
es s
é¸ ¡
éĺ ¿
ç ¢
Ġ r
åģ ľ
åį Ĭ
it h
è½ ¦
çİ ¯
ï½ ŀ
ãĤ Ĥ
Ġ E
ä¹Ł ä¸į
åĪ »
çĥ Ń
çª ģ
è§ Ĩ
çİ ī
åı ĭ
åĽ Ľ
ãĤ Į
å ¡
t e
æľī äºĽ
å± ±
çĲ ĥ
æĪ ĺ
çļĦè ¡
è¯ Ĩ
åĩ Ĩ
ç» Ń
Ġ H
ä¸ ½
èĦ ļ
æ¸ ©
Ġa l
ä¸Ģ æ¬¡
åĵ į
Ġ (
å¤ ±
èº« ä½ĵ
åĿ Ĳ
åĳ ½
Ġ k
ãģ Ĩ
åį ķ
çļĦèĤ ī
ä¸Ģ æł·
ä»ĸ çļĦ
è· ¯
éĺ ³
èĲ ½
ãĤ ī
æĶ ¶
å¤ Ł
a b
Ġp ro
çļĦ äºº
æŀ ģ
ä¾ Ľ
åı ¸
åĳ ¨
Ġ it
éĢ ī
æİ ¨
an d
å¼ Ħ
ä¸Ģ äºĽ
Ġu nd
èĻ½ çĦ¶
ĊĊ ĊĊ
åį ³
ĊĊĊĊ ĠĠĠ
çľĭ åĪ°
è¿Ļ ç§į
åıª æĺ¯
åĲ Ħ
æŁ Ķ
æĻº èĥ½
æĸ Ļ
åħ ĭ
ç Ĩ
æīĢ ä»¥
åº Ĭ
Ġ G
ä¸Ĭ çļĦ
åĮ º
ãĥ¼ ãĥ
åħ ´
er e
åŁ İ
åĵ ª
è¿Ľ è¡Į
å¥½ çļĦ
åº ķ
åĨ ³
åĪ Ļ
å® ¢
å¨ ĩ
Ġa s
ãĤ ¹
åĳ ĺ
è º
ç ħ
æĭ ¿
åı °
æĻ ļ
ä¸¤ ä¸ª
ç« Ł
è Ľ
è¾ ¾
æĺ Ł
éĿŀ å¸¸
æ¸ ¸
Ġw ith
éĢ Ł
ä½ İ
é¾ Ļ
Ã ¤
ä¾ ĭ
å£ «
æ® µ
å¤ ĩ
å± ģ
ä¸į è¦ģ
è® ¾
ãģ ı
è® °
o d
æĬ ±
ç» Ī
Ġa re
ç ŀ
çļĦ å¤§
å¦ ¹
è½ ¯
å Ĥ
çģ «
çº ¿
åİ ĭ
å° ½
ä¸Ģ èµ·
åĳ ¼
ä¸Ń çļĦ
åŀ ĭ
ä¸ĭ æĿ¥
éŃ Ķ
ä¸Ģ è¾¹
âĢĶ âĢĶ
å¥³ äºº
åķĬ åķĬ
è´ ¨
è° ĥ
é¢ Ĩ
åĢ Ĵ
ç» Ł
ç« Ļ
æĬĢ æľ¯
æĢ ģ
åĪ º
ä½ł çļĦ
Ġc on
è ª
ä¹Ł æĺ¯
un g
éĺ µ
åĲĮ æĹ¶
å® ¤
åĵ ¦
æĪ ·
ãģ ĵ
è¯ ķ
çķ Į
éĢ Ĥ
åı ¥
åĸľ æ¬¢
æ¬ ²
is t
å ª
è§ Ĵ
é Ĩ
Ġ R
çŃ Ķ
åºĶ è¯¥
æıĲ ä¾Ľ
åħ ĥ
ãĤ ĵ
åŁ º
c k
åĳ Ĭ
æ¨ ¡
çļĦ æĹ¶åĢĻ
i es
il l
Ġs e
æĺ ¾
å« ©
éĤ£ ä¹Ī
å¤ «
è¿ĺ æľī
èĪ Ĵ
å¸ ĥ
Ġ L
' s
çĥ Ī
Ġ or
å¤ į
ãĤ ¤
èĤī æ£Ĵ
ç¤ º
èĢ ĥ
è® ®
éĤ£ ä¸ª
è¿ Ĳ
çĹ Ľ
åĬ Ł
éĥ½ æĺ¯
å¿ į
æ½ ®
å·¥ ä½ľ
en d
ä¸į æĸŃ
p p
ä¹ ħ
è£ ħ
è¯´ éģĵ
åĶ ĩ
åĮ »
n s
å¾ Į
Ġ 2
ä¾ Ĩ
éĢ ģ
at e
ä¼ ¸
å¸® åĬ©
ç§ ĳ
åıĳ çİ°
åŃ¦ ä¹ł
åĩ »
å¾ ·
æĽ´ åĬł
æĳ ¸
æĮ º
ãĥ ĥ
ç¤ ¾
å¤§ çļĦ
- -
å¯ ¼
è± ¡
.. ..
ãĢ ĭ
éĿ Ļ
éħ Ĵ
åĨ Ļ
ä¾ Ŀ
ãĢ Ĭ
èİ ī
o s
è® º
å¼ ķ
å¢ ĥ
1 9
ä¸į ä¼ļ
åĪ ĩ
æ° ĳ
in e
è§ī å¾Ĺ
ä¹ĭ åĲİ
èĦ ĳ
æķ Ī
éĢļ è¿ĩ
çļĦ è¯Ŀ
æĶ ¹
æĢ ķ
o p
äº Ķ
èµ Ħ
ä»¥ ä¸ĭ
i v
ç» Ŀ
ï¼ Ľ
æĻ ¯
ä» ¤
åĨ ·
è£ ¤
è¿ ľ
å¸ Į
é£ ŀ
ãģ ł
éĿ Ĵ
åĨ Ľ
æĶ ¯
åı ¦
é¦ ĸ
a k
åħ¬ åı¸
ãĥ Ī
èĥ Į
ç½ ĳ
éĶ Ļ
åĩº äºĨ
q u
èĩ ´
å£° éŁ³
æĥ Ĭ
å¥ ¶
ä¸į åĲĮ
å®Į åħ¨
åį Ĺ
å¥ ĩ
å® ³
Â ·
æĬ ¤
ä¹ ¦
ç ĳ
Ġ "
Ġ K
ãģ ķ
a ch
å¾ ħ
åŃ ĺ
è Ĵ
Ġe x
äº ļ
ãģ į
éĢ ł
åĬ ¿
çĿ ¡
ç¼ ĵ
è ĵ
çķ Ļ
æķ° æį®
åĨ µ
l d
åı¯ æĺ¯
Ġd er
ç´ ł
å°ĳ å¥³
Ġ z
æł ĩ
â Ķ
çªģ çĦ¶
è Ĩ
çľŁ çļĦ
çº ¦
Ġc om
ä¸į ä½ı
åį İ
æº Ĳ
èĥ ¸
ä¸ ĩ
äº ĳ
èĬ Ĥ
ĠT he
çļĦèº« ä½ĵ
é ¼
Ġ N
é¸¡ å·´
Ġd ie
å¤ ľ
ä½ł ä»¬
åĨ ²
æ¸ Ĳ
éĻ ¤
Ġd e
h r
åĬ ŀ
æĶ ¿
æ¶ Ī
èĩª çĦ¶
èĭ ¥
ãģ¾ ãģĻ
âĢ¦âĢ¦ âĢĿ
.. .
æĢ ¥
æĿ ¾
æĮ ī
u d
è§ Ĥ
éĩį è¦ģ
æ» ĳ
å¿ ħ
ãģ Ĥ
é¡ ¶
ç» §
èĦ ±
åķ Ĩ
åĲ «
ä¸į èĥ½
é» Ħ
ä¹ ī
è¿Ļ æĺ¯
çļĦè ĥ
ä¿ ®
èĭ ±
Ġ =
ig h
ä¸Ģ çĤ¹
åħ ħ
çļ ®
åģ ¥
æĺ ĵ
çĶ ļ
ä»Ĭ å¤©
èĢĮ ä¸Ķ
* *
è ĸ
ä¹ ±
è¿Ļ éĩĮ
äºº å·¥
åĳ ľ
a g
å¨ ľ
éĢ Ļ
å® «
ç» Ħ
è° ¢
åħ¶ ä»ĸ
çħ §
ä¸º äºĨ
éħ į
å¿ Ļ
åĪ Ľ
çģ µ
ar t
Ġn e
æľĢ åĲİ
éĻ Ī
in d
åħ ±
or t
çĬ ¶
b er
ä¸Ģ çĽ´
çļĦç ²
an t
æİ Ĵ
ç½ ®
éļı çĿĢ
éª Į
é ²
æ¡ Ī
æĵ į
w er
èº« ä¸Ĭ
åĳ Ģ
it y
å¦Ĥ ä½ķ
å¼ Ł
å±ģ èĤ¡
äºĭ æĥħ
æķ ħ
ä¸ľ è¥¿
çĽ´ æİ¥
çĪ ¸
æĻ Ĥ
çĶŁ æ´»
æĬ ĵ
æĿ¥ çļĦ
ãģ Ĭ
å± ħ
ç± ³
äººå·¥ æĻºèĥ½
æĥ³ è¦ģ
æĭ ¬
m ent
èĥ½ å¤Ł
ä» ½
i ve
è¡ Ģ
åĽ ¢
åİ Ĩ
è®© æĪĳ
æİ §
äº «
æĢ ª
éĽ Ĩ
Ġs u
æŃ ¢
el l
åĪ Ĺ
ãģĹ ãģ¦
1 0
Ġ he
Ġh a
ä¼ ĺ
çļĦ æĺ¯
ä¸į çŁ¥éģĵ
æ¢ ¦
çĭ ł
åĮ Ĺ
ç µ
å· ®
ä¸Ģ èĪ¬
æ¹ ¿
å¨ ĺ
p e
å· ¦
ç§ °
çľ¼ çĿ
ç® Ģ
å® ĺ
è¯ į
èħ °
çļĦè §
æĹł æ³ķ
ãĥ «
éĽ ħ
å¯ Ĩ
æĬ ¥
ä¼¼ ä¹İ
åıĳ å±ķ
å· ¨
åŁ Ł
å¼ Ĥ
èĪ Į
ç ¯
éĽ ¨
çĭ Ĺ
åĽł æŃ¤
äº ®
è ¸
Ġw e
éĺ Ł
åĵĪ åĵĪ
è¿ ·
ç½ Ĺ
çļĦ æīĭ
ãĤ ¯
å® Ŀ
é ¤
é ł
åı ³
çļĦèĤī æ£Ĵ
ç¡ ¬
ç¾ ŀ
å½± åĵį
æ ¤
å¤ ı
æĹ ģ
çľ¼çĿ Ľ
åĽ ´
è¾ ĥ
Ġa t
è Ń
åıĮ æīĭ
ç« ł
ç ĵ
åĽ ¾
åĮħ æĭ¬
èĽ ĭ
ç¿ »
ä¹ĭ éĹ´
æ´ Ĺ
æ¯ Ľ
é¡ º
æĿ Ĳ
éĩĮ éĿ¢
çĨ Ł
æł ¡
åį ¡
ro m
ç»§ ç»Ń
çİ ĩ
or e
æĭ ©
Ġe in
æĢ Ģ
ï¼Į ãĢĮ
æİ ī
ä» ·
èĪ Ķ
ä» ħ
ä¾ĭ å¦Ĥ
çļĦ åľ°
è½» è½»
u f
æ ¦
æ² ī
Ġ le
æľī ä¸Ģ
é«ĺ æ½®
å½ĵ çĦ¶
çĻ ¾
æį ¢
æ¼ Ķ
åĪ Ĵ
a in
Ġ im
ä¸ĸ çķĮ
r i
åĢ ¼
çł ´
éĢī æĭ©
ç² Ĺ
è¿ĩ æĿ¥
åº Ĺ
åħ °
æĪ ı
èĩ Ģ
ãģ£ ãģ¦
è ľ
Ġ ch
å¿« æĦŁ
çļĦç ¾
Ġb y
Ġc an
åĪº æ¿Ģ
çĶ¨ åĬĽ
æ² »
åı ·
t en
éĻ ¢
åı ¤
åı ¶
o g
éĢ ı
ä¸ª äºº
æĺ ¥
åĨ °
est ion
æīĢ æľī
æ¥ ļ
æĥ³ åĪ°
çļĦèĦ ¸
æļ Ĺ
å¢ ŀ
å¹ ¿
éĨ Ĵ
æŁ ¥
Ċ ãĢĢ
ä¿¡ æģ¯
Ġ U
å¦Ĥ æŃ¤
é¢ ¤
ç© ¶
é ŀ
èĭ ı
æħ¢ æħ¢
èĭ ¦
èĢ ³
çŁ Ń
åŃ© åŃĲ
èĪĴ æľį
ãĥ ª
åº ·
ãģ Ŀ
æĭ į
åį ļ
åı Ĥ
æĹ ı
Ġ 3
æĸ¹ éĿ¢
æł¹ æį®
è ²
åĪ ĺ
ãĥ ©
åºĶ çĶ¨
æķ ¢
æİ Į
ç´ ¢
Ġ -
Ġ \
çĪ ½
Ã ¶
ç» ´
ä¼ Ĺ
æĬ ķ
Ġn ot
éª ļ
ï¼Į âĢľ
è Ĺ
Ġ O
å§Ĳ å§Ĳ
æĸ¹ å¼ı
åıĳ åĩº
åĲ »
äºĨ èµ·æĿ¥
ãĤ Ī
çĶ »
æķ £
ç»Ļ æĪĳ
Q u
p t
æľ ĭ
æĮ ĳ
æĳ ĩ
æľ Ŀ
ä¼ ¤
æµ ĭ
ä»¥ åıĬ
ä¸ °
ç» ĥ
å¥¹ ä»¬
ãģ ĳ
æĹ ħ
è ¹
å¥ Ĺ
al l
åĲ Ł
ä»» ä½ķ
é¡ ¹
åľ¨ äºĨ
åıª æľī
i k
è· ³
åİ» äºĨ
æĥħ åĨµ
åľ¨ æĪĳ
äºº ç±»
åĩ ı
æŃ ¦
è¿ °
éĿ ł
çŁ ³
åĪ Ŀ
æİ ¢
æĸĩ ç«ł
Ġw as
ï¼ģ ï¼ģ
æģ ¶
å¿ µ
f f
çĶļ èĩ³
éº »
u st
Ġ V
o st
æĸ¹ æ³ķ
Ġa b
è° ģ
åĲ ¦
p l
ä¸» äºº
ĠW h
æıĲ é«ĺ
é¢ Ħ
as s
å© Ĩ
çĹ ħ
å¼Ģ äºĨ
ãĤ ¢
i al
çľŁ æĺ¯
æľĭ åıĭ
å± ŀ
c he
ä¸Ģ å®ļ
æĦŁ åĪ°
çº §
æµ ª
æ ĩ
ä¸ ĵ
å¦ »
ä½ı äºĨ
é¤ Ĳ
è¯ ī
æĬ ĸ
Ġ J
æı ¡
å ³
åĢ ĭ
ãģĹ ãģŁ
æ² Ļ
éĻ ©
å¾Ī å¤ļ
ç² ī
æĬ ¬
Ġha ve
çİ¯ å¢ĥ
æĿ Ģ
åıª èĥ½
èī² çļĦ
åĸ Ŀ
Ġf rom
å° ĸ
æĸ ½
åı ²
æī Ń
æľ ¨
å¥½ åĥı
çĮ Ľ
èģ Ķ
ä¹ĭ åīį
è¯ ģ
çĭ Ĥ
éĴ Ł
ä½ Ľ
æ³¨ æĦı
è¿Ļ ä¸Ģ
æŃ¤ æĹ¶
æĿ¥ äºĨ
éĴ ±
ä¸Ń åĽ½
ns wer
æĿ ¿
çĪ ¶
èĤ ²
åį ĥ
é¾ Ł
è§ ¦
ou ld
æĪĳ ä¹Ł
æł· åŃĲ
è ķ
è¶ £
å¥ ĭ
éĸ ĭ
åĩĨ å¤ĩ
Ġd o
æĳ ©
è´ ¹
æļ ´
æŃ Į
è§ Ħ
u re
æ¯ «
çĸ Ĺ
éĿ¢ åīį
æĽ ²
éļ Ĳ
çļĦç¾ İ
å¯¹ äºİ
æĵ ¦
åķ ¦
åĿ ı
æ± Ł
n t
igh t
ä¸¤ äºº
é¡ ¾
æķ ı
çļĦ éĺ´
åħ į
åħ³ ç³»
Ġ j
å± Ĥ
å¿ĥ éĩĮ
å®ĥ ä»¬
æ³ ¢
ä¹ °
or m
é¡ ¿
éĻ ħ
æĦ ¿
æľī çĤ¹
å¥½ äºĨ
åıĺ å¾Ĺ
åģ ĩ
èĢģ å¸Ī
ãģ§ ãģĻ
ä¸Ĭ äºĨ
çļĦç ¬
å¡ ŀ
åĿ ļ
é ½
åº §
i er
è· ĳ
Qu estion
æŃ£ åľ¨
Ġs h
å· §
Ġw or
æĿ ¨
çļĦç² ¾
ou r
ĠA nswer
è®© å¥¹
éĻ Ĳ
çļĦè ħ
ç ĩ
è¶ ħ
Ġth is
e ar
åĬ¨ ä½ľ
çĭ ¬
Ġ ãĥ
u ch
ç £
åľ Ĩ
èį ¯
ar d
è »
åĶ Ķ
å¥³ åŃ©
æĦŁ åıĹ
æĳ Ĩ
ãģ£ ãģŁ
ç§ ģ
ç§ ¯
æı ī
éĩ İ
æ¶ ¦
âĶ ħ
éĤ£ äºĽ
æĬ ļ
è¿ĩ åİ»
èį ¡
ct ion
åĳ µ
äºĨä¸Ģ ä¸ĭ
æĪ¿ éĹ´
åī §
æĬ Ĺ
ä¸ ¾
åº ı
ç»Ī äºİ
ç³» ç»Ł
æ· ·
åľ¨ å¥¹
å»º è®®
é¥ Ń
çł Ķ
èı ľ
ç§ Ģ
ou t
æ´ ģ
Ġm e
i z
çī Ľ
åį ĩ
ç¦ ģ
æİ§ åĪ¶
æĽ ¾
åħ¶ ä¸Ń
éĩ ĩ
çļĦ å£°éŁ³
é ¬
å¤Ħ çĲĨ
ä¸į çŁ¥
é¾Ł å¤´
åĥı æĺ¯
ä¹³ æĪ¿
å¥ ´
å¸Į æľĽ
Ã¼ r
åĸ ĺ
è£ Ļ
p er
æīĭ æĮĩ
i b
åģ¥ åº·
æĸĩ åĮĸ
éĥ¨ åĪĨ
ä¸Ģ éĺµ
æľį åĬ¡
èİ ·
éĺ ²
äº Ĵ
é¢Ĩ åŁŁ
æ¥ ¼
a ge
æĪĳ å°±
ç« ¯
åĩł ä¸ª
æĿ Ł
æŀ Ĳ
id e
en s
è®¤ ä¸º
æ¯ ķ
om e
o k
åħ «
ä» ĭ
åĸ Ķ
æĪĳ æĥ³
è®¸ å¤ļ
æ· ¡
åĳĬ è¯ī
ç¯ ĩ
æĽ´ å¤ļ
è¯ Ĺ
åĸ ·
Ġ ver
æĪĸ èĢħ
è®¡ ç®Ĺ
åĽŀ çŃĶ
ãĤ ģ
ä¸ ¥
Ġs o
ä¸º ä»Ģä¹Ī
ĠS t
èĻ ĳ
æĪĲ äºĨ
ãĤ Ħ
è¢ ĭ
ãĢĤ ãĢĤ
æ ¾
éģ İ
éĹ »
å®ī åħ¨
äº« åıĹ
ä¸Ģ å£°
åºĬ ä¸Ĭ
ä¼ ĳ
èµ µ
å¦ ĩ
åıĳ çĶŁ
åŃ¦ çĶŁ
æŀ Ħ
åª ļ
æĪĲ ä¸º
Ġp l
æĿ ĥ
çļĦè¡ ¨
ic al
åĲ¬ åĪ°
è¾ ĵ
ãģª ãģĦ
éģ ¿
éĩ Ĭ
åħ³ äºİ
č ĊãĢĢ
ç¾ ¤
èµ· äºĨ
r u
ãģ ©
çĸ ĳ
æ² ¹
æĮ ¥
å© ļ
å¸¦ çĿĢ
è ©
` `
å¯ Į
å§ ¿
äºĨ è§£
ĠI n
ä½ľ ä¸º
ç ¶
åº ľ
Ġu s
ä¿Ŀ æĬ¤
æĻ ®
n e
å° Ŀ
æ´ ŀ
å¤ ¹
æ´» åĬ¨
æĺ¯ ä¸Ģä¸ª
ä¸į åģľ
æ¡ Į
åĪļ æīį
åĿ Ĺ
ç¦ ı
èŃ ¦
Ġal l
æĿ¥ è¶Ĭ
åĪĨ æŀĲ
åĵ ¼
1 2
ä» į
åħ »
ãģ Ī
ä½ Ļ
éĸ ĵ
æĦı è¯Ĩ
åĳ »
ç§ »
çļ ĩ
çĶŁ æĪĲ
æŁ Ĳ
ç ·
åĺ Ľ
åŃĲ çļĦ
æľº åĻ¨
ãĥ³ ãĥ
ä¼ Ĭ
T he
ãĥ »
æģ Ĳ
ich t
Ġ |
è¯Ń è¨Ģ
åĳ» åĲŁ
ä¸Ģ åıª
èĢģ å©Ĩ
éĵ ģ
å¿ Ĺ
åģ ·
éĩĮ çļĦ
Ġw ill
æį ı
çı Ń
å¹ ¸
èĪ ŀ
ent s
åĲ Ĳ
æ¢ ħ
ç Ĵ
æ¦ Ĥ
Ġyou r
èµ ¶
è´ ´
æī ¿
en ce
ä» ¿
å½ ©
ä¿Ŀ æĮģ
éľ² åĩº
å¨ ģ
è¶Ĭ æĿ¥è¶Ĭ
ç´§ ç´§
èī ¾
å¾® å¾®
ãĢ Ĳ
åħ´ å¥ĭ
âĢ ķ
è¿ ½
åĩº çİ°
åħ¨ èº«
ä¹ĭ ä¸Ģ
æĶ »
å¯ »
ãĢ ĳ
æĦı æĢĿ
è¯ Ħ
æ¯į äº²
çļĦ æĦŁè§ī
æķ´ ä¸ª
ç«Ł çĦ¶
çļĦç Ī
ãĤ ¿
åĨį æ¬¡
è¿Ľ åİ»
ãģ ¡
çķ ¥
ä½ ³
å§ ¨
ä»¥ åĲİ
æĬ½ æıĴ
å¼ ¹
åĴ ¬
ä¸» è¦ģ
ä¸ĭ åİ»
è¢ ľ
åıĮ èħ¿
Ġt e
åį °
as t
éĹ Ń
çļĦè Ī
A I
äº ī
åħ Ń
ãĤ ·
åį «
é» ĺ
è¯´ çĿĢ
c c
çº ª
Ġr es
g h
d u
æĭ ħ
åĩł ä¹İ
èĢģ åħ¬
å¾Ī å¿«
åĪļ åĪļ
ç»ĵ æŀľ
ç¤¾ ä¼ļ
r ou
å¿į ä¸įä½ı
an g
éĢ Ĳ
éŀ ĭ
ä»» åĬ¡
d er
è´ Ł
åľ¨ ä¸Ģèµ·
å° ¼
å¯ Ł
Ġ 5
w e
èī ³
æ¸¸ æĪı
å² ģ
å¿ ĺ
å¯¹ æĸ¹
f er
åī ¯
ãĢ İ
åľ¨ åľ°
Ġu n
çł ģ
åĺ ¿
çĶµ å½±
ãģ ¤
èĤ ¯
æ´ Ľ
Ġ en
çŃ ĸ
å³ °
çļĦè ´
æĿ ¯
ãĢ ı
ä¸į åĪ°
çĽ ĸ
å¿ĥ ä¸Ń
ç§ ĺ
çľ¼ åīį
ä¸į å¾Ĺ
é² ľ
äºº ä»¬
åħ¶ å®ŀ
åī ĳ
åĨħ å®¹
å¾Ĺ åĪ°
å¥ Ī
åįģ åĪĨ
è¡£ æľį
èĥ ¡
æĭ ¥
éģ ĩ
åħ µ
an s
èī ¯
i p
ĠT h
ãģĻ ãĤĭ
ãģĭ ãĤī
æĸĩ æľ¬
ç¼ ĸ
èĤ ¤
æľ ĥ
åĽ Ń
ãģ Ľ
çī Į
çŀ ¬
è¿Ľ äºĨ
è ŀ
Ġm it
ic e
Ġ 4
ãĥ ¬
è¿ İ
åıį åºĶ
åķ ª
æĿ¥ è¯´
å¤§ å®¶
Ġm an
é ±
ä¸ĭ çļĦ
e ct
ç¤ ¼
Ġcom p
æİ¥ çĿĢ
ä» ĺ
åı Ķ
å¾ ĭ
æĿ Ĥ
ä¸ĭ éĿ¢
æĪĳ ä¸į
è¿Ĳ åĬ¨
æĺ¯ åľ¨
æī ĺ
ä¾ §
Ġthe ir
ç¼ ©
åıª è¦ģ
éĢ Ģ
ç§ ¦
ä¸į äºĨ
èĴ Ĥ
é¬ ¼
èµ Ľ
è® ²
ãģĵ ãģ¨
å± ĭ
èº º
æŁ ĵ
f orm
åĲĦ ç§į
æĻ ĥ
é± ¼
èĮ İ
ul t
æµ ĵ
ç¨ į
èĲ ¥
è¿Ľ åħ¥
çļĦç º
é ¹
å°ı å§Ĳ
ä¸ ĥ
æĪĳ æĺ¯
äº ¬
a p
æı ı
çĸ ¼
å° ¿
çļĦ å¥³
ãĤ ı
äº§ çĶŁ
Ġa d
çī Ļ
Ġp r
Ġz u
åº Ń
å°ı ç©´
æľº ä¼ļ
è® ¨
å± Ģ
èľ ľ
Ġ 20
p r
ç§ ĭ
éĻ Ĩ
ç®¡ çĲĨ
h er
åľ Ł
Ġ $
åĺ´ éĩĮ
éĹ ª
o c
a re
Ġ er
éĽ ·
åĲ Ľ
ç´ «
è® Ń
æĭ Ľ
æķ ĳ
Ġd en
åĶ Ĳ
æĸ Ĺ
åĨħ è£¤
åİ ħ
æ² ³
è£ ¸
èĥ½ åĬĽ
on e
åľ £
åĬ¨ çĿĢ
éª ¨
æĴ ŀ
a us
è§£ åĨ³
åŃĺ åľ¨
çļĦåľ° æĸ¹
èĵ Ŀ
çĶ± äºİ
th er
çłĶ ç©¶
e it
æĪĳä»¬ çļĦ
è®¾ è®¡
æ ©
Ġd es
è¿ĩ ç¨ĭ
ä» Ļ
ç¬ĳ çĿĢ
å¿ ½
èİ «
ç²¾ æ¶²
èĤ ¥
a ck
æī İ
éĻ į
~ ~
æ³ Ľ
æ¯Ķ è¾ĥ
äº§ åĵģ
èį ī
æĽ´ å¥½
æĹ ¢
çĲ ³
ä¹ Ŀ
æł ĳ
ä»¿ ä½Ľ
èĻ İ
è´ Ŀ
Ġg o
Ġthe y
è ³
l ich
å¼ ±
æł¹ æľ¬
äºĨ åĩºæĿ¥
çĥĪ çļĦ
èı ²
çļĦ æł·åŃĲ
éļ Ķ
æ² Ĵ
æļ ĸ
è¯ »
çļĦèĥ ¸
å¾ ģ
æĻ ĵ
ä¸Ģ ç§į
çĿĢ å¥¹
at ed
èĦ¸ ä¸Ĭ
åĵ Ń
èī º
æ± ī
é¢ ľ
æµ ĳ
ç ĺ
å® Ī
è®¡ åĪĴ
èµ ¤
äºº å®¶
æµ ´
åŁİ å¸Ĥ
u b
åĿĲ åľ¨
i re
åĦ¿ åŃĲ
æĢ Ĵ
è´ µ
éĶ Ģ
00 0
éĻ¤ äºĨ
x t
åĲ ŀ
çļĦ äºĭ
å¥½ å¥½
Ġm ore
a ct
åį Ī
å¦ Ļ
çĶ ľ
éĵ ¶
èħ ¹
æ»¡ è¶³
1 1
æ¬ £
ä¸Ĭ éĿ¢
ï½ŀ ï½ŀ
å® ĩ
ol l
å¸ Ŀ
é¥ ®
éĽ Ļ
åıĺ åĮĸ
ãĤ «
Ġal s
am e
æľª æĿ¥
åĪ Ģ
äºİ æĺ¯
çļĦ äºĭæĥħ
æģ ©
f t
çĶµ è¯Ŀ
éĢļ å¸¸
ar y
åĩı å°ĳ
åĬ ª
in t
çĪ ·
å¤ļ å°ĳ
ĠWh at
å±ħ çĦ¶
åı¯ä»¥ å¸®åĬ©
å¹¶ ä¸Ķ
æľī ä»Ģä¹Ī
çĿĢ æĪĳ
æ» ´
èĢĥ èĻĳ
ä¸į å¥½
a v
Ġs ch
è£ ¡
å°± åľ¨
çĦ¶ èĢĮ
ä¹³ å¤´
æ´ ¾
é¼ ĵ
ç»Ļ ä½ł
åĩ Į
é¡ »
æĬ ĺ
ab le
ä¼ Ļ
æĬ µ
å° į
é¢¤ æĬĸ
é¼ »
Ġb ut
çľĭ çľĭ
çĶ °
ç¬ ¦
ä¸Ģ èĤ¡
1 5
it ion
åľ Ī
Ġp er
åĢ ĳ
Ġh as
ãģ ¿
s ch
èĹ ı
åĳ¼ åĲ¸
æĬĬ å¥¹
on g
æĹ §
çľ¼ ç¥ŀ
u e
ä¸ ´
èģ Ĭ
å£ ģ
il d
å© ·
ãĥ ķ
æ³ ª
o ok
ic k
æĺ¯ä¸Ģ ç§į
éľ ĩ
æıĴ åħ¥
Ġin c
éĥ½ ä¸į
éĤ£ ç§į
åĸ Ħ
æĮ ¤
ç¬¬ äºĮ
åĩº åİ»
æ´ ĭ
äºĨ åĩł
å¦¹ å¦¹
åŃ £
æ± Ĺ
æĴ ĳ
éĤ£ éĩĮ
éŁ³ ä¹Ĳ
å ´
çļĦç²¾ æ¶²
æĭ Ķ
è Ķ
æĺİ çĻ½
æ¬ ¾
ç£ ¨
çĶ¨ æĪ·
åĬĽ çļĦ
è¿Ļæł· çļĦ
åī ©
1 8
m er
æķĻ èĤ²
æĺ¯ åĲ¦
çī¹ åĪ«
å°ı æĺİ
Ġc l
çŀ¬ éĹ´
è¿Ļ æ¬¡
èŀ į
çĬ ¯
ç¢ °
çĦ ¡
d e
ä¸Ģ ä¼ļ
ãģ Ķ
è´ §
a c
ç» ĩ
ä½į ç½®
é¢ ĳ
çĲĨ è§£
è¯´ è¯Ŀ
an n
åĸ Ĭ
æŁ ³
æĥ ĳ
ç½ ©
æĪĳ è¦ģ
é¢ Ĺ
ç¬¬ ä¸Ģæ¬¡
éĤ Ħ
o b
Ġv on
ä¼ ¦
æ¯ Ĵ
åŃĲ å®«
è¯ ±
im e
Ġis t
al ly
ç¬¬ ä¸Ģ
èĪĮ å¤´
ä¹ĭ ä¸Ń
åĪ© çĶ¨
åħħ æ»¡
ä¸į è¡Į
çļĦè Ĭ
r y
ãĤ ³
ä¼ ģ
ak e
åĵ¥ åĵ¥
è» Ĭ
åĬ ²
åİĨ åı²
ä¸ĭ äºĨ
Ġon e
å· ŀ
èģ Į
æī ¶
ãĤ ¸
ãĤ °
å®Į æĪĲ
æĿ °
Ġa uf
èĢ Ĳ
æķı æĦŁ
çľĭ è§ģ
ä¸Ĭ åİ»
èĩ Ĥ
èİ İ
çĹ Ĵ
ãģĦ ãĤĭ
éĢ ĥ
èĻ ļ
æĸ ¼
è´ £
æĺ ¨
æ¬ §
åĩ Ģ
éĽ Ħ
è¦ ĭ
çĽ ĺ
çľ ī
å½ ķ
èĤ Į
æĶ¯ æĮģ
as e
ation s
çĮ «
ä¼ ´
ä»¥ ä¸º
i a
ãĥ Ĺ
éº ½
h n
' t
Ġcon t
Ġf Ã¼r
ç¦» å¼Ģ
è®© ä»ĸ
å® ģ
çļĦ æ·«
è¿ĩ äºĨ
çļĦ æĥħ
åĿ ĩ
æ¸ħ æ¥ļ
å¸Ĥ åľº
ä¸į åı¯
è¯ ¾
u nd
è¿Ļ æĹ¶
çļĦè ½
Ã Ł
v el
ä¸ĭ ä½ĵ
l l
çĽ ĳ
éĹ® éģĵ
å®ŀ çİ°
Ġg e
è®© äºº
åı¯èĥ½ ä¼ļ
or d
an ce
Ġwh ich
ï¼ī ï¼Į
å° ¾
éĶ ®
ç» ¿
æĸ° çļĦ
æĮ Ĥ
è¿ĺ åľ¨
åģ ı
åŃ¦ æł¡
çķ ª
ig n
çĽ® æłĩ
æĺ¯ ä»Ģä¹Ī
Ġin t
åı£ æ°Ķ
æĽ´å¥½ åľ°
åŃ Ļ
çľĭ äºĨ
Ġ **
å¤§ éĩı
éĢ ²
éĢ ¼
å¯¼ èĩ´
Ġ âĢ
ç®Ģ åįķ
åİŁ æľ¬
çļĦèĦ ļ
åĭ ķ
ä¿ ĥ
ou s
å®ļ çļĦ
g en
ãĤ µ
åį ł
æĤ¨ çļĦ
ç¡® ä¿Ŀ
ar k
i el
æĺ¯ æĪĳ
èķ ¾
èº« åŃĲ
æŀ ¶
æĻļ ä¸Ĭ
çĪ Ĩ
æĺ¯ ä¸įæĺ¯
éŃ Ĥ
å°± ä¼ļ
èº ¯
æĪĲ åĬŁ
± ä¹Ĳ
æµ İ
Ġab out
éº ¼
Ġs p
å¥ ¥
æ¯ķ ç«Ł
æīĭ æľº
è¿ «
æĽ´ æĺ¯
èĮ ¶
å¹¶ æ²¡æľī
å£ ®
å¤§ èħ¿
ç«ĭ åĪ»
è®© ä½ł
ç©¿ çĿĢ
çĭł çĭł
âĶ Ģ
ãĥ Ń
æīį èĥ½
o se
åĪĨ éĴŁ
ch en
ä¸ ģ
å°± ç®Ĺ
åĩº ä¸Ģ
è¡¨ ç¤º
Ġst ud
å¯¹ çĿĢ
æĮ £
åĳľ åĳľ
éĢĲ æ¸Ĳ
æľĢ è¿ĳ
éĢŁ åº¦
åł ´
ĸ åŃĲ
åħ ½
çı ł
ä» Ķ
ç³ ĸ
åł Ĥ
çİ ²
åĮ» çĸĹ
å§ ĳ
Ġ +
æĥ ľ
it e
éķ ľ
éľĢ æ±Ĥ
æ¶ Į
ãģĦ ãģŁ
çº ³
Ġa r
æķħ äºĭ
è¿ĺ æ²¡
æĪĳ è¯´
å§ Ķ
å®¹ æĺĵ
çº ¯
Ġ qu
å¹´ è½»
æĿ ĳ
çŃī çŃī
æģ ĭ
æ± ģ
èĢĮ æĺ¯
çı ¾
å½ »
ä¹ ĸ
åĭ ¾
å¡ Ķ
æĶ¿ åºľ
i le
è£ ¹
çľ ģ
è ¤
çľĭ æĿ¥
åħ ¸
æ³ Ħ
æī¾ åĪ°
å¦ ®
é¦ Ĩ
ä¸Ģ æŃ¥
çļĦè¡ £
çĤ¹ å¤´
æĶ¾ åľ¨
åħ¨ éĥ¨
èª ª
åħ· ä½ĵ
è½ ®
æ» ļ
åĳ³ éģĵ
çĸ ¯
æıı è¿°
éħ ¸
Ġo ut
2 00
åİŁ æĿ¥
å¢ŀ åĬł
Ġd is
ä¹Ł æľī
Ġ Z
çļĦè £
èµ° äºĨ
å² Ľ
åĪ° åºķ
ä¸ī ä¸ª
å®¢ æĪ·
æĽ ¿
Ġd as
ãĢĤ ãĢĮ
åĽŀ æĿ¥
èĸ ĩ
æİ¥ åıĹ
å¦» åŃĲ
çļĦè ·
å¹¶ ä¸į
æ£ Ģ
çļĦç ¥
åĬª åĬĽ
çİ¯ ä¿Ŀ
è¯ ¯
a il
çĽ´ åĪ°
æ° ¸
ik e
æĳ Ħ
ä¼ °
åį ĸ
3 0
èĥ ľ
è¯ º
æĻ ´
æĪĳ ä¼ļ
éĺ´ éģĵ
é¢ Ŀ
çļĦç¬ ĳ
åľ° æĸ¹
ra m
èĩ Ń
éł Ń
éª ĳ
æ¡ ĥ
è¯´ å®Į
æĹ¥ æľ¬
æĪ ´
æĢ§ çļĦ
éĥ½ ä¼ļ
åı¯ çĪ±
è´ Ń
çļĦèħ °
æŃ¤ åĪ»
ç³ Ĭ
çļĦç ©
ãĢĤ âĢľ
æķ° åŃĹ
å¿ĥ çļĦ
Ġwor k
åĨ³ å®ļ
åħ Ħ
èĸ Ħ
å¿« éĢŁ
èĮ ĥ
Ġa m
æĭ Ĵ
åĬĽ éĩı
ç¾İ åĽ½
Ġa pp
æ® ĭ
å° Ĭ
å¹ ķ
çĽ® åħī
æ §
èĤ¯ å®ļ
åĩ ī
åħ· æľī
æľī äºº
å°± åĥı
åİ ļ
è° Ī
é½ Ĳ
å° ¤
å¥³ åĦ¿
æĲ Ń
æ¯ı ä¸ª
çĪ¸ çĪ¸
å½ Ĵ
æŁĶ è½¯
å®ŀ åľ¨
éĻ ·
æİ ª
ä¸į çĶ±
-- --
èİ· å¾Ĺ
åĲ ´
çī Ī
ä»¥ åīį
çļĦ å¿ĥ
æīĵ å¼Ģ
éĤ£ æł·
åĮ» çĶŁ
ç» į
éĢĤ åĲĪ
èĵ ī
5 0
è® ĵ
å¥ ¸
a ce
ç¼ĵ ç¼ĵ
è· ª
è¶ ´
éģ į
ä¼ ¯
ä¸Ģä¸ª äºº
âĢ Ļ
ä½ľ çĶ¨
éĻ Ħ
æ£ ®
æ¼ Ĥ
åĬŀ æ³ķ
åľ¨ è¿Ļ
ä¸į æķ¢
ç¬ Ķ
å¿ħ é¡»
å¹ »
åĽ½ å®¶
ä¸Ŀ è¢ľ
å° ļ
ï¼ İ
åĽ °
ä¾ µ
ç¶ ĵ
Ġ i
çĬ ¹
è¿ĺ è¦ģ
ä¹Ł æ²¡æľī
çļĦç ģ
çĽ¸ ä¿¡
å¾ Ĳ
å± Ħ
èµ· èº«
ĠS ch
ãĤ Ń
e p
ä¹Ł æ²¡
å¨ ±ä¹Ĳ
èĤ ©
çģ ¯
çļĦè¡¨ æĥħ
åİ ī
åĳ Ĩ
æ¼ «
åĩº çļĦ
ou nt
at er
é©¬ ä¸Ĭ
å¤§ åŃ¦
éķ¿ çļĦ
Ġ 6
çĶ¨ äºİ
èĤ ı
ç» ª
å½ ¼
Ġ Y
çĪ ¬
ç» ľ
æ± ¡
éŁ ©
æ² Ł
ä¸įåĲĮ çļĦ
ion s
ä¼ĳ æģ¯
å® Ĺ
çĤ º
ä¸į ä»ħ
ä½ĵ åĨħ
äºĨ ä¸Ģä¸ª
åı ¹
å¦Ĥ åĲĮ
Ġp art
æŃ¤ å¤ĸ
çļĦç Ļ½
é»ĳ èī²
ç ¹
è¦ģ æ±Ĥ
ä»ĸä»¬ çļĦ
è Ŀ
èº« è¾¹
Ġs pe
k t
âĢķ âĢķ
åŃĲ éĩĮ
æĲ ŀ
å¾Ī å¥½
åĺ´ åĶĩ
æī ¯
åı¦ ä¸Ģ
y th
æĥ³ æ³ķ
çĥ Ł
åĺ´ å·´
æĪĳ åĴĮ
åı¥ è¯Ŀ
çļĦç Ĺ
ä¸Ĭ ä¸ĭ
èĩª åĬ¨
ç¾ ½
Ġ ãĢĮ
in k
çĽ Ľ
éĽª çĻ½
el y
åĭ ĩ
åĬ¨ çī©
å¼ ĥ
åĲ ĵ
å¥ ĸ
åĲ ¹
er n
åİŁ åĽł
æĮģ ç»Ń
çļĦè¡ Į
æĬ¬ èµ·
è§£ éĩĬ
ä¸į éĶĻ
åį ı
æ´ ²
å® £
çĥ §
åĨ Ĵ
Ġu p
Ġin ter
å¤§ äºº
äºĨ ä¸ĭæĿ¥
æĳ© æĵ¦
ãĤ £
åĺ »
æħ §
ç»ı æµİ
åĵª éĩĮ
l ic
åĲİ éĿ¢
å¿ Ĩ
æĺ¯ ä¸ª
åħ³ éĶ®
p ort
ç¡® å®ļ
æĹł æ¯Ķ
éģ¿ åħį
èĢ »
åĲ ®
è¦ģ æĺ¯
çļĦ å¿«æĦŁ
p h
èµ ı
åıĹ åĪ°
æ¸ ¯
a h
Ġ âĢľ
ç§ĳ åŃ¦
é» ŀ
ç¼ ł
er m
åĶ ¯
ç¾İ ä¸½
æŀ ª
è ¼
ãĥĥ ãĥĪ
å¯ Ĵ
) .
åĽ º
é¦ĸ åħĪ
æľ µ
åĽŀ å®¶
èĤ ļ
æľ¬ æĿ¥
éĶ ģ
ä»ĭ ç»į
i ed
Ġe v
æĬļ æĳ¸
æ·± å¤Ħ
æľī çĿĢ
çļĦ çĶ·äºº
åį ±
çĽ¸ åħ³
æĤ ¦
ç¨ ³
å° ģ
ĠS ie
ç§ĳ æĬĢ
ä¸į å°ĳ
å§¿ åĬ¿
n ow
Ġp re
Ġp e
åıĺ æĪĲ
1 6
æ¸© æŁĶ
å¦ ĸ
ä¿ ©
æī £
è¿Ľ æĿ¥
ç¼ º
ç¬ĳ éģĵ
âĢĿ ï¼Į
åĪĨ ç±»
éĤ£ ä¸Ģ
Ġs ich
æľĢ ç»Ī
åĪ ¤
ä¸į çĶ¨
åĬł ä¸Ĭ
æ¤ ħ
ç¼ Ŀ
ãĥ Ĩ
å¢ Ļ
éĺ »
Ġn o
ä¼ Ł
Ġ if
æĦŁè§ī åĪ°
æĥ ¯
æ¤ į
åı¥ åŃĲ
çª Ĺ
ing s
ä¸į èµ·
Ġwh o
çĥ ¦
æĬ ¹
e w
æ²¡ æĥ³åĪ°
i en
Ġo ther
å½ĵ æĹ¶
æ¹ ĸ
éĥ İ
çļĦç¥ ŀ
ãĤĪ ãģĨ
å°ı æĹ¶
Ġd em
ç»ĵ æĿŁ
ãĥ ¡
èİ ¹
çº ¤
å¤ĸ éĿ¢
.... ..
ç» ķ
æĽ ¼
äºĨ æĪĳ
æĺİ æĺ¾
æĹģ è¾¹
åħĪ çĶŁ
å½» åºķ
äºĨ åĲ§
çĽ ¯
åĸ ī
ãģĦ ãģ¾ãģĻ
ĠS e
ĠR e
ä½ĵ éªĮ
èħ »
èĲ §
æĬĵ ä½ı
äºĨ ä¸ª
or s
d en
çļĦç Ł
Ġy ear
ä¸į æĥ³
è· Ŀ
ä¸ĭ èº«
ç´ ¯
çļĦ æĢ§
åĩ Ŀ
å© ī
æĿ¥ åĪ°
o ol
å· Ŀ
ä¼ģ ä¸ļ
æĻ ¶
è± Ĩ
ä» °
éķ ĩ
å·¥ åħ·
on d
çļĦçĪ ±
è¾ ±
c es
çĽ Ĭ
ä¸» é¢ĺ
Ġs ome
æĪĳ åľ¨
1 4
éĩį æĸ°
åĽŀ åĪ°
åĲ ī
or y
åİ ¿
æµ ®
ä¼¸ åĩº
ä¸Ģ ç¯ĩ
æ¨¡ åŀĭ
åĢ Ł
æĥ ł
å¤ª éĺ³
åį³ ä½¿
å¥ĩ æĢª
å¦ ³
æĬķ èµĦ
è´ ±
Ġ es
re at
çĶŁ åĳ½
çļĦ å¥³äºº
ç»ı éªĮ
æī ¬
æĪĳä»¬ åı¯ä»¥
ç¡® å®ŀ
çļĦ éĹ®é¢ĺ
Ġs c
æ¼Ĥ äº®
æĭ¥ æľī
åĩ ¯
é¡¿ æĹ¶
æł ¸
æģ ¢
ĠI t
è®Ń ç»ĥ
ä»İ èĢĮ
æħ °
åĲį åŃĹ
ï¼ ĳ
a u
ä¼ł æĿ¥
re e
å°ĳ å¹´
å¸¦ æĿ¥
èº« åĲİ
æ¨ ±
Ġth an
åĬł åħ¥
r en
çĶ ²
è¯´ çļĦ
å¿½ çĦ¶
æ¯Ķ å¦Ĥ
éĿ¢ å¯¹
ï¼ī ãĢĤ
çĪ¶ äº²
âĢ ĺ
åĬŁ èĥ½
ãĤ ¦
Ġw ould
è¡ Ĺ
â Ŀ
æĻ ķ
er v
ä½¿ å¾Ĺ
åĳµ åĳµ
Ġ1 9
å»º ç«ĭ
æĺ ı
ä»£ è¡¨
æ Ĩ
ç¨ĭ åºı
æī ĳ
ä¼¼ çļĦ
åŁº æľ¬
âĶħ âĶħ
Ġt ra
æĴ Ń
åıª è§ģ
Ġb et
çľĭ èµ·æĿ¥
n g
çĻ »
æĭ ¼
ä¼ ı
r it
å¼Ģ åıĳ
åĶ ®
éħ ¥
çº ¸
è¿ ¹
çļĦ æĹ¶éĹ´
æ» ĭ
åĲĮ åŃ¦
è´ ¥
çİ Ľ
å¥¶ åŃĲ
æ± ½
c om
is e
çĿĢ ä¸Ģ
p le
çĭ ¼
éļı åĲİ
Ġals o
æľ ±
ç¿ ĺ
å®¶ åºŃ
å¯¹ è¯Ŀ
ay s
æĢ ľ
æĩ Ĥ
èģ ļ
çļĦå°ı ç©´
å°Ŀ è¯ķ
ï¼ Ĳ
er t
éĵ ¾
Ġwh at
Ġt ime
å¯ ¸
åħ´ è¶£
æĥ³ çĿĢ
çļĦ ä¸ľè¥¿
ãģ ĺ
`` `
Ġw ir
ä¸ Ī
æī §
æ¥ Ń
åįļ å£«
æ¸Ĳ æ¸Ĳ
æĦ¿ æĦı
Ġ 0
åĩ ¤
Ġthe m
ä¸» åĬ¨
æŀľ çĦ¶
è£ Ĥ
å¨ ħ
æĹł è®º
è² Į
å¥³ æĢ§
èĴ Ļ
ä¸ ¹
æ° Ĺ
èĬ ³
æĸ¹ åĲĳ
å¹ ½
âĿ ¤
ä»¥ ä¸Ĭ
å°± è¦ģ
op le
æ¬² æľĽ
Ġth ere
æģ¢ å¤į
åľ¨åľ° ä¸Ĭ
éĺ³ åħ·
ä¹Ł ä¼ļ
åı£ ä¸Ń
éļ¾ éģĵ
å° ĩ
å·¦ åı³
åķĨ åĵģ
ç» ³
ç½ ª
ä¸Ģ çľ¼
çĻ½ èī²
éĴ Ī
â Ļ
æķĪ æŀľ
1 3
åħ¨ çĲĥ
é¥ °
Ġ 8
å§ ¬
Ġh ow
éĺ´ èĮİ
æĲ Ĥ
åıį èĢĮ
è¯ ĳ
èĥ Ģ
èĪ į
æŃ» äºĨ
âĢĿ ãĢĤ
çĶ¨ æīĭ
æĪĳ çŁ¥éģĵ
å ļ
Ġn um
èį Ĳ
is h
éĻ ª
çĳ ¶
s s
èµĦ æºĲ
åĨ ľ
åĪ¶ ä½ľ
åŀ Ĥ
çĲ ´
çİ© å¼Ħ
åģ ¶
æĢĿ èĢĥ
äº¤ éĢļ
ä¸ĭ ä¸Ģ
åĺ ī
èĦ ı
ç» ĳ
æĶ¹ åıĺ
æģ ¨
çļĦ å½±åĵį
çļĦç ĥ
æµĳ èº«
ãĥ ŀ
åĴ ķ
åĽŀ åİ»
å±ģ çľ¼
çļĦèĪ Į
ä¸į åĨį
æ¯ı å¤©
åº ĵ
on s
æ² Ī
çļĦ æ°´
ç«Ļ åľ¨
çľŁ æŃ£
ä½ł æĺ¯
éĥ½ æ²¡æľī
åĳ¨ åĽ´
on t
ç»Ħ ç»ĩ
ä¹ĭ ä¸ĭ
æ³ ¡
at es
ãĥ Ĳ
w o
æ¨¡ æł·
ou nd
åĻ ¢
æľ «
çļ ±
è¿ ª
åı¦ å¤ĸ
åĲ ¯
éĨ ī
éģ Ĺ
ĠP ro
æİ¨ èįĲ
æĮ£ æīİ
åĪ« äºº
ãĤ· ãĥ
æĲ ĵ
m en
Ġa us
åĵ İ
çĤ ¼
åĩ ¡
é¥ ±
ç§ Ĵ
æķĪ çİĩ
æ¸ ´
Â· Â·
çķ ¶
ãģ¾ ãģĹãģŁ
è¡ ¥
åĬ ³
å¥³ åıĭ
Ġne ed
ç»ı è¿ĩ
Ġ1 0
Ġcom m
äº ¦
ç¥ ¨
åŃ Ķ
éĤ ª
è´¨ éĩı
ãĤ į
æĺ¾ å¾Ĺ
çĶŁ çī©
ãģ§ ãģį
çļĦèĬ ±
çļĦè ĥ½
ãĤ ª
ä¸Ģ ä¸Ŀ
è¯ ¢
çļĦ æ°Ķ
éĢ Ĺ
å§ Ĩ
èħ Ķ
æħ ķ
éĥ½ æľī
ãģĤ ãĤĭ
è° ·
Ġl ike
åħ ļ
æĤ Ħ
Ġwh en
ãĥĥ ãĤ¯
b e
è°¢ è°¢
ä¹Ł åı¯ä»¥
åľ° åĮº
åĭ Ĵ
Ġe ine
æħ Į
å®ŀ éĻħ
Ġit s
çļĦ é«ĺ
åĬ ±
åį ·
å°ı çļĦ
ä¸į å¤ļ
ãģķ ãĤĮ
è¯´ ä¸į
å® ĭ
æĿĲ æĸĻ
Ġn icht
ç¾İ çļĦ
å¥ ı
ä¼ł ç»Ł
æĢ» ä¹ĭ
æĢ ¡
åĲĮ æł·
ä¸Ģ æĬĬ
çĽ Ī
å¤§ æ¦Ĥ
ãģ® ãģ§
èĲ ¨
Ġ 7
éļ¾ ä»¥
æĢİä¹Ī æł·
ĠU n
Ġt r
1 7
ãĤ º
$ $
åį´ æĺ¯
æ²» çĸĹ
èĢĮ å·²
æĹ© å°±
èµ° åĪ°
éģ Ń
äºĮ åįģ
æĹ© å·²
Ġa cc
åľ¨ ä»ĸ
å» ¶
å°ı å¿ĥ
ä¸Ģ åĪĩ
ç»Ŀ å¯¹
ä½ľ åĵģ
ç¾İ å¥³
é² ģ
ãģ °
æĬ± çĿĢ
è¿ĺ ä¸į
æĤ ł
ä¸Ģ æ®µ
åŃĲ ä¸Ĭ
åĻ Ĺ
ãģĦ ãģ¦
èĨ Ģ
æĶ¾ æĿ¾
è¿ ħ
è± ª
å®¶ ä¼Ļ
æ² ¾
ç¢ İ
æĺ ł
Ġ ro
å°± è¿Ļæł·
ou gh
ç½ĳ ç»ľ
çļĦç Ĳ
Ġpe ople
çĦ ¦
u al
Ġh is
at ing
è¡¨ çİ°
è¡¨ è¾¾
æĮĳ æĪĺ
çļĦ åıĮ
åĴ ĸ
æķ ¬
ãĤĬ ãģ¾ãģĻ
èİ ±
é«ĺ åħ´
å¤ ®
ä¸Ģ ä½į
åĲ¸ å¼ķ
æĸ¹ æ¡Ī
ãĥ ĩ
èħ ¾
èµ¶ ç´§
é¢ Ī
é£Ł çī©
y st
å¼ł å¼Ģ
åĩ ½
o od
æ¯ı æ¬¡
æĹ ĭ
å±ŀ äºİ
ç® ±
åĮħ è£¹
æ± ł
if ic
Ġo ver
è¡Į ä¸º
çļĦè ľ
éģ ®
ç®Ĺ æ³ķ
æ·« èį¡
ä»¤ äºº
Ġw ere
èº ²
äº Ī
çı į
æĮĩ æĮ¥
. "
äºĨ åĲĹ
åıĤ åĬł
ãĥ ī
j ect
åĩĨ ç¡®
ãĥ ģ
y s
è¡ ¡
æŃ£ å¸¸
çŃ ĳ
éŃĶ æ³ķ
çĹĽ èĭ¦
æĬĬ æĪĳ
åľ¨ åºĬä¸Ĭ
å¼ ¯
çĥ «
é£İ éĻ©
æİ¥ ä¸ĭæĿ¥
è¾ Ī
ä½ł åı¯ä»¥
ä¸Ģ èĦ¸
ãģ« ãģª
å® ½
æĢ§ æĦŁ
æ»¡ æĦı
Ġu se
e b
æ³ ½
å¹ ħ
çĸ¯ çĭĤ
çĥ ¤
è© ±
é¸ Ł
ä¹ł æĥ¯
éĥ½ åľ¨
ä¸ ¦
Ġg et
ä¸Ģ æĿ¡
è¯ ļ
èĥ ¯
æ¹ ¾
l es
ir st
æĹħ æ¸¸
Ġne w
é¢ Ĭ
ĠC h
ä¸Ģåıª æīĭ
åĭ ĥ
çĶ ĺ
å¿ĥ çĲĨ
åĺ¿ åĺ¿
å¥³ åŃĲ
çĶµ è§Ĩ
ä¸į ç®¡
ä»į çĦ¶
èĩª çĶ±
is s
æķ Į
æĥħ çļĦ
z e
æĹħ è¡Į
æĥ ¨
a hr
æĺ¯ä¸Ģ äºĽ
éª Ĥ
Ġ '
å¾ Ħ
çľ ł
æĦ Ī
æ¶² ä½ĵ
åĤ ²
ä¾Ŀ çĦ¶
Ġint o
æĭħ å¿ĥ
è¯ ¦
Ġd if
è½ ½
æĹ¢ çĦ¶
Ġk now
i ver
éĢ Ķ
å¾ Ĵ
aus e
å¤« äºº
é£ ĺ
ol og
æľī äºĨ
è¿ Ķ
çĶŁ äº§
æĦŁåıĹ åĪ°
å¿« ä¹Ĳ
çļĦ è¯´
çļĦ åıĳå±ķ
åĴ ±
ãĢį ï¼Į
T h
ç½ ¢
æĭ ľ
åį §
ĠA n
æĽ´å¤ļ çļĦ
åĨħ å¿ĥ
ä¸ ¢
å¯¹ æĪĳ
éĩįè¦ģ çļĦ
çļĦç¬ ¬
I n
c ial
i an
åĽł ç´ł
çĮ ®
ro w
ä¹ĭéĹ´ çļĦ
å± Ī
ä¹ Į
åľ° çĲĥ
æİª æĸ½
è «
åĲĪ ä½ľ
èĥ¸ åīį
ãĤ ¨
æľºåĻ¨ åŃ¦ä¹ł
éŃ ħ
æĢ» æĺ¯
n en
ĠB e
åķ ¡
å¹´ çļĦ
å®¶ éĩĮ
åĴ ½
o v
æĥħ æĦŁ
æīĵ ç®Ĺ
Ġk e
åħ¥ äºĨ
çĩ ķ
çĿ ģ
an k
ä¼¸ æīĭ
yth on
èĪ ª
çĳ ŀ
æ²Ļ åıĳ
çļĦç ĭ
åĳĬè¯ī æĪĳ
æĺİ æĺİ
å¹¿ æ³Ľ
èĤ ¢
å¯» æī¾
è¯Ĩ åĪ«
åı¯ä»¥ éĢļè¿ĩ
2 5
äº ¡
ä» ª
æĺ¯ çļĦ
éĹ¨ åı£
åľ¨ è¿Ļä¸ª
Ġf e
ç»ı åİĨ
åıª å¥½
æĻ ¨
çº¢ èī²
æĭ ³
Ġsu ch
æ·« æ°´
ung en
åĴĸ åķ¡
it s
å¸® æĪĳ
çĵ ¶
æĦ ī
åĸ Ĥ
ä¸° æ»¡
Ġpro v
# #
çĽ® åīį
ä»£ çłģ
æ· ĭ
éĢ Ĵ
åª Ĵ
ç´§ å¼ł
å°Ħ ç²¾
åĽ¢ éĺŁ
éĥ½ è¢«
ä¸Ģ çīĩ
èİ ²
å½¢ æĪĲ
å°½ ç®¡
Ġcon s
æ¯« æĹł
ä¿ Ĭ
åĵ Ģ
ä¸Ń å¿ĥ
æĤ £
éĵ ĥ
åĵ¦ åĵ¦
Ġg en
æµ ħ
èĪ¬ çļĦ
Ġhe l
æĤ ī
ä½ł è¯´
å¿ħ è¦ģ
æ± ¤
çĬ¶ æĢģ
æī ©
æ¶ ¨
æľī æķĪ
åı³ æīĭ
an ge
æĬĢ å·§
æĿ¡ ä»¶
l ud
åĤ ¬
è®¤ è¯Ĩ
åİ Į
æľī çļĦ
éĿ ©
æ½ ľ
åİī å®³
å® ľ
ä¾Ŀ æĹ§
çļĦè ģ
æ»¡ äºĨ
ä»· åĢ¼
Ġbe c
åľ¨ èĩªå·±
çĸ ¾
n er
ä½ł å¥½
ãĥ¼ãĥ «
ç« ¥
çĿ £
çļĦ æĪĳ
) ,
Ġ 9
â Ī
Ġre c
åĩ½ æķ°
å¼Ģ åı£
çļĦ æĥħåĨµ
æĬĢ èĥ½
çļĦ åĬ¨ä½ľ
ig en
åĽ½ éĻħ
ãģ¨ ãģĦ
çĿĢ èĩªå·±
2 1
æ¯į çĭĹ
æ¯« ä¸į
åº Ł
æİ ©
çļĦç ¼
ä¹Ł å¾Ī
æĮ ¡
os s
å¦Ĥæŀľ ä½ł
éĺ ¶
ç¼ ĺ
ä¹ ¡
ãĤ »
æŃ ī
yst em
æĽ¾ ç»ı
éĩĩ åıĸ
ç²¾ ç¥ŀ
çº ·
æ·± æ·±
åķĬåķĬ åķĬ
åĢ ¾
t s
éĹ ¹
ç« ¹
ä»· æł¼
å¤į æĿĤ
çļĦè¡£ æľį
å°ı åĺ´
å¤´ åıĳ
çĴ ĥ
è®¡ç®Ĺ æľº
æ¨ ª
åĲİ çļĦ
æ² ¿
n ing
åĶ ±
ç» µ
ä¸ĵ ä¸ļ
ĠTh is
Ġe m
Ġo ur
äºĨä¸Ģ å£°
çļĦç ´
æ·± åħ¥
çļĦ æĸĩç«ł
åľ° ä¸Ĭ
u g
è´ ¢
å¹¸ ç¦ı
è§ģ åĪ°
åº Ħ
Ġdo es
åŁ ¹
çļĦèľ ľ
é¢ ĸ
è¿ĩ çļĦ
èĤ ł
éħį åĲĪ
åĢ ©
ç»ı å¸¸
å¹² åĩĢ
å¸ Ń
å¤© çļĦ
ä¹ ĥ
æ· »
æ¶ Ĥ
ä¸° å¯Į
å¢ ¨
å·²ç»ı è¢«
ç§¯ æŀģ
å° º
åĪ¶ å®ļ
åĪ ĳ
çļĦè ¶
éª ¤
åľ¨ è¿ĻéĩĮ
åĪĻ æĺ¯
çĶ¨ çļĦ
å»º çŃĳ
çĮ ª
çĵ £
åħ³ æ³¨
è ļ
åĨ ¬
è¯´ äºĨ
ä¸Ń éĹ´
ation al
åĲİ æĿ¥
åģļ çĪ±
ä¸į ç¦ģ
æĮī çħ§
çľ ¸
é¡º çĿĢ
æĻ® éĢļ
2 2
æľī åħ³
Ġa g
åİĭ åĬĽ
Ġb l
r ic
Ġa uch
it t
æĢ§ åĴĮ
çī ¢
éĤ£ æĺ¯
è¡ «
å¤© æ°Ķ
è®¾ å¤ĩ
Ġan y
è¡Į åĬ¨
ä¸¤ åıª
çļĦ ä¹³æĪ¿
è¿ħ éĢŁ
çģ Į
çĲ ª
çģ °
ĠâĢ ĵ
Ġs a
åĸĺ æģ¯
è¢ Ń
å¤§ äºĨ
éĹ ·
çİ° ä»£
ãģĿ ãģ®
åľ¨ ä¸Ģ
é¡¹ çĽ®
æĭ Ł
Ġm y
ç½ ļ
åĪĨ å¼Ģ
Ġas s
åĤ »
i ent
çļĦ çľĭçĿĢ
ä¾ į
æ³ ī
æµ ©
ç¡ ķ
g ram
ä¹ ĺ
é¢ľ èī²
Ġhel p
ä»Ķ ç»Ĩ
æĤ ²
åĵª äºĽ
ç¿ ¼
æĤ¨ åı¯ä»¥
åģļ åĩº
åŃ ķ
ãĥ ĸ
æĢĢ éĩĮ
å¹ ¼
å°¤ åħ¶
åĴĮ æĪĳ
ç±» åŀĭ
ç»ĵ æŀĦ
æıĲ åıĸ
ä¹ Ķ
Ġa ct
æ¶Ī å¤±
åħ¬ ä¸»
çĶ· åŃ©
çļĦ å¨ĩ
ä¸Ī å¤«
ä½ł å°±
åı£ æ°´
o ve
äºĨä¸Ģ äºĽ
å² ³
åł ª
èĥ Ĩ
éĥ½ æ²¡
åĿ ¦
é« Ķ
it ies
Ġ\ (
æĭ ¨
èµ¤ è£¸
å¥³ çĶŁ
è·Ł çĿĢ
è° ĵ
åº Ĩ
æī «
èĲ Ŀ
äºĨ å¥¹
å·² ç¶ĵ
éķ ·
ä¸Ģä¸ĭ åŃĲ
çĶ· åŃĲ
çĹ ķ
h en
ç¿» è¯ĳ
å¼Ł å¼Ł
èīº æľ¯
è°ĥ æķ´
¦ ģ
æĪĳ åı¯ä»¥
éĿ¢ çļĦ
çĨ Ĭ
çŃĶ åºĶ
æ²¡ äºĭ
ãĤ ĥ
æŃ£ ç¡®
ãģ ļ
æĪĳ è¿ĺ
ä¿ ı
çĿĢ çļĦ
åĬŀ åħ¬
çĶµ åŃĲ
å° ¸
Ġbe en
éĴ »
å®³ æĢķ
çĶ· çĶŁ
çļĦ åĳ»åĲŁ
âĢ¦ ãĢį
æ¢ ģ
è¶ ¾
åŁ ĭ
çļ® èĤ¤
ãĥ¼ãĥ Ī
æ© Ł
ç©º æ°Ķ
å¹ ¾
çļĦèĪĮ å¤´
æľ Ĺ
rou gh
ãĥ ĭ
ch n
Ġm ay
çŁ¥ è¯Ĩ
æĪĳ å¾Ī
at h
b le
ä¸Ń å¤®
åĺ´ è§Ĵ
¹ æŀľ
é¥® é£Ł
Ġ ent
Ġd ur
le ct
çļĦèĤ Į
èĢģ æĿ¿
Ġf irst
èĪ ¹
âĶĢ âĶĢ
çļĦèĥ Į
et h
äºº åĳĺ
æĶ» åĩ»
Ġf ind
æļ Ĥ
a x
ãģ Ń
å¾ ¡
æ¤į çī©
Ġman y
éĢł æĪĲ
äºĮ äºº
ãģķ ãģĦ
çļĦèĦ ĳ
æ° ı
åĪĽ éĢł
çļĦ å¥½
è¯· éĹ®
çļĦçº ¢
åĢĴ æĺ¯
æĭ ĸ
æĢ ¨
èĦĳ è¢ĭ
Ġ /
å¼Ģ å¿ĥ
åħ §
çģ Ń
ol d
éĸ Ģ
æī ®
å¨ ĥ
é½ ¿
çĩ ĥ
éŁ µ
åº ŀ
éĽ ¶
é» ı
æķħ æĦı
é¦ ¨
éļ Ĩ
è¿Ļ æīį
å® ¿
è¦ Ĩ
éĽĻ æīĭ
æĺ¯ åĽłä¸º
èµ Į
éĹ ²
1 00
è¾ £
å¤ļ äºĨ
åĩ ĳ
èĭ± è¯Ń
äºĭ ä»¶
æĦ £
æĪĸ è®¸
èĪ °
çļĦ éĤ£
ãģķ ãĤĵ
éħ ±
åħĥ ç´ł
al s
æ¾ ¡
çļĦç ĸ
c ess
i et
ä¸ «
ä¸ ²
åĳ½ ä»¤
ä¸Ģ çľĭ
ow er
çĤ İ
ä½ł è¿Ļ
ä¸į åıĬ
åĪĨ åĪ«
åŁº äºİ
Ġad d
åľº æĻ¯
æľŁ å¾ħ
äºĨä¸Ģ ä¼ļ
æĺ¨ å¤©
ä¹Ł è®¸
Ġin d
æ¸© åº¦
us s
ä¸Ĭ æĿ¥
æĦı ä¹ī
èĽ ĩ
Ġsh ould
ĠA r
å¼º çĥĪ
è¿ĩç¨ĭ ä¸Ń
ä¸Ģ æīĭ
Ġdif fer
èĩ³ å°ĳ
Ġfor m
å¦Ĥ ä»Ĭ
Ġon ly
è®° å¾Ĺ
Ġj ust
è¶ ģ
å¹³ æĹ¶
åĢ į
çļĦå¤§ èħ¿
åķª åķª
çļĦ ä¹³
Ġthe se
æķ° éĩı
åĶ¯ ä¸Ģ
åĨ ł
æļ´ éľ²
çļĦç© º
æ¨ £
æ±¡ æŁĵ
Ġm ost
é© ¾
éĽ »
ãĢĤ "
Ġd ies
èĦ Ĩ
ers on
o hn
è¾ ĳ
o ver
çļĦ å¥¹
Ġo b
èĩ³ äºİ
çļĦ å±ģèĤ¡
ãģ« ãģ¯
è± «
å§ĳ å¨ĺ
ä¸Ģ åĲį
å®ĥ çļĦ
ä¸į çĦ¶
æº ľ
éĺ¿ å§¨
èį £
å°Ĩ å¥¹
p ro
o y
ãĥ £
Ġt wo
è¿ Ł
æĿ ľ
æī ¹
ãĥ ĳ
Ġh er
Ġw er
ãĥ ł
ot h
Ã¼ ber
æİ¢ ç´¢
è¿Ļ ä½į
è¸ ©
æ£Ģ æŁ¥
çĤ ¸
åħ± åĲĮ
çļĦè ī
Ġ ra
æĻ °
é«ĺ çļĦ
ãģ§ ãģ¯
ä¸Ģä¼ļ åĦ¿
èı Ĭ
çĽ¸ å½ĵ
é£İ æł¼
r ess
éº ¦
åĨĻ ä¸Ģç¯ĩ
Ġf l
æľĢ å¤§
ĠĠ ĠĠ
æľī ä¸Ģä¸ª
åħĦ å¼Ł
ï¼İ ï¼İ
é¢Ħ æµĭ
im es
æĭĴ ç»Ŀ
o ck
ãĢį ãĢĤ
è· ¨
o int
èĩĢ éĥ¨
æľī è¶£
ä¸Ģ ç¬ĳ
è¿ŀ å¿Ļ
éĥ½ è¦ģ
èĢĮ åĩº
æ® ¿
åªĴ ä½ĵ
è¯ Ĭ
ç² ĺ
æĬ ĳ
å ¬
çļĦ åºĶçĶ¨
èĢ ¸
æ¸© æļĸ
é¸ £
f ul
çļĦç ¤
æµ ¸
æĺİ å¤©
å·¨ å¤§
è¾¾ åĪ°
ä¹Ł åľ¨
6 0
Ġund er
ic s
st e
æĴ ķ
æ¬ º
çĽ¯ çĿĢ
çİ Ħ
åı° æ¹¾
æĦ ¤
ç¨į å¾®
åĩł å¤©
é© ¶
å°± åı¯ä»¥
ç¨ĭ åº¦
è¾ Ľ
ä¸į è§ģ
æĪĳä»¬ éľĢè¦ģ
Ġof f
èį ·
é¢ ¨
äºº æ°ĳ
æ® Ĭ
çĸ ²
çļĦç Ĭ
Ġs ie
è¿ĺ èĥ½
ç¥ Ŀ
åĹ¯ åĹ¯
çļĦç ¡
è·Ŀ ç¦»
å¯¹ ä¸įèµ·
éĥ ģ
çĥ Ĥ
æİ¥ è§¦
ä½ł èĥ½
æ± ĩ
è¢« æĪĳ
âĢ¦âĢ¦ âĢ¦âĢ¦
u c
åĴ ³
çļĦè ĭ
æį Ł
åĮħ åĲ«
ç©º éĹ´
çļĦèº« ä¸Ĭ
ï¼ Ĵ
æµ´ å®¤
ãģ§ ãĤĤ
å®ī æİĴ
å¥¹ åľ¨
èµ ŀ
4 0
åŃ ¤
åĳ Ī
ç®Ģ çĽ´
éĢĤ åºĶ
ib le
åĲį çļĦ
ç§° ä¸º
æĿ¥ èĩª
ãģ¨ãģĦ ãģĨ
è ł
çİ° å®ŀ
ter n
ç ¸
å°± èĥ½
éĢı æĺİ
æ³ °
æĤ Ķ
çļĦè ¦ģ
äº¤ æµģ
èĬ Ļ
ut e
b en
åıĹ ä¸įäºĨ
çľĭ åĲĳ
èĬ ¸
ç½ĳ ç«Ļ
å½ĵ åľ°
çļĦèĦ¸ ä¸Ĭ
Ġinc lud
æĥ §
æĴ Ĵ
è¯¦ ç»Ĩ
åĵģ çīĮ
ment s
çļĦ å·¥ä½ľ
è§Ĵ èī²
åĩ Ń
æĻĤ éĸĵ
åıĤ ä¸İ
æĮĩæĮ¥ å®ĺ
å¹³ åı°
il ity
èĻ «
Ġh igh
in s
çļĦçĲ Ĩ
æĳĩ å¤´
æ¶ ©
i ous
ä½ł è¦ģ
çĽ® çļĦ
ç¤¾ äº¤
å¤ º
æĺ¾ çĦ¶
å° ĺ
è¾ĵ åħ¥
è¢« äºº
çļĦ éĩįè¦ģ
æ¯Ķ èµĽ
ç»Ļ å¥¹
ãĥ³ ãĤ°
æ° §
Ġe ff
ĠS p
æĥ³ èµ·
form ation
ä¸¤ä¸ª äºº
å± ı
ow n
éĢ ¸
åĩºæĿ¥ çļĦ
çĮ ľ
at ive
è¯´ æĺ¯
åıĪ æĺ¯
é¾ Ħ
ä½ł äºĨ
Ġre g
ãģ¾ ãģĽ
æ¸ħ æĻ°
Ġp h
æĪĲ çĨŁ
çĿĢ å¥¹çļĦ
çķĻ ä¸ĭ
ç¬¬ ä¸ī
èĤ Ĩ
å¾ ŀ
Ġe ver
æĢİ æł·
åĬĽ æ°Ķ
éĺ ħ
vel op
çº ¹
âĪ ¶
Ġre l
èĥ½ æºĲ
çĶ·äºº çļĦ
Ġ Ã
ä¸į æĹ¶
çĨŁ æĤī
éĿ¢ ä¸Ĭ
Ġstud ents
åıĮ çľ¼
ĠV er
åĲ Ĭ
åħ ģ
éĶĻ è¯¯
éļ ľ
ä¹ĭ å¤ĸ
æłĩ åĩĨ
éĥ Ń
è¡Į ä¸ļ
ĠD e
Ġ Â
Ġm ake
çĪ± çļĦ
è¹ Ń
Ġpro du
åĬ¨ çļĦ
æĬ± ä½ı
Ġth rough
ä¼ļ æľī
ul ar
å·¦ æīĭ
çĶ ©
çļĦè§ Ĩ
çĶ ³
äººå·¥æĻºèĥ½ æĬĢæľ¯
éĽ ¯
8 0
ä¸įæĸŃ çļĦ
éĤ Ĭ
åı¯èĥ½ æĺ¯
æĶ¾ å¿ĥ
çŀ ª
as ed
ad e
ä¹ĭ å¾Į
Ġh ab
è¾ ī
åıį æŃ£
çļĦè ı
æī °
f ter
ãģª ãģ©
é¥ ¶
åĪ ·
æİ Ī
éĺ´ åĶĩ
ç¡ Ģ
ĠA l
åıį æĬĹ
åľ¨ éĤ£
f ra
ä¸Ĭ ä¸Ģ
çļĦè į
æĵį ä½ľ
æĪĳ æĬĬ
åĪĹ è¡¨
åĮĹ äº¬
ä½ ©
p s
ç¹ ģ
æľī æ²¡æľī
è¡¨ æĥħ
ä¹Ł è¢«
å·® ä¸įå¤ļ
é¤Ĳ åİħ
åŁº ç¡Ģ
ä¸į åľ¨
or k
çĶŁ æ°Ķ
çļĦç ł
ãĥ ¥
m e
âĢĶâĢĶ âĢĶâĢĶ
g et
å¦Ĥæŀľ æĤ¨
~ âĢĿ
è® ¿
ãĤ¤ ãĥ³
æĳ ĺ
Ġch ild
æ°Ķ åĢĻ
å¤ļ ä¹ħ
å¹¶ ä¸įæĺ¯
åĩ ¶
en n
çļĦè °
æŁ ±
çĻ ¼
æķ° åŃ¦
il y
è·¯ ä¸Ĭ
åŀ ĥ
è® ¶
éħĴ åºĹ
ä»Ĭ æĻļ
å°± è¢«
ä»Ģ éº½
æĲ ľ
åķ ı
éģĩ åĪ°
Ġa ut
Ġin v
èĦ ī
çĶµ èĦĳ
åģľ æŃ¢
åľ ¾
ĠT e
Ã¶ n
åĮĸ çļĦ
ur n
çĹ ĩ
åŀĥ åľ¾
ä»¥ ä¾¿
en e
Ġc ol
Ġo der
æĸ° éĹ»
ä»¥ä¸ĭ æĺ¯ä¸ĢäºĽ
åħ ©
ç¾İ äºº
æĪĳ æīį
æľĽ çĿĢ
èĹ ¤
å¼ ·
éĥ ĳ
ä¸¤ æĿ¡
åķĬåķĬ åķĬåķĬ
ç« ŀ
è¿ĺ åı¯ä»¥
å°Ĩ åħ¶
æľī å¾Īå¤ļ
æ¶ ī
ãĤ¹ ãĥĪ
Ġu ns
çļĦ éķ¿
æĸ¹ ä¾¿
å¤± åİ»
è´Ń ä¹°
çŃī å¾ħ
ä»¶ äºĭ
è¿ĺ æ²¡æľī
ãģĹ ãģĦ
ĠH e
ä¸» ä¹ī
Ġ2 00
çĤ¹ äºĨ
è¯Ń æ°Ķ
çļĦç Ń
æĦı çļĦ
ĠW e
å« £
æľ¬ èĥ½
æĥħ ç»ª
äºº åı£
æŃ¥ éª¤
æīŃ åĬ¨
éĶĢ åĶ®
Ġh ad
å½¼ æŃ¤
çļĦ çİī
i o
ä¸Ģ éģĵ
å§ Ĭ
åĳĺ å·¥
Ġ x
Ġu m
O S
å¼º çĥĪçļĦ
çļĦ æĸ¹æ³ķ
ãģĿ ãĤĮ
Ġwer den
es ch
è® ¯
Ġus ed
åĴ Ļ
çĬ¹ è±«
ä¸į å¯¹
çľĭ åĪ°äºĨ
Ġe ach
è§Ĩ é¢ĳ
W h
æĹł åĬĽ
ä¾¿ æĺ¯
æľºåĻ¨ äºº
æº ¢
åºĶè¯¥ æĺ¯
2 4
åĤ ¨
åĸī åĴĻ
éĺ³ åħī
å·¨ å¤§çļĦ
å½¢ å¼ı
ãģĵ ãģ®
çļĦç «
ç¨ ®
ä» ģ
å¥¹ éĤ£
éª Ĺ
æĦŁ æĥħ
å¼Ĥ å¸¸
æ°¸ è¿ľ
å® ¾
æĹ Ĺ
çµ Ĳ
é» İ
çļĦè ¾
Ġw ar
å½¢ çĬ¶
åİ ¨
ä½į äºİ
åĿļ æĮģ
çĶ» éĿ¢
i ence
è¶³ å¤Ł
19 9
æĪĳ åĢĳ
çĭ Ĳ
ãĥ Ł
çī¹ å¾ģ
åĩº ä¾Ĩ
f l
æľī æīĢ
æŃ£ æĺ¯
åī© ä¸ĭ
c ed
ung s
åĲ ¼
ra ct
ç»Ħ æĪĲ
æ±½ è½¦
å· ¾
æīĭ ä¸Ń
åľ° è¯´
ãĥ Ĭ
éŀ Ń
ä¸į åı¯èĥ½
h l
if e
å¤§ å£°
éļ¾ åıĹ
h t
æ° Ľ
æ³ ³
è¯Ħ ä¼°
éĻĦ è¿ĳ
çļĦ éĿ¢
ä¸į èĩª
ç®Ĺ æĺ¯
å®ŀ éªĮ
ä¸Ģ æł¹
æĥ³ è±¡
æ¬£ èµı
çı Ĭ
g er
ãĤ ±
ç¾ Ĭ
Ġde c
åı¦ ä¸Ģä¸ª
ãģĹ ãģ¾ãģĻ
çī¹ æ®Ĭ
å¤Ħ å¥³
ãģ¾ãģĽ ãĤĵ
ç» ·
ä»İ æĿ¥
åĶ ¤
èĤ Ľ
Ġnum ber
åĴ± ä»¬
å® ł
å¤§ é¸¡å·´
çŃĶ æ¡Ī
r es
çķ ħ
èģĶ ç³»
çī© è´¨
æĲ ħ
çļĦèĤ ©
åį± éĻ©
çľĭ å¾Ĺ
å¿ĥ æĥħ
éĽ ¾
ä¸Ģ åıĮ
éļ ¶
å¯ ¦
ãģı ãģł
æ¢ ¯
çļĦè§ Ĵ
æ¶ µ
è½¬ èº«
çī µ
æĦŁ è°¢
_ _
åĳ ĥ
Ġ [
re d
æĹ¶ æľŁ
çĶŁ æĢģ
æ¬¢ è¿İ
Ġ Ã¼ber
çļĦ ä¸į
ãĤĮ ãĤĭ
Ġd et
è®° å¿Ĩ
çļĦ ä¸Ģä¸ª
åł Ĩ
çļĦéĺ´ éģĵ
al th
ç² Ĵ
èĨ Ŀ
å¥½ èĪĴæľį
èĢħ çļĦ
æ» ©
å¦Īå¦Ī çļĦ
æİ¥ èĳĹ
åĴ ¯
Ġs ind
æ³ķ å¾ĭ
éĶ ĭ
ä¸įæĸŃ åľ°
å¦ ĥ
æµģ åĩº
æ¹¿ æ¶¦
å¿« è¦ģ
è¯´ æĺİ
åĺ» åĺ»
ä½ł æĢİä¹Ī
ç´ Ħ
ä¿Ŀ è¯ģ
å¥¹ ä¹Ł
ç¬ĳ äºĨ
èĪ ĩ
æĪĲ åĳĺ
æĭ¿ èµ·
ç»ĥ ä¹ł
ä¸¥ éĩį
rou nd
å°Ĩ ä¼ļ
åĩºæĿ¥ äºĨ
æĿ¥ åĽŀ
èĻ Ĳ
è¾ Ĩ
ä¸ĸ çºª
å¥ Ķ
at a
å¸ ģ
è½» æĿ¾
é¦Ļ æ¸¯
pp ort
èĢ ¶
ãĥ¼ãĥ ī
ul a
éĤ£ å°±
ä¼ļ è®®
te xt
Ġb est
åıĺ æĪĲäºĨ
o x
éĩĩ çĶ¨
åĭ ī
åĩ ¸
æĪĳ å·²ç»ı
åľ° çľĭçĿĢ
çļĦ çľ¼ç¥ŀ
l and
å® ¡
èĢ³ è¾¹
éĥ½ å¾Ī
äº² åĲ»
ä¸Ģ å¤©
æĪĳ åıĪ
ãĢĮ âĢ¦âĢ¦
ĠH ow
æľŁ éĹ´
å¯¹ å¥¹
ur es
Ġwh ere
è¹ ²
éĥ½ èĥ½
è¿Ľ ä¸ĢæŃ¥
èĻ ķ
è´Ł è´£
èĤ ¿
æ·· åĲĪ
æĹł æķ°
æĬ ¢
ä½İ å¤´
çļĦè§ ¦
å¾® ç¬ĳ
è¸ ı
2 3
çĶ· æĢ§
we en
èĦ Ĥ
æĦı åĳ³
é«ĺ è·Ł
ç· Ĭ
ĠE r
è¯´ ä»Ģä¹Ī
ç³ ķ
æĪĺ æĸĹ
Ġb u
Ġpro gram
çĿĢ å¤´
in al
åĲ¬ è¯´
ä¸º æĤ¨
èĭ ¹æŀľ
åª Ľ
çĶ¨ æĿ¥
è®° å½ķ
æ³ ¥
çļĦè ¢
çĸ¾ çĹħ
éĩĳ èŀį
ow s
Ġs et
Ġh at
ãĤ §
èµ ĸ
å¥³ äººçļĦ
æķ ²
ãĤĮ ãģ¦
Ġm od
åīį éĿ¢
ç«ĭ åį³
Ġsch ool
è¿Ļ æ®µ
åįķ è¯į
Ġc ould
ä¸įåģľ çļĦ
æĮĳ éĢĹ
ç©º ä¸Ń
åĬĽ åĴĮ
äºĨ ä»ĸ
éľ ľ
ĠD ie
ç¥ŀ ç§ĺ
çĶŁ çļĦ
çŃ ¾
æİĮ æı¡
Ġ æĪĳ
ä½ł åľ¨
ä½ł ä¹Ł
Ġat t
ç§» åĬ¨
æĹł å¥Ī
çļĦçĥ Ń
è¸ ª
ä» Ĩ
èĢ Ģ
ä¸į å¤ª
æ¡ £
å« Ĥ
æµĭ è¯ķ
å¡ ĳ
ä¸ĭ åįĪ
Ġde velop
çļĦæīĭ æĮĩ
èĩª æĪĳ
ãģĿ ãģĨ
æĦ §
åī Ĥ
çĵ ľ
èº« æĿĲ
éĻ ¶
Ġyear s
æ´ ¥
æħ¢æħ¢ çļĦ
æī§ è¡Į
çĿĢ æĪĳçļĦ
åĲĥ é¥Ń
çĵ ¦
åģļ ä»Ģä¹Ī
c ri
ãĤ ĩ
è·Ł æĪĳ
æİī äºĨ
çļĦçĬ ¶
a w
ä»¥ä¸ĭ æĺ¯
çº¢ çļĦ
æĥĬ è®¶
æĬ «
ä¸į å¦Ĥ
ãĥ ĵ
çº ±
è®© æĪĳä»¬
Ġsu b
ãģł ãģĳ
Ġle ar
çļĦç ½
ç»Ļ ä»ĸ
çļĦç¬ĳ å®¹
æĭ¼ åĳ½
e k
åģļ äºĨ
r ing
å±ķ ç¤º
åľ¨ å¥¹çļĦ
çĿĢ ä»ĸ
ãģıãģł ãģķãģĦ
Ġw ay
è¨ ĺ
å®Ŀ è´Ŀ
ãĥ Ŀ
æ° £
åĪĽ æĸ°
ä½Ĩ æĪĳ
Ġth en
å¿ ł
Ġs ystem
æķ´ ä¸ªäºº
l ine
æı¡ ä½ı
æŃ£ å¥½
å¿ Į
Ġbe i
ä½ł ä¸į
æŁ ľ
å°Ħ äºĨ
æĪ ª
ä¹Ł å°±
ç¨ ł
åĨ Ĩ
èĬ ¬
çļĦè Ĳ
å°ı è¯´
åĵ ĩ
å¿« çĤ¹
å®¶ çļĦ
éĴ ¢
äºĴ çĽ¸
ak ing
ãĢĤãĢĤ ãĢĤ
å¹³ åĿĩ
èº« ä¸ĬçļĦ
èµ· çļĦ
å§ ĵ
g an
æ§ ĺ
çļĦç ®
å¸¸ è§ģ
a z
å¦ į
æĮ ¯
åĬł å¼º
çĻ º
åĨ² åĩ»
Ġbet ween
è®¨ è®º
å¹³ è¡¡
om m
æĦı å¤ĸ
æĶ¿ æ²»
éļı åį³
æĶ¾ å¼ĥ
ä¸į åĩº
çĻ½ çļĦ
æĭ ¾
çļĦ çĶŁæ´»
å¡ «
c y
çĳ ľ
åĪĨ äº«
åı¯ æĥľ
é£Ł åĵģ
èĩª ä¸»
in es
ä¸Ģ å¼ł
éĥ¨ ä½į
ä¼Ĺ äºº
å¾ ª
åĨħ éĥ¨
æĴŀ åĩ»
æ´ ª
ig e
pe ct
ä¸Ģ ä»½
åŃ ¸
æīĭ éĩĮ
èª ¿
å¼ µ
çļĦ åı£
æ·± åº¦
æ²¡ ä»Ģä¹Ī
è¾ °
Ġbec ause
è§Ĥ å¯Ł
éļı æĹ¶
Ġv or
æĢģ åº¦
çļĦ åħī
æĪĳ çľĭ
al t
iz e
åģļ çļĦ
å¾Ĺ å¾Ī
Ġv al
æ²Ł éĢļ
Ġtr ans
Ġs im
ä¹Ł å°±æĺ¯
ä¹Łä¸į ä¼ļ
ä½ĵ çļĦ
èĮ ľ
åĩº çİ°åľ¨
ç¾ŀ èĢ»
æ¶Ī æģ¯
èĢ³ æľµ
å®Į ç¾İ
åĪ° å¥¹
Ġth ink
åį« çĶŁ
æıĲ åĩº
éĽ ²
ç¥ŀ ç»ı
èĢ Ĺ
ic es
ãĤµ ãĤ¤
âĢ¦ âĢĿ
çļĦ è¯´éģĵ
y p
åı« å£°
åĨ³ çŃĸ
å·® çĤ¹
åħ¬åı¸ çļĦ
çļĦç ¨
æº ª
ĠI f
åĽŀ åºĶ
è¾ĵ åĩº
èº«ä½ĵ çļĦ
æĢ ĸ
Ġpl ay
åįĬ èº«
ä¸Ģ åı£
å² ¸
çļĦ é»ĳ
çİ© åħ·
çľĭäºĨ çľĭ
è®© èĩªå·±
åł µ
| |
äºĨ å¥½
èĩªçĦ¶ è¯Ńè¨Ģ
æıī æįı
Ġn ach
iv en
çļĦ é¸¡å·´
çļĦ æĸ¹å¼ı
åĪ ¥
éĤ£ æł¹
çļĦè¡Į ä¸º
åĿ Ģ
çļĦ ä½įç½®
ä¸į å®ī
ç¥ ĸ
t ing
b ers
é Į
åĮ Ļ
æį Ĥ
åĲĪ éĢĤ
è¿ĩ å¤´
éľ ŀ
ç» ĺ
è§¦ æīĭ
f e
é¢Ĩ å¯¼
å¥¹ æĺ¯
ï¼ī ãĢģ
å®ļ ä¹ī
f ore
æĢİä¹Ī åĬŀ
æĶ¶ ç¼©
æ² Ĳ
æīĢ è°ĵ
æİ¥ è¿ĳ
èĥ ģ
åĲ¬ è§ģ
éĻ Į
äºĨ ä¸¤
åī ²
ãģ Ĵ
çļĦèº« åŃĲ
èº« ä¸ĭ
ç¢ į
ä¸Ĭ åīį
å½ ¤
ãĥ¼ ãĤ¹
çļ Ļ
çľŁ å®ŀ
Ġ ed
äºĨ è¿Ľåİ»
è· ĥ
éĻį ä½İ
æ£ į
çļĦç² ī
åĴĮ å°ı
è¦ º
å² ©
èµ «
éº» çĥ¦
æŁĲ äºĽ
æĮī æĳ©
æ³ Į
ie w
ä¸ī äºº
åĨį ä¹Ł
å¥ ī
åľ¨ æĪĳçļĦ
st and
ç³» åĪĹ
çĭ ±
éĶ ħ
el f
h or
èĥĮ åĲİ
pt ion
å®¶ äºº
å¹´ åīį
ç¼ ļ
çļĦ ä¸¤
çļĦ åĲĮæĹ¶
åı¯ æĢľ
å¨±ä¹Ĳ åŁİ
æĹ¥ åŃĲ
Ã¤ t
Ġex am
è® ¢
ç¢ º
Ġa c
Ġre m
çĽ¸ äºĴ
id er
åĬŀåħ¬ å®¤
æ¯ı ä¸ªäºº
è¿Ļ åı¥è¯Ŀ
éģ ¸
ç»ĵ åĲĪ
ä¾µ çĬ¯
æĭ¿ çĿĢ
èĮĥ åĽ´
çĳ Ł
çµ Ĥ
çĽ Ĳ
çĥŃ çļĦ
ä¹Ł èĥ½
åĽŀ å¤´
åĲį ç§°
çĬ ¬
çľ¼ ä¸Ń
ä¼ĺ åĮĸ
i x
id ent
é ³
æ¼ ı
ear ch
å·¥ ç¨ĭ
çº ł
çĽ¸ å¯¹
åĲĳ ä¸Ĭ
Ġre ad
å¨ĩ å«©
âĢ ¢
æ· ĳ
è¢« ä»ĸ
åŁ ĥ
Ġspe c
åį§ å®¤
åĽ° éļ¾
çĤ ®
ut ion
è¯ ¸
å¹´ é¾Ħ
èĥ ¶
è°ĥ æķĻ
-- -
ĠL e
å¤´ ä¸Ĭ
è¯Ĭ æĸŃ
éľ² åĩºäºĨ
çĹ ´
è£¤ åŃĲ
æĹ© ä¸Ĭ
ä¸Ģ åī¯
è½¯ ä»¶
æľī å¤ļ
è¿½ æ±Ĥ
çŀ §
èĥ¸ éĥ¨
ä¼° è®¡
å¼Ħ å¾Ĺ
ä¼ ½
å¤§ å¤ļ
å§ ľ
èª į
è³ ª
ç» ¼
å¯ ¾
æľĢ ä½³
å¾Ī æľī
æĶ¿ çŃĸ
âĪ¶ âĢľ
æ´ Ĵ
å®Į äºĨ
æıĴ è¿Ľ
ä¸ª æĢ§
Ġw ell
ä½ł æĥ³
èĢģ èĻİ
æĸĩ åŃ¦
è´ ŀ
é«ĺ é«ĺ
Ġb el
le t
a uf
Ġm uch
èĬ Ĵ
æĥ ©
Ġw ant
åĩł æ¬¡
is chen
ä¹Łä¸į çŁ¥éģĵ
Ġex per
å½¢ è±¡
or n
æ°´ æŀľ
åĲĳ åīį
è¸ ¢
å¤ ķ
æį ķ
ãģĤ ãĤĬ
æ¨¡ å¼ı
åĬ¨ äºĨ
is ch
çļĦçĹ Ľ
åĨħ çļĦ
çī¹ çĤ¹
åıª ä¸įè¿ĩ
åĵĪåĵĪ åĵĪåĵĪ
èĲ ±
ãģ »
ãģª ãģı
æĪĳ éĥ½
èµ· ä¾Ĩ
! !
æĹ ¦
èģĬ å¤©
å¤§ å°ı
å¥ ĳ
åĪ¶ éĢł
Ĭ åŃĲ
ĭ åĬ¿
çļĦ æ¨¡æł·
æģ ¼
å¸¦ æĿ¥çļĦ
åĵª ä¸ª
çļĦ åĳ³éģĵ
Ġs m
èĨ ľ
å¿ĺ è®°
è½»è½» çļĦ
éĤ£ è¾¹
èģ ª
æľª æĿ¥çļĦ
ç± į
çº µ
åĬł å¿«
é¥± æ»¡
å« Į
åķ ¥
äº ķ
å°± ä¸į
Ġgo od
åħħæ»¡ äºĨ
åī ĩ
ãģŁ ãĤģ
å®³ ç¾ŀ
åĪ° æĪĳ
å® ħ
ï¼ ĵ
æľĢ é«ĺ
çĽ Ł
Ġf oll
çĶŁæĪĲ ä¸Ģä¸ª
ä¸Ģ æĹ¶
å¹² ä»Ģä¹Ī
æ± ª
èĩ £
Ġdis c
çĭ¬ çī¹
t he
çļĦèħ ¿
Ġs ol
ic t
çĪ ¹
åĨį åº¦
çļĦè§ £
çļĦç Ĥ
Ġd ass
åįļ å½©
è®¨ åİĮ
å¾Ģ ä¸ĭ
æ¶ Ľ
æĪĳ åİ»
Ġd id
å¥´ éļ¶
åĪĽ ä½ľ
èħ ķ
æĢĿ æĥ³
æ¡Į ä¸Ĭ
æ°´ å¹³
éĶ »
é»Ħ èĵī
ä¸įåģľ åľ°
åģ· åģ·
z en
Ġin s
å® Ł
å¯¹ äºĨ
æŃ£ å¼ı
Ġ1 2
æ ª
çļĦ åĪºæ¿Ģ
çļĦè¡ Ģ
å¿ §
éĨĴ äºĨ
æ·¡ æ·¡
â Ĺ
Ġin st
çħ ®
æĹ¶ ä»£
} {
ç²ī å«©
æīĭ ä¸Ĭ
æıĲ åįĩ
ä¹Ł è¦ģ
æ¾ ³
åıĺ æĢģ
å¥½ å¥ĩ
ãģ¾ ãģ§
è¿ Ŀ
u es
éļĶ çĿĢ
æī¿ åıĹ
åŃ¦ éĻ¢
èµ° åİ»
ç§ Ł
èĥ ŀ
æĺ Ĥ
ä»ĸ åľ¨
7 0
å° ¬
ç»Ļ åĩº
æĪĳ çİ°åľ¨
ä¸Ģ äºº
éĻĲ åĪ¶
Ġd on
æĬ½ åĩº
çļĦ å¯¹
åŃĹ ç¬¦
Ġdiffer ent
æĺ¯ è°ģ
éĿ ¡
ãĤĵ ãģª
çĮĽ åľ°
ãĥ³ ãĥĪ
éģĵ å¾·
ä¾ ł
al e
éĺħ è¯»
éĤ ¦
ãĥ Ģ
å¥½ åĲ§
Ġf un
æĬ¥ åĳĬ
æĩ ī
ç¯ĩ æĸĩç«ł
å§Ĳ å¦¹
è¯ķ åĽ¾
æĬµ æĬĹ
åİ ķ
éĽĨ ä¸Ń
èľľ ç©´
äº ¿
å¸ ħ
æĺ¾ ç¤º
åĸ ĥ
æľº æŀĦ
æ¦Ĥ å¿µ
è¯Ń éŁ³
èĤļ åŃĲ
çļ Ĩ
Ġin formation
æį Ĩ
æĥ ¹
åĮ» éĻ¢
ä¿ Ĺ
æī Ķ
Ġ åľ¨
åĲ¸ åĲ®
çļĦèĦ ĸåŃĲ
æĬ¬ å¤´
æĩ Ĵ
æ²Ļåıĳ ä¸Ĭ
ble m
Ġc ur
ä½ł çľĭ
ç»Ļ å®ļ
è½ ī
æĶ¹ åĸĦ
iver s
em ent
Ġwir d
u ally
ãĥĥ ãĥĹ
ï ¸
å°± è¿ŀ
æ»¡ èĦ¸
æŃ» æŃ»
èµ ¢
åĪ¤ æĸŃ
å¯ Ĥ
Ġev en
æģ Ĵ
ãĥ ¯
å¨ģ èĥģ
æ¡ ¥
æĹ¥ å¸¸
Ġse c
å¼ ¥
Ġre qu
ç¢ §
ä¸Ģ ä»¶
èĪ Ĳ
å¤ļ ä¸ª
éĵ º
ä¸ ¸
çĿĢ å°ı
èĪĴ éĢĤ
iv es
çª Ħ
éĩĳ å±ŀ
è¿Ļä¹Ī å¤ļ
æľĢ å¥½
k e
is che
èĿ ¶
å°¤åħ¶ æĺ¯
åķĨ ä¸ļ
ä¸Ģå®ļ è¦ģ
ical ly
åĨħ è¡£
fra c
P ython
ä¿® éķ¿
ç °
w n
g y
èĥ ĸ
å¤ ¸
éĤ£ å¤©
ä¸į éģİ
s h
æĪĸ æĺ¯
Ġwor ld
è¯± æĥĳ
é¼ĵ åĬ±
è¯± äºº
Ġst art
çļĦ åĲİ
è¿Ļ å°±æĺ¯
ier t
Ġ1 8
AI æĬĢæľ¯
åĭ Ļ
è®¤ çľŁ
æĪĳ è§īå¾Ĺ
èĥĮ æĻ¯
ä¸į ä¸Ĭ
çļĦ ä¿¡æģ¯
éĢ £
åĬ© äºİ
çµ ¦
Ġver y
åŃ Ł
ä¸Ģ æĹģ
ä» ĩ
éļĲ ç§ģ
æŀ «
äºĭ å®ŀ
at t
åħī æ»ĳ
åħ Ķ
éŃ ı
---- ----
âĻ ¥
éĶ» çĤ¼
æĸ ·
æĢ¥ å¿Ļ
æ£® æŀĹ
å° ´
ãĤ·ãĥ §
é©¾ é©¶
ä¸Ń æĸĩ
çļĦèĥ¸ éĥ¨
è§ģ è¿ĩ
å°± åĥıæĺ¯
çļĦ ä¸ĭ
è¯ģ æĺİ
çľ ¯
æĴ ©
d ition
æĬĺ ç£¨
å°´ å°¬
è¶³ çĲĥ
ä¸Ģå®ļ ä¼ļ
æģĲ æĥ§
çº¤ ç»Ĩ
æĺ¯ æĮĩ
è¢« å¥¹
w w
åĤ ħ
èĨ Ľ
Ġm in
æł· çļĦ
b r
çĺ ¦
èµĦ æĸĻ
éªĳ å£«
äºĨä¸Ģ çľ¼
å´ ©
å¦Ĥ ä¸ĭ
Ġbe ing
çļĦ å¤´
æľī ä¸ª
åħ¬ åĽŃ
æĪĺ äºī
éªļ è´§
ä¸ §
çļĦç Į
ag es
å¯ ¿
åł´ åĲĪ
æĭ¿ åĩº
c on
éł Ĥ
æīĭ èĩĤ
åĪĨ æ³Į
Ġw ie
åĽŀ äºĭ
Ġp erson
ä½ł è¿ĺ
ãģĵãģ¨ ãģĮ
çļĦèĥ½ åĬĽ
éģ ¥
æİ ı
ç§ĺ å¯Ĩ
ä¹Ł ä¸įæĺ¯
A l
ãĤĮ ãģŁ
p ut
éĹ ľ
æĪĲ æľ¬
åı¯ä»¥ åľ¨
çĿ¡ è§ī
åī§ çĥĪ
é«ĺè·Ł éŀĭ
S t
ï½ ħ
æģĲ æĢķ
it ed
çĻ½ çļĻ
çĿĢ èĩªå·±çļĦ
Ġb ook
çļĦèľľ ç©´
Ġb ack
ï¼ģï¼ģ ï¼ģ
åĵ ¡
Ġl ong
æģĲ æĢĸ
çļĦèĤĮ èĤ¤
å¢ŀ å¼º
æĸĩ ä»¶
ot her
e ver
Ġ ich
å¤§ éĥ¨åĪĨ
èĳ £
Ġein en
ä¹ ¾
å® Ļ
it er
Ġm ain
2 8
ä¸įå¥½ æĦıæĢĿ
åĪ° è¾¾
Ġte xt
å°± æĬĬ
ĠF or
æĽ´ å¥½çļĦ
é¹ ı
ç» ©
çĽ¸ åĲĮ
Ġus ing
åĲ® åĲ¸
Ġs he
éļ Ļ
el s
çĿĢ èĦ¸
is m
æĬ½ éĢģ
f or
çļĦ å°ĳå¥³
åĴĮ å¥¹
æ»¡ æĺ¯
ç¾İ åĳ³
æĪ Ĵ
Ġs ame
æĹ© é¤Ĳ
åĽĽ åĳ¨
Ġ end
Ġp oint
å¸ ķ
è§£ å¼Ģ
åł ¡
Ġre t
çļĦç ŀ
èĤĮ èĤī
å°ı èħ¹
åĵ ²
ä¸ ĳ
æĴ ¸
çŃĸ çķ¥
èĥ¸ ç½©
å¹³ éĿĻ
w ard
çľĭ çļĦ
ãĤĤ ãģ®
åĴ ª
ãģ ³
æŀ Ŀ
æį ī
éļı ä¾¿
ãĤ¿ ãĥ¼
ä¿ ¯
el t
Ġfoll ow
çĮ İ
æĶ¾ å¼Ģ
Ġar t
äºĨ ä¸ĭåİ»
å¤§ åĪ©
å¤ª å¤ļ
Ġte chn
ä¸įå¾Ĺ ä¸į
Ġse e
æĦ Ľ
å¤§ èĦĳ
ar b
åĶ ī
éĿł è¿ĳ
ä¸į å·²
æĢİä¹Ī äºĨ
æĶ¶ æĭ¾
ĠĠ Ċ
èĭ± åĽ½
ĠSe x
åĴĮ ä½ł
ç¢ Ĺ
å¤ļ ç§į
åĥ µ
çļĦç¡ ®
æĮ ĸ
åĲ¬ çĿĢ
èĦ¸ èī²
å®ŀåľ¨ æĺ¯
Ġs ur
è£ ı
åĲĮ æĦı
è¿Ļ æĹ¶åĢĻ
è¿Ļ è¾¹
çīĩ åĪ»
ãĥ į
æĥ© ç½ļ
çĸ¼ çĹĽ
çľ¼ æ³ª
Ġk Ã¶n
ä¿ Ĥ
è´ ª
æ¢ ¨
åĢ¼ å¾Ĺ
æĪĳ è·Ł
è¯´ åĪ°
ç¨ Ģ
æ¯ı ä¸Ģ
çĶ¨åĬĽ çļĦ
éģ µ
Ġp ar
ent ion
ction s
æı ´
çģ ¾
g est
éĤ ®
çī© çļĦ
Ġ1 5
Ġg ra
è¶ħ è¿ĩ
èģĮ ä¸ļ
åĵį èµ·
Ġa fter
åī Ľ
çŃ ĭ
æĶ¾ ä¸ĭ
æĸ ¥
ĠS te
é» Ľ
ç© Ĩ
åį ¿
æ¶Ī è´¹
è½»è½» åľ°
ä½¿ åĬ²
¬ èıľ
æĺ¨ æĻļ
éĻ £
Ċ ĠĠĠ
åı ī
ç¬¦ åĲĪ
èĢĮ è¨Ģ
å®¢ åİħ
æ°Ķ çļĦ
æķ´ çĲĨ
å§Ķ åĳĺ
éĩĬ æĶ¾
ãģ ¹
éĹ Ĩ
c m
å¨ĩ èº¯
èİī èİī
, "
ãģ¨ ãģĹãģ¦
an y
æŃ» äº¡
æķ£ åıĳ
u p
c l
çļĦ åīį
å¹´ ä»£
çļĦä¸Ģ å£°
Ġgen er
çĽ Ĵ
olog y
ä¸į ä¹ħ
è°ĥ æŁ¥
çĬ¶ åĨµ
åį´ åıĪ
ä¸ĢçĤ¹ çĤ¹
ä¿ĥ è¿Ľ
at ure
èĢģ éĹĨ
Ġever y
ãģĭ ãģ£ãģŁ
ãĥ ¢
åģľ ä¸ĭ
Ġc re
æĦıè¯Ĩ åĪ°
çļĦ å¤©
èį Ĵ
çļĦéĺ´ èĮİ
åıĶ åıĶ
æĤ£ èĢħ
æ²¡æľī ä»»ä½ķ
Ġcl ass
ãĥ¼ ãĤ¸
è¿ŀ æİ¥
åı£ äº¤
å± Ĭ
æ± º
c ent
Ġc ount
Ġm on
è¿Ļä¸ª éĹ®é¢ĺ
z t
æĹ¥ æľŁ
æĲ Ĳ
éĽ² æ¢ħ
æ² «
æľĢ å¤§çļĦ
è£Ļ åŃĲ
è¡ ¬
èĦ ĸåŃĲ
Ġqu estion
åĮ Ģ
åıĸ å¾Ĺ
ç¼ĸ ç¨ĭ
æ¿Ģ çĥĪ
å¨ Ł
ç»ı çĲĨ
Ġb oth
ç´ °
ä¸Ģ çķª
åĲ ķ
çħ§ çīĩ
åĽº å®ļ
ĠY ou
â ĸ
éĩį çļĦ
ä½Ĩ å¥¹
èĥ¯ ä¸ĭ
å¦Ī çļĦ
æ¯ ģ
é£ŀ æľº
ä¹ĭ ä¸Ĭ
åºĶ å¯¹
çĶ· å¥³
æĮ¤ åİĭ
æµ· æ´ĭ
ãĤ ½
æĬ Ľ
èĩªçĦ¶è¯Ńè¨Ģ å¤ĦçĲĨ
ä¸Ń åįİ
Ġc o
æĺŁ æľŁ
æħ¢æħ¢ åľ°
çİ »
åĮ Ĩ
b s
åľ¨ çº¿
è£ ½
èĭ į
æĽ ¸
ä»ħ ä»ħ
åĿļ ç¡¬
v en
æĬ½ æĲĲ
èĭ Ĺ
çŁŃ è£Ļ
ä¼¤ å®³
ä¸ī è§Ĵ
æ²ī é»ĺ
è¡Į äºĨ
å¸ ½
æ¼ ī
ãĤĪ ãĤĬ
ist s
åį³ å°Ĩ
å¼Ħ çĿĢ
éĤ Ģ
ç»Ļ äºĨ
èķ Ĭ
èº« ä»½
æ³ £
a f
çļĦ é¦Ļ
Ġpr es
äºĨ åı£æ°Ķ
Ġinc re
Ġse in
çļĦ èĢģ
4 5
éĥ½ åı¯ä»¥
åĽĽ ä¸ª
' re
äºº çĶŁ
Ġex pl
Ġein er
éĢĻ åĢĭ
m m
åĺ ¶
çļĦèĤī ä½ĵ
ãģ¨ æĢĿ
Ġz um
åĩº å£°
od e
çī© çĲĨ
ãĥ Ļ
å¾Ĺ æĦı
æĸĩ åŃĹ
æ¿Ģ åĬ¨
çļĦ åİŁåĽł
æĪĲ ä¸ºäºĨ
é© ±
Ġv ar
Ġst r
å¸® ä½ł
æĪĳ æ²¡æľī
çİ «
èºº åľ¨
çĸ «
æ¢ °
æĸ ľ
ä» ķ
çļĦèĤ ļ
çĭ¬ ç«ĭ
æĬĬ èĩªå·±
ä¿¡ ä»»
æ¡ ¶
åº¦ çļĦ
åıĬ æĹ¶
åı ł
è¯´ åĩº
åı¯ æĮģç»Ń
å°ı åŃĲ
ç¦» å¼ĢäºĨ
åĨ ¥
æµ Ĩ
èĢģ åŃĲ
æĬ± æŃī
âĢ »
Ġs k
å¦ Ĩ
Ġe qu
Ġl ook
ãĥ¼ãĥ ł
å·²ç»ı æĺ¯
æ¸´ æľĽ
è¿ĺ ä¼ļ
è¯¾ ç¨ĭ
åª ½
è§Ĥ ä¼Ĺ
éĺ» æŃ¢
çļĦ çĽ®åħī
n um
ãĥ» ãĥ»
æĪĳ å°Ĩ
æŃ §
ãģ ¸
å¾Ī ä¹ħ
å°ı çº¢
é»ĳ æļĹ
æ® ĸ
åį µ
å¤± åİ»äºĨ
äºĨåĩł ä¸ĭ
å¹ «
Ġm ark
çľī å¤´
æĬĬ æīĭ
åĮĸ åŃ¦
é¼» åŃĲ
æĤ ¬
Ġch ar
åĵģ å°Ŀ
éĺ´ èĴĤ
æ¤ Ĵ
çļĦçĬ¶ æĢģ
æĺ¯ ä¸į
Ġth ose
ãĤĵ ãģł
ä¼´ éļıçĿĢ
æĪĳ äºĨ
å°± è¿Ļä¹Ī
æĮ ł
åĽ¾ åĥı
ï¼ļ "
æµ Ĭ
g es
Ġk ann
ç»ĵ å©ļ
è¿ Ī
å¥¹ ä¸į
èĽ ®
çŁ¥éģĵ äºĨ
ĠP l
E R
äºĨ è¿ĩåİ»
ä»¥ æĿ¥
è¢ į
å¤§ èĤīæ£Ĵ
Ġpro cess
åİķ æīĢ
çļĦ éĢŁåº¦
9 9
åĮº åŁŁ
Ġde f
Ġres ult
ãģĹ ãģ¾
Ġim port
å¥³ ç¥ŀ
ç¨ İ
èŃ ĺ
çī© åĵģ
åĮ» åŃ¦
o ch
ä»Ģä¹Ī æĹ¶åĢĻ
èĲ į
ä¸įçĶ± å¾Ĺ
è§ Ī
åīį å¾Ģ
çļĦç¤ ¾
æį §
Ġl oc
æīĢæľī çļĦ
å¿ĺ äºĨ
ãĤ ¬
Ġpart ic
çļĦç´ §
Ġs erv
åıĳ åĩºäºĨ
åĪ ®
éľ į
æĢĢ çĸĳ
å¾Īå¿« å°±
å¼ ĵ
ç³ Ł
Ġcomm un
å½ĵçĦ¶ åı¯ä»¥
Ġsa id
èµ° åĲĳ
æį ·
ess ion
é¦ Ī
æıĲ éĨĴ
çĺ «
é¡ µ
Ġein em
ä¸ ĺ
ä¸¤ ä½į
æľī åĬ©äºİ
æį ħ
ä¹ ı
æĪĳ æľī
è´ ¼
åĵª æĢķ
ãĥķ ãĤ
ur al
æīį æĺ¯
ï½ ģ
â ĺ
ä»İ æľª
ï¼ ķ
ä¸į åłª
a ir
åĴĮ ä»ĸ
åıĪ ä¸Ģæ¬¡
éĺµ éĺµ
å®ī éĿĻ
çļĦè· ¯
al k
çļĦèº« ä»½
è¿ŀ ç»Ń
Ġ `
çĸĳ æĥĳ
ä»ĸ æĺ¯
å¾Ģ åīį
Ġpro blem
åĪ° çļĦ
åı ¬
èŃ¦ å¯Ł
u ro
åĲį ä¸º
Ġe ar
çĪ µ
çļĦèĤ© èĨĢ
åİ Ĥ
Ġd ist
æī ĩ
ç¡® è®¤
å¤§ åĵ¥
æ¬² çģ«
åľ¨ å°ı
ch t
å®ĩ å®Ļ
çļĦçģ «
in ce
at her
åħ¬ åħ±
ç»´ æĮģ
çļĦ ä½ĵ
æĢ¥ ä¿ĥ
åĻ¢ åĻ¢
ä¸Ŀ æ¯«
çħ§ é¡¾
Ġf act
èĦĳ æµ·
åĪĽ å»º
å·¨ ä¹³
åĵĪåĵĪ åĵĪ
å¤§ çº¦
æĬĬ ä½ł
æ¶ī åıĬ
çļĦ æĦıæĢĿ
æĪĲ ç«ĭ
è¿Ļæĺ¯ ä¸Ģä¸ª
ä¸º ä½ķ
ä¸į æ¸ħ
æģ °
çļĦç ¿
åĭī å¼º
## #
2 7
è¢ ĸ
èº« ä¸º
çļĦä¸Ģ åĪĩ
è¡Į çļĦ
èħ ¥
çĻ½ å«©
çŃī æĸ¹éĿ¢
æĺİçĻ½ äºĨ
ç¾İ é£Ł
åĨ Į
Ġs ign
çļĦç ħ
çķ ľ
å°½ éĩı
åĶĶ åĶĶ
äºº çī©
åħ¨ åĽ½
ter s
æĪĳ ä¸Ģ
Ã¼ ck
æĺİ ç¡®
ç¼ĸ åĨĻ
d s
Ġ *
åĽŀ å¿Ĩ
o f
Ġd ata
J ohn
Ġp ol
è¿Ľ æŃ¥
åĺ Ł
èĮ ¹
ĠÂ ł
ä»¥ ç¡®ä¿Ŀ
æĢİä¹Ī ä¼ļ
æĳĩ æĻĥ
å®¢ äºº
l ed
lic he
æīį ä¼ļ
åĭ ¤
æ´Ĺ æ¾¡
ç©¿ ä¸Ĭ
æŃ¦ åĻ¨
éĤ£ ä½ł
ï¼Ł ï¼Ł
æĥħåĨµ ä¸ĭ
å¤ĸ çļĦ
éľ ¸
èª ŀ
ãĥ³ãĥ ī
r ent
æĶ¾ è¿ĩ
åıĳçĶŁ äºĨ
Ġd ire
å® Ľ
Ġs om
ç»¿ èī²
å© ĬåŃĲ
Ġan s
d ay
è½» å£°
åĲĪ çĲĨ
ãĥ© ãĤ¤
æĪ¿éĹ´ éĩĮ
åıĳ æĮ¥
çļĦ çĶŁ
åĸĺ çĿĢ
æĭ ¢
éĢı è¿ĩ
Ġres p
ç¢ ³
ï¸ ı
çĭłçĭł åľ°
Ġm ed
ä¸» è§Ĵ
åĴĮ åħ¶ä»ĸ
ä¸ĭ æĦıè¯Ĩ
et s
æĪĳ å¯¹
æīĭ æİĮ
å¾Ĺ åĪ°äºĨ
ä¸Ģ å¯¹
åĶ ¾
çļĦè§ Ĥ
Ġse x
å¸® å¿Ļ
æ²¡ éĶĻ
ç´§ç´§ çļĦ
Ġt ake
å¸Ŀ åĽ½
å½ĵ ä¸Ń
ä¹ĸ ä¹ĸ
æ·» åĬł
å¸ ¶
Ġc or
åħ¬ éĩĮ
é¡ Į
å¤§éĩı çļĦ
åį »
ä¸ĸçķĮ ä¸Ĭ
è¾ ŀ
9 0
æĺ¯ ä½ł
å¼º è°ĥ
ç®Ģåįķ çļĦ
ä¾ĭ åŃĲ
è¶´ åľ¨
Ġc he
ar s
Ġr ight
a pp
ä»İ å°ı
åĨĻä¸Ģç¯ĩ åħ³äºİ
Ġh and
çĤ¹äºĨ çĤ¹å¤´
èĩª èº«
h al
åı¯ä»¥ ä½¿çĶ¨
è¶ ĭåĬ¿
æ¡ ĳ
ä¸ļ åĬ¡
åĨį è¯´
åı« çĿĢ
è¿Ļ ç¯ĩæĸĩç«ł
Ġ ãĢį
çļĦ åħ³ç³»
è· µ
åħ¬ åŃĲ
æĶ¹ è¿Ľ
è¿Ķ åĽŀ
æ°ĶåĢĻ åıĺåĮĸ
ä½ł ä¼ļ
éģ ©
ub lic
a ut
çļĦ åŃĲå®«
èħ Ĳ
æĤĦ æĤĦ
éĽ ¢
çĪ ª
éĴĪ å¯¹
ãĢĤ \
Ġhe alth
åħģ è®¸
ä¸Ģ å®¶
ãģĪ ãĤĭ
ä»ĸ åĢĳ
Ġhab en
å·¥ ä¸ļ
èĥ¸ åı£
am p
çİ» çĴĥ
ãģĹ ãĤĩ
å¤ª è¿ĩ
äºº éĥ½
åĪĨ ä¸º
çļĦçł Ķ
å®ī æħ°
è° ±
çļĦ ä¹³å¤´
Ġl ess
æİ¨ å¼Ģ
åĲĦ èĩª
ant s
ä¾ ¯
Ġl ar
èª ī
èĶ ¬èıľ
OS S
2 6
åĽ Ĭ
æĸ° é²ľ
çļĦ åıĳ
çļĦ ä¸»è¦ģ
ä¸ī åįģ
äº¤ æĺĵ
ãģ« ãĤĤ
Ġl ife
åł ±
å°Ĭ éĩį
æĲŃ éħį
i qu
èĩª ä¿¡
å½ ¹
æľ¬ èº«
æ³¨æĦı åĪ°
æ°Ķ æģ¯
çļĦ å§¿åĬ¿
éĩį å¤į
éĸ ¢
iv id
N A
åİ¨ æĪ¿
ç¨³ å®ļ
åĻ ľ
è¨ Ń
y m
3 6
ä»» çĶ±
çļĦè£ ¤
h re
Ġo wn
è½ ©
ce pt
if y
å¤§ éĻĨ
æĶ¶ éĽĨ
r t
æĿ¥ æºĲ
è° ĭ
èħ° éĥ¨
å¯Ł è§ī
æŀ ķ
æŀ ļ
å°Ĩ èĩªå·±
æŁĲ ä¸ª
å¾Ī å¤§
ä¸Ĭ æ¬¡
å¼Ģå§ĭ äºĨ
åħ ¼
ç»Ļ å®ļçļĦ
Ġ .
å¯¹ åĩĨ
çĿ¡ çľł
ier en
ak es
èĤĮ èĤ¤
åħħ åĪĨ
ãģĪ ãģ¦
æĮĩ å¯¼
æ¯ķ ä¸ļ
çĤ Ĵ
äºĨ è¿ĩæĿ¥
Ġchild ren
Ġwh ile
åĵ Ł
ï¼Ł ï¼ģ
åįĬ ä¸ª
è§Ħ åĪĻ
å¤ļ çļĦ
as h
çļĦ åıĮèħ¿
åįķ ä½į
éĽ ķ
èĲ Į
çļĦè° ĥ
è¡¨ éĿ¢
ĠE x
æ¬§ æ´²
Ġm us
çİ° è±¡
åģ¥ èº«
åķ §
ä¸Ģ è·¯
å¾Ĺ æĽ´
åºĶçĶ¨ ç¨ĭåºı
ç»³ åŃĲ
çº¢ èī²çļĦ
çĦ °
æĦı è§ģ
Ġe t
éĢĤ å½ĵ
ãĢĭ ãĢģ
Ġc all
æĿ¥ åĪ°äºĨ
h ip
ä½ł è¿Ļä¸ª
Ġp oss
å¯» æ±Ĥ
ç«ŀ äºī
in ess
Th is
u en
å®¶ æĹı
Ġapp ro
âĻ ¡
3 5
éĶ Ĳ
åıĳçİ° äºĨ
re ff
ç±» ä¼¼
çĪ¶ æ¯į
æĬ¬èµ· å¤´
çļĦèĦĳ è¢ĭ
èĩª æħ°
çİ° åĩº
åº¦ åĴĮ
å§ĭ ç»Ī
ç»Ĩ èĬĤ
ĠThe y
t o
çľ¼ éĩĮ
åħ¶ ä»ĸçļĦ
çļĦçŁ Ń
çī¹ å®ļ
Ġte ach
ä¸Ģä¸ª å°ı
ä¸ĢçĽ´ åľ¨
æİ Ģ
èĤ ĸ
èĻ ¹
ä½ Ĳ
ä¸Ĭ çıŃ
Ġg l
åı« æĪĳ
Ġ3 0
Ġc ost
end en
çĩ ¥
çĲĨ è®º
re t
å¯¹ æīĭ
ç į
å¹¿ åĳĬ
æ²¡ åĬŀæ³ķ
çĲ ¼
å¹¶ åľ¨
æ»ļ çĥ«
Ġf ound
éĶ ¦
åĲĦ ä¸ª
è´ ¯
ä¸Ģæł· çļĦ
ãģĵ ãĤĮ
ä¸Ģ é¦ĸ
å¼ Ĺ
çļĦç ª
åĲ¬ äºĨ
Ġd ay
åī ª
ä¸¤ èħ¿
çļĦ æľºä¼ļ
éĿ ´
** ï¼ļ
ï¼ į
æ¼ ł
ä»Ĭ æĹ¥
it al
åıį é¦Ī
åľ¨ æĦı
åĭĥ èµ·
å°ı å£°
é¢¤æĬĸ çĿĢ
å®ŀéĻħ ä¸Ĭ
è¡¨ æ¼Ķ
æīŃ åĬ¨çĿĢ
éĻ· åħ¥
å¼ķ èµ·
è£ ģ
äºĨä¸Ģ åı£æ°Ķ
çª Ŀ
ä¹ĭ å¤Ħ
åį ĵ
Ġres earch
è¯¢ éĹ®
å°Ĩ åĨĽ
åľ° éĿ¢
åį ¢
ç¬ ¼
å®ļ æľŁ
èµ·æĿ¥ äºĨ
å½ĵ æĪĳ
åĲ µ
é¢ ĩ
å¼Ģ æĶ¾
å¯¹ ä»ĸ
æĢ» ç»ĵ
æĮ ª
Ġf am
ri b
p os
åĴ ¿
ç³ĸ æŀľ
è¢ ģ
çļĦè¢ «
ä¸» ä»»
èĢģèĻİ æľº
å®ī å¨ľ
è®¾ ç½®
åĵİ åĳĢ
ç¤¾äº¤ åªĴä½ĵ
an z
mer ic
Ġg r
åĸĶ åĸĶ
ä¼ º
çģ ¼
å¥¹ å°±
çī §
å¹³ å¸¸
çľŁçļĦ æĺ¯
ç©¶ ç«Ł
æĬķ åħ¥
èĥ½ éĩı
ãĢĭ ï¼Į
å¹» æĥ³
è¿Ļ ä¸¤ä¸ª
ä¸Ĭ æµ·
Ġn ow
ç® Ń
éķ¿ æľŁ
èĤī ä½ĵ
èĭ± æĸĩ
ãĥª ãĥ¼
e x
åİ ĺ
å¢ŀ éķ¿
Ġa v
éĢļ çº¢
ĠB l
åĲ¦ åĪĻ
æĦ¤ æĢĴ
Ġeff ect
å¸ ĺ
å¹² åĺĽ
ç´ ħ
ah l
ãĥ ı
èħ ³
çĪ± æĥħ
éĹ´ çļĦ
æĨ ĭ
æľĢ å¾Į
ç¥ Ń
æĺ¯ åķĬ
Ġn ur
n ess
å¤§ å¤§
åı¯ æĢķ
ç¬¬ ä¸Ģä¸ª
èĨ Ĭ
èĲ½ åľ¨
t y
... âĢĿ
ä¿ º
èģĶ ç½ĳ
è¦Ĩ çĽĸ
èĪ ħ
Ã¤ nd
Ġle vel
2 9
i um
Ġg u
æ¥ ½
åĨ· éĿĻ
çĴ Ĳ
èµ· ä¼ı
éħ ·
é¢ĺ çĽ®
æ¯ı ä¸Ģæ¬¡
a ft
æĪĳ è¿Ļ
ä½İ å£°
Ġt est
å¤§ åı£
ent ial
çľĭ èĳĹ
ĠE in
å«© èĤī
æļĤ æĹ¶
Ġg rou
çĽ¸ æ¯Ķ
åį° è±¡
æķ ¦
æ¥ ł
çł´ åĿı
æĪĳ åı¯
åĩł ä¸ĭ
ul l
è¾ ħ
çĻ½ èī²çļĦ
Ã Ĺ
åľ° è¯´éģĵ
æħ Ī
åİĭ åľ¨
æĭĽ åĳ¼
Ġ &
ãĤĮ ãģ°
ï¼Į ãĢį
çº ½
Ġl ang
é¥ ¼
å¿į åıĹ
é«ĺæ½® äºĨ
çľ ¨
Ġc our
è¿ľ å¤Ħ
Ġad v
ãĤ Ģ
åĩº éĹ¨
ru ct
åľ° çĤ¹
æĤ Ł
æŃĮ æĽ²
ç¿ Ķ
éĿ ĸ
Ġw ater
åĸ· å°Ħ
éĹŃ ä¸Ĭ
æĿ¥ çľĭ
ãĥ ľ
å¸ Ĳ
çĽ Ĩ
è´ ¤
åŀ «
æī¿ è®¤
å±ı å¹ķ
æĲ ¬
od y
çļĦ åĬĽéĩı
è¾ ¦
åĸľæ¬¢ çļĦ
çĶ¨ æīĭæĮĩ
çķĻ åľ¨
ç´« èī²
ç¾İä¸½ çļĦ
éĿ¢ ä¸´
æĢĿ ç»´
è¿ĺ å¥½
æıī æĲĵ
ä½Ĩ ä»ĸ
çģ« çĥŃ
id es
çīĽ å¥¶
pr int
äºĨ ä¸Ĭåİ»
çļĦè¦ģ æ±Ĥ
Ġc ent
ä¸į å®¹æĺĵ
åĲĳ ä¸ĭ
ç¿ ł
è¤ ²
é ¨
å¿ĥ æĥ³
æĺ¯ çĶ±
Ġz ur
å®Į æķ´
çľĭåĪ° å¥¹
ä¸į è¶³
èĪĶ èĪĲ
ãĤĪãģĨ ãģ«
å¤ ī
çĽ Ĺ
âĢ¦âĢ¦ âĢ¦
æĪĲ éķ¿
re ad
Ġre al
å¿į èĢĲ
ä¸Ģ å¼Ģå§ĭ
ãĢģ ãĢĮ
åīį åĲİ
éķ¿ æĹ¶éĹ´
èĳ ±
æµª è´¹
æĺ¯ å¥¹
æĹ¶ åĪ»
åı Ľ
ir on
ãĥ Ķ
åĲĳ åĲİ
æĪĳ å¥½
åĮ ¹
è½¬ æį¢
Ġle t
å¾Ī éļ¾
äººç±» çļĦ
å®ĥä»¬ çļĦ
p en
éĢ Ĩ
ãģ£ ãģ¨
æ¶¦ æ»ĳ
ĠkÃ¶n nen
å¹´ çºª
Ġpro f
ç§ģ å¤Ħ
8 8
çĿĢ éĤ£
çİ°åľ¨ çļĦ
æĮ ¨
åĽŀ äºĨ
èĢģ å¤´
éĢĻ è£¡
Ġaut hor
éĺ ģ
åŃ¦ ä¼ļ
æĿŁ ç¼ļ
ĠâĢ ŀ
èĢĮ ä¸įæĺ¯
åĲĥ äºĨ
è¯Ħ ä»·
åĲ ¾
çľĭ ä¸Ĭåİ»
Ġbe fore
g t
ar m
.... .
ãģ ĸ
ĠA b
ç´§ç´§ åľ°
æ· Į
çī© ä½ĵ
Ġp os
æ²Ĵ æľī
èĦ «
ä¸» äººçļĦ
çļĦèı Ĭ
³ èĨĬ
çļĦèĦ¸ é¢Ĭ
åĲ ģ
ä½ł çŁ¥éģĵ
Ġto t
å¤Ħ äºİ
é¥ ¿
æ³¨æĦı åĬĽ
as on
åĵĪ åķĬ
æŃ§ è§Ĩ
ç» «
ä¼ĺ åĬ¿
æ¸ ¡
ä¸Ģ å¹´
æĪĳ æĿ¥
æ¸ħ æ´ģ
Ġex t
ï½ŀ âĢĿ
åħ³éĶ® è¯į
æ¸ Ĺ
èĲ¥ åħ»
å¤ı å¤©
å¦ ©
iz ed
æģ Ń
ĠT o
ãģĤ ãĤĬãģ¾ãģĻ
è¯Ĺ æŃĮ
Ġsu pport
è¡¨ æĺİ
åħ¶ æ¬¡
æıĲä¾Ľ äºĨ
æĬĬ ä»ĸ
Ġle ad
èĬ Ŀ
â Ĩ
ç© ·
ä¼ļ è¢«
Ġd own
å¯¹ èĩªå·±
åľ ĵ
ï½ ī
æĺ¯ è¦ģ
æ© Ļ
he d
Ġb r
æĪĳ è¿ĺæĺ¯
f Ã¼
çļĦ å»ºè®®
ä¸ĭ å¤´
çŃī åĪ°
æ®µ èĲ½
åħ¶ä»ĸ äºº
ä¸Ģ æĹ¦
é«ĺ æķĪ
æĻ¶ èİ¹
å°ı åŃ©
èĩ ī
åĲĮæĹ¶ ä¹Ł
åĴ Ĵ
çļĦèģ Į
å¾Ģ ä¸Ĭ
Ġp ur
å¥³ åŃ©åŃĲ
æľĢ å¥½çļĦ
å¸¸ å¸¸
éĨĴ æĿ¥
çļĦ å¾Ī
åħ± åĴĮ
é»ĺ é»ĺ
å°± å·²ç»ı
æĽ ¹
åĴ¬ çĿĢ
v ing
è¿Ļä¹Ī è¯´
äº«åıĹ çĿĢ
æ³ª æ°´
çļĦ çľ¼çĿĽ
æľī æĹ¶
a ve
D ie
ï¼ ¡
ĠA nd
è¨ Ī
lich en
ä¸į åĬ¨
ãģ£ãģ¦ ãģĦãĤĭ
å¯ Ħ
Ġs er
æľīäºĽ ä¸į
è¼ ķ
M OSS
Ġ1 00
èį¯ çī©
äºĨ åĳ¢
åĬł éĢŁ
æĳ Ķ
as k
åĨį ä¸Ģæ¬¡
âĿ¤ ï¸ı
Ġun ter
éĻĮ çĶŁ
æ¯Ķ ä¾ĭ
æĲľ ç´¢
ãģ« ãģ¤
æĬĵ çĿĢ
æĦī å¿«
¡ çĮ®
æĪĳ ä¹Łä¸į
ãģĦ ãģĦ
ç¼ĵ è§£
ãĤĵ ãģ§
èĦ± ä¸ĭ
ãģĹãģ¦ ãģĦãĤĭ
æ£ ī
Ġm em
èĵĿ èī²
æĳĺ è¦ģ
ra in
Ġdes ign
å°± æľī
è¿Ļ ä¸¤
åĲĳ æĪĳ
åıĳ æ³Ħ
Ġm ade
æ£ ĭ
è¦ ĸ
èĪ Ī
ä¸« å¤´
çļĦ æĸ°
æ³ķ åĽ½
åĨį åĬłä¸Ĭ
çľĭçĿĢ æĪĳ
æĭ ½
ãĢĭãĢģ ãĢĬ
ç Ģ
çļĦ çĶ¨
ä»Ģ éº¼
çļĦ ä¸»
è¯· ä½ł
ç¾İ èħ¿
çļĦçħ §
ä¸Ĭ èº«
çĿģ å¼Ģ
çļĦçĪ ¶
ç»Ĩ èĥŀ
æ°ĳ æĹı
k eit
è½» æĺĵ
ä¸įè¡Į äºĨ
äºĨä¸Ģ åı£
éħ¥ éº»
éŃĶ åĬĽ
åľ¨ å¤§
am es
è¾Ī åŃĲ
æŃ ª
é¼ ł
è§Ħ åĪĴ
ãģĹãĤĩ ãģĨ
çļĦçłĶ ç©¶
çļĦçģ µ
ç¾İ åħĥ
èİ· åıĸ
æĭĶ åĩº
çŃ ±
Wh at
end e
r on
åħ ¹
ç´§ äºĨ
åĲĲ åĩº
æ·±åº¦ åŃ¦ä¹ł
æµģ ç¨ĭ
é¡º åĪ©
ç½¢ äºĨ
æīĭ æ®µ
éĿĴ å¹´
Ġno ch
ãĢ ħ
ä¼ĺ ç§Ģ
Ġprov ide
äº ı
å½¢ å®¹
ä¸Ģ éĿ¢
ä¸Ģ åĬ¨
å¯ º
ä¸º æĪĳ
è½ ¨
äºĽ ä»Ģä¹Ī
åŃĹ æ¯į
è¿Ļ ä»¶äºĭ
èĪĮ å°ĸ
çŀ ³
che s
è´ ¾
èĨ ¨
ãģ¡ ãĤĥ
çļĦ æĥ³æ³ķ
Ġm at
æĪ¿ éĹ¨
è¿Ļä¸Ģ åĪĩ
å¿ ľ
is ion
èĦļ è¶¾
èĬĤ çĽ®
æ¼ Ĩ
çļĦ æĬ½æıĴ
åķ ¾
å» Ĭ
çĽ ¾
ĠS o
ç²Ĺ æļ´
ãĥ ļ
Ġdur ch
) :
ä¼ļ ä¸įä¼ļ
åĲ¬ èµ·æĿ¥
çļĦæ·« æ°´
å¾ģ æľį
åıĺå¾Ĺ æĽ´åĬł
Ġ ide
åı¯ è§ģ
èĭ¥ æĺ¯
ï¼ Ķ
æĮ Ľ
ĠA d
Ġt erm
as es
le x
èµ° è¿Ľ
ãģ§ãģį ãĤĭ
åŃĹç¬¦ ä¸²
èĩªåĬ¨ åĮĸ
äºĨ ä¸ĭ
è½ °
éĽ Į
Ġed uc
æķĻ å®¤
è¯ķ è¯ķ
å°ĳ å¦ĩ
æº ĥ
åĦ¿ çļĦ
çĪĨ åıĳ
å¥³ çİĭ
åĺ ²
åĲ¸ æĶ¶
æİ¨ å¹¿
ä¸½ èİİ
æĦī æĤ¦
é ī
ord ing
Ġdur ing
çļĦæĥħåĨµ ä¸ĭ
å¬ Į
æ¬º è´Ł
å½ ·
åĨ° åĨ·
éģ ĭ
èł ķ
æĿ ±
ä¹Ł æ²Ĵ
èĢģ å®ŀ
è² »
ï¼ ĸ
ĠA s
è³ ĩ
æĿ¿ ä¸Ĭ
åĿļ æĮº
è¡ ĵ
åľ¨ åĮ»çĸĹ
æī Ĵ
ç«Ļ èµ·æĿ¥
form ula
ra g
èĢĮ åľ¨
é»Ħ èī²
åĿ Ľ
èģª æĺİ
ä¿Ŀ çķĻ
ãģł ãģ£ãģŁ
æ¡ Ĥ
çļĦ éľĢæ±Ĥ
ä¸Ń æıĲåıĸ
ĠG e
æĢĢ ä¸Ń
Ġme hr
éĤĦ æĺ¯
ī æĮĽ
èĮ «
æĶ¶ åħ¥
æĽ ¦
éĺ² æŃ¢
æº ħ
ãģŁ ãģĦ
Ġst and
å¸ «
Ĥ èº
at or
ĠA us
åıĮ èĦļ
åľ ĭ
é¡ ¯
åĲĮ äºĭ
æĪĳä»¬ åºĶè¯¥
æŀģ éĻĲ
åı° ä¸Ĭ
å± Į
ç· ļ
ç¬ĳ å®¹
çĦ¦ èĻĳ
è®© ä»ĸä»¬
æĽ´ æĸ°
æħķ å®¹
æĸ¹ çļĦ
è¿Ľ åĩº
çªģ çł´
' m
åľ¨ å®¶
å¤§ åĬĽ
æ¸ħ çĲĨ
çļĦçŃ Ķ
Ġb us
æ¹¿ äºĨ
å¯¹è¯Ŀ åĨħå®¹
çĶļ éº¼
è®ĵ å¥¹
ãĥ Ħ
åľ¨ ä¸Ģä¸ª
ãĤ ¶
æ»ĭ åĳ³
v ed
æĮº ç«ĭ
å¥½ çĪ½
ä¿ Ħ
Ġl ist
å¼º è¡Į
Ġsm all
éĶĻ äºĨ
è®² è¿°
éĽĻ èħ¿
ç¼ĸ è¾ĳ
æ·« éĿ¡
å«© ç©´
æĦŁåıĹ çĿĢ
5 00
Ġm ust
Ġ ãģĬ
éĢ Ŀ
åĪĨ éħį
ç¿ °
çļĦ é¾Łå¤´
ot e
åĿĲ ä¸ĭ
éĿĴ æĺ¥
çļĩ å¸Ŀ
æĪ ³
ä¼ į
æĭ Į
å®¢ æ°Ķ
ĠO n
åŃ£ èĬĤ
äºĨ ä¸įå°ĳ
éĤ »
g in
ĠA meric
æĪĳ åĸľæ¬¢
Ġf re
å® ´
Ġp ower
èĩª è¡Į
äºĨä¸Ģä¼ļ åĦ¿
å°± å¥½
æĥ³ ä¸įåĪ°
è¾ ¼
å½ĵ åĪĿ
ĠF r
æĬĹ æĭĴ
èĢĮ å¥¹
åĵĢ æ±Ĥ
çļĦ åıĮæīĭ
åĪ« çļĦ
æ¿Ģ æĥħ
çļĦçĤ ¹
ç»Ħ åĲĪ
ä¸Ģ åı¥
st en
æķĻ åŃ¦
åĨ² åĬ¨
Ġp at
å®ŀ åĬĽ
ç¥ Ī
æ¸ħ éĨĴ
Ġinter est
çŁ ©
æĽ² çº¿
åıª è§īå¾Ĺ
æĭī çĿĢ
iv ing
å© ´
æ³¨ éĩį
å¤± è´¥
æİ¨ åĬ¨
W e
æ¬ ł
çļĦè¡¨ çİ°
å» ·
å°¾ å·´
æľĿ çĿĢ
è« ĩ
æĿ ı
åª ³
å« ģ
çĶ· åıĭ
Ġor gan
ä¸į å¤Ł
èĩª åĪĨ
æĹ¶ çļĦ
è¿Ļ æĺ¯ä¸Ģ
è¾¹ çļĦ
é¸¡ èĽĭ
åı¦ ä¸Ģåıªæīĭ
Ġtot al
ç¬ ¨
æİĴ æĶ¾
åĪ© äºļ
åĪĽ æĦı
æĭ ĵ
å· «
åī ¥
æľīä¸Ģ ç§į
è¿ĩ èº«
èĴ ¸
å¹´ æĿ¥
æ¦ ¨
Ã¶ r
å¯¹ è±¡
ãĥ Ľ
éĢ Ľ
çļĦçĸ ¼
éĺ´ æĪ·
çļĦèĤ Ľ
åĲĦ ä½į
ãģ Ĳ
éĻ µ
ãģ® ãģ¯
å¤ª å¤ª
æĹł éĻĲ
Ġpro ject
äº§çĶŁ äºĨ
ãĤŃ ãĥ£
èĩª ä»İ
éĿĻ éĿĻ
ãĢĤ -
Ġw rit
ä¸į è§ī
åĨ ¯
æĴ ¤
æŀģ ä¸º
çĻ¾ å®¶
R e
X X
çŁ ¿
è§Ħ æ¨¡
çļĦè£ Ļ
p ar
æĪĳ æĬĬå¥¹
ä»ĸ ä¹Ł
èľ Ĥ
ãģ ²
èĬ ·
å®¶ å±ħ
åĨĴ éĻ©
r al
ä¾¿ å®ľ
äºĨ åķĬ
Ġstud y
é»ĳ èī²çļĦ
èī¯ å¥½çļĦ
æķĻ æİĪ
è¿· äºº
éĺ¶ æ®µ
s o
Ġm ight
èĥ ĥ
åĭ ¢
åľ° çļĦ
éĿ¢ ç§¯
l ish
çļĦ éªļ
çİ° åľº
é¥ ¥
çİ© ç¬ĳ
çļĦ æķħäºĭ
èĴ ĭ
7 5
ç¿ Ĵ
æİ Ĳ
åĵ Ħ
ro l
Ġh um
å¼º å¥¸
æīĵ å¼ĢäºĨ
éĵ¶ è¡Į
éĤ® ä»¶
Ġf in
I t
åį³ åı¯
Ġans wer
çļĦ éģĵ
å¤« å¦»
æµĳ åľĨ
ä½Ĩ åľ¨
æ¨¡ ç³Ĭ
w ay
ï¼ ı
ãģ¨ ãģª
w h
en g
Ġm ach
æ¯ı ä¸Ģä¸ª
åį³ ä¾¿
è®ĵ æĪĳ
ï¼ļ -
ï¼ļ ```
å®ŀ è·µ
å¡ĳ æĸĻ
ä¼ Ĳ
ĠN ew
åģ¶ å°Ķ
çº· çº·
æĺ¯ è¢«
re en
äºº åľ¨
èĬ ½
æıĲ çĿ£
çļĦ å¤ĸ
å® ı
ell en
æĦıåĳ³ çĿĢ
n et
åĴ ¦
Ġact iv
åĽĽ èĤ¢
çļĦç¨ ĭ
v es
v iron
æĿ Ĩ
at s
éĥ¨ éĹ¨
æĶ¯ æĴĳ
æĥ³ æĥ³
æīĢ åľ¨
ä¹± çļĦ
Ġha pp
èµ° åĩº
å¸¦ æĿ¥äºĨ
ç»Ŀ æľĽ
é¤ ¨
è¿ĩ åĲİ
Ġst ill
çĸ ı
éĴ ¥
Ġth ough
ge b
çµĤ æĸ¼
è§Ĩ çĿĢ
çļĦå°ı èħ¹
åĽŀ æĿ¥äºĨ
æĪĳ æ²¡
éĩį çĤ¹
l er
çļĦè Į
æī¶ çĿĢ
å¤´ çļĦ
è¯Ŀ é¢ĺ
èģ ½
ä¸Ģ åľº
è´£ ä»»
èĤĽ éĹ¨
Ġd r
Ġc are
è¿Ļ ä¸Ģæ¬¡
å¥¹ çļĦèħ°
ä¸ĵ éĹ¨
19 8
åħ³ å¿ĥ
çļĦçŁ ¥
å¥¹ çļĦèº«ä½ĵ
æģ į
æģ¶ éŃĶ
Ġp ass
çľ¼åīį çļĦ
ãĤµãĤ¤ ãĤº
æĢ» ç»Ł
ä¸į èĪĴæľį
el d
çĤ¹ çĤ¹å¤´
å¦ ĵ
åĩºçİ° äºĨ
m an
åį´ æ²¡æľī
in ed
Ġp op
éĢĤ éĩı
éŃħ åĬĽ
Ġth ree
éĤ£ä¹Ī å¤ļ
çļĦ åĴĮ
æĺ¯ æľī
æĻº æħ§
æĴ ħ
å¾Ĺ äºĨ
Ġexam ple
æ¡Į åŃĲ
çļĦè½ ¦
å¥¹ è¯´
å±ķ å¼Ģ
çļĦå¤§ é¸¡å·´
Ġ est
Ġb is
çĦ¡ æĸĻ
ä¿ı èĦ¸
Ġc ar
ãĤ¹ ãĥĨ
Ġe l
åľ° å°Ĩ
çļĦå°ı åĺ´
Ġunder stand
éĩį éĩı
åįĬ å¤©
c ul
ç½ĳ ä¸Ĭ
ãģ¾ ãģŁ
å¾Ī æĺ¯
çļĦä¸Ģ äºĽ
éĽĨ åĽ¢
æŁĲ ç§į
Ġbet ter
Ġrequ ire
ç»ı åħ¸
æĸ¯ çī¹
çģµ æ´»
å¹¾ åĢĭ
è£ Ĩ
çļĦè´ ¨
ï½ģ ï½
èĩªå·± çļĦèº«ä½ĵ
æĢ§ æ¬²
çļĦæĥħ æĦŁ
èĲĿ èİī
çļĦè Ľ
Ġs l
Ġbel ie
Ġimport ant
å»º è®¾
çīĻ é½¿
çĭłçĭł çļĦ
ater ial
ç²¾ çģµ
æľīä¸Ģ æ®µ
\ "
ä¸Ģ èº«
åħ¨ éĥ½
Ġg row
Ġag ain
åĬ Ŀ
çĳľ ä¼½
Ġa round
èĥ İ
ou se
çŃ Ĵ
æĢİ éº½
ãģ© ãģĨ
è¯ ¶
å¼ ¦
æĭ Ń
æ·± åĪ»
æİĴ åºı
å¦© åªļ
ä¹Ł å¼Ģå§ĭ
ä¸¤ æł¹
æµģ è¡Į
éĽ £
çļĦèº« å½±
æ¸¸ æ³³
å«Ĥ åŃĲ
ä¸Ģ æĹ¶éĹ´
èģ ²
ĠC l
ç»´ æĬ¤
ĠJ ahr
æĺ¯ æľĢ
è´ ¦
æĪ¿ åŃĲ
çĴ ĩ
ä»¥ å¤ĸ
å¼º å¤§
T o
ä¸Ń å¹´
å½ĵ åīį
ç»Ļ èĩªå·±
åİĺ ç±³
çļĦ æķ°æį®
ãģĹ ãģĭ
å°ı èħ¿
åįģ äºĮ
é¥® æĸĻ
æĬļæĳ¸ çĿĢ
ç¬¬äºĮ å¤©
à ¤
ä¼º åĢĻ
ĠS h
Ġg reat
å®ł çī©
ä¸į ä½Ĩ
Ġs ay
Ġ1 6
çĶŁæ´» ä¸Ń
æĦŁ åħ´è¶£
ill s
åħ±åĴĮ åĽ½
ver s
ä¸Ģ å¤§
è· Į
Ġe le
æ¯Ķ èµ·
åĲ¬ è¯Ŀ
éĵ Ń
ĠM ar
èĮ µ
ied er
çļĦè¯Ŀ è¯Ń
èµ ĭ
æłĩ é¢ĺ
æĦı å¤§åĪ©
è¡Į æĺŁ
æĽ´ ä¸º
ro ss
ç¾İ å¦Ļ
ä¸¤ äººçļĦ
çļĦèº« æĿĲ
åı¯ä»¥å¸®åĬ© æĤ¨
âĢ¢ âĢ¢
äºĶ ä¸ª
ç¼ĵ æħ¢
æ±Ĥ æ±Ĥ
çĿ¡ çĿĢ
ou n
åĽŀ åĪ°äºĨ
ãĤ¿ ãĤ¤
Ġcur rent
å² ļ
ä¸Ģ åĢĭ
èĲ¥ éĶĢ
åĪĨ åŃĲ
åĪ ĥ
åı£ èħĶ
ĠI s
çľŁçļĦ å¾Ī
con om
äº¤ åĲĪ
å¥ĸ åĬ±
å¥³ çļĦ
ç¢° åĪ°
A N
ä½ľ èĢħ
éľĢè¦ģ æ³¨æĦı
æī¾ åĪ°äºĨ
r ie
çļĦèĤ ¥
çı¾ åľ¨
ãĤ ®
çļĦç ³
åı¯ä»¥ è®©
æģ¶ å¿ĥ
èĤ ĥ
è¯Ħ è®º
çŃī çĿĢ
è¿Ļä¸ª æĹ¶åĢĻ
ãĤģ ãģ¦
æĪĳ èĥ½
ä¸į æ»¡
åħ¬ å¼ı
åı¤ ä»£
è¹ Ī
åĪļ å¥½
Ġn ame
ä¸į æĸ·
èĬĤ å¥ı
çļĦè½ ¯
a j
ï½ŀ ãĢį
Ġfollow ing
çļĦ çľ¼
Ġbu ild
al ity
èĲ Ħ
åĩı è½»
at z
ãģ® ãģĭ
åģ ´
çĽ¸ åºĶ
ãģª ãĤī
éļĲ çº¦
åľ° ä¸ĭ
ä¸į åİ»
åŁ¹ è®Ń
T om
æł¹ éĥ¨
¡ èĲĦ
çº¢ äºĨ
æİ °
æŃ» çļĦ
r Ã¤
å°Ħ åĩº
æĭį æĳĦ
eth ing
ä½ķ åĨµ
èł ¢
ivers ity
åħ ®
å°ı å°ı
et er
è¯ģ æį®
æĺ¯ ä¸ºäºĨ
Ġis s
èģĶ åĲĪ
äºĨ è®¸å¤ļ
å¨ĩ åĸĺ
è§Ĩ è§ī
ãģķãĤĮ ãģ¦
æĹ¶ å°ļ
ĠE ng
ç²¾ èĩ´
æĹł äºº
Ġi hr
çĲĨ çĶ±
çł ¸
çİ© å®¶
å¾Ģ å¾Ģ
å°½ åı¯èĥ½
åŁº åĽł
åħ¨ åĬĽ
çĨ Ļ
éļĲ èĹı
å°¿ æ¶²
ð Ł
éĤĢ è¯·
å¯¹ ä½ł
3 1
ä¸Ģ åĿĹ
æĪĳ ä¸įçŁ¥éģĵ
æĻ ĭ
ä½ł åĪ«
ä¸ľ æĸ¹
ãģĳ ãģ¦
å¼¹ æĢ§
Ġcons ider
åĹ İ
one y
æĳĩ äºĨ
å¹´è½» äºº
çļĦ æĬĢæľ¯
æĢª çī©
ä¸ĵ æ³¨
éĢ »
æĹĭ è½¬
ä¸įçĶ± èĩªä¸»
æł¸ å¿ĥ
è¿ĩ åº¦
æĢ§ æł¼
ä¾¿ åĪ©
ä¸Ģ åı£æ°Ķ
å¾ª çİ¯
çļĦ æĮĩ
ä½ĵ èĤ²
çĭ ¸
éļı æĦı
Ġen g
é¡ ŀ
èĦ¸ é¢Ĭ
çľŁæŃ£ çļĦ
åľ¨ éĤ£éĩĮ
Ġst e
ä¼ł æĿ¥çļĦ
ç»Ĩ ç»Ĩ
çļĦ åĨħå®¹
ä½ł åı¯
èº« æĹģ
ç¯ ®
Ġen er
çļĦè º
Ã ©
è¿ĩ äºİ
æ¡ Ĳ
çļĦèĤī ç©´
Ã¤ hr
çļĦ å¥³åŃ©
èĮ Ħ
å£« åħµ
éĿ© åĳ½
âĸ ł
æĪĲ ç»©
è¯Ń æ³ķ
æľĢ æĸ°
y pe
in c
Ġal le
æĥħ æ¬²
l t
Ġt yp
éĿł åľ¨
çĻ¾å®¶ ä¹Ĳ
w ork
å°ı æīĭ
åĪĨ å¸ĥ
å¿ĥ å¤´
it ive
" ,
å¤§ æīĭ
Ġof ten
æĶ Ģ
è ¬
èĢ į
ĠB ut
åŃ¦ä¹ł åĴĮ
æľ¬ ä¹¦
å¼º å¤§çļĦ
ä»Ĭ å¹´
ç¶ ļ
b l
Ġw ur
çļĦè§ Ħ
Ġa ber
åħį è´¹
ä¸Ĭ è¡£
æĳ Ĭ
Ġre du
end s
é¹ ¿
ä¼ļ åľ¨
æ¯ ħ
ç©¿ è¿ĩ
æĪĳ è®¤ä¸º
éĤ£ å¯¹
is k
æĢ§ èĥ½
æĭ ¦
Ġim p
3 3
çļĦ å°Ĩ
ä» ĵ
æŁ Ħ
å¹¶ éĿŀ
çĬ¹ å¦Ĥ
L E
le ar
åĩ Ľ
éĢī é¡¹
æ²¿ çĿĢ
å¥¹ å·²ç»ı
åį´ è¢«
æħ ĭ
åıĤ èĢĥ
æĹ ¨
ĠM e
um ent
ä¸¤ çīĩ
ä¿Ŀ åģ¥
è¸ Ŀ
ãģª ãģĮ
æĸŃ äºĨ
ç®Ĺ äºĨ
è¿ŀ è¿ŀ
è© ¦
Ġ5 0
Ġ/ >
ç§į æĹı
èĨ¨ èĥĢ
æ°§ åĮĸ
n ers
s p
Ġ çļĦ
å£ ²
ra ph
å®£ å¸ĥ
åĶ¾ æ¶²
Ġr un
ĠS c
æĭħ ä»»
å¤ļ æł·
ãģĳ ãĤĭ
Ġsec ond
æĤ¨ éľĢè¦ģ
Ġcon f
ãģĹ ãģı
åıĳçİ° èĩªå·±
éĺ Ķ
å¹³ æĸ¹
è·Ł ä½ł
ä¾ £
æĪĳçļĦ æīĭ
åıĪ è¦ģ
è¯´ä¸į å®ļ
å®¤ åĨħ
åĬ© æīĭ
åĬ¨ èµ·æĿ¥
èī °
ĠF l
å¤± æľĽ
é Ħ
æĪĳ åıªæĺ¯
äºĨä¸Ģ åı¥
åĭĩ æ°Ķ
å·® å¼Ĥ
åĴ ¨
ä¸į éľĢè¦ģ
æŃ ĩ
ä½ı æĪĳ
çļĦèº« èº¯
ĠD as
Ġwith out
åı£ åĳ³
æŃ£ éĿ¢
çķ¶ çĦ¶
çµĲ å©ļ
æĶ¾ åĪ°
æ¨¡ æĭŁ
ĠWh ich
Ġind ivid
ç¤º æĦı
çļĦèĬ Ĥ
ï¼Į âĢĿ
æĹ¶ ä¸įæĹ¶
æĭī å¼Ģ
æķĻ å¸Ī
æ²¡ äºº
ĠU S
ä¸į å¤§
Ġh ist
çĭ ®
å¤§å¤ļ æķ°
å§Ķåĳĺ ä¼ļ
å¤© ä¸ĭ
è¡Į æĶ¿
æīĵ çĶµè¯Ŀ
è§Ĩ çº¿
ä¸¤ è¾¹
èĭ± éĽĦ
cc ess
ä»Ģä¹Ī äºĭ
ãĤ·ãĥ§ ãĥ³
ä»ĸ å°±
å¿ĥ èĦı
æĢĢ åŃķ
è´ º
çŁ ®
åĸ· åĩº
æĪĲ çļĦ
çĭ Ń
æ¢¦ æĥ³
ç» ¯
çļĦç² Ĺ
å´ ĩ
æ§ ½
æĲĵ æıī
viron ment
å²³ æ¯į
ä¸ Ľ
pl oy
åĿı äºĨ
in ing
he s
éģ Ķ
æĭį äºĨ
åħ·ä½ĵ çļĦ
ç¬ĳäºĨ ç¬ĳ
å°ĳå¥³ çļĦ
ç²Ĺ å£®
åıĪ æĺ¯ä¸Ģ
Ġg iven
çļĦèĥ ¯
Ġprodu ct
ç½ ²
ab ility
Ġval ue
t imes
ç±» çļĦ
è¤ ª
Ġdet erm
è Ł
çľĭ æĪĳ
Ġf r
æĲ º
æĵ ħ
Ã¤ r
å®Ĺ æķĻ
A R
v iew
åĨĻ ä½ľ
è¯ ¡
çļĦç© ´
æī® æ¼Ķ
ç»Ļ äºĪ
çĪ± ä½ł
æ½ Ķ
ãĤĪãģĨ ãģª
w ays
çĨ ±
çļĦè§Ĩ çº¿
çļĦçĹĽ èĭ¦
æ¸ Ĭ
çĳ °
åı¯ éĿł
åıĮ æĸ¹
é£ŀ è¡Į
åį ĳ
è§īå¾Ĺ èĩªå·±
eth od
æĢİ éº¼
å¥¶ å¥¶
om en
æ¸ħ æ´Ĺ
æĸ ©
å¤ļ ä¹Ī
åĹ ¤
ç¤¾ åĮº
Ġsu g
w are
äºº å£«
éĥ¨ çļĦ
æ¼ ĵ
ill ion
äºĴ åĬ¨
ãģ ¶
çļĦ åİŁ
ç¾ŀ æ¶©
Ġs um
æĸ¯ åį¡
è¿Ļ å¯¹
å¤© å¤©
åĲĳ çĿĢ
åľĨ æ¶¦
çļĦæ°Ķ æģ¯
èµ Ĳ
çĽ¸ ä¼¼
æĻ¯ çĤ¹
æĬ ¼
Ġfun ction
Ġsom ething
å¥¹ ä¸Ģ
èĤī ç©´
é«ĺ ä¸Ń
æīĵ æī®
ä» ²
ä¹Ł å¥½
ãĤĴ è¦ĭ
oc us
å®£ ä¼ł
æķĮ äºº
å¾Į ä¾Ĩ
çī¹åĪ« æĺ¯
çļĦè½ »
4 8
ä½İ ä¸ĭå¤´
ib t
äºĨ èĩªå·±
ãĥ İ
ä½ł åİ»
Ġre ally
é£Ł æĿĲ
çļĦèĭ ±
æľī ä¸ĢäºĽ
åĲĥ å®Į
Ġv is
çļĦèĦ¸ èĽĭ
ä»Ļ åŃĲ
ä»İ å¥¹
çĮĽ çĥĪ
è¶ ķ
èı Į
äºĴ èģĶç½ĳ
è¿ ģ
åı£ æĦŁ
ãģĽ ãģ¦
æŁ ¯
åŃ¦ å®¶
o le
éļ Ľ
in a
åĩº çĶŁ
æľĢ éĩįè¦ģ
è§ģ éĿ¢
åıį å¯¹
å¥Ĺ å¼Ħ
è§Ħ å®ļ
èĥ ĸåŃĲ
è¶Ĭ åıĳ
ĠÂł ĠÂł
åĪ ¹
äºĨä¸Ģ ç§į
æħ İ
ä¸ĢèĪ¬ çļĦ
åľ° ä½į
å» ī
Ġex p
èĻļ æĭŁ
Ġ X
å¤© ç©º
çļĦç¾ ŀ
åĴ¨ è¯¢
ä¸į æĪĲ
éĩį éĩį
æľº æ¢°
åħ± æľī
ç²Ĺ å¤§
è´Ń çī©
æŃ ¡
is ter
ä¹Łä¸į èĥ½
éĢĻ éº¼
æı¡ çĿĢ
ost en
åı¦ä¸Ģ æĸ¹éĿ¢
æĢ§ äº¤
are d
ãĥĩ ãĤ£
m in
éĥ½ å·²ç»ı
çļĦä¸Ģ ç§į
ain s
ä½ł çİ°åľ¨
Ġs ent
è®¿ éĹ®
I N
åıª ä¼ļ
èĤ© èĨĢ
æīĭ ä¸ŃçļĦ
è½¬ å¤´
çļĦ éĹ¨
Ġch ange
' ve
æĶ¾ åħ¥
ig er
åĹ ħ
5 5
å¥½ åĲĹ
ä¸Ģ æ¨£
Ġe as
~~ ~
æĺ¯ è¿Ļæł·
èĢĮ åıĪ
èª °
Ġth ings
æĸ ĳ
Ġh ere
Ġbe h
è®¾ æĸ½
åĬŁ å¤«
åı¯ä»¥å¸®åĬ© ä½ł
è¦ģ åİ»
æĢ» çļĦ
æĬĢæľ¯ çļĦ
åĳ ķ
å© ª
çİĽ ä¸½
l ess
å£ ¶
Ġto p
æ°´ çļĦ
åįģ è¶³
åĲĵ å¾Ĺ
ä¸Ģ åįĬ
åİĭ æĬĳ
çĶŁ çĲĨ
çļĦ åľ¨
å¤ľ æĻļ
å¥½ å¤Ħ
èĤ ª
å¦ĩ äºº
èº ģ
çļĦè§Ĵ èī²
Ġwe ek
ãģ§ãģĻ ãģĮ
å°º å¯¸
ï¼ ³
ver n
åĵ¼ åĵ¼
Ġener gy
åıĹ æ¬¢è¿İ
æĢİä¹Ī åĽŀäºĭ
æĻĤ åĢĻ
è¦ģ ä¸į
åıĳ å¸ĥ
çļĦ éĤ£ä¸ª
ä¸Ń åįĪ
èĦļ æŃ¥
çļĦç½ ĳ
æķ ¸
æ»¡ æ»¡
æ¿Ģ çĥĪçļĦ
æħ ¾
ert ain
çľĭ åĩº
éĴ ĵ
´ ä½ĵ
æľī ç§į
å¼Ģ æĿ¥
åĮĸ ä¸º
æľī æĹ¶åĢĻ
åĪ° æĹ¶åĢĻ
åĲ¬ åĪ°äºĨ
å°ĸ åı«
æķĪçİĩ åĴĮ
äºĽ è®¸
åĨį æĿ¥
ĠD er
è ĺ
g r
Ġ| |
èĳ Ľ
èĽĭ ç³ķ
æŃ£ç¡® çļĦ
è¿Ļ ä¸ĭ
èĥ½ ä¸įèĥ½
åŁ¹ åħ»
ãĤ ´
æ²¡ äºĨ
Ġp ot
é»ĳ ä¸Ŀ
Ġst at
Ġpl ace
æĬ¥ éģĵ
çļĦéĺ´ åĶĩ
o ad
çī¹ èī²
\ )
åıĪ è¢«
æ¶Ī èĢĹ
éĤ£ æĪĳ
èĤ º
ä¸ĭ æ¬¡
æīĵ çĿĢ
ind er
çĨŁ ç»ĥ
Ġp ract
çĶ· æľĭåıĭ
åĩł åĪĨ
Ġan al
Ã¼ n
éĹŃ çĿĢ
æľĢ åĪĿ
å±ķ çİ°
our s
ä¸į è¯´
æ» ¿
é¦ ¬
æ® ·
åĤ Ļ
ä¿® æĶ¹
Ġj ed
Ġpl an
èºº åľ¨åºĬä¸Ĭ
Ġf ood
è¿Ľ æĶ»
ï¼ī ï¼ļ
æľĪ çļĦ
çļĦçĸ¼ çĹĽ
ä¼ļ åĦ¿
ç´§ æİ¥çĿĢ
åĲ« ä½ı
ä½ł ä¸įæĺ¯
éĢ Ĭ
çĥ ģ
ĠE uro
ç¿»è¯ĳ æĪĲ
b ar
ä»ĸ è¯´
çľĭçĿĢ å¥¹
åŃĺ åĤ¨
éĢı äºĨ
ĠN e
Ġd u
éĴ¥ åĮĻ
ä¸į æŃ¢
iel d
æĸ Į
å°½ æĥħ
ãĢĭ ãĢĤ
ãģ® ãģĬ
Ġposs ible
( )
è´ «
æĶ¯ ä»ĺ
åĿĩ åĮĢ
åĿ ł
å°¿ éģĵ
ãģ µ
åľ¨ æŃ¤
å¥½ ä¸įå®¹æĺĵ
Ġde p
ä½ł è®¤ä¸º
è¿Ļ ä»½
ä½ł éľĢè¦ģ
æĪĲ åĪĨ
åĹ Ķ
ãģ İ
çŃī é¢ĨåŁŁ
Ġ å°Ĩ
Ġc al
Ġl ot
èĥĮ ä¸Ĭ
Ġme an
Ġlear ning
éĤ£ åıĮ
ãģª ãĤĵ
çĽ¸åħ³ çļĦ
åĨľ ä¸ļ
çĶ¨ èĪĮå¤´
å·´ æİĮ
èĳĹ åĲįçļĦ
é¹ °
Ġpre v
çļĦå¨ĩ èº¯
a ff
äºĨ ä½ł
æīŃ æĽ²
ãģ«ãģ¤ ãģĦãģ¦
ĸ é¢Ī
æĿ¾ å¼Ģ
ä¸į ä¸Ģæł·
æł¡ éķ¿
çŃī æĪĳ
é»ĳ äºº
ä¸º æŃ¢
å§¿ æĢģ
çļĦ åĲĹ
ro ÃŁ
äº µ
å¤§ å°ıå§Ĳ
å¥¹ èĢģéĹĨ
è¡ °
A n
çļĦ çİ¯å¢ĥ
Ġs oll
im m
èĢĥ è¯ķ
ï½ ı
i or
åľ¨ å¤ĸéĿ¢
er en
ç¼ ķ
åıĹ ä¼¤
éĹ¨ å¤ĸ
ç«ĭ é©¬
èĢĮ æĪĳ
ĠTh ere
at en
èĸ Ľ
ä¸Ģéĺµ éĺµ
çļĦ å®īåħ¨
è¿Ļ èĪ¬
ä¼ ª
çĲ ī
éľĩ åĬ¨
è¿ĺ çľŁ
âĨ Ĵ
ä¸Ģ å¤´
èµ ļ
Ġf il
å¤ļ æ¬¡
å®ī å¿ĥ
é²ľ è¡Ģ
åľ° åľ¨
ä¹ĭ æĹ¶
å¼º çļĦ
å¤ļ å¹´
èħ º
ä½¿ åħ¶
äºĨä¸Ģ çĤ¹
ç» ½
æīĵ éĩı
åĳľåĳľ åĳľ
å¤ı åŃ£
ç¨į ç¨į
å· ¡
éĻ °
åºķ ä¸ĭ
æĪĳ å¦Ī
è± ¹
è¿Ļ è¯Ŀ
ä»ĸ äºº
æĭ ĺ
ãĤĭ ãģ¨
çĶ¨åĬĽ ä¸Ģ
è¿İ åĲĪ
ä¸į åı¯ä»¥
æľĢ å¤ļ
æıĲ åīį
ĠH er
è§Ĥ çĤ¹
è¯´ è¿ĩ
åľ¨ ä½ł
çļĦç ķ
Ġdire ct
æĢ§ åĪ«
è° ħ
Ġ1 4
20 21
è®° èĢħ
ãĢĭ ï¼Ī
å®Ŀ å®Ŀ
åºĶçĶ¨ äºİ
å¿µ å¤´
Ġo ld
æ¬¡ æķ°
çĹ īæĮĽ
æĳĦ å½±
ç¾İ å¥½
æĦŁè§ī èĩªå·±
Ã¶ g
è« ĭ
å µ
åģļ å¥½
æİ¢ è®¨
åĪ© çĽĬ
è¿Ļ ä¸įæĺ¯
Ġch ang
ĠA ll
Ġper form
ä¸įèĩª è§ī
éļı ä¹ĭ
ç§ĳåŃ¦ å®¶
å¥³ æľĭåıĭ
éĿ¢ åĮħ
ãģĭ ãģª
åį° åº¦
çļĦ æ¬²æľĽ
ä¸¤ é¢Ĺ
éķ¿ åıĳ
çĪ± æ¶²
em s
å¥¶ å¤´
' ll
æĥ³ äºĨ
ä¸º ä½ł
åºĬ åįķ
çĶŁ åŃĺ
.... ....
éĹľ ä¿Ĥ
ãģªãģĮ ãĤī
äº² å¯Ĩ
19 7
ç»¼ åĲĪ
å°ı å§¨
is hed
åĩł å¹´
å®Ľ å¦Ĥ
éĽ Ģ
st it
æĦĪ åıĳ
ä¸į æĩĤ
åĲİ æĤĶ
çĲĨ æĻº
æ¡ Ĩ
åıĸ ãĤĬ
åĳĬè¯ī ä½ł
Ĥèº ı
Ġh ome
èİ« åĲį
ãĤį ãģĨ
ä¸į å¼Ģ
äºº äºĨ
è¿Ļ ä¹Ł
åĦ ª
è¿Ĳ è¡Į
å¥³ ä»Ĩ
ä¸ĭ è½½
åħ§ è¤²
å¥½ ä¸įå¥½
é¢ ł
ä½Ĩ åį´
èĽĭ çĻ½
æĳĦ åħ¥
å®¶ ä¸Ń
æ» ¥
ä¸» æĮģ
èĦ± æİī
ĠV or
æĺ¯ éĿŀå¸¸
st r
Ġre port
éĸĭ å§ĭ
é¢Ŀ å¤´
Ġbus iness
å®Įåħ¨ æ²¡æľī
çļĦèį ¯
èª ĵ
è¯± äººçļĦ
ç¼º ä¹ı
Ġs ing
åĬ «
åħĪ æĺ¯
Ġim pro
èº« åīį
å½ĵ å¹´
ç´§ èĩ´
é©¬ çľ¼
çļĦ æĬĬ
ãĢģ âĢľ
å¿į çĿĢ
å®¿ èĪį
æ¾³ éĹ¨
Y ou
le ase
åģļ åĪ°
åıįåºĶ è¿ĩæĿ¥
åĴ ļ
åľ¨ è¿Ļç§į
Ġn at
å®ŀ æĸ½
ĠI nd
åıĺ éĩı
éĨ ĭ
çļĦè· Ŀ
å°ı é¾Ļ
éĤ£ ä½į
ç«Ļ èµ·èº«
Ġ\ )
é¢ĳ çİĩ
å¦ ¾
ä¸Ģ åĲĮ
æĥ³ çļĦ
é«ĺ åº¦
ĠM it
Ġp ublic
äº¤ æį¢
çİ© çļĦ
çĹħ æ¯Ĵ
ä»İæĿ¥ æ²¡æľī
ĠC om
Ġsh ow
çİ« çĳ°
c ing
åĽ½ åĨħ
åįģ å¹´
è·Ł å¥¹
Ġlang u
è¿ĩ ç¥ŀ
åīį æĸ¹
Ġinclud ing
å°± å¥½äºĨ
Ġm et
at ely
äºº æķ°
è¿· ç¦»
ĠO r
Ġgo vern
åĲĳ äºĨ
ä¸į åĥı
åĪ° å¤Ħ
id s
æł¼ å¤ĸ
æķ£åıĳ çĿĢ
çļĦ æ¶²ä½ĵ
è¿Ļ ä¹Łæĺ¯
åıª åī©ä¸ĭ
Ġm ult
äº² èĩª
èĢĮ æĿ¥
åħĭ æĸ¯
å¾· åĽ½
çļĦ ä»ĸ
æŁ ı
Ġl ast
l ing
å°¸ ä½ĵ
åį ľ
çļĦç ¦
çĮĽ çĥĪçļĦ
ä¸½ ä¸Ŀ
éŀĭ åŃĲ
å¢Ļ å£ģ
c o
Ġ #
äºĨ å¾Īå¤ļ
æ²¡ åħ³ç³»
æĢ§ çĪ±
æľĢåĲİ çļĦ
çļĦ æĸ¹åĲĳ
åŃ¦ èĢħ
éĥ ¡
æŀģ åħ¶
è§£åĨ³ éĹ®é¢ĺ
æīĢ éľĢ
æĹ º
çļĦç Ļ
ãģ« ãĤĪ
å½± çīĩ
ç¢ Į
re ct
åıį å¤į
åı« åģļ
è´ª å©ª
ç¾İ å¥½çļĦ
ä¼ĺ éĽħ
å·§ åħĭ
Ġe lect
éĵ ľ
å¤§å®¶ éĥ½
b y
å¤ª ç©º
æ£Ģ æµĭ
åĩº åı£
å£° åĵį
å¹³ çŃī
ä¸Ń æľĢ
çĶŁ æĹ¥
Ġp ost
è¶³ ä»¥
å±ħ æ°ĳ
çļĦèĪ Ķ
å² Ĥ
çĽ¸ åıį
æķ´ æķ°
Ġ2 5
ene f
çļĦ å¹´
è¿Ļ åľº
Ġgo ing
è® Ĭ
è¿ĺ éľĢè¦ģ
äºĨä¸Ģ æ¬¡
è¯· æ±Ĥ
éĤĦ æľī
åĴĮ æĸĩåĮĸ
æĹ¶ åħī
å°± å¼Ģå§ĭ
Ġas k
æ²ī æµ¸
åĹ ĵ
Ġto o
åįĥ ä¸ĩ
Ġb o
y n
ä¿Ŀ éĻ©
å¥¹çļĦ æīĭ
æĻĥ åĬ¨
iz ation
åŃ Ŀ
** :
A P
éĹ º
å¤§ èĥĨ
ç»Ĩ èħ»
èİī äºļ
æĦŁ æŁĵ
ä¿Ŀ åŃĺ
è¿Ľåħ¥ äºĨ
æĺ¯ ä»ĸ
ç»ĵ å®ŀ
åī§ çĥĪçļĦ
çļĦè§¦ æĦŁ
å¤§ åŀĭ
éĢ ¢
é£Ł æĮĩ
æĪĳä¹Ł å¾Ī
åİ» æī¾
æ¼Ķ åĳĺ
è¼ ĥ
çĶŁæĢģ ç³»ç»Ł
çĶµ æµģ
çļĦè·Ŀ ç¦»
åĩº çīĪ
ä¸¤ ä¾§
ä¹¦ ç±į
éĤ£ å¼ł
å¤© ä½¿
çķ °
èĳ ¡èĲĦ
ç¨ ļ
Ġ1 1
åĬ¨ åĬĽ
19 6
ï¼ Ń
Ġc ap
ĠA uf
Ġch o
I T
å¦ ¥
ag en
æµĵ éĥģ
ĠC on
çĮĽ çĦ¶
A T
å¤§ åıĶ
åĨį çĶŁ
è§Ĵ åº¦
éĹ ¯
æķ°æį® åĪĨæŀĲ
ä½ł æľī
Ġm ov
Ġh im
çļĦè ±
å©· å©·
ĠA m
çļĦçĻ½ èī²
åķı é¡Į
æĹł èģĬ
èĪ° éķ¿
f ahr
æĪĲ å°±
çľĭ äºĨä¸Ģçľ¼
è¯Ŀ è¯´
ot t
æĢ»çļĦ æĿ¥è¯´
z eit
éķ¿ åº¦
Ġper cent
èĪ Ł
æ²¡æľī äºº
æĺ¯ä¸Ģ ä½į
èĳĹ åĲį
O N
æ·« æ¶²
æĹłè®º æĺ¯
I f
å© ¶
åıĤ æķ°
è¯ ŀ
ï¼ ĺ
Ġe conom
Ġst ep
ul ation
æĶ¹ éĢł
ĠR es
e c
å¿ĥ æĢĿ
ãģŁ ãģ¡
Ġte am
Ġo pt
A S
i pp
æĪĳ éľĢè¦ģ
åĵ ĳ
éļı æľº
åĬ¨ æīĭ
çĶ¨ äºĨ
åıª å¾Ĺ
é¸¡ é¸¡
èĨĿ çĽĸ
å¾Ī å¤§çļĦ
ä¼ł è¯´
çļĦç ¢
ç¥ ¥
åĺ´ ä¸Ĭ
å®ī è£ħ
æĸ¹éĿ¢ çļĦ
å® µ
è¿Ļ ä»¶
çĽĳ æµĭ
æĿ¥ å¾Ĺ
en se
Ġm oney
Ġcon c
in ter
è®¸ ä¹ħ
ard s
ç§Ģ åıĳ
åľ¨ éĩĮéĿ¢
å¯¹ å¾ħ
èħ ´
åĳ¼ åĳ¼
çĶ £
ç³ Ļ
é© »
äº§ ä¸ļ
Ġ Qu
å¥¸ æ·«
Ġo per
Ġb re
ä¼¼ä¹İ æĺ¯
k l
à ¸
æ² ¦
ï½ Į
çº¦ ç¿°
ru e
æĺ¯ åĲĹ
åĩ Ħ
å¿ĥ åºķ
æĸ¹ ç¨ĭ
çĭ ŀ
çº¢ çĿĢèĦ¸
æĪĳ ä¸įæĺ¯
Ġd i
çļĦèĪ Ĵ
æ°Ľ åĽ´
éŃ Ħ
éĸ ī
åĳ½ è¿Ĳ
âĢĶâĢĶ ãĢį
çļĦ ä¸Ĭ
å¥¹ åıĪ
æĭ Ĥ
å®ļ äºĨ
el le
ĠG r
Ġcont in
Ġp ay
é«ĺ çº§
ä½Ĩ ä¹Ł
é£İ æĻ¯
ie le
Ġan other
çļĦèĤĮ èĤī
Ġ ,
ä¸ĭ å·´
åģı åģı
æĳĩäºĨ æĳĩå¤´
åİ ¢
åºĬ è¾¹
æ¤ħ åŃĲä¸Ĭ
ä¸Ģ åĪ»
æľī éĻĲ
å°± å¥½åĥı
å¯¹ éĿ¢
çļĦ ç»ĵæŀľ
è¿Ļ åıª
è¦ģ ä¸įè¦ģ
éĻ ½
åĽł çĤº
æľį è£ħ
å¹³ æĹ¥
åĲĥ çļĦ
Ġdes cri
Ġf ocus
èĦ ¯
å¿įä¸įä½ı äºĨ
å¥½ åķĬ
æĪĳ èĩªå·±
çł °
è¾Ľ èĭ¦
/ /
è¦ ª
éĢģ æĸĻ
Ġke ep
åı ½
ãģĭ ãĤĬ
æĬĵ ä½ıäºĨ
ne h
åıĸ ä»£
Ġindivid ual
æĽ´ æľī
èĢģ å¤§
Ġre f
at ch
= "
ç§ ½
çŃī äºİ
æ² ĥ
åı¯èĥ½ æĢ§
æ¬§ éĺ³
è¥ ¯
3 2
åĴ §
å§ ļ
æ°´ ä¸Ń
ãĤ¯ ãĥª
åįķ çº¯
å¹² èĦĨ
å·² æĺ¯
Ġlear n
ä¸į é¡¾
he it
ä¸¾ åĬ¨
çļĦçŃĶ æ¡Ī
è¿ĩ åİ»äºĨ
ä½ĵ ä¼ļ
Ġst ate
è´´ åľ¨
å¸¦ æľī
åº§ ä½į
å°ı å·§
Ġg ame
Ġgrou p
o ff
å¤¹ ä½ı
Â ł
ä¹ ŀ
in en
éł Ĩ
å¥½ çľĭ
åħĪ åīį
åįļ çī©
Ġl ight
æĪĳçļĦ å°ı
und en
åħ ľ
æĦŁ è¦º
ent ly
Ġcomm on
éĻ£ åŃĲ
Ġb ased
å¼Ģ éĹ¨
æŁĶ å«©
åĨ³ å¿ĥ
ide o
ãģķãĤĮ ãģŁ
æ²¡æľī ä»Ģä¹Ī
çĺ ¾
è° ¨
ol le
ĠP h
our ces
æ´ģ çĻ½
a pt
19 5
èĦ± äºĨ
Ġ Ð
Ġt ry
çļĦè Ļ
èĢģ çĪ·
I S
çĿĢ ä¸Ģä¸ª
éĹ® æĪĳ
Ġare a
Ġb enef
æĦı å¿Ĺ
ĠA t
ate g
çļĦ å·¨
çļĦ æĪ¿éĹ´
æķ´ å¤©
èĵ Ħ
4 9
ä¼ł éĢĴ
åĴ Ĳ
Ġb as
çŁ¥éģĵ èĩªå·±
ĠF ra
çļĦ åĺ´åĶĩ
è¿Ļ ä¸ĢçĤ¹
Ġwith in
å¤§ ç¬ĳ
åĵģ è´¨
å²ģ çļĦ
åĲ ±
å¿ĥ è·³
em ber
åħħ è¡Ģ
æµª åı«
éĺ¿ å°Ķ
é¹ ħ
éĢ» è¾ĳ
è¥¯ è¡«
åĿ ¡
æī¾ æĪĳ
çļĦç¥ŀ æĥħ
æŁ¥ çľĭ
ãĤ ²
æı Ń
æĪĲ ä¸Ģ
çķ ı
çł į
ä¸įåıĬ å¾ħ
Ġre ce
u le
åĩ ¹
b ur
å¥½ ä¼¼
reff en
æ½ ĩ
è¿ľ è¿ľ
æ±Ĺ æ°´
çĽĳ æİ§
Ġmon th
m a
æ·« ä¹±
Ġv iel
å®ĺ æĸ¹
æ½ ĺ
æĵ¦ æĭŃ
E S
Ġd am
çļĦèĲ ¥
in ation
åĮº åĪ«
èĶ ĵ
è¿Ļä¸ª å°ı
è¥¿ äºļ
Ġspec ific
åĩº ä¸Ģä¸ª
æľĢ ä¸º
ĠP art
åª³ å¦ĩ
æĺ Ĭ
ĠF re
éĤ£ åıª
åīį è¾Ī
ä¸» æĦı
Ġor ig
è© ²
åħ¬ åĪĨ
åĹ¯ åķĬ
çµ Ħ
çĴ °
çĿĢ æĢ¥
å£ ³
ãģĮ ãģĤãĤĭ
åĳ Ĳ
çĩĥ çĥ§
çļĦ æµ·
on der
å¼Ģ è½¦
ir c
é¢Ħ ç®Ĺ
ãĥĨ ãĤ£
æĮ ½
æŀģ äºĨ
æĭ³ å¤´
æĪĳ ä¹Łæĺ¯
æĥħ åł±
å¹¶ å°Ĩ
om men
ãģ¨ ãģ¯
ç¼ł ç»ķ
p ython
éĩĮ æĸ¯
åĪ¶ åº¦
ver age
çĦ¶ å¾Į
æĹ¶éĹ´ åĴĮ
åĨĽ éĺŁ
éķľ å¤´
èµ Ķ
çº Į
st er
ç£ ģ
ont ak
æĳ©æĵ¦ çĿĢ
è¦ģ è¢«
Ġke y
çļĦ åĲ§
è¾¾ åĪ°äºĨ
æĳ¸ äºĨ
éļĲ éļĲ
pr es
Ġinv ol
è´ ¡çĮ®
æıĲ åĪ°
ĠP r
æĽ´å¥½åľ° çĲĨè§£
åģ ¿
åĿ ĳ
æµģ æ·Į
å§Ķ å±Ī
çº½ çº¦
æ¢ ³
æĬ± èµ·
ãģĺ ãĤĥ
Ġph ys
C h
å¤§ çīĩ
éģĵ æŃī
åĩ¯ å°Ķ
çļĦè¾ ¹
æķ ŀ
as ter
éķ¿ å¾Ĺ
Ġ1 3
çĦ¡ æ³ķ
Â °
åħ¶ ä¸ŃçļĦ
ut sch
å¢ ħ
æ¯į çĮª
åħ¶ å®ĥ
æ¸© çĥŃ
å¤¹ ç´§
éļ¾ å¾Ĺ
è¿Ļ çĤ¹
ä¸º ä¸»
oc i
b ox
åĸ »
åł ķ
åįĹ å®«
Ġm aking
çĪĨ çĤ¸
èĤĨ æĦı
çļĦ åĲįåŃĹ
çļĦè ¥
çĶ¨ åĵģ
ĠM an
å¾Ģ åĲİ
Ġcomp ut
ä½ł åħĪ
Ġm ethod
Ġr est
éĹª çĥģ
è¿Ļ æĿ¡
ic ro
çļĦèĤĽ éĹ¨
ä¸Ģ é¢Ĺ
æľīä¸Ģ å¤©
æ¤ħ åŃĲ
çļĦ ä¸ĭä½ĵ
åĹ ¦
çł´ äºĨ
Ġa ff
éŁ ¦
åĲ« çĿĢ
çļĦèī ²
å¸¸è§ģ çļĦ
ä»Ĭå¤© çļĦ
çļĦä¸Ģ éĥ¨åĪĨ
å¼ §
å¸Ī åĤħ
è§Ĩ ä¸º
æĸĩåĮĸ åĴĮ
ãģĵãģ¨ ãĤĴ
æĪĳ çľĭåĪ°
å¿« çļĦ
ä¿Ŀ éļľ
åĬ¨ å¼¹
ãģĶ ãģĸ
ĠUn ter
æ²¡ éĹ®é¢ĺ
æīĵ äºĨ
éĺ´ éĥ¨
è´Ł éĿ¢
âĺ ħ
æĪĳ æĢİä¹Ī
ä¼ĺ æĥł
Ġchar act
èĢģ äºº
ä»Ģä¹Ī çļĦ
å¢ ĵ
èµĦ éĩĳ
Ġen vironment
æĺ Į
é §
ä½Ĩ è¿ĺæĺ¯
çļĦ åİĨåı²
or ld
åİŁ å§ĭ
Ġ1 7
ĠSte p
å°±ç®Ĺ æĺ¯
ä½ł è§īå¾Ĺ
çĽ ¼
ä¸¤ æīĭ
è¨ ±
æľī åĵªäºĽ
Ġs it
é« ®
åģľ ä¸ĭæĿ¥
åı° åĮĹ
å·§åħĭ åĬĽ
å¥¹ åĴĮ
è¯į æ±ĩ
çİ¯å¢ĥ ä¿ĿæĬ¤
çļĦç©º éĹ´
ï¼ Ŀ
åĨĽ äºĭ
yth ing
åĵ §
éĤ£ å°±æĺ¯
ãĥ¼ ãĤ¯
èĤīæ£Ĵ çļĦ
è¹ ¦
iv ely
å±Ī è¾±
Ġav ail
3 7
åľ¨ ä»ĸçļĦ
å£° éģĵ
èĩĢ èĤī
Ġ :
ä¸į æĦ§
ä¸įçŁ¥ ä¸įè§ī
ä¿¡ åı·
åĳ¨ æľ«
æĥĬ åĸľ
Ġcour se
å¯ Ŀ
è½¬ ç§»
ä¸į åıĹ
åıĪ æľī
æľ ´
åľ° æĬĬ
æĬ½ åĬ¨
Ġle g
æµ ĩ
è² ·
åĤ¬ çľł
o ot
é Ĳ
å´© æºĥ
ä¸į åĸľæ¬¢
èµ° å»Ĭ
è¿« ä¸įåıĬå¾ħ
çļĦ åħ³éĶ®
æĥ «
åĨ² çªģ
æĿĥ åĪ©
ä¸Ģ æĿ¯
Ġon line
éĽª åĦ¿
ä¸ĭ éĻį
ç¯ ·
å¸ĥ æĸĻ
èĴ ľ
ag ement
ç¬ĳçĿĢ è¯´
ãģ§ãģį ãģ¾ãģĻ
è¿Ļ æł¹
åıĳ æĥħ
éĩį è§Ĩ
åıĹä¸įäºĨ äºĨ
èĦ ¾
end er
æĺİ çļĦ
ä¸įä½ı çļĦ
çļĦèĦ¸ åºŀ
æ³ Ĭ
èĦĤ èĤª
æĺ Ń
all en
è§ ¸
åĵ Ĺ
èķ¾ ä¸Ŀ
åı¹ äºĨåı£æ°Ķ
æĭī æī¯
Ġver s
å·²ç»ı å®Įåħ¨
if t
çĭ¬ èĩª
Ġpr im
çĭ¬çī¹ çļĦ
äº Ń
Ġw enn
åĲ¬ å¾Ĺ
å·¦ èħ¿
ä¸ĵ å®¶
Ġc reat
æŀģ åº¦
ç½Ĺ æĸ¯
ç»ĵæĿŁ äºĨ
w ar
çļĦ è¯Ńæ°Ķ
an e
åħ¥ åı£
çĥŃ æĥħ
è£ħ é¥°
éģİ ä¾Ĩ
éģ ķ
ind ows
b eit
åħ Ĵ
âĢĿ ãĢģâĢľ
ä½ĵ åĬĽ
çĶµ æ¢¯
éķľ åŃĲ
3 8
çļĦç ±
åį«çĶŁ éĹ´
çļĦè¶ ³
åĪ« å¢ħ
æĪĳ çĽ¸ä¿¡
åľ¨ å¤ĸ
çľĭ ä¸įåĪ°
åĪ¶ æľį
é¸ Ń
è§Ħ å¾ĭ
å´ İ
ic le
ãģ« ãģĬ
éĤ£ æĹ¶
æıĴ è¿Ľåİ»
Ġpro te
å¨ĩ ç¾ŀ
å¦Ĥ åħ¶
è®© å°ı
éł ĺ
éģŃ åıĹ
å°Ĩ æĪĳ
åľ¨å¥¹ èº«ä¸Ĭ
åĴ¬ çīĻ
çŃī äºº
éª Ħ
ĠC an
ãĤ¹ ãĤ¿
Ġg ive
çļĦå¤§ èĤīæ£Ĵ
æ·· èĽĭ
åıĳåĩº ä¸Ģå£°
æĪ Ī
ï¼Ł "
Ġp a
Ġprov id
åı¯ä»¥ æł¹æį®
20 20
åĲĪéĢĤ çļĦ
ãĥķãĤ ¡
æĪĳ åħĪ
æĹ Ń
åĩº åıĳ
è¿ĺ æĥ³
çļĦçĪ± æ¶²
ï¼ģ âĢ¦âĢ¦
åįģ åĩł
ĠM us
å¼Ł åŃĲ
ĠI m
ĠSt ud
a i
çļĦ åĺ´
if ied
s c
äºĭ ä¸ļ
ç¨ ¿
çļĦå¿ĥ æĥħ
iss ion
ç¾ ¡
æ±Ĥ é¥¶
è§Ĵ èĲ½
çļĦèı ľ
Ġcol le
æĪĳ çľŁçļĦ
æľī è®¸å¤ļ
ï¼Ĳ ï¼Ĳ
èĬ± åĽŃ
å°½ åĬĽ
è¯» èĢħ
çļĦ æľĭåıĭ
æĺ¯ å¾Ī
å¥¹ èĩªå·±
å¯ ŀ
ï¼ģ ï¼ģâĢĿ
å®¶ åħ·
èº« å¿ĥ
ä¼ł æĴŃ
Ġme ans
è´ ¸
çĸ¯çĭĤ çļĦ
Ġfe el
Ġor der
å¤§ åı«
Ġm aterial
ç¾İ èī³
éĵ Ĳ
æ¨± æ¡ĥ
çļĦèº« è¾¹
åľ¨ èĩªå·±çļĦ
è¿Ļ éĥ¨
çľĭ åİ»
äº« çĶ¨
åĩº æīĭ
æ¯ ¯
çĿ¡ è¡£
å¼Ĥ æł·
æĿ¥ åĲ§
æĹł åı¯
åĳĪ çİ°
. ,
å¥¹ æĥ³
æł Ĺ
çģ¯ åħī
äº ¢
æĦ ģ
æĴĳ å¼Ģ
çļĦ åıĺåĮĸ
æľ¬ å°±
å¾Ģ å¤ĸ
çļĦ åıįåºĶ
å° ¹
ä½ł èĩªå·±
å¯ ĵ
Ġf ree
ĠB er
çļĦçģ ¯
æĭįäºĨ æĭį
20 22
åĽĽ å¤Ħ
éĥ¨ éĺŁ
ä»¥ä¸ĭ æĺ¯ä¸Ģ
çī¢ çī¢
æĲħ æĭĮ
ä»Ģä¹Ī æĺ¯
åĻ «
en ces
éĤ£ æĿ¡
ï½ Ļ
éĺ´ æ¯Ľ
çµ ²
ãĤ« ãĥ¼
æĺı è¿·
p or
Ġl aw
Ġwh y
èĽ Ľ
åģĩ è®¾
itt le
( "
t on
åĬ £
åĩº äºĨä¸Ģ
å·²ç»ı å¼Ģå§ĭ
è¾ ĸ
èį §
èģ ŀ
og le
æ² ¸
Ġal ways
Ġde v
æĺ¯ æĪĳçļĦ
çĪ± æĬļ
éº Ĺ
end ing
Ġo cc
ï½ İ
çļĦè§¦ æīĭ
n ot
r ies
ä¸į æĦ¿æĦı
Ġt imes
åĢ º
åĥı ä¸ª
è½¬ è¿ĩèº«
å¹ ¹
éĥ½ æľĥ
åıĳ è¡¨
ç»Ł è®¡
æ¾ Ī
ä»ĸ åıĪ
4 6
äºº ç¾¤
Ġh ard
åĲĳ ä»ĸ
ä¼¸ è¿Ľ
Â·Â· Â·
Ġt em
ãĢį ãĢĮ
æĻºèĥ½ å®¶å±ħ
ru nd
iet y
çļĦç¤¾ ä¼ļ
è½» å¾®
åıĮ ä¹³
ab ly
ä¼¤ åı£
åľ¨ä¸Ģ æĹģ
it z
our ce
ï¼ Ļ
åĪ° åºĬä¸Ĭ
Ġf ew
ä¸¤ ç§į
èĬ± å¿ĥ
å¦ Ĵ
åŃĲ åĴĮ
åĶ §
çĽ® çļĦåľ°
èĩ³ ä»Ĭ
æĸĻ çĲĨ
æ½ľ åľ¨
æĺ¯ ä¸ŃåĽ½
ä½Ĩ è¿Ļ
åħī èĬĴ
ä½ķ æĹ¶
çĮ ¥
åı ®
i od
el n
æĭ ĩ
éĢļ çŁ¥
ä¸ĭ æµģ
Ġd ar
ç¥ ¸
å¡ Į
Ġmark et
ä¸Ĭ åįĪ
æł ĭ
è¦ģ æĬĬ
ç£ Ĭ
ç©ºæ°Ķ ä¸Ń
è¿ĺ çľŁæĺ¯
çĲ Ĳ
å°Ĩ ä»ĸ
çĮ ´
é»ĳ æ´ŀ
Ġexper ience
å¸ Ĩ
æį ¡
çļĦè£ ħ
æģ¨ ä¸įå¾Ĺ
çļĦ é«ĺæ½®
éĤª æģ¶
é«ĺ éĢŁ
åĹ ¡
k en
Ã¤ n
æµ® çİ°
çļĦçĭ Ĺ
ä¸° èħ´
Ġb ody
ç²Ĺ å¤§çļĦ
Ĵ æģ¯
åĴ ¸
Ġl and
Ġam ount
Ġpres ent
ãĥ ¤
ä»¬ çļĦ
é© ļ
æĪĺ å£«
èİ ĵ
av a
Ġinv est
å¿ĥ ä¸ŃçļĦ
åĦ¿ ç«¥
èī° éļ¾
é¡ Ķ
çŃī ä¸Ģä¸ĭ
ãĤ¢ ãĥ«
ä¸Ģ æ³¢
èĦĳ åŃĲ
çļĦè½ ¬
çľĭ è¿ĩ
ãĤ» ãĥĥãĥĪ
ä¸¤ æ¬¡
Ġg es
Ġg ut
Ġsu ccess
çļĦç¾İ ä¸½
åıª æĥ³
äºĨä¸Ģ éĺµ
æģ¢å¤į äºĨ
çľĭ æ³ķ
ç´ ļ
èħ Ĭ
th ers
ä¹¦ è®°
è¡ Ŀ
æİ ĺ
è°¢è°¢ ä½ł
" .
% ãĢĤ
åľ¨ äºİ
èĥ½ åĲ¦
å½¢ çļĦ
ä¸°å¯Į çļĦ
ro p
ra d
èģ ĺ
l os
æĪĳ å¿ĥéĩĮ
æīĭ æľ¯
ç« ĸ
Ġse ver
æŁ¥ è¯¢
åĬĽ åº¦
ass en
çĭĲ çĭ¸
ç³Ĭ ç³Ĭ
çļĦ åĨħè£¤
å¤§ éĹ¨
é¡º åºı
P h
ur ch
æłĩ å¿Ĺ
çĬ¯ ç½ª
ãģĵ ãĤį
' ,
å¸Ī çĪ¶
è¾¦ åħ¬
çĶ ¸
ï¼ģ ï¼Ł
é© ³
åĽ½ æ°ĳ
Ġle ast
Ġacc ess
çļĦ é£İéĻ©
æĭ Ĩ
åĲĮ ä¸Ģ
æİ¥ è¿ĩ
çª ¥
éŃĶ çİĭ
op e
èĥ¸ èĨĽ
´ èĿ¶
å°¼ äºļ
çļĦ è¿ĩç¨ĭ
åıĪ ä¸į
çĲĨ ä¼ļ
æ·±æ·± çļĦ
ï¼ ħ
åĪ ¸
æĪĳ å°±æĺ¯
éģĵ è·¯
Ġall ow
æĺ Ĩ
åī Ĭ
Ġret urn
çļĦ åŃĺåľ¨
çļĦ å¥¶åŃĲ
ä¸į åĩºæĿ¥
å¤§ æ°Ķ
è¿Ľ å±ķ
ä¸Ģ é¡¿
çļĦç ı
å¹² äºĨ
èª ¬
è¤ ¶
u che
çļĦ ä½¿çĶ¨
å°± æ²¡æľī
åıĳ è§ī
æ¢ ĵ
åĸĿ äºĨ
Ġhum an
æĢ ¯
çĻ½ å¤©
æ¹¿ æ¼ī
ï ¹
éļ »
ãģĹ ãģ¾ãģĹãģŁ
æ¯Ķ è¼ĥ
Ġ4 0
åĨ ī
æĹ¶ èĢĮ
èĤ¡ ç¥¨
çŀ Ĵ
åľŁ åľ°
Ġ ident
çļĦç Ĩ
è¢« çĶ·äºº
çŀ Ħ
çļĦç¾İ èħ¿
st ell
åĪ° æĿ¥
s che
Ġ ...
at ic
è¾ ©
å¹¶ æıĲä¾Ľ
çĤ ī
åĽ½ çİĭ
æĳĦ åĥı
å¾Ī å°ĳ
å¼ķ å¯¼
ä»¤ å¥¹
iqu e
éī ´
çļĦçŁ¥ è¯Ĩ
æĪĳ çĽ¸
è½» æŁĶ
çīĪ æľ¬
b st
çŁ Ľ
å®ĥ åı¯ä»¥
ãĥ© ãĥ³
çļĦè¡£ çī©
åĨ »
Ġab le
ãģ¡ ãĤī
âĢķâĢķ âĢķâĢķ
ä¼¸åĩº æīĭ
Ġdevelop ment
Ġavail able
Ġ >
å¯Ĩ çłģ
ri ed
è¯¡ å¼Ĥ
å°± çŁ¥éģĵ
æĦŁ åĴĮ
Ġsu pp
éªļ éĢ¼
çļĦ åı«
åĲŀ åĲĲ
åĽĽ åįģ
pl es
çļĦ éĤ£ä¸Ģ
çļĦè Ĩ
èħ ¦
å© ¦
çļĦèĥ¸ ç½©
aj or
m s
Ġ ãĢĲ
å½ĵ æĪĲ
ä¾Ŀ ä¾Ŀ
æ»ĳ èħ»
è¢« ç§°ä¸º
è¡¨ æł¼
æľĢ æĹ©
å®Į ç¾İçļĦ
ur s
er al
ç« Ń
åĽŀ è¿ĩç¥ŀ
è¿Ļ å°Ĩ
æľª çŁ¥
è¿Ļç§į äºĭ
æµª æ¼«
çİī æīĭ
æĻ¯ è±¡
åī© ä¸ĭçļĦ
é«ĺ è´µ
âĢĶâĢĶâĢĶâĢĶ âĢĶâĢĶâĢĶâĢĶ
u ÃŁ
è§Ĵèī² ä¿¡æģ¯
o ogle
å¥½ ä¹ħ
H ow
çļĦ ä»»åĬ¡
åıĳ åĬ¨
ĠA pp
ir d
æİ¨ çĲĨ
åģĩ è£ħ
çļĦ æĢģåº¦
ä¸Ģ æĿ¥
å°ı å°ıçļĦ
èĬ ¯
éĵ ħ
èĥ §
åĲĳ å¤ĸ
ï¼ģï¼ģ ï¼ģï¼ģ
com m
å©´ åĦ¿
ç²¾ åĬĽ
åĻ¨ å®ĺ
åı¸ æľº
ä¸Ģèµ· åİ»
ç¾ŀ è¾±
ä½ £
åıĮ èĩĤ
è³ ¼
æ² ĸ
èĲ½ ä¸ĭ
äºļ æ´²
å¤¸ å¼ł
o h
è° Ĳ
åħ· å¤ĩ
éĢĻ æ¨£
çĸĳ éĹ®
çĶ³ è¯·
åĪ° çİ°åľ¨
åħ¨ éĿ¢
åĨħ ä¾§
ĠC omm
çı ĳ
æ°ĳ åĽ½
èĶ ¡
åŃ¤ çĭ¬
ï¼ ¸
ä¹ĭ äºº
çĪ± å¥½
éĥ½ å¿«
çļĦéĺ´ æĪ·
Ġob ject
æī ģ
è® ½
åĪ° æľĢ
ï¼ģ ï¼ģãĢį
æ°Ķ æ¸©
ä¸Ĭ åįĬèº«
pl ay
ä¸Ģ éĥ¨
æķ´ ä½ĵ
ä¸ĩ ä¸Ģ
åı¤ åħ¸
çļĦåĳ»åĲŁ å£°
çĨ ¬
æĢİä¹Ī åı¯èĥ½
ç«Ļ äºĨèµ·æĿ¥
du ct
ç¿¼ ç¿¼
çľĭ å¥¹
åįļçī© é¦Ĩ
åľ¨ ç©ºä¸Ń
å¦Ĥæŀľ æĺ¯
ä¸Ģ éģį
äºº å¿ĥ
å¤§ æĪĺ
Ġd el
åħ¨ æĺ¯
ur y
ä¸ĩ äºº
Ġadd ition
æĺİ äº®
è¹ Ĥèºı
åģĩ éĺ³åħ·
å¨ ´
æĮĩ å°ĸ
åıį å°Ħ
äº² çĪ±çļĦ
ä¸¾ è¡Į
3 4
æĺ Ķ
è¢« è¿«
å·²ç»ı åľ¨
åĲĵ äºĨä¸Ģ
æ¨ Ĥ
èĳ ī
åĲ« ä¹ī
che d
ç´¯ äºĨ
Ġcre ate
Ġc r
å¿« åľ°
æ¡Į åŃĲä¸Ĭ
çļĦèĥ¸ èĨĽ
æĿ° åħĭ
B ob
t ain
ur ing
é¢Ħ éĺ²
æĪĳ åĲ§
Ġt ype
ãģ«ãģª ãĤĭ
ä¸ĭ åįĬèº«
Ġof fer
Ġcom e
ä¿ĿæĮģ çĿĢ
çļĦ ä¸ĸçķĮ
Ġo pen
æľº åľº
ä¸¥ æł¼
æĬĳ åĪ¶
çļĦ éĹ®
Ġt ell
Ġn on
ç¼ ¸
Ġcon st
çļĦ äºĨ
ä¸Ģ åĲ¬
ä½ı å¥¹
ä¿¡ ä»°
ä¸įä½ı äºĨ
ç¤¼ çī©
ç¬¬äºĮ æ¬¡
ä»Ģä¹Ī éĥ½
Ġsign ific
ï¼ °
Ġc ase
èĬ Ĭ
åħ¬ å¹³
èµ° åĲ§
å¼ł ä¸ī
pr ess
__ __
åº Ļ
è¾ ¨
æľį ä¾į
éĴ °
ä½¿çĶ¨ çļĦ
ãģĹãģ¦ ãģĦãģ¾ãģĻ
åĲĪ ãĤı
æĮĩ åĩº
æĴ ĩ
æ¸© æ³ī
æĬ¤ å£«
ä¸Ģ é¢¤
æĺ¯ æĥ³
æĦŁ æ¿Ģ
æĦŁ ãģĺ
æ¸ ¾
çĶŁ éķ¿
å¿ĥ çģµ
åīį è¿Ľ
å¹¶ æľª
è´´ çĿĢ
Ġi hn
Ġwur de
æĬ ł
æĥħ äºº
ãģª ãģĭãģ£ãģŁ
çļĦè ĵ
å°ı åŃ¦
è¿ĺ æľª
ç±»åŀĭ çļĦ
f en
éĽ ĸ
åĪĹ åĩº
è´Ŀ å°Ķ
çĽĪ çĽĪ
ä¸Ģä¸ª ä¸ª
Ã¼ t
çªģ å¦Ĥåħ¶
çİī è¶³
åŃ¦çĶŁ çļĦ
åı¯æĮģç»Ń åıĳå±ķ
çļĦè´¨ éĩı
æº ¶
éªĮ è¯ģ
è¿Ļ äºĭ
æĪĲ æŀľ
è¿Ļä¸ª äºº
åĽłä¸º æĪĳ
æĥ¨ åı«
Ġsuch t
çļĦ èĩĢéĥ¨
ä¸Ĭ è¯¾
çľ¼ è§Ĵ
ir t
æµ· æ»©
é£Ł çĶ¨
çļĦç© ¿
ĠRe g
å¾Ĺ æĪĳ
åľº åĲĪ
é¡º åĬ¿
ä¼¸åĩº èĪĮå¤´
å°ıå¿ĥ ç¿¼ç¿¼
ç´§ éĹŃ
å¼º è¿«
è¡£ è£Ļ
Ġ2 4
æĮ£ èĦ±
çªĹ æĪ·
çļĦç¼ ĺ
çļĦ ä¸ī
ä»¥ å¾Ģ
çĥ ¹
ä¸¾ åĬŀ
O R
u er
éģĵ åħ·
Ġinclud e
E N
ç§° åĳ¼
ç· ´
ç¥ŀç»ı ç½ĳç»ľ
æľī é»ŀ
å¤§ åľ°
or ies
il it
ut z
éĢģ åĪ°
èĸĩ èĸĩ
é¡ ĺ
ĠT r
æ°ĳ ä¸»
èĪĶ çĿĢ
Ġf ac
çļĦæĥħ å½¢
å°Ĩ èĤīæ£Ĵ
è¦ģ ä¸įæĺ¯
éŁ §
ĠWh en
b ed
éĥ Ĭ
äº¤ ç»Ļ
æĵ İ
Ġ ï¼Į
æĪĳçļĦ é¸¡å·´
ä¾Ŀ èµĸ
Ġf und
çļĦçº ¤
çºł ç¼ł
ç©¿ äºĨ
è´µ æĹı
çļĦ æľĢ
ä¸Ģ åı¥è¯Ŀ
çľĭ ä½ł
éĺŁ éķ¿
çī ²
çģµ éŃĤ
èļ Ģ
æ¶Īè´¹ èĢħ
çļĦèĤļ åŃĲ
çļĦ åĳ¼åĲ¸
ĠA I
è¦ ı
æį £
é¡¹ åľĪ
Ġlangu age
ãĢĤ ï¼Ī
å¸®åĬ© æĤ¨
æīĢæľī äºº
é Ĭ
å¤ª å¥½äºĨ
æİĴ åĪĹ
èŃ °
é¨ ĵ
ãĤ¤ ãĥ«
åĨ¥ æĥ³
æĪĳ çĶ¨
æĹł å°½
ä¼ĺ åħĪ
æł ı
ĠB r
hr ist
æŃ¤æĹ¶ çļĦ
çļĦæĥħ ç»ª
ç¹ ¼
m ed
p re
è¿Ļ å°ı
é¹ ¤
çļĦçħ§ çīĩ
e e
æĪ °
ç´§ ç»·
éĿŀå¸¸ éĩįè¦ģ
end ed
åĴĮ ç¤¾ä¼ļ
æıĲ èµ·
æ¼ ¾
æ¹¿æ¼ī æ¼ī
P ro
ĠN ach
og raph
è² ł
Ġcont rol
å¬ ī
Ġlar ge
å°ı éĽª
å·² çĦ¶
ç´§ å¯Ĩ
æĵ Ĭ
è®¤ çŁ¥
å±ħ ä½ı
ĠZ eit
åĲİ èĥĮ
Ġp ut
æŁ ´
sch aft
åĪ ł
è¢« ä½ł
å¤© çĶŁ
å½ĵ å¥¹
é ĳ
äºĨä¸Ģ èµ·
çĲ³ å¨ľ
re ich
å°ĳ çĪ·
æ¯ı å¹´
Ġr isk
Ġpro per
ä¼¦ çĲĨ
åĬĽ éģĵ
éº Ł
åĢĴ åľ¨
å¿Ļ ç¢Į
ä¸ºä»Ģä¹Ī è¦ģ
è£¸ éľ²
æľī ä»»ä½ķ
äººå·¥æĻºèĥ½ çļĦ
å¡ŀ è¿Ľ
o or
æıĲ ç¤º
éĩı åŃĲ
æĮģ ãģ¡
æı Ľ
çļĦçŁ ³
é¥¥ æ¸´
Ġgovern ment
æĺ¯ä¸Ģ åĲį
ç»ı èĲ¥
Ġl ik
éħĴ åĲ§
çļĦçŀ ¬
çĺ« è½¯
æĭĩ æĮĩ
åĪ° èĩªå·±
æľĢ åĸľæ¬¢
é»Ħ éĩĳ
Ġw r
ä¸» å¸Ń
et zt
åĻ ¬
æıĲä¾Ľ ä¸ĢäºĽ
æĲĤ çĿĢ
Ġneed s
çļĦçĪ¶ äº²
f ol
æĮ «
ä½ľ åĩº
åĲį è¯į
çļĦå°ı æīĭ
ãĤ·ãĥ £
Ġem ploy
l in
å¥½ å¤ļ
éĻ Ľ
ä¸Ģ èĦļ
ä¸į å°ıå¿ĥ
è£ ľ
20 10
ä¾Ľ åºĶ
æİ¨ åĩº
çµ ķ
6 5
å¥½ å¤§
åŁº éĩĳ
çļĦå¥³ æĢ§
æĪĳ ä¸įä¼ļ
åīį ç«¯
æĳ §
ut ure
Ġfam ily
re am
è¢« åŃĲ
è´¨ çļĦ
åĪ°åºķ æĺ¯
æįŁ å¤±
è®° ä½ı
è·³ èĽĭ
Ġknow n
ä¸Ĭ åºĬ
å¨ ¶
æ°Ķ ä½ĵ
Ġl im
æĮº èµ·
åĽ½ çļĦ
ĠI hr
è¿Ļç§į æĦŁè§ī
ä¸ªæĢ§ åĮĸ
Ġt reat
å°± æ²¡
ä¼ļ çļĦ
åİ» çļĦ
è¢« æīĵ
Ġr ange
èĪĶ å¼Ħ
ĠHow ever
çļĦèģĮ ä¸ļ
0 1
äºĨ åĩºåİ»
æĸ¹ æīį
æĢİä¹Ī è¯´
é¡¾ å®¢
èıĬ èĬ±
ä¸į ä¸ĭ
æº ĸ
Ġne ver
çĶ¨åĬĽ åľ°
åĭ¾ å¼ķ
æī© å¼ł
e in
Ġ å°ı
å· ·
an ces
åıĸ åĩº
Ġcon dition
è¿Ļ å®¶
in o
æķ´ æł¹
æī¾ ä¸ª
èİī éĽħ
åħī äºĨ
ith er
åįĹ éĥ¨
éĹª è¿ĩ
m itt
å¤§ å¸Ī
å°ĳ æķ°
Ġre ason
æ¹ ĺ
ab or
äºĶ åįģ
å¿ħè¦ģ çļĦ
éģµ å®Ī
ł éģĵ
åľ° åĿĢ
ab e
3 9
åı İ
åıĬ åħ¶
èĮ ¨
ç¬¬ åĽĽ
éĢĻ æĻĤ
å¤§ å§Ĳ
ç»ĵ è®º
å¨ĩ å°ı
èĹ ī
Ġso cial
åĩ¸ èµ·
æ º«
æĪĳ æĦŁè§ī
æĥ³ èµ·äºĨ
åĢ ļ
Ġen c
è¯ŃéŁ³ è¯ĨåĪ«
j p
çļĦ çĽ®æłĩ
ä¸į èĪį
èº« çļĦ
è§ģ äºĨ
æĭį æīĵ
u ck
è¢« è®¤ä¸º
è§£åĨ³ æĸ¹æ¡Ī
° çĭŀ
ä½İ çĿĢå¤´
ãĥķ ãĥĪ
æĮĤ åľ¨
æİ ł
å¾Ī èĪĴæľį
èī² å½©
æĵ ļ
çµ Į
èĢĲ å¿ĥ
Ġw he
Ġl ie
ãģª ãĤĭ
Ġbe gin
Ġpot ential
ä¾ ¡
çª ĥ
åı¦ ä¸Ģè¾¹
çļĦç²¾ ç¥ŀ
èŀį åĲĪ
Ġsug gest
åı¯ ä¸įæĺ¯
å½ ¦
éģĵ çĲĨ
ï½ Ķ
ail s
çĸ² æĥ«
ä¸İ æŃ¤
çļĦèĥ¸ åı£
éĻ· åħ¥äºĨ
çļĦè¡Į åĬ¨
æ°Ķ æ°Ľ
é¡º ä¾¿
ç¿ĺ èµ·
çļĦèī º
Ġ åĴĮ
çļĦ æĢ»
åıĪ å¼Ģå§ĭ
Ġs ince
le ich
è§£ æ±º
éļĶ å£ģ
å°± ä¸ļ
ä¸¤ å¤©
Ġg ibt
æ¾ Ħ
a pe
c er
ä¸Ĭ åįĩ
æĻ Ĵ
im al
Ġpro m
ç½Ĺ é©¬
åĸĬ çĿĢ
åľ¨ ä¸ĭ
çļĦè İ
åı¯ æģ¶
ra w
éľĩ æĥĬ
Ġdisc uss
Ġcommun ity
Ġ ãĤ¢
ãģ ģ
æĺ¯ æĪĳä»¬
ç» Ĵ
æľī åĬĽ
åĨ ¤
åľº æīĢ
æĶ¶ åĪ°
è®º æĸĩ
ç´¢ æĢ§
å± ł
æĿĢ äºº
ä½ľä¸º ä¸Ģä¸ª
çļĦ éĩĳ
å¤ ·
å¯¼ æ¼Ķ
Ġ ä½¿çĶ¨
å§ »
ot s
é¡¶ ç«¯
Ġeduc ation
l ist
ä¸į ç®Ĺ
Ġb it
ĠC ent
æ¿Ģ åıĳ
éĹŃä¸Ĭ çľ¼çĿĽ
ï¼ Ĺ
ï½ ķ
çļĦ æµģ
è¿Ľè¡Į äºĨ
èĪŀ è¹Ī
Ġwork ing
éļ¾ èĢĲ
èµĦ æł¼
æĳĨ åĬ¨
% ï¼Į
ä¸ĭ è´±
ra ft
ĠIn tern
åĸĿ éħĴ
èĤ ´
åİŁ åľ°
å¿į ä½ı
éĶĢ éŃĤ
çļĦ åĽŀ
çļĦ å°±æĺ¯
å± ĳ
ç²ĺ ç¨ł
çĿ ¾
å®ŀ è¯Ŀ
l a
çļĦ å±ģçľ¼
å® °
ä¸Ń åħ±
æĻºèĥ½ åĮĸ
ä¸¥ èĤĥ
åĪ° å¥¹çļĦ
ä¹Ł è¶ĬæĿ¥è¶Ĭ
et t
Ġcon ne
çļĦéĩįè¦ģ æĢ§
Ġcall ed
å¥¹ çİ°åľ¨
Ġw ieder
Ġa ge
æīĭ ä¸ĬçļĦ
èĦ Ĭ
éĥ Ŀ
åĿ ¤
çŁŃ æļĤ
ĠP re
20 19
æĳ¸ çĿĢ
ç¡ķ å¤§çļĦ
æĴķ è£Ĥ
ç»Ļ äºº
çĽ¸ å¤Ħ
ut es
åľº éĿ¢
çħ İ
å·® è·Ŀ
å· į
æ¯į å¥³
è·Ł ä»ĸ
å°½ å¿«
æĹħ é¤¨
ust om
åįł æį®
ww w
èº« é«Ķ
ç´ ¹
è¶ Ł
æ» ŀ
åĲĳ å¥¹
æ¹¿ æ»ĳ
ãĤģ ãĤĭ
å¾Īå¿« çļĦ
çļĦè§Ĵ åº¦
@ @
åº ĥ
èĢĮ åİ»
ç½ Ĳ
ib r
è¿İ æİ¥
æ·ĭ æ¼ĵ
åĨħ å¿ĥçļĦ
ä¼Ļ ä¼´
äººæ°ĳ åħ±åĴĮåĽ½
çļĦ ä½ľçĶ¨
æĪĳ ä»İ
æİ Ļ
æľ¬ äºº
çģ ¿
im ate
å¥¹ å¾Ī
Ġh ier
de f
çļĦ åĳ¢
çļĦ é£İ
åıĺ æļĸ
å¤§æ¦Ĥ æĺ¯
i ÃŁ
çļĦ é£Łçī©
æģĭ çĪ±
æĹł å¿Į
ä»ĸçļĦ æīĭ
èĸĦ èĸĦ
è¡¥ åħħ
åį ĺ
èµ° åľ¨
èķ ī
å°Ĩ éĤ£
Ġse hr
æ»ĳ èĲ½
Ġspe cial
æĸ ¤
æĿ¥ ä¸įåıĬ
æľº åĪ¶
èħ¿ ä¸Ĭ
æļĹ æļĹ
åĸĬ éģĵ
...... âĢĿ
ĠUn iversity
cri pt
Ġ ï¼Ī
ä¸į è®©
ä¸ī å¤©
4 7
åıª åī©
et z
åįģåĪĨ éĴŁ
åļ İ
ä¸Ģä¸ª æľĪ
çļĦèħ ¹
Ġacc ording
æł¼ å¼ı
çļĦéĺ´ èĴĤ
èłķ åĬ¨
B e
è¿ĺ ä¸įæĺ¯
æĥĬ æģĲ
Al ice
çľ¼ éķľ
å®ŀ çļĦ
è½¦ ä¸Ĭ
Ġj ob
æĦŁåıĹ åĪ°äºĨ
ç¬¬äºĮ ä¸ª
çļĦçĹ ħ
æĪĳ åĨį
ä¿ ±
åħī çº¿
un e
ä¹Łä¸į æķ¢
æĨ ¾
æľīæķĪ çļĦ
n is
æ°Ķ åĳ³
çľŁ å¥½
çļĩ åĲİ
åĢ ¦
ãĥ³ãĥ Ĺ
å¯Ĥ å¯ŀ
l ight
Ġm ove
åĿĲ çĿĢ
è·ĳ åİ»
Ġloc al
çļĦç¿ ĺ
çļĦ æĽ´
äº¤ äºĴ
åĮħ åĽ´
èĪĴ çĪ½
å¼ķ åıĳ
ç²Ĺ ç³Ļ
æ´ŀ åı£
çļĦèĦļ è¶¾
éļľ ç¢į
çĹĩ çĬ¶
é«ĺ èĢ¸
ç² ®
å®ĥ æĺ¯
ãĢĤ ãĢı
è¿Ļ éº½
å¤§ ãģį
Ġb es
å¤© çĦ¶
æ´Ĺ æīĭ
è» Ģ
ä¸¾ èµ·
æ¶Į åĩº
å½ Ń
ç¾İ å¦ĩ
æīĵ åĩ»
ï¼ ¯
å¯¹ æŃ¤
æĥ³ è¿ĩ
è¾¹ ç¼ĺ
æİ¥ åĲ»
ĠSp iel
m p
Ġm ajor
ä»İ æĪĳ
Ġre pres
é¸ ¿
iv ed
æĬĸ åĬ¨
çĶŁæĪĲ ä¸Ģæ®µ
ç§ĺ ä¹¦
ä¸įèĩª ç¦ģ
åº «
éĤ£ äºº
å¾Ĺ åĩº
åĹ ·
è¡£ çī©
è¯· åĳĬè¯īæĪĳ
ä¸Ģä¸Ŀ ä¸į
â Ħ
çļĦè´ ¢
çļĦ åŃ©åŃĲ
ãģ® ãģł
ä¿® çĤ¼
è¼ ī
å°Ĩ ä»¥ä¸ĭ
åĵģ åĳ³
æĻļ é¤Ĳ
I D
åľ° æŃ¥
æ³ ¼
å¯Į æľī
Ġstud ent
Ġass ist
3 00
å¼Ģ çļĦ
æ®¿ ä¸ĭ
Ġ ve
æķ Ĺ
å£ ¤
Ġin it
åĪ« è¯´
ä¸ Ĳ
èĢĮ åĲİ
èĦ¸ çº¢
åıĸ åĨ³
åħ´å¥ĭ çļĦ
ãģĦãģŁ ãģł
çļĦ å±±
çª Ĵæģ¯
ç²Ĺ æ°Ķ
æ¥¼ æ¢¯
ä½ł ä¸įè¦ģ
äºĨä¸Ģ ä¸Ŀ
il t
ä»ĸ è¿ĺ
æĮĩ å®ļ
èĮ Ĥ
éĽĸ çĦ¶
ãģĦ ãģ¾ãģĹãģŁ
Ġl ittle
ç¬¦ åı·
çļĦèĥ½ éĩı
é«ĺæ½® çļĦ
åĲ ©
æŃ ·
ãģĿ ãĤĵãģª
åªļ çľ¼
çķª èĮĦ
çļĦç¤ ¼
çļĦçŀ¬ éĹ´
ä¸įæĦ§ æĺ¯
Ġf our
è¿Ļä¸ª çĶ·äºº
çļĦéĺ´ æ¯Ľ
èµ¶ å¿«
l ie
è¿ĩ æĿ¥çļĦ
ç»Ł æ²»
éĸĭ è»Ĭ
èĩªåĬ¨ é©¾é©¶
è¯´ä¸į åĩº
åĴĮ èĩªå·±
æĬĬ å®ĥ
Ġl ine
S o
Ġd a
åħ³ ä¸Ĭ
ĠE s
èģĶ çĽŁ
Ġdies e
çĿ¾ ä¸¸
åıĸåĨ³ äºİ
Ð ¾
Ġg roÃŁ
çŀ ¥
çļĦæīĭ èĩĤ
u x
æĪ ¦
ig t
è¯ķ çĿĢ
è£ ķ
ç´§ æĢ¥
æĮĩ ä»¤
æĮī ä½ı
åĵŃ æ³£
èµ· åºĬ
æ¶Ĥ æĬ¹
çļĦè¶ ħ
éĿ¢ èī²
éĽ ĩ
çİī é¾Ļ
ä¼ĺ çĤ¹
9 5
Ġu nt
ãģĮ ãģĤãĤĬãģ¾ãģĻ
ç· Ĵ
æ¸©æŁĶ çļĦ
Ġb ig
ãģĦ ãģ¤
éĹ» è¨Ģ
ä»·åĢ¼ è§Ĥ
é«ĺ æīĭ
èĦļ ä¸ĭ
er ing
åį´ ä¸į
æ¸ħ çº¯
åĲ« æľī
çĹħ äºº
éĽĻ å³°
æĽ¿ ä»£
éĦ Ļ
éĥ½ ä¸įä¼ļ
æ°Ķ è´¨
A s
åį ī
å¹ º
ç§į ç±»
Ġv ol
çļĦ è¿ĩç¨ĭä¸Ń
å·´ é»İ
æľŁ æľĽ
æº¢ åĩº
âĢ¦âĢ¦ ãĢĤ
ãģ§ ãģĤãĤĭ
ä¸ī å¹´
æľĪ åħī
æĮº çĿĢ
ä¸įä»ħ ä»ħ
ï¼İï¼İ ï¼İ
ent al
æ¸¸ å®¢
ä»¥ä¸ĭ åĩłä¸ª
Ġpartic ular
æĺ §
ä»ĸ æĬĬ
ä»Ģä¹Ī ä¸ľè¥¿
æī¾ åĩº
æ³¨ è§Ĩ
èħ° éĹ´
æ¯Ľ å·¾
Ġs w
æĦŁ åĬ¨
è° İ
çķ¥ å¾®
Ġo thers
æĦŁ çŁ¥
åĪĨ æīĭ
ra y
èĩªçĦ¶ æĺ¯
çļĦèīº æľ¯
ä¸Ģ ç¾¤
è¿Ļ å°±
çĤ¹ çļĦ
æļ ®
èĻ ¾
åİŁ è°ħ
è¿Ĳ çĶ¨
æ·· ä¹±
ĠAr t
éĮ ¢
åĵ² åŃ¦
æ¸¾ åľĵ
æİĻ æīİ
åĲ© åĴĲ
çĪ· çĪ·
Ġapp lic
éĽ» è©±
æĪĳ åıªèĥ½
çŃ ¹
Ġc ertain
æ± ¹
é© °
è®¾ å®ļ
all s
çļĦçĹ ķ
b ook
ä¸Ģ å±Ĥ
æĹ© æľŁ
åħħ è¶³
0 5
s y
å½± åĥı
ç©´ éĩĮ
Ġv iew
è½¦ è¾Ĩ
è¿Ļ é¦ĸ
æ²¡æľī äºĨ
ãģĦ ãģı
æ±½ è»Ĭ
Ġbec ome
çļĦ æķĪæŀľ
è° Ĭ
éĴ ī
æıĴ è¿ĽäºĨ
Ġz we
çªĹ å¤ĸ
åĲĵäºĨä¸Ģ è·³
éĿ ľ
æģ ¤
ä¹İ ä¹İ
æĽ´å¥½åľ° äºĨè§£
åľ¨ ä¸ĬéĿ¢
Ġt ax
æĪĳä»¬ å°Ĩ
Ġme as
æĪĳ çľĭçĿĢ
æĪĳ çļĦèĤīæ£Ĵ
å® ª
èģ ·
å¾® ç¬ĳçĿĢ
å¥Ī ä½ķ
ä¸Ģ çŀ¬éĹ´
å¥½ å¥½çļĦ
æĪĲ å¹´
åĭ Ŀ
å¨ĩ åªļ
éħ¥ èĥ¸
çĥ Ľ
ç¥ŀ å¥ĩ
æŀģ åĵģ
å¯¹æĸ¹ çļĦ
å¼¯ æĽ²
æĸĩ æĺİ
çī¹ æĦı
è¯Ń åı¥
å¯¾ å¿ľ
ç¾¡ æħķ
å¾Ī å¥½çļĦ
Ġwe iter
A C
m y
æī Ľ
è§£ æĶ¾
é¦Ļ èĪĮ
ãģ» ãģ©
Ġm ar
éļ ¨
ĠM in
å®¹ è²Į
åĲĥ æĥĬ
ä½łä»¬ çļĦ
éĩĮéĿ¢ çļĦ
çŁ³ å¤´
åĴĮ å¹³
åľ° çĭ±
åħī æĺ¯
æĪĳ ä¾¿
il ities
æŃ¦ åĬŁ
çļĦè£¤ åŃĲ
éĢĤå½ĵ çļĦ
ä»ĸ å¦Ī
ä¸Ń æĮĩ
æ¶ ¯
äºĨä¸Ģ åĪĩ
ãĥ¼ ãĥ³
è±¡ å¾ģ
è¿ Ń
ä¸Ĭ æīĢ
æ¸ į
éªļ å±Ħ
èĩªè¡Į è½¦
æĪĳ çļĦèº«ä½ĵ
çīĽ ä»Ķ
Ã¶g lich
s er
å¦ Ħ
çī© ç§į
çĻ Į
æĶ¹ éĿ©
å¥ĩ å¦Ļ
ãģį ãģŁ
çµ ¡
Ġi hre
åĮħè£¹ çĿĢ
çļĦç©º æ°Ķ
åľ¨ å®¶éĩĮ
æ¢ Ĩ
ãĤ·ãĥ ¥
æįĨ ç»ĳ
Ġsing le
çļĦç¼ĺ æķħ
æĬ ¿
ä¹Ł æĺ¯ä¸Ģ
åŀĭ çļĦ
ç· ©
æĥ ļ
ĠM ed
æľª å©ļ
ãĥ¼ãĥ Ħ
ãĤ Ĩ
Ġa verage
æ²¡ æ³ķ
Ġf ra
åħ¥ ä¾µ
åİŁ çĲĨ
åįı è®®
ç° ¡
çļĦ åŃ¦çĶŁ
ä½ ĳ
å°± åľ¨æĪĳ
çĤ ½
åİŁæĿ¥ æĺ¯
Ġd ann
ä¸İ åħ¶ä»ĸ
Ġre fer
æıĲä¾Ľ çļĦ
Ġim mer
æĻ® éģį
ä¸Ģæ®µ æĹ¶éĹ´
Ġform ula
ä¸Ĭ ãģĴ
æĭ §
è£ ³
Ġh al
ct or
å¤Ł äºĨ
ç¢º èªį
å¦ĵ å¥³
éļ Ĭ
æīĢ æľª
ãģ§ ãģĹãģŁ
æĪ· å¤ĸ
çĶŁæ´» æĸ¹å¼ı
ä¸Ģ æĥ³åĪ°
åıª æĺ¯ä¸Ģ
éº µ
m al
ä¸Ģ åĪĨ
èĬ Ń
éĢĻ äºĽ
çĭĹ çĭĹ
çĶŁ ç´ł
Ġc over
ãģ® ä¸Ń
ãģ£ ãģ
art en
ä¸Ģ é»ŀ
åı¯ä»¥ æıĲé«ĺ
æĬĬ çİ©
äºĭ çļĦ
èµ¶ å¿Ļ
æĮ£æīİ çĿĢ
æİı åĩº
4 4
å¤§ åįĬ
èĥľ åĪ©
åĻĹ åĹ¤
ä¸Ģ ç»Ħ
åĪ Ĭ
æĪĳ æĥ³è¦ģ
åĴĮ åıĳå±ķ
å¯¹ ä»ĺ
ion al
ãĥĥ ãĥģ
å±ģèĤ¡ ä¸Ĭ
è£ı éĿ¢
éĲ ĺ
æĪĳ ä¸ĢçĽ´
ä¼Ĺ å¤ļ
ç£¨ è¹Ń
çİ² çıĳ
Â·Â· Â·Â·
ç½ ķ
æĴ °
ç¥ŀ æĥħ
çī¹ å®ļçļĦ
åĤ ³
èĵ ¬
åĴ¯ åĴ¯
Ġ ãĤ¹
åľ¨ æľªæĿ¥
ic ation
é¥ ª
çļ Ĥ
æīĵ äºĨä¸ª
ï½ Ĵ
Ġsk ills
èĦ± ç¦»
ä¸į çĿĢ
åĴĮ å°ļ
ä¾ ¦
æ®ĭ çķĻ
çļĦèģ Ķ
ä½ł ä¸ª
åĵ Ĩ
èı ĩ
æ¢¦ ä¸Ń
åī§ æĥħ
å¢Ļ ä¸Ĭ
æİ© é¥°
ç¸ ®
on se
æĢ¡ éĿĴ
è½¬æį¢ ä¸º
ï¼ ´
æĪĳ è¢«
Ġs ide
è¯´ å¾Ĺ
Ġb ro
åŃ¦ éķ¿
èģ Ĥ
è¡Ģ æ¶²
åĴ ĭ
è´¹ çĶ¨
æĿ¨ è¿ĩ
åĲŀ åĴ½
æ·±æ·± åľ°
çļĦç´ «
ï¼ ¬
æĹł å£°
åı¯çĪ± çļĦ
æ²¾ æ»¡
åĴ³ åĴ³
éĻĽ ä¸ĭ
Ġw omen
å² Ĺ
èĤ© ä¸Ĭ
Ġ ens
æĪ ļ
åħ Ĩ
éľ ĸ
çľ Į
åıĳ èĤ²
æī¾ ä¸įåĪ°
æ³¨ åħ¥
å¾Į æĤĶ
å¦® å¨ħ
æĳ¸äºĨ æĳ¸
Ð °
æľī æľºä¼ļ
åĴĮ æĶ¯æĮģ
Ġto ol
Ġne xt
æ±Ł æ¹ĸ
è¿Ļ å®¶ä¼Ļ
æĺİ æĺŁ
è¿Ļä¸ª å¥³äºº
èĦ¸ èĽĭ
æļĹ ç¤º
æĮĤ çĿĢ
Ġsp ace
m at
ľ æĮģ
Ġt ask
åĵ º
å¯¹ çİ¯å¢ĥ
èĢĮ ä¸į
æļ ĳ
æĻļ é¥Ń
åĨ· åĨ·
å±ĭ éĩĮ
çļĦç« Ļ
Ġdeterm ine
å¥¹ è¦ģ
al es
Ġc ult
æ²Ļ æ»©
çļĦèĽ ĭ
å¤§ ä¼ļ
åŃ¦ å§Ĳ
Ġst ory
è» ¢
A nd
å¥ ®
ä¸Ĭ æĸ¹
éĤ ĵ
æŀ ¯
ä»£ æĽ¿
ä¹ħ äºĨ
èº«ä¸Ĭ ä¸ĭ
å´ Ķ
b t
Ċ ĠĠĠĠ
åįģ äºĶ
å½¢ æĪĲäºĨ
èľ ·
è±Ĩ èħĲ
ãĥķãĤ ©
2 000
çļĦ çľŁ
æĪĳä»¬ å°±
åıį æĺł
åĸľ å¥½
æī© å¤§
ä¸Ńåįİ äººæ°ĳåħ±åĴĮåĽ½
åª½ åª½
Ġd ays
Ġc ell
ä¸Ģå®ļ æĺ¯
æĥ³ åĥı
åģľæŃ¢ äºĨ
I C
æĹł æĦı
ç¼ ĩ
çİ© æĦı
å°ıç©´ éĩĮ
ĠAmeric an
æĥ³ å¿ħ
åĽłä¸º ä»ĸ
Ġr ate
æ¾ ľ
æľī è¿ĩ
å¾Ĺ çŁ¥
æĥ³ åĪ°äºĨ
Ġl ow
åĴķ åĻľ
çļĦçł ´
çļĦè§£ åĨ³
Ġincre ase
æ¼Ĩ é»ĳ
Ġsignific ant
éģ Ĭ
äºĨä¸Ģ æĿ¡
äº¤ éĽĨ
é£İ åĲ¹
åİĭ åĪ¶
ãĥĥ ãĥī
çĶľ èľľ
çļĦèħ° èĤ¢
çļĦçĹķ è¿¹
å¥½ åľ¨
åīį çļĦ
æĽ´ å®¹æĺĵ
ĠG es
å¼± çļĦ
çļĦç¾İ å¥³
è¡¨çİ° åĩº
åĮĨ åĮĨ
åıĳ æĬĸ
åĩł åĪĨéĴŁ
å½¢ æĢģ
æ±½è»Ĭ æĹħé¤¨
æĪĳ åı«
åħ¬ è·¯
Ġ6 0
: //
âĢ ĵ
æł ª
å¾Ī é«ĺåħ´
Ġper iod
åĩ °
å½ĵ ä»ĸ
å®Ŀ çŁ³
ãĥĹ ãĥ¬
å¹´è½» çļĦ
ï¼Ŀ ï¼Ŀ
æĪĳ å®¶
åĢ ª
åıª æľīä¸Ģ
æĢ§ å¥´
ä»İ åĲİéĿ¢
åĦ¿ åŃĲçļĦ
è§£ éĸĭ
Ġwor ds
çļĦè ¹
re g
çĶŁ çĶŁ
et e
å®Į æĪĲäºĨ
é¦Ļ æ±Ĺ
m l
ou th
å¾ĭ å¸Ī
c le
æŀģ èĩ´
èĭ¥ æĹł
ä¸įéĶĻ çļĦ
Ġpartic ip
èŃ ·
ĠTh at
æĪĳ éĹ®
æĭ ±
æīĭ èħķ
ãģª ãģŁ
çİĭ åŃĲ
éħĴ ç²¾
ä¸ĥ åħ«
or th
æĹł åĬĽçļĦ
åĵ Ĵ
è¿Ļä¹Ī å¤§
çļĦè¯Ŀ é¢ĺ
æķ°æį® çļĦ
ĠSch ool
æĴŃ æĶ¾
è´¢ åĬ¡
P S
åĽ ļ
ç¬ĳ ç¬ĳ
æľīæķĪ åľ°
F or
æı ª
åĩ¯å°Ķ å¸Į
çļĦ éŃĶ
åĬ¨ äºº
Ġm akes
å³ ¶
è·ĳ åĪ°
è¾ħ åĬ©
20 14
ä¼¸ åĪ°
è·ª åľ¨
åįı åĬ©
Ġd ue
ĠD o
Ġan t
? ãĢį
å¥³ éĥİ
æīĵ åį°
æĮĩ çļĦæĺ¯
um e
ç¦» åİ»
é¼ İ
åİ» çľĭ
æĬĬ å¤´
æµĭ éĩı
æ¦Ĥ çİĩ
ãĥķ ãĤ£
çº¢ æ¶¦
èĳ µ
Ġhe ad
ç´«èī² çŁŃè£Ļ
ï¼ģ "
as ing
Ã¤ ng
è½¯ è½¯
ãģĿ ãģĹãģ¦
æ¼« çĶ»
å¥½ åķ¦
è¡ į
èĥ ³èĨĬ
éĹ®é¢ĺ çļĦ
ç´ Ļ
æĮĩ ç¤º
å« ī
åĳ½ çļĦ
åĳ»åĲŁ çĿĢ
çĽĳ çĿ£
åĭķ ä½ľ
åĬ¨ éĿĻ
ĠP ol
æĳ¸ æĳ¸
pe cial
çļĦè· Ł
éĢ ±
Ġf ull
æĸ¯ åĿ¦
ãģĶãģĸ ãģĦãģ¾ãģĻ
äºº ä½ĵ
Ġf uture
ç´ į
å¤ĸ å¥Ĺ
åİŁ åŃĲ
æľįåĬ¡ åĳĺ
èħ¹ éĥ¨
éĻ¶ éĨī
E x
æŃ ²
åı¯ä»¥ å°Ĩ
åŃ¦ ç§ĳ
Ġh ours
Ġn et
åĥ §
æĹ¥ çļĦ
ĠP ar
æĪĺ åľº
è¯´ ç½¢
å¼Ģ çİ©ç¬ĳ
æ¸ Ķ
æļ ĩ
Ġrec ord
on n
Ġs el
æŀģ ç«¯
Ġdoes n
1 000
9 8
äºĨ å¥¹çļĦ
er c
å¤´ é¡¶
åĨ² åĪº
è¿Ļæĺ¯ æĪĳ
ãĢĤãĢĤ ãĢĤãĢĤ
åĲĲ äºĨ
çļĦèĪ ŀ
kt ion
åİĮ æģ¶
å¥¹ è¿ĺ
æĹł åĬ©
Ġacc ount
g l
æľ ¦
ä¸ĭ ä¸Ģä¸ª
åħ± äº«
æĪĳä¸į æĥ³
çļĦå¥³ åŃĲ
åľ¨ ä¸ŃåĽ½
ç¡ķ å¤§
çļĦ éĿ¢åīį
çº¢ èĤ¿
æĤ¨ å¥½
çļĦ ä¸¤ä¸ª
ä¸įæĺ¯ å¾Ī
è¯¥ æĢİä¹Ī
æ³¨ åĨĮ
Ġev ent
Ġm ot
è¨Ģ è¯Ń
get her
äºĭå®ŀ ä¸Ĭ
æīĭ èĦļ
Ġcom b
k s
æ² ģ
åĪĨ æĪĲ
Ġto gether
åĽ¾ ä¹¦
åĩĮ è¾±
ç¯® çĲĥ
çļĦ ä¸»é¢ĺ
å¥¹çļĦ éĽĻèħ¿
ĠD es
ãĤĤ ãģĹ
ãģķãĤĮ ãĤĭ
ãģ«ãģª ãģ£ãģ¦
h and
ro ll
å¤« åĲĽ
è§¦ ç¢°
ne y
ãĥĹ ãĥŃ
éĻ ĭ
ä½ĵ éĩį
å°Ĩ æĿ¥
æŁ ł
åħ¬ ä¼Ĺ
é¦Ļ èķī
æĿĢ äºĨ
çļĦçĭ ¬
æ¯ıä¸ªäºº éĥ½
æ¶īåıĬ åĪ°
Ġagain st
à ¨
æĥħ æĦ¿
ãģį ãģ¾ãģĻ
ãĤĦ ãģĻ
äºĨåĩł åĪĨ
ĠEng lish
ãĤ ¼
åĪ« äººçļĦ
è¿Ļä¹Ī ä¸Ģ
å¸Į èħĬ
å¨ľ å¨ľ
æķ£ æŃ¥
Ġa ir
ch ie
éķ¿ éķ¿çļĦ
çĻ½ çľ¼
ãģ¦ ãĤĤ
ĠC hrist
ä¸ĢèĤ¡ èĤ¡
ãĤµ ãĥ¼ãĥ
ĠUn ited
è¿Ļ è®©
çļĦè Ń
æīį è¡Į
æ´» åĭķ
æķĻ è®Ń
æīĢä»¥ æĪĳ
ĠU nd
è¿Ļä¸Ģ åĪ»
åĽ¢éĺŁ æĪĲåĳĺ
çļĦç ĵ
ä¸Ŀ ä¸Ŀ
Ġsu re
åģ¥åº· çļĦ
ä¸İæŃ¤ åĲĮæĹ¶
çļĦè ¨
çļĦè ĳ
åı¯ä»¥ çĶ¨äºİ
æĥħ ä¸įèĩªç¦ģ
æľº åħ³
æķ´ é½Ĳ
è¶ģ çĿĢ
æļ´éľ² åľ¨
åĽłä¸º å¥¹
èª Ń
è¶ħ çº§
åĲŀ ä¸ĭ
: âĢľ
çļĦ é»ĳèī²
çĭ °çĭŀ
åıĹ åĪ°äºĨ
è§ģ å¥¹
çº¿ ä¸Ĭ
ä»ª å¼ı
æĴĴ å¨ĩ
ä¸į è®º
ä¼ł è¾¾
è¿ĻéĩĮ çļĦ
åı· çłģ
f ach
éĤ£ æĹ¶åĢĻ
Ġf ri
åĮĸ å¦Ĩ
æ´» åĬĽ
ç»Ī ç©¶
ä¹Ł éĥ½
çļĦèĤ ¡
çļĦèĥ ³èĨĬ
å¹¿ åľº
æĬ½æıĴ çĿĢ
å¦Ĥæŀľ ä¸įæĺ¯
çİī èħ¿
çļĦç¼ ĸ
æĭī æĸ¯
çļĦèº« è»Ģ
èĩªçĦ¶ çļĦ
çļĦèĥ ´ä½ĵ
èŀį åĮĸ
ä¸Ģ æ»´
ç» ŀ
ad t
Ġge w
I I
ä½ł æĿ¥
å°ı æĿİ
il ar
æĺŁ çĲĥ
æŃĮ è¯į
å¿ĥ çĸ¼
ä½Ĩæĺ¯ æĪĳ
æŁĶ åĴĮ
Ġcomp any
éģ® æİ©
æĲŀ å¾Ĺ
åľ¨ è¢«
è¿Ļ åº§
åį Ķ
ä¸º èĩªå·±
åĸ ®
Ġs ays
20 12
Ġsh ort
led ge
ãģ¡ãĤĥ ãĤĵ
Ġl ink
åĮº åĿĹ
D er
åģļ è¿ĩ
ä¸į æĢķ
åĽŀ å½Ĵ
Ġl a
èµ° åĪ°äºĨ
çĮĽ çļĦ
åĸĥ åĸĥ
å°ıé¾Ļ å¥³
\ [
u ation
çĦ ļ
æĺİ æĹ¥
ãĤĮ ãģªãģĦ
åĨ° åĨ°
pport un
ä¸Ģ æľ¬
åĽŀ æĶ¶
åĲĦ åľ°
è£¤ è¢ľ
ten s
åºĨ ç¥Ŀ
Ġind ust
Ġm ention
ä¸Ģä¸ª å¤§
æ£ ķ
ĠA ss
ç©º çĻ½
æ½® çº¢
èħ° èĤ¢
jp g
Ð µ
Ġs ow
åı¯ä»¥ çĶ¨
çľŁ äºº
å» ĵ
æĢĿ ç»ª
åĸľ æĤ¦
èĪĮ éłŃ
åºı åĪĹ
æĤł æĤł
æĭ Ĳ
ä¼ļ ç¤¾
Ġd ig
å§Ĳ å¤«
Ã¤ ch
æĬ± æĢ¨
æĻ¯ èī²
æĹģè¾¹ çļĦ
è¡¬ è¡«
ãĥ¼ãĥ ĸ
åİĭ è¿«
Ġhist ory
å®Į æ¯ķ
èĦļ ä¸Ĭ
ĠN o
é¡º ä»İ
ç§ģ äºº
éĢģæĸĻ çĦ¡æĸĻ
0 2
å°ı çĻ½
æ» ¨
ãĥ¼ãĥ Ĺ
ãģĹãģ¦ ãģĬ
æĵħ éķ¿
çļĦ è®¾è®¡
ä¸ª æľĪ
åĬŁ åĬĽ
åŃĲå®« åı£
b o
çĲ ¦
æŃ£ ç»ı
ï½ į
Ġst ruct
çºª å¿µ
èī¯ å¥½
âĦ ĥ
çļĦ åŁºç¡Ģ
ä¸į èĤ¯
è¿Ļ åĩłå¤©
éĩį å¤§
éŁ ¿
ie f
èĳĹ æĪĳ
ãģĤ ãģªãģŁ
âĢ» âĢ»
åľ° éģĵ
å°Ĩ èĩªå·±çļĦ
æķ°æį® åĴĮ
éģĩ åĪ°äºĨ
æ»´ èĲ½
E D
Ġ ess
çļĦ éŁ³ä¹Ĳ
çļĦ çĶ»éĿ¢
åľ Ĵ
åĬ Ī
çĿĢ åĺ´
Ġv om
åķĨ éĩı
og n
ub e
èĿ ´èĿ¶
çļĦç¥ŀ ç»ı
æĺ¯ ä»İ
èĦ Ĳ
çĽ´ æĴŃ
Ġpro b
æĮº åĬ¨
å¤¹ çĿĢ
å® ®
å¯¹ åĲ§
åıĪ åľ¨
åħ³ éĹŃ
çĶŁ æĦı
ä¸İ åħ¶
å©ļ ç¤¼
èŀį åħ¥
r ight
ä¸Ģ èĩ´
å¤§ åİħ
åħ¶ å¯¦
çİĭ åĽ½
éĵħ ç¬Ķ
ä¸Ģ æ¬¾
è¯Ŀ è¯Ń
å°±æĺ¯ è¿Ļæł·
åĬ¿ åĬĽ
ç²ī èī²
è£¸ ä½ĵ
çļĦè£ ¸
äºĨ æĪĳçļĦ
ä»ĸ éĤ£
ãĥ¼ ãĤº
Ġyou ng
ç´¹ ä»ĭ
i ents
æ¯į åŃĲ
çļĦè´ £
ap s
æģį æĥļ
å¥½ è±¡
ĠC al
å·¥ä½ľ ä¸Ń
l ished
ãĥª ãĤ¢
âĶħâĶħ âĢĿ
åĲİ åºŃ
ä¹ĭ éĻħ
æħ ¨
å¸¦ ä¸Ĭ
çļĦ é¢ľèī²
ä½ł åĴĮ
éĽ ı
æĽ´ ä½ķåĨµ
æ¯Ķ æĪĳ
Ġadd ress
çļĦ å¼Ģ
çŃī æĸ¹å¼ı
åĭ º
ft ware
Ġsc ient
Ġuns er
Ġtechn ology
o ber
ä»İ æŃ¤
äº¤ å¾Ģ
åı¯èĥ½ éľĢè¦ģ
èĻ½ è¯´
éĢī ä¸¾
Ġex pect
0 6
ä½¿ å¥¹
ãģĵ ãģ¡ãĤī
æĳĩ æĳĨ
ç»µ ç»µ
çĶ º
ä¸ĭ æĸ¹
å°± è®©
æķ£ åıĳåĩº
4 2
éĴ ®
çª ľ
20 11
çªģ åĩº
ĠThe se
ä¾į å¥ī
å¿«éĢŁ çļĦ
ãĥĸ ãĥ©
å¸Ĳ ç¯·
ä½ł æĺ¯ä¸įæĺ¯
it or
è¢« èĩªå·±
æĪĸ åħ¶ä»ĸ
å² Ń
ãĤĬ ãģ®
Ġex c
æ¼Ķ åĩº
uch t
çļĦ çļ®èĤ¤
ä¸Ģ æĥĬ
èĩª è¯Ń
æīĭ ä¸ĭ
æĪ¿ éĩĮ
çļĦä¸Ģ æ®µ
ä¹° äºĨ
Ġus er
å±Ģ éķ¿
å¨ĥ å¨ĥ
é¦ĸ æ¬¡
ĠN ational
æ¡Ī ä»¶
çīĽ èĤī
Ġcor rect
= =
O T
Ġth ing
ĠS he
æĭī åħĭ
-------- --------
å¥¹ è¿ĺæĺ¯
é£ ¯
åı« éģĵ
é¦Ļ åĳ³
æįı çĿĢ
çļĦ åŁºæľ¬
è¿ ¦
ä½ł å¯¹
èµ° è·¯
åĽłä¸º å®ĥ
æĬ¥ å¤į
åĽ¾ çīĩ
æĬĢæľ¯ åĴĮ
ver t
ä¸Ģæ¬¡ æ¬¡
è·¯ çº¿
s el
ä¸ĭ ä¾Ĩ
å°± æĥ³
èº« èº¯
Ã¼ hr
çıŃ çīĻ
åľ° çĲĨ
è¿Ĳ è¾ĵ
çľŁæĺ¯ ä¸ª
éĺ´éģĵ éĩĮ
f ort
åı¯ åĨįçĶŁ
èĩªå·± ä¹Ł
å¾Ī ä¸į
æĲ ĸ
ãĢĤ ï¼ī
ä¸Ĭ è¿°
æīį åıĳçİ°
æīĵ æī°
éļı æīĭ
ç»Ł ä¸Ģ
é½ ģ
æĻ® åıĬ
å¼¥ æ¼«
åĴĮ æ²»çĸĹ
is ed
èº« ä¸ĭçļĦ
ä¹ĭ äºĭ
ä½ĵ ç³»
èĢģ çĪ¸
å®ŀ ä½ĵ
ol ution
çļĦè¥ ¿
) )
ï¼ »
åĸ µ
å°Ħ åľ¨
ĠE nt
å°ļ æľª
åħ¨çĲĥ åıĺæļĸ
çļĦ ä¸įæĸŃ
Ġc lear
ç¤¾ æľĥ
è£¡ éĿ¢
è¯´ çļĦè¯Ŀ
Ġin te
ä¼ĺ ç¾İ
æİ° å¼Ģ
è³¼ åħ¥
o id
ä½ł çľŁ
ä½ľ ä¸ļ
åħ¬ å¼Ģ
ãĤ¤ ãĥĪ
æĭħ å¿§
ä½ł åĸľæ¬¢
âĢ¦âĢ¦ ï¼ģ
å£° ä¸Ń
çī¹ æĢ§
ĠM ark
è¶³ è¶³
åģľ äºĨä¸ĭæĿ¥
åįķ çĭ¬
è¯ķ æİ¢
çľŁæĺ¯ å¤ª
çļĦ å¦Īå¦Ī
ä¹Ł éľĢè¦ģ
éĤ£ èĤ¡
Ġp ast
çĶ·äºº ä»¬
åĪ» æĦı
çļĦå¤§ å°ı
æĲĤ ä½ı
h ne
æĺ¯ å¦ĤæŃ¤
çķ ¢
å¼º å£®
è½¬ è¿ĩå¤´
æİ¨ è¿Ľ
çħ ŀ
ä¸ĭéĿ¢ çļĦ
æĪ´ çĿĢ
Ġin f
è£ ´
åİŁ åĪĻ
ĠW ar
åį± æľº
å° İ
ä¸į è®¸
æ· ¨
å½ĵ ä½ľ
ç»Ļ æĪĳä»¬
ä»ĸä»¬ åľ¨
è·Ł è¸ª
ĠG l
çļĦç¥ŀ èī²
Ġpos ition
çļĦç± »
æĪĳ ä¸įèĥ½
æı ®
Ġm en
æĮĩ çĶ²
ĠWh o
æľ¬èĥ½ çļĦ
Ġsever al
åķ ¤
ä¹ĭ åĨħ
ï½ ĵ
ç¥ŀ èī²
æĹłæ¯Ķ çļĦ
çļĦç¨ĭ åº¦
æ½Ķ çĻ½çļĦ
ä¸Ģ çĻ¾
å¼ ĺ
ä»ĸ å·²ç»ı
èİ º
èªį èŃĺ
Ġquestion s
ï¼ £
äºº éĹ´
Ġl ove
å¹² çļĦ
ãĤī ãĤĮãĤĭ
åĵª æľī
æĹ© çĤ¹
æİªæĸ½ æĿ¥
æĬ« èĲ¨
æįĤ ä½ı
åı Ļ
æĪĳ å¸ĮæľĽ
åĴĮ å®īåħ¨
å¥³ ä¾ł
æŃ£ å½ĵ
ĠW orld
æª ¬
çļĦè ĸ
å¾Ĺ ä»¥
an a
ãģĽ ãĤĭ
çļĦèŃ ¦
èĥ½ è®©
æİ Ľ
is ing
åħ¬ å¯ĵ
å¤Ħ çļĦ
ä¼ł æĿ¥äºĨ
è·ĳ æŃ¥
ĠĠĊ ĠĠ
çŁĽ çĽ¾
ä¹ Ļ
ä¹Ł å°Ĩ
åīį æĿ¥
åŃ¦ æľ¯
éļ¾ æĢª
ï¼ģï¼ģ ï¼ģâĢĿ
æ¤ħ ä¸Ĭ
çļĦåıĮ ä¹³
æŃ ¹
å¹ħ åº¦
v al
èº« é«ĺ
ç² ¹
æ¿ ķ
Ġex ist
Ġwor d
åĶĲ ä¸ī
çļĦèĬĤ å¥ı
Ġ ãĤ«
éĽĨ åĲĪ
f ic
Ġf ar
å© §
è¯¥ å¦Ĥä½ķ
é»ĺ å¥ĳ
çļĦå¥³ åĦ¿
éģĹ æĨ¾
bur g
çĿĢ èº«åŃĲ
å¦ ŀ
ä¹Ł æĹłæ³ķ
æĥ³ åİ»
æ· ĺ
å°Ħ åĩºæĿ¥
å©ļ å§»
èµĮ åľº
éªĦ åĤ²
i ans
t t
Ġm ind
om s
å¸ĥ æ´Ľ
åĿļ å®ļ
æİ¥èĳĹ éĽĻæīĭ
æĪĳ çľŁ
åķ ¸
Ġk ind
ãģĤ ãģ£ãģŁ
æ¨± åĶĩ
Ġear ly
æĪĳ å·²
ä¼ļ å¯¹
å¼ł åĺ´
ãĤĴ ãģĬ
æĸĩæľ¬ ä¸Ń
èİ·å¾Ĺ äºĨ
åºŁ çī©
æĦı æĸĻ
åģļ æ³ķ
éĴ ©
id ence
éĢģ æĪĳ
Ġha ving
? ?
è¯´ åĩºæĿ¥
it ing
åĪºæ¿Ģ çĿĢ
y d
çľĭ ä¸įè§ģ
ç¬ Ľ
å¾Ī å®¹æĺĵ
ä»İ ä¸Ń
O M
æ° ĵ
æĬ± åľ¨
ãĥ¥ ãĥ¼
åĸĺçĿĢ ç²Ĺæ°Ķ
ä¸į éĢĤ
å¯ ¡
èĢģ å¦Ī
æķĻ ç»ĥ
éŃħ éŃĶ
åĸĺæģ¯ çĿĢ
ãģ® ãģĮ
è§ģ çĬ¶
ä¸ĩ åĪĨ
éĿł çĿĢ
çļĦçĲĨ æĻº
A d
r ation
ï¼Į ï¼Į
æĿ¥ å®ŀçİ°
Ġc ode
ãģ¨ ãģĵãĤį
çĶµ åĬ¨
Ġan n
çŀ İ
æĸ½ å±ķ
Ġinter n
ãĢģ ãĢģ
åīį æīĢæľª
å½ĵ åģļ
ä¸Ŀ æ¯«ä¸į
éĺŁ ä¼į
Ġãĥ ķ
Ġqu ick
ä¿Ħ ç½Ĺæĸ¯
Ġto day
ig keit
åħį çĸ«
åĩĨç¡® åľ°
çļĦèĦĳ æµ·
çľĭ ä¼¼
çĸ ļ
åĵģ ç§į
æĮº ç¿ĺ
åķ§ åķ§
ä¸ĬæīĢ è¿°
0 9
èĸ °
éĥ½ä¸į æķ¢
box ed
ãĥ §
Ġare as
Ġne ar
åıĤ è§Ĥ
çļĦè· ³
çļĦè£Ļ åŃĲ
çĿ¡çĿĢ äºĨ
èĤ Ŀ
ç»§ æī¿
ãĥ© ãĥ¼
åĩĨå¤ĩ å¥½
åįĩ èµ·
èĶ ½
ĠâĢ »
7 8
I P
åħī çļĦ
æĵ ĩ
åĪĽ ä¸ļ
æ±Ĥæ±Ĥ ä½ł
å¥½ çĹĽ
âĢľ âĢ¦âĢ¦
ä¸İ æĪĳ
ï½ ĥ
ãģĵãģ¨ ãģ¯
Ġsch on
æĭľ æīĺ
6 6
è¿ĩ åĪĨ
æĦŁ åı¹
Ġb ring
Ġp ers
åħ¬ æŃ£
Ã¤ d
è§Ĥ çľĭ
æĥ³åĪ° è¿ĻéĩĮ
çı¾ åł´
çļĦå¿ĥ çĲĨ
Ġact ually
Ġresp ons
p iel
ï¼ ½
åıª è§ī
ä¿¡ å¿ĥ
ĠW eb
é¡¶ çĿĢ
èķ ©
çļĦç® Ĺ
èĪĪ å¥®
æĺ¯ èĩªå·±
åĴĮ å¤§
çİ° éĩĳ
ä¸» ç®¡
éŃĶ å¥³
Ġne cess
æĳĩ æĳĩå¤´
çļĦ åĺ´éĩĮ
æĹ¶ æľº
éģ¿ åŃķ
éĵģ è·¯
Ġen ough
eng th
Ġunt il
é«ĺ è¾¾
ens ch
Ġimp act
éĽ ģ
è¯į è¯Ń
u k
å¤ĸ è¡¨
è¿ŀ è¡£è£Ļ
åħĭ æľį
æĶ¹ ä¸º
ç»´ çĶŁç´ł
åįı ä½ľ
ĠA ut
ä¸ī æ¬¡
æ¥ µ
ä¹Ĳ è¶£
ä¸įçŁ¥ æīĢ
g ed
å¤´ èĦĳ
èĩ³ æŀģ
æ³¢ åĬ¨
çļĦçĪ± æĥħ
å¤ªéĺ³ èĥ½
äºĨ äºĽ
å¥½ åıĭ
æĬĢ è¡ĵ
ç¿ ħ
è¿Ļç§į äºĭæĥħ
å¤§èħ¿ ä¸Ĭ
è¢Ń åĩ»
al d
æ¸ħ èĦĨ
ä¼ł åĩº
éĻ¤ æŃ¤
èķ ´
æĭĺ æĿŁ
ï¼ ¤
ä¸Ģä¸ª çĶ·äºº
åģľ è½¦
ç§ĳ å¹»
åĥıæĺ¯ åľ¨
éģŃ éģĩ
Ġcount ry
æĺ¯ å¦Ĥä½ķ
on es
Ġn orm
è¶Ĭ æĺ¯
æ·« ç¬ĳ
Ã¼ nd
ä»¤ æĪĳ
ber g
æ²Ĳ æµ´
çļĦè§Ĥ çĤ¹
èĽĭçĻ½ è´¨
Ġ âĢĶ
ï¼Į "
è² ¬
åĪĨæŀĲ åĴĮ
åĳ»åĲŁ å£°
çĶ¨ åĺ´
å¤± ç¥ŀ
èĪŀ åı°
èıĬ ç©´
ä¸Ģ è·¯ä¸Ĭ
å½ĵçĦ¶ æĺ¯
åĽŀçŃĶ éĹ®é¢ĺ
ä¿ĿæĬ¤ çİ¯å¢ĥ
Ġcharact er
çł Ĥ
ac y
ä¸Ģ åľĪ
éĥ½ å¸Ĥ
åı¯ä»¥ éĢīæĭ©
çĦ¶åĲİ åıĪ
ç½® ä¿¡
ä½ Ķ
ä¸į æĦ¿
ä¾¿ åĻ¨
åĿı èĽĭ
åŁºæľ¬ ä¸Ĭ
éļĨ èµ·
Ġhigh er
ç»¼ ä¸ĬæīĢè¿°
ud e
ï¼Į ãĢĬ
ä½ł æľīä»Ģä¹Ī
ä»ĸ æĥ³
å°ı å¼Ł
æµģ æµª
çĥŃ æ°´
æĥĬ åĳ¼
åĪĴ è¿ĩ
éģ¸ æĵĩ
ä¹ĭ æīĢä»¥
æŃ£ è¦ģ
åĦ Ĵ
ç¤º ä¾ĭ
åĶ± æŃĮ
å¿ł è¯ļ
hal ten
Ġsent ence
çľ ¶
éľĢè¦ģ çļĦ
è¿Ļä¹Ī å¿«
å®ŀåľ¨ å¤ª
ä¼ĳæģ¯ ä¸Ģä¸ĭ
éĢĶ ä¸Ń
ä¸į ç»Ŀ
at ors
æ¼Ķ è®²
Ġnum bers
æ·«èį¡ çļĦ
åĬ¨ çĶ»
Ġin fl
åĩł ä¸ªäºº
å¼º åº¦
çŁŃ è¯Ń
æľīè¶£ çļĦ
ä¸Ģ è·³
ãģ§ ãģĹãĤĩãģĨ
çļĦç® Ģ
a ur
ãĢĤ ãĢĬ
ãģ« åħ¥
ç±» åĪ«
å¼ı çļĦ
ç®Ģ æ´ģ
åı¤ èĢģ
èĢĥèĻĳ åĪ°
éĢ² åİ»
çļĦ éĥ¨åĪĨ
æŀĦ å»º
åĽŀè¿ĩç¥ŀ æĿ¥
x x
at ures
æı ½
æĥħ åľ°
æ± Ĳ
ä½¿ æĪĳ
åĩł åįģ
çĪ± ä¸½ä¸Ŀ
åĪ¶ çļĦ
ç«Ļ çĿĢ
ãĥĥãĤ¯ ãĤ¹
ä»ĸ è¦ģ
ar ch
è° ¦
ç¢ ĳ
Ġme et
ru g
Ġdis e
å½¼ å¥³
ä¹Łå°±æĺ¯ è¯´
æ²īæµ¸ åľ¨
p ose
Ċ ĠĠ
in n
åģļ çĿĢ
çļĦèº« åĲİ
æĥĬ æħĮ
å±ŀ æĢ§
çłĶ åıĳ
æĿĤ çĿĢ
Ġra d
çļĦè ª
ĠD r
ĠL and
æ²ī éĩį
åı¶ åŃĲ
èĩŃ åĳ³
è´¸ æĺĵ
å«ī å¦Ĵ
Ġt alk
åĴĮ æľįåĬ¡
æĢ Ķ
Ġc rit
çĦ¦ æĢ¥
çļĦ åĽŀçŃĶ
å¯¹ æĪĳè¯´
è¿ĳ ä¹İ
åĨ° åĩī
éģŃ åĪ°
å®ŀåľ¨æĺ¯ å¤ª
Ġc ustom
å¥¹çļĦ ä¹³æĪ¿
ĠG od
å· ¢
åı¯ä»¥ è¢«
åĪĨ æĺİ
æĪĳä»¬ åľ¨
åŁº åľ°
çµ ±
åĪ¹ éĤ£
ãģ¨ ãģį
éĿŀå¸¸ å¥½
åķĨ åĬ¡
åħħ æĸ¥
èĪĶ äºĨ
åŃ©åŃĲ ä»¬
Ġpr ess
å½ ª
re m
æ·± è¿ľ
us h
ãģĪ ãģŁ
ç· £
Ġge gen
arb eit
çµĤæĸ¼ æĪĳ
Ġlik ely
ãģ¨ ãĤĤ
æĢİä¹Ī èĥ½
å·´ å·´
äººå·¥æĻºèĥ½ åľ¨
çĳ¶ çĳ¶
çĦ¶ çļĦ
å¯¹ åºĶ
æĬĬ å°ı
æ·± åĳ¼åĲ¸
æĬ± ä½ıäºĨ
Ġle ft
å¥¹ä»¬ çļĦ
æŀĦ æĪĲ
ru ction
æ³Ľ æ»¥
ire d
æħĮ å¼ł
Ġ å¤§
or ed
Ġo pportun
éĶ ¤
åħ´ èĩ´
è¿ĺæľī ä¸Ģä¸ª
æļ´ åĬĽ
ip le
ä»ĺ åĩº
D as
èĭ ŀ
Th ere
éģ £
æĥħ è¶£
åĻ ©
ĠD ies
è®º åĿĽ
å± ¥
è§£ å¼ĢäºĨ
åįģ åħŃ
åĮħ è£ħ
åĥµ ç¡¬
f ace
å¤± èĲ½
ä¿® å¤į
åģ¥åº· é¥®é£Ł
çĶľ ç¾İ
ä¸´ æĹ¶
ç§Ĵ éĴŁ
ä¸Ģ çĶŁ
äºĨ ä¸ĬæĿ¥
Ġin de
ç©´ åı£
åķĨ åºĹ
å¤ªéĺ³ ç³»
èµĦ äº§
å¨ĺ å¨ĺ
è² ©
ure d
èī¾ ç±³
è¡Ĺ ä¸Ĭ
Ġbook s
åĮºåĿĹ éĵ¾
ä¹Ł çŁ¥éģĵ
ä¸º å¥¹
Ġc aus
ãĤ³ ãĥ³
çŃī çº§
ãĥ³ãĥ Ĩ
æŁĶè½¯ çļĦ
é©¬ä¸Ĭ å°±
Ġche ck
æµ ¦
æĪĳçļĦ å¿ĥ
éĺ² å¾¡
æĪĳä¸į ç¦ģ
å±ĭ åŃĲ
æł¹æľ¬ æ²¡æľī
èĤ¯å®ļ æĺ¯
åķ¤ éħĴ
äºĨä¸Ģ æł·
è¨ ¼
ĠW ir
ç¯ Ģ
ãĤ¸ ãĥ£
çļĦ éĹ®éģĵ
èĩªå·± åľ¨
æĽ´ å¤§
åıĹ äºĨ
ĠI hre
Ġwork s
Ġsc ience
å¾ ½
å¾Ĺ ä¸Ĭ
ur ther
ç¿ ©
éľĢæ±Ĥ åĴĮ
æºľ æºľ
æ¨ Ļ
d em
çİ ¥
re i
è¥¿ çıŃçīĻ
20 13
èĨ ı
æĺĵ äºİ
ĠU m
5 6
æĪĳ ä¸įè¦ģ
åĩ ³
Ġm illion
çĭ Ħ
æŃ» åİ»
Ġcont ain
æĤ² ä¼¤
æĮĩ æłĩ
æ·± åĲ¸
åİĨåı² ä¸Ĭ
åįı è°ĥ
b all
åĴĮ åĪĨæŀĲ
åıĳ æĺİ
ag n
Ġpr ice
å¤įæĿĤ çļĦ
å§Ĭ å§Ĭ
read y
ä¸Ģä¸Ŀä¸į æĮĤ
çļĦ æķ°éĩı
æĪĳ ä¸Ģå®ļ
or g
Ġdo ing
ä¸įåı¯ æĢĿ
ä¹ĭ åľ°
è¹ ¬
è¿Ł çĸĳ
æīĭ çļĦ
ãģ® æĸ¹
åĿ Ĭ
ir l
è£ħ ä½ľ
æİĴ åĲį
åĩłä¹İ è¦ģ
æĺİæĺ¾ çļĦ
æĹ¨ åľ¨
çļĦ åħ¬åı¸
ä¸İ å¥¹
ç©º èĻļ
Ġab s
ä¸į å¿ħ
åĴĮ åºĶçĶ¨
th ough
Ġal ong
è¡Ĺ éģĵ
æľºåĻ¨åŃ¦ä¹ł ç®Ĺæ³ķ
åĵĨ åĹ¦
åģļ èµ·
åį´ åľ¨
çĶµ æ±ł
ãĥ³ ãĤ¹
åł ¤
ç¦» å©ļ
è§Ħ èĮĥ
æĺ¯ å¤ļå°ĳ
åĴĮ ä¸Ģä¸ª
å¿ĥ åľ°
æĮ¥ æīĭ
å§¨ å¦Ī
ific ation
è« ĸ
æ¶Īå¤± äºĨ
Ġph ot
âĺ Ĩ
æ¸ £
åīį æĻ¯
å°Ĩ æīĭ
ä½ı åľ¨
å½ĵ ä¸ĭ
åĬł å·¥
ç¼ Ģ
è» ½
éĩİ åħ½
æ±¤ å§Ĩ
Ġcal cul
4 1
Ġa chie
ar ing
å¤© åľ°
ä¸ľ äº¬
ä¸½ çļĦ
éŃĶ æľ¯
ä¸ĸçķĮ çļĦ
çĤ¹ çĤ¹
æīĢè°ĵ çļĦ
åĴĮ æĮĳæĪĺ
éĩĳ èī²
æĺ¯ åĵª
ä¹Ł åıªæĺ¯
çº ²
æĢ» ç®Ĺ
Ġcomp le
æĦ ļ
å¤§ çĪ·
åĳ ²
éĺ ľ
å¤´ éĥ¨
ĠG en
Ġf ield
ä¸ľ åĮĹ
ĠE n
ä¸įä½ı åľ°
Ġvar i
Ġserv ice
åĴ Ķ
çĶŁ æĢķ
å¾Ī æĥ³
çļĦæīĭ æľº
å®Ī æĬ¤
èģļ éĽĨ
ï¼ «
Ġt ri
è¿Ļ åı¯æĺ¯
éĿŀå¸¸ æĦŁè°¢
è¾ĥ ä¸º
è¯ Ī
Ġd one
æĹł çĸĳ
ĠM on
è¿Ļæĺ¯ ä»Ģä¹Ī
å¹¸ å¥½
åĩłä¹İ æĺ¯
æŁ³ èħ°
ãĥĹ ãĥª
æľ¬æĿ¥ å°±
ĠÃ Ĺ
ä½ł è¿Ļæł·
ç´§ èº«
æĪĳçļĦ è¯Ŀ
ä¸ī ä¸ªäºº
ä½¿çĶ¨ äºĨ
çĦ¶åĲİ åĨį
çĹĴ çĹĴ
æĪĳ åıª
ä»¥ æŃ¤
åħĭ éĩĮæĸ¯
çļĦæīĭ æİĮ
æľī åı¯èĥ½
ä¸Ĭ åŃ¦
åĲĪ çī©
åį´ åıĳçİ°
æıĴ åľ¨
çļĦ ä»·æł¼
ãģ§ ãģ®
åĻ ª
çĳ ķ
æķ°æį® éĽĨ
æįı ä½ı
ä»ķ äºĭ
åľ¨åĮ»çĸĹ é¢ĨåŁŁ
ç» £
æ³ ģ
çŁ ¢
å·² è¢«
å¼º åĮĸ
äº¤ åıī
èĳĹ å¥¹çļĦ
åĸľ æŃ¡
ä¸ĢçĤ¹ ä¸ĢçĤ¹
è¿· æĥĳ
è¶ĬæĿ¥è¶Ĭ å¤ļ
åīĩ æĺ¯
fÃ¼ hr
Ġprim ary
æľī å¤ļå°ĳ
å¥½ æ£Ĵ
æľ¬ æĸĩ
èĳ ¬
um p
ä¸ĭæĿ¥ çļĦ
ç½Ĺ å¾·
åį« æĺŁ
åı¯èĥ½ä¼ļ å¯¼èĩ´
ä¸¤åıª æīĭ
åĴĮ æ°´
è¡ ·
è¾ ľ
il es
ä¹³ æ±ģ
æı¡ ä½ıäºĨ
éĢĥ è·ĳ
å¿ĺè®° äºĨ
æ¥½ ãģĹ
U n
g ress
ä¸į çĶĺ
ä¹Ł åıªèĥ½
è¾¹ ä¸Ĭ
æī© å±ķ
Ġsub ject
0 3
è½ ´
åħ¶ ä½Ļ
and s
Ġresult s
Ġimpro ve
H e
is on
è¿Ľ æĿ¥äºĨ
æľĢ ä½İ
æ³ķ è§Ħ
Ã¼ ss
ä»ĭ æĦı
åĮ»çĸĹ ä¿Ŀåģ¥
Ġ <
çļĦ æīĢæľī
ä½ł åºĶè¯¥
æĤ ª
ç½ĳ åĿĢ
Ġwe bs
èĪĴæľį çļĦ
Ġab ove
ä¸ºä»Ģä¹Ī ä¼ļ
çļĦç® ¡
Ġ æĺ¯
ãĢį ãĢģãĢĮ
æĶ¾ åľ¨äºĨ
Ġl o
æ¸ħ åįķ
æ¸© é¦¨
èŀ º
åľ£ å¥³
é¼ĵ èµ·
Ġar g
æĹłè®º å¦Ĥä½ķ
åĵº ä¹³
ä¼ Ŀ
èī² æĥħ
åĲĪ åĲĮ
æµģ æ°ĵ
åĪĩ æĪĲ
ãģ£ãģ¦ ãģĦãģŁ
åĭĩ æķ¢
20 15
åĿĲ åľ¨äºĨ
èį¡ æ¼¾
ip s
æ±ª æ±ª
æģĴ æĺŁ
ä¸Ģ åº¦
åĪ° ä»ĸ
å¾Ĺ å¤ļ
å¥³ å£«
ãģĦ ãģªãģĦ
åıĺ çļĦ
å¥¶ æ°´
ach t
æł¡ åĽŃ
åĪºæ¿Ģ çļĦ
åĭĩ èĢħ
çľ ©
ä½ľ æĪĺ
åĹ ½
éĿŀå¸¸ æľī
op h
æľĿ é²ľ
ç³»ç»Ł çļĦ
9 6
B A
Ø §
é£ ²
æĶ¾ ç½®
åĢĴ åľ¨åľ°
éĻ¤ éĿŀ
æİĮ æİ§
~~ ~~
æĶ¯æĮģ åĴĮ
èĪª ç©º
Ġrepres ent
? âĢĿ
æĪĳ ä¸Ģè¾¹
ä¸į èī¯
éĢļ éģĵ
çĶµ åĩ»
æĭĶ åĩºæĿ¥
ÃŁ e
ä½ľ å®¶
åįģ åħ«
èĴĻ åı¤
Ġhab e
èĦĳæµ· ä¸Ń
è¦ģ æĪĳ
Ġp ort
Ġe ither
çĽ´ èĩ³
Ġg re
èı ¯
ist en
æľīä¸Ģ èĤ¡
ru ck
æ¡ĥ èĬ±
4 3
çļĦ å®¶
å° Ī
å¥¹ çŁ¥éģĵ
ä½ł å°±æĺ¯
å¼Ģ åĲ¯
åĺ ĺ
éĥ¨ ä»½
éĢļ ä¿¡
åĺ´ è¾¹
æ²³ æµģ
æª Ģ
Ġprof ession
æľ¦ èĥ§
é»ĳ è¡£
åĽ¾ æ¡Ī
Ġorig inal
çļĦ åĩº
äºº åĴĮ
çĥ ĺ
è½¦ åŃĲ
åºĬ å¤´
ĠSt ates
çº¯ æ´ģ
åħĶ åŃĲ
æĥ³äºĨ æĥ³
éĻ¤æŃ¤ ä¹ĭå¤ĸ
ä¸į æĺİ
æł ĸ
å¥½ æĥ³
çĦ¶åĲİ å°Ĩ
ob al
U S
åĴĮ è°Ĳ
å°ı åŃ©åŃĲ
or der
æľĢ åĸľæ¬¢çļĦ
äºĨä¸Ģ åľĪ
æĹ¶éĹ´ çļĦ
å¦» åŃĲçļĦ
sch ied
Ġmus ic
ã Ħ
èµ ´
åĬł å¯Ĩ
åĲį åı«
çĹĽèĭ¦ çļĦ
åĤ¬ ä¿ĥ
éģ Ĥ
ä¼¼ä¹İ åľ¨
å¹¸ è¿Ĳ
éª¨ å¤´
æħĮ ä¹±
åıĺ å½¢
æ´» çĿĢ
æĭ¥ æĬ±
ä»ĺ ãģį
æ© ¡
åľ¨ åľº
ä¸ĭ çıŃ
æıĲ è®®
ä¸İ ä»ĸ
æĪ¿ éĸĵ
çľĭåĪ° æĪĳ
çļĦè´ Ł
ç¼ĵç¼ĵ åľ°
æī¹ è¯Ħ
æķ² éĹ¨
us am
æº º
æĪĳ åı¯æĺ¯
å¦ ¨
åıĪ ä¸įæĺ¯
am er
æ³¨ çĽ®
èĦĳ ä¸Ń
æĮī åľ¨
éªļ ç©´
åľ¨æĪĳ èº«ä¸Ĭ
èĤ¯å®ļ ä¼ļ
ä¸įè¿ĩ æĺ¯
çĥŃ éĹ¹
ĠH and
èĵĿ èī²çļĦ
Ġresp onse
Ġcomput er
éĺ ®
æ²¡ èĥ½
æĸ¹ çİīé¾Ļ
æķ° çļĦ
çļĦèĦ ĸé¢Ī
ä»į æĹ§
æĩī è©²
ç¼ĸåĨĻ ä¸Ģä¸ª
ä¸įåı¯æĢĿ è®®
0 8
çŃī éĹ®é¢ĺ
åº¦ åģĩ
æĿĤ å¿Ĺ
æķıæĦŁ çļĦ
å°Ĭ ä¸¥
éģ® ä½ı
ç³Ł ç³ķ
çĽ¸åºĶ çļĦ
Ġnat ural
E T
T e
p art
ä½ł åĳ¢
å¾Ĺ å¥¹
å¨ ¥
éĥ¨ éĸĢ
ãģ¨ ãģĭ
ãģ¨ è¨Ģ
çĻ¾ åĲĪ
çļĦç¼ Ŀ
åĴ³ åĹ½
ä¸ĸçķĮä¸Ĭ æľĢ
æ¤ ľ
æµĵ ç¨ł
ç»³ ç´¢
å¸½ åŃĲ
çļĦ å¤´åıĳ
è§ Ģ
éŃ ģ
æĲ Ķ
ä¾Ŀ éĿł
åĪĽå»º ä¸Ģä¸ª
ãĢĤãĢį ãĢĮ
å¹³ åĿ¦
20 16
çļĦ ä¸Ŀè¢ľ
Ġt rue
Ġw ays
å¾Į éĿ¢
ric t
èĶĵ å»¶
çļĦ å°±
å°ı å¥³åŃ©
un k
çĵ ·
çĪ½ äºĨ
çĶ¨æĪ· çļĦ
ï¼ ª
å¥¹çļĦ å°ıåĺ´
ä¿¡ çĶ¨
éĿŀ æ´²
å¼ķ æĵİ
æ¦ ľ
ä¸»è¦ģ æĺ¯
Ġbu y
Ġschool s
Ġwhe ther
åķ ĥ
å¥³ èŃ¦
im mer
ãĤī ãģĦ
çļĦåıĮ çľ¼
æĦ ķ
Ġs ize
ar get
å½ĵ ä½ł
ãĢĤâĢĿ âĢľ
æĴ ¼
è¿Ĳ ç®Ĺ
åħ½ äºº
çļĦè´£ ä»»
åĿ Ĥ
æħ ¶
ç»Ŀ èī²
åī§ çĹĽ
æ§ ĭ
Ļ çĹĴ
å± ¤
èĩªå·± æĺ¯
æĬĬ æĪĳçļĦ
æĽ´ é«ĺ
èĬ± çĵ£
éļ¾ è¿ĩ
iv al
è´µ çļĦ
åĵ¦åĵ¦ åĵ¦
C T
ä¼ ŀ
å¥¹ æīį
ä¿ ±ä¹Ĳ
ad em
op y
çŁŃ çŁŃ
ä¹ĭåīį çļĦ
æµ´ ç¼¸
er y
ä¸Ń åŃ¦
é£ Ľ
æİ¥ è§¸
æĮĩ çĿĢ
ãĤĤ ãģĨ
ä¸įè¦ģ åĨį
è¿· äººçļĦ
Ġpr iv
å¯¹ æ¯Ķ
ro du
çļĦèº« é«ĺ
è¿ĻäºĽ äºº
è¶ħ è¶Ĭ
èī¯ ãģĦ
çĽĳ ç®¡
ĺ èĽĽ
ä¸Ń äºĨ
te il
ãģı ãĤĭ
ãģĳ ãģ©
Ġro le
æĿ¥å¾Ĺ åıĬ
ä¸ĭ æīĭ
åİ» åĲ§
è£ħ å¤ĩ
æĹģ éĤĬ
ç¬Ķ è®°
çļĦèį ī
çļĦ åķĬ
åľ¨ åŃ¦æł¡
çķĻ ä¸ĭäºĨ
å¥½åĥı æĺ¯
Ġam ong
åłķ èĲ½
7 7
Ċ Ġ
éĩı çļĦ
ier ung
çļĦè´ ´
åĳĨ åĳĨ
åµ Į
ãģ ¥
Ġd og
ä¿Ŀ å®ī
åıį é©³
æŃ» ä½ł
æ³Ľ èµ·
èĿ ī
çļĦ éĺ³åħ·
å½ ¿
æĬĬ èĩªå·±çļĦ
çŁ¥ åĲį
å¤ª åŃĲ
Ġal ready
åĬłå¿« äºĨ
åı¯åĨįçĶŁ èĥ½æºĲ
en en
è¯· æıĲä¾Ľ
é¦Ļ æ°Ķ
è¿· è¿·
æł¹æį® ç»Ļå®ļçļĦ
èī¾ èİī
æĪĲåĬŁ çļĦ
ä¹Ł åıĺå¾Ĺ
äºĭ æķħ
æĬ¥ å¯¼
æĳĨ èĦ±
è´§ å¸ģ
åĲī å°Ķ
çĥ¹ é¥ª
st ag
Ġg em
èº«ä½ĵ éĩĮ
åĳ¨ æľŁ
ä¼¸ åħ¥
çŃīå¾ħ çĿĢ
red it
è¿Ļ æ¬¾
åĳ ¦
çľĭ ä¾Ĩ
åĮ ª
ç»Ī æĸ¼
ä¸ª èĭ¹æŀľ
ä¸º ä»ĸ
çľĭ ä»ĸ
å½ĵ åľº
ç©¿ è¶Ĭ
å¸®åĬ© ä½ł
çĶµåŃĲ éĤ®ä»¶
Ġproblem s
çļĦ åĲį
ä¸į ç»ı
æĥħ èĬĤ
å®ŀ æĹ¶
ãĥ¼ ãĤ«ãĥ¼
æ¸© å®¤
æľī æĦı
å¥¹ èĢģåħ¬
ä¹ĭ ç±»çļĦ
éķ¿ èħ¿
om an
å¸¦ ç»Ļ
æ¼Ķ å¥ı
å¸ĥæ´Ľ å¦®å¨ħ
h ol
ãģ ľ
âĢ¦âĢ¦ "
å¥½ ãģį
æīĵ æĸŃ
äº® çļĦ
å¸ĮæľĽ è¿ĻäºĽ
Ġar r
æ» ¤
å»º éĢł
çĶŁæ´» çļĦ
æİ¢ éĻ©
åĢŁ çĿĢ
ï¼Ł ï¼ģâĢĿ
éĹ¨ çļĦ
ab les
ĠK l
Ġãĥ ¡
Ġperson al
çļĦç¦ »
ontak te
ãģ ŀ
ä¸Ģ åĲĳ
æĿ ĸ
ç» ®
æ¸ łéģĵ
ç´ Ķ
ç²¾ åĩĨ
èĢĮä¸Ķ è¿ĺ
è·³ åĬ¨
åı¯ä»¥ çľĭåĪ°
Ġh old
å¸® å¥¹
ç´ł æĿĲ
æī¿ è¯º
åģı å¥½
åİļ çļĦ
äºĨ èĩªå·±çļĦ
Ġm ir
ãĤµãĤ¤ ãĥĪ
Ġ ãĢĬ
åİ ¦
éĤ ±
çľĭ å¾ħ
æ· ¼
æ¼Ķ åĶ±
Ġdies er
Ġlevel s
neh men
ä¸Ģ ç³»åĪĹ
å¥ ¢
ä»ĸ çŁ¥éģĵ
å®ļ ä½į
im um
ãģĻ ãģĻ
æĪĺ çķ¥
çļĦèĦ¸ èī²
éĹŃ ä¸ĬäºĨ
çļĦäºĭ å®ŀ
å¤ ¾
æĪĳ çªģçĦ¶
æ°´ æĻ¶
Ġr ather
åįĸ åĬĽ
ound s
Ġet w
ä¿Ŀ åħ»
æ½ º
ç©¿ çļĦ
èº«ä½ĵ åģ¥åº·
æľĢåĲİ ä¸Ģ
Ġwe ight
g el
ï¼Ł ï¼ģãĢį
æľĢ éĩįè¦ģçļĦ
åı£ è¢ĭ
çĻ¼ çı¾
Ġterm s
çļĦèĵ Ŀ
D e
å°ı æĹ¶åĢĻ
ãĤĴ ãģĶ
èĻ ŀ
èĥĮ å¾Į
çļĦç² ĺ
è®© å®ĥ
éĿ¢åīį çļĦ
è¶³å¤Ł çļĦ
Ġt urn
æµ ı
ãģ¾ ãĤĬ
æī¿ æĭħ
ä¹ĸ å·§
ste ad
ãģĤãĤĬ ãģ¾ãģĽãĤĵ
at ur
åıª éľĢè¦ģ
æ½ Ń
æ²¾ æ»¡äºĨ
ãģ® ãģŁãĤģ
ich er
æļ §
è°ĥ åĳ³
éĽĦ æĢ§
äºĨ çĤ¹
åľ¨ åĵªéĩĮ
å¥¹ åħ¨èº«
ä¸Ń æľī
âĢĿ ï¼Ī
éĥ¨ éķ¿
è½¬ åĲĳ
åĴ¬ ä½ı
Ġcons um
å·¥ç¨ĭ å¸Ī
Ġide a
å¤§ å¼Ģ
ãĢį ï¼Ī
Ġc irc
èħ ĭ
é¡ «
è®¤ çľŁçļĦ
åĳĢ åĳĢ
è¯» ä¹¦
èªª è©±
åĲ¯ åĬ¨
è¿Ļæł· åŃĲ
âĢĶâĢĶ âĢĿ
ä»»ä½ķ äºº
çĶ¨ éĢĶ
ä¿ ĺ
é¢¤ åĬ¨
ãĥ© ãĤ¹
çļĦè¾¹ ç¼ĺ
æĬĬ å¥¹çļĦ
èĮ ī
èĬ± èĬ±
å¨ĩ èī³
çļĦ ãģª
çļĦ æĹ¥åŃĲ
ä½ł è¦ģæĺ¯
ä¸º äºº
è´ ©
çľĭçĿĢ èĩªå·±
çļĦèĦļ æŃ¥
æĽ¿ æį¢
æ®ĭ å¿į
ç¼ĵç¼ĵ çļĦ
A nswer
å¥¹ ä¼ļ
ä¸ĭ éĽ¨
å°ı çĮ«
å± ¿
åĸ ¶
åĲĪ å¹¶
ç»ķ çĿĢ
åĨł åĨĽ
m ing
Ġs ym
Ġb ere
åı¯ä»¥ æıĲä¾Ľ
å°Ĩ å¥¹çļĦ
èı Ī
å±± èĦī
è¿Ľè¡Į åĪĨç±»
åħ© åĢĭ
è¿Ļéĥ¨ çĶµå½±
æĸ Ĳ
å¥¹ çªģçĦ¶
ç¾İ å°ĳå¥³
ib ility
ä¼ĳ éĹ²
6 8
P C
æĢ§ åĻ¨
åįģ ä¸ī
åĲĥ è¿ĩ
æĿ¾ å¼ĢäºĨ
Ġke ine
ä¹ŀ ä¸Ĳ
çļĦ åĨħ
æĢ§ è´¨
éķ¿ èĢģ
ç¦ģ æŃ¢
row n
M L
æĹł ç©·
æĭ¿ åĪ°
æĿĥ åĬĽ
äº§åĵģ çļĦ
ï½ŀï½ŀ ãĢį
åįł æľī
Ġac ross
ward s
Ġchang es
Ġc ou
åı¯ä»¥ ä¸º
Ġl ower
èĦ¸ ä¸ĬçļĦ
èĮ ¸
ä¹Ĳ æĦı
æ¸© åĴĮ
æŀķ å¤´
ä¸įçŁ¥æīĢ æİª
æŀ ī
æĽ´ å¤§çļĦ
ç¶ ²
çīĪ æĿĥ
Ġsim ple
ä»ĸ å¯¹
åķ ¼
åĲİ å°±
æĹł æīĢè°ĵ
å¤ª å¤§
çĿ¡ äºĨ
æłĳ æŀĹ
Ġcont rib
ç¼Ŀ éļĻ
au gh
éģ® æĮ¡
çļĦç¿ĺ èĩĢ
v ent
Ġ {
æĪĳ ä»Ĭå¤©
ä¹Ł è·ŁçĿĢ
ĠT ra
çº¢ åĶĩ
us e
æĻļ äºĨ
Ġsystem s
Ġstr ong
o on
y l
åį ¸
éĤ£ä¸ª çĶ·äºº
æĭī èµ·
éł ħ
äº§çĶŁ çļĦ
é» Ŀ
ä¹³ èĤī
æľĽ åĲĳ
ä¸½ å¡Ķ
ãģĳ ãģŁ
' d
æĪĳ å¼Ģå§ĭ
åĴĮ ä¸į
Ġp ain
å·¥ èīº
æŀģ å¤§çļĦ
æĿ¯ åŃĲ
æ½ľ åĬĽ
Ġpol it
is c
èĸ ª
åħ± äº§
ä¸Ģ è¾ĪåŃĲ
ï¼ģ ãĢı
éĤ£ éº½
Ġre le
å¹² å¾Ĺ
åĵª åĦ¿
æĻ¯ è§Ĥ
æłĩ çŃ¾
ç¿» èº«
åįĩ çº§
åĬª åĬĽçļĦ
çļĦèĥ¯ ä¸ĭ
è¾¦åħ¬ å®¤
è¿ĺ ç®Ĺ
åĪĨ è§£
ãģ¨ ãģ®
id d
ĠC ar
å¹¼ å¥³
Ġactiv ities
çļĦ åŁİå¸Ĥ
å¤§ å¤§çļĦ
éĶ ¡
è¿Ļæł· åģļ
Ġbe k
è¿Ļä¹Ī åģļ
åıĭ è°Ĭ
çĻ¾ ä¸ĩ
ç§ģ å¯Ĩ
æĪĳ åĲĹ
å¾Ī åĸľæ¬¢
åĬł çıŃ
ĠS u
Ġbe im
çİ°åľ¨ æĺ¯
é¸¡ åĲ§
çģ« è½¦
ä¸įèĥ½ åĨį
äººä»¬ çļĦ
ht t
Ġpoint s
A L
Ð ¸
ç» ¸
åĩº èī²
æĹł æīĢ
ç¬ĳ çļĦ
è¨ ´
åĽĽ äºº
ä¹Į é»ĳ
Ġdiffer ence
Ġrequire d
i am
Ġ ä¸Ĭ
ä» Ĺ
an cial
ut ions
åı¯ä»¥å¸®åĬ© æĪĳä»¬
éľĢè¦ģæ³¨æĦı çļĦæĺ¯
çļĦ åı¯
æ° ¢
äºĭ çī©
ĠE l
æ®µ æĹ¶éĹ´
ĠL eb
éĤ£ä¸ª äºº
ĠY es
ä¸¦ ä¸į
Ġrel ations
Ph one
Ġ ä¸Ń
æĿ ī
çĤ Ļ
Ġm ax
Ġ2 1
ä»ĸä»¬çļĦ å¯¹è¯ĿåĨħå®¹
Ġserv ices
Ġet c
åľ° åĽ¾
an c
å¤© èĬ±
ãģª ãģ®ãģ§
åħĪ è¿Ľ
èĦļ åºķ
åı¦ ä¸Ģåıª
æĸĩç«ł ä¸Ń
åı¹ æģ¯
Ġart icle
âĢ¦âĢ¦ ï¼ģãĢį
ic ient
ç»Ļ æĤ¨
éĺ¿ æĭī
Ġ åķĨåĵģ
ä¸į è¯¥
æıĴ äºĨè¿Ľåİ»
ç©¿ å¥½
åķĬåķĬ åķĬåķĬåķĬ
Ġaff ect
ãģĻãģĻ ãĤģ
çī º
å¸Į åĦ¿
çĶŁæĪĲ ä¸Ģé¦ĸ
çļĦçº ¿
Ġread ing
ľ åŃĲ
Ġw el
çĥŃ æ°Ķ
çļĦè§£ éĩĬ
æŃ»æŃ» çļĦ
åĲĪ æ³ķ
ãĤĪ ãģı
åľŁ å£¤
: **
è¿Ļ é¡¹
äºĭ äºĨ
å¤ª å¹³
if f
ä¸Ģæ¬¡ åıĪä¸Ģæ¬¡
ç«Ļ ç«ĭ
èĤ¥ èĩĢ
olog ical
éģµ å¾ª
4 00
g ang
å°ı æľĭåıĭ
çĶ¨ èĩªå·±çļĦ
Ġf ive
ä½Ĩ åıĪ
åĲĮ ä¼´
èĬ± è´¹
æļ§ æĺ§
y le
© äºĨ
ï¼ Ĥ
å®¶ éķ¿
æ³¨ å°Ħ
å¤± è¸ª
å¼ķ çĶ¨
ak en
è© ķ
Ġsome one
çļĦ æ·±
Ġa way
ä¸Ĭ äºĨä¸Ģ
å°± è¡ĮäºĨ
ï½ Ĥ
ĠM ay
Ġspe ed
ç¼º çĤ¹
çº¤ ç»´
ä¹Łè®¸ æĺ¯
çīº çī²
Ġb er
åħ¶ä¸Ń ä¸Ģä¸ª
ç¾¤ ä½ĵ
ä¸ĢæĹģ çļĦ
ä¸Ģ éĤĬ
åľ° éĹ®
Ġs qu
åħħ å®ŀ
æ¦ »
åľĨ å½¢
ãģĵãģ¨ ãģ§
å¡« æ»¡
ä¸į æ¸ħæ¥ļ
éĥ½ ä¸įçŁ¥éģĵ
æķĻ ä¼ļ
æıı ç»ĺ
Ġb i
çĭ Ī
æīĵ éĢł
è®° è½½
ãģĵ ãģĨ
ĠIn ter
çļĦèĥ¸ åīį
æ¤ħ èĥĮ
å¯¹ æĬĹ
Ġl og
æį® è¯´
è°ĥ èĬĤ
é¬ Ĩ
å½ĵåľ° çļĦ
ä½© æľį
A M
s ide
® èĦı
åľ° å¸¦
åıĺ äºĨ
çħ Į
è¿ĺæľī ä»Ģä¹Ī
æĹĭ å¾ĭ
çļĦèĥĮ å½±
so ft
I M
æĺ¯ æĢİä¹Ī
æ¸ ¬
çŁ ľæĮģ
ĠB et
æĺŁ æĺŁ
ort s
çļĦå¥³ çĶŁ
è¿Ļæ®µ æĹ¶éĹ´
å½· ä½Ľ
åľ¨ æĪĳä»¬
æ²¡ å¤ļä¹ħ
ĠB y
æµĵ æµĵ
å«Į å¼ĥ
éĺ³ çī©
æĽ´åĬł çļĦ
èİī å¨ħ
å¥¶ æ²¹
ãĥģ ãĥ£
èµĮ åįļ
Ġwrit ing
S S
ä¸į å°±æĺ¯
æĬĬ èĤīæ£Ĵ
å½ĵ ä»Ĭ
id en
çļĦäºº çī©
æ¶Ī éĻ¤
ä¹ī è¯į
èĪĴæľį äºĨ
å°Ĭ æķ¬
Ġknow ledge
åķªåķª åķª
çļĦæĥħå½¢ ä¸ĭ
çļĦ åľºæĻ¯
ä¼ļ éķ¿
æĬĬ éĤ£
Ġg er
å© ķ
æīŃ å¤´
ç£ ķ
ç¬ĳçĿĢ è¯´éģĵ
w end
â ĳ
æĪĳ æħ¢æħ¢
ãģĹãģ¾ ãģĨ
w ick
ä¸Ģ æĮº
çĿĢ å±ģèĤ¡
ï¼ŁãĢį ãĢĮ
uf f
Ġ20 12
èĪħ å¦Ī
usam men
le y
Ġres ources
ç¢° æĴŀ
Ġvar ious
ç»½ æĶ¾
åľ¨ æ°´
åº¦ è¿ĩ
ag er
è¸ ¹
ãĤ¢ ãĤ¤
Ġtra dition
çļĦçº¢ åĶĩ
çļĦåħī èĬĴ
å¥½ åĩł
æĥ³ èµ·æĿ¥
éĿ¢ åħ·
æĹł èĢ»
äºĨä¸Ģ æĬĬ
èĦĳ åŃĲéĩĮ
wer t
åĨ° ç®±
éĺ´éģĵ åı£
Ġhapp en
çļĦè ©
åºĬ ä¸ĬçļĦ
ç²ī çº¢
èĤ¥ çļĤ
çļĦæ·« æ¶²
åļ ¼
a um
çļĦ åĺ´å·´
ä¸Ģ å¤ľ
éģĵ çļĦ
ä¹Łä¸į çŁ¥
çľŁæĺ¯ çļĦ
çļĦèĥ¸ èĦ¯
ick en
èº² éģ¿
ä¸į è¿ľå¤Ħ
ä¹ĭ åĬĽ
è£ Ķ
ä¸ī åĪĨ
çļĦç¾İ é£Ł
ĠÃ ľ
çļĦç½ ª
åĽ¾ä¹¦ é¦Ĩ
ä¸¤ çľ¼
çģ« è¾£
æĶ¯ æı´
çĶļ ä¹Ī
Ġne g
ç¤¼ è²Į
æ³Ľ çĿĢ
Ġprogram s
çģ¾ å®³
è¯ §
å£ ¹
ä¸¤ åĲį
ä»£ ä»·
çĻ Ĥ
æ²Ļ æĭī
ac es
Ġtra ining
çıį æĥľ
Ġass oci
è¦º å¾Ĺ
çļĦçª ģ
Ġmem bers
8 5
g o
æ «
æľī æľº
å°ı èĦļ
æĥħ æĬ¥
æĪĳä»¬ ä¼ļ
è½» çĤ¹
è¡Ģ ç®¡
ãģ¨æĢĿ ãģĦãģ¾ãģĻ
ãĥ»ãĥ» ãĥ»
il s
å¦¹ åŃĲ
ï¼ ¢
åĴĮ å»ºè®®
is es
æ¸¸ èµ°
é² į
å¦Ĥä½ķ åľ¨
å°± åİ»
æ¡ ©
è®¾ ç«ĭ
çļĦçĲĨ çĶ±
æıĲ åĩºäºĨ
äº¤ ä»£
åĵª ç§į
åĨĻ çľŁ
åĽ¢ éķ¿
ä½Ľ æķĻ
åį³ä½¿ æĺ¯
ãĤī ãģªãģĦ
æĶ¾å¼ĥ äºĨ
Ġgener al
J ava
ä¸Ģ ä¸Ģ
è¿ĺ æľīäºĽ
çº¢ æĻķ
å§ĳ å§ĳ
Ġsim ilar
éĤ£ æĪĳå°±
åıĳ å°Ħ
Ġp orn
åĪ© æ¶¦
åĢĴ åħ¥
Ġ20 20
ä¸ºæĤ¨ æıĲä¾Ľ
æľīä¸Ģæ®µ æĻĤéĸĵ
çļĦ å®¶ä¼Ļ
æĪĳ æĹłæ³ķ
å¥½ çĹĴ
Ġm al
ãģ® ãģ«
åĮħ çļ®
æĢĿ ç´¢
é¡¶ åľ¨
å®ģ éĿĻ
Ġapp ear
çļĦçģµ éŃĤ
çļĦçģ¯ åħī
. )
a che
ä¸į ä¿¡
èĢ ķ
åĬ¨ è¯į
ä¾¿ åľ¨
æ¨ ĵ
æ·« ç©´
éĮ ²
æķ ·
åī Ķ
ç¬ĳ è¯Ŀ
é©¬ åħĭ
åĿĲ åĪ°
Ġk osten
è½»è½» ä¸Ģ
èĲĿ åįľ
ãģ¸ ãģ®
> >
a im
èĪ ±
ic he
ä»İ å¥¹çļĦ
æļ Ī
å³ ¡
é¢ĩ ä¸º
æľī äºĭ
è¿Ļ å¼ł
åħ¬ åħ¬
ir es
æ¶Ī åĮĸ
æĮĳ éĢī
æ¥¼ ä¸ĭ
ä¼łç»Ł çļĦ
å¯Łè§ī åĪ°
æµı è§Ī
éģ ł
æķ µ
çľĭ æł·åŃĲ
Ġh ouse
æķ´ æķ´
èı ±
ĠE ar
ä¹Łä¸į æĥ³
å¼ķ åĬĽ
èºº çĿĢ
éº¦ åħĭ
çļĦè§£åĨ³ æĸ¹æ¡Ī
é ı
çĶ ¢
æ· ¹
åĺ ¤
ĠW est
ist ic
çļĩ åĨł
æ¸©æŁĶ åľ°
ç»ĵæĿŁ åĲİ
çļĦèĬ± å¿ĥ
ä¸ĢåĪĩ éĥ½
æ°£ å¾Ī
Ġeng ine
çļĦå¹´ è¼ķ
p ly
åĵ ©
è¯¥ æĢİä¹ĪåĬŀ
å¹² æī°
ä½Ĩæĺ¯ åľ¨
çľĭåĪ° çļĦ
æĳ¸ ç´¢
Ġde g
ç¡¬ çļĦ
æ»´ æ»´
0 4
S h
å°± åĪ°
ï¼Ł ãĢı
Ġcomp et
200 9
âĢ¢âĢ¢ âĢ¢âĢ¢
fic ult
E L
ï¼ ¶
ä¸Ģ å¤Ħ
çŃ ·
æĲ ı
Ġv ideo
Ġsu per
ä¸Ĭ æľī
åĴĮ ç®¡çĲĨ
ä»¥ èĩ³äºİ
ä½Ĩ çİ°åľ¨
çľ¼ åħī
éķ¿ å¤§
å®Į åĸĦ
è¿Ļæł· åı¯ä»¥
éļ¾ åº¦
é©¬ æ¡¶
ä¸į æľĥ
åħ¬ åħĥ
Ġl ive
èįī èİĵ
Ġmod el
æŁł æª¬
ä¸į è§£
ä¸į ä¸Ģä¼ļ
Ġl ater
æĸ° åŀĭ
å®¢ æľį
Ġver b
æ´ŀ éĩĮ
çĿģå¼Ģ çľ¼çĿĽ
in er
ä¸ª ä¸įåģľ
ä¹Ł å·²ç»ı
è¿ĩ å¤ļ
Ġm ess
è¿Ľ åİ»äºĨ
ãģł ãģĭãĤī
æĹłåĬĽ åľ°
Ġa ud
Ġs ite
æģ ¬
çŃī ä½ł
å°ĳ ãģĹ
åĮĸ åĲĪçī©
åı¯èĥ½ å¯¼èĩ´
ĠO ne
ä¼¤ å¿ĥ
Ġest ab
Ġbeh av
0 7
ä¸ĭ åĪĹ
æľ¬ è´¨
il der
ç´§ çªĦ
çļĦç¼Ŀ éļĻ
åľ ĺ
æ²¡ åħ¥
Ġre comm
çģ« çĦ°
ï½ŀï½ŀ ï½ŀ
æī© æķ£
! âĢĿ
æĪĳ éĤ£
æĶ ¥
å°Ķ æĸ¯
ç«Ł æĺ¯
åĸ· æ¶Į
çļĦå¥³ åŃ©åŃĲ
pr ession
çľĭè§ģ äºĨ
ï¼ĳ ï¼Ĳ
hl en
åıª åĲ¬
å·² çŁ¥
åĬł æ²¹
æ½® æ¹¿
æĪĸèĢħ æĺ¯
ĠPro du
åŃ¸ ç¿Ĵ
Ġiss ues
C l
èº« ç©¿
åĲĮ å¹´
æį¢ äºĨ
æ·ĭ æ·ĭ
Ġel se
çļĦ éĽª
èµ· æºĲ
å§ £
éĿ¢ å®¹
Ġb ra
åĺ İ
çĦ¶åĲİ å°±
ä¿® éķ¿çļĦ
çļĦçĪ ¬
åĶ¯ä¸Ģ çļĦ
6 4
äºĭ åĬ¡
æĴ Ĳ
èĲ½ åľ°
Ġse ems
os ed
æ·· æ··
ãĥ¬ ãĥ³
æĬĺ èħ¾
æĬµ è¾¾
u ge
Ġ ä½ł
çĶ¨ åıĮæīĭ
éĥ½ æĹłæ³ķ
æł¹æį® ä»¥ä¸ĭ
çĶļèĩ³ è¿ŀ
ä¸Ńåįİ æ°ĳåĽ½
åĴĮ äºº
åľ° ä»İ
it ch
æ± Ŀ
æ³ķ éĻ¢
çŃī å¥¹
åĽŀ åħ¬åı¸
ĠA ng
åĳĨ äºĨ
ĠY our
ä¸ªæĢ§ åĮĸçļĦ
Ġ âĢ¦
éĤ µ
åĽŀ èį¡
ãģ« ãĤĪãĤĬ
éħįåĲĪ çĿĢ
æ±¹ æ¶Į
æĺ¯ åĲ§
è¿Ļ å¹ħ
ä»ĸ ä¼ļ
åĽŀ æĬ¥
ä½Ĩæĺ¯ å¥¹
æ¬² ä»Ļ
çļĦ ç»Ĩ
å¥½ åĲĥ
éĻª ä¼´
å±Ī æľį
åĢ¾ åĲĳ
ĠDe utsch
é į
æĮ ²
å¤± ç¦ģ
å¤ĩ çĶ¨
éĢģ ç»Ļ
Ġãĥ ¬
å¨±ä¹Ĳ åľº
çļĦç¡ ¬
èĪĩ æĪĳçĽ¸
Ġs ense
ç© Ĺ
æīį å¯¹
åħī æĺİ
am ple
èĢģ äºĮ
çĽ´ çĽ´
ĠF e
èĬĤ çº¦
ãĥĲ ãĥ¼
æŃ ©
çļĦç¾İ å¥½
ãģĻãĤĭ ãģ¨
Ġspe ak
éŀŃ åŃĲ
çĻ½ æµĬ
éħ ª
ï½ Ī
å±Ĥ æ¬¡
ãĥ³ãĥ ģ
ä¿±ä¹Ĳ éĥ¨
æĪĳ åį´
ä¹Ł å¤ª
è¯´ è¦ģ
å¤© åłĤ
èĬ ¦
å¯» å¸¸
å¸¶ æĹ©é¤Ĳ
ĠOn line
U R
s elf
è¾ ½
è¯· ç»ĻæĪĳ
çĨ ı
Ġcon cept
åĩºçİ° çļĦ
åĳ¨åĽ´ çļĦ
ç¨ļ å«©
O n
æĥ³ æĿ¥
åĺ ±
ic y
ĠA f
å·¥ åİĤ
çİ¯å¢ĥ æ±¡æŁĵ
Ġbuild ing
Ġ --
æĺ¯ çľŁçļĦ
çĿ ¹
åĩº äºİ
çĶ¨ èĩªå·±
åĪĨ æķ£
ãĤ¹ ãĤ¯
æ©Ļ åŃĲ
çĮ¥ çĲĲ
s erv
çļĦ çĶµå½±
ĠC o
å¨ĺ åŃĲ
åĸĦ èī¯
å®ĮæĪĲ ä»»åĬ¡
hn en
h m
æĪĳ åķĬ
æĪĳ èĢģå©Ĩ
å°ı çİĭ
åľ° éľĩ
åİ» åģļ
åĿ İ
æīĵ åľ¨
åĹ ¨
åĮº çļĦ
èľ ¡
å·®ä¸įå¤ļ äºĨ
S T
çľĭ æ¸ħ
æķ° åįģ
è®¤ åı¯
ä»İèĢĮ æıĲé«ĺ
å®ŀéªĮ å®¤
m ost
en z
æĬ Ħ
åĪĨ èº«
è¿Ļä¸ª ä¸ĸçķĮ
å© ¢
è¡¨ å§Ĳ
æ¼ ±
åįĥ éĩĳ
Ġdo c
iz ing
æ© ĺ
Ġtem per
çļĦ å½¢çĬ¶
Ġm ass
å®Įåħ¨ ä¸į
æĹħ é¦Ĩ
ä¼¦ æķ¦
éĢĥ ç¦»
ä»ĭç»į ä¸Ģä¸ĭ
ä¸ĳ éĻĭ
ä¸ĵæ³¨ äºİ
æĺ¯ ä»¥
è´ ·
åĪĨ ç¦»
èµ·æĿ¥ çļĦ
æ¸ħ æ¾Ī
æĦŁè§ī åĪ°äºĨ
é¸¡ èĤī
ãĥĥ ãĤ°
æĬĵ èĳĹ
Ġch allen
æĦ¿ æľĽ
èº«åĲİ çļĦ
ãģĹãģĭ ãģĹ
å¥¹ è¢«
ä¸¤ ä¸ĭ
çľ¼ çľĭ
Ġn ational
åĮĸ ä½ľ
å°½ å¤´
åŁİå¸Ĥ çļĦ
æĺ¯ å¯¹
æĪĳ ç»Ļä½ł
çĽ´ å¾Ħ
èĤī å£ģ
éĿĴ çŃĭ
èĳ£ äºĭ
Ġbelie ve
è¿Ļ åī¯
ä½ł è¿Ļä¹Ī
å°± å°Ĩ
ä½Ĩ ä¸į
æķ° ä¸º
è¿Ļä¸ª æł·åŃĲ
åħī è¾ī
å¸Ī åħĦ
åĴ¿ åĴ¿
ç»¯ çº¢
åĲĪãĤı ãģĽ
éĤ£ æĻĤ
ä¸º æŃ¤
é«ĺ å¤§
è·¯ æĺĵ
ãĤī ãĤĮãģ¦
op s
æľīä¸Ģ å®ļ
ä¹ĭéĹ´çļĦ åħ³ç³»
icro soft
Ġsow ie
ãĥ Ĵ
ä¸¤ å¥³
æµģ çĿĢ
å¿ħé¡» è¦ģ
æ¥Ń åĭĻ
ys is
åĪł éĻ¤
ä¸Ģ çĵ¶
åİ» å¹´
èµ° æĿ¥
å¼ł å¤§
åģľ è»Ĭ
è© ³
çİ² çİ²
åĲĬ å¸¦
Ġmention ed
åĩº åİ»äºĨ
æł ½
æĬĬ æı¡
ĠA ust
é£İ æļ´
Ġcon text
å¯Ĩ åº¦
Ġein fach
ĠAr beit
è¨ĺ äºĭ
pecial ly
A pp
m ber
èĢĮ æĿ¥çļĦ
çŃī ä¸ĭ
éĩį åĬĽ
æµģ æ°´
ä¸ĭæĿ¥ äºĨ
os p
å±ĭ åĨħ
Ġqu ality
é¡¯ å¾Ĺ
ç¾ ©
é¡ į
æĪĳä»¬ è¦ģ
éĩį å¿ĥ
èĳĹ å¥¹
æĿĢ æŃ»
çļĦç¾İ äºº
ç¤¾ä¼ļ çļĦ
çļĦä¹³ èĤī
çļĦçĬ¶ åĨµ
Ġappro ach
çļĦèıĬ èĬ±
Ġiss ue
ä½ł éĤ£
it Ã¤t
å¼Ģ çĿĢ
æ¸ Ľ
ĠM od
åİĭ çĿĢ
åĨĻ çļĦ
æĢĢ æĬ±
åºĹ éĩĮ
ä¸ŃåĽ½ çļĦ
å°± æŃ¤
åĲİ æŀľ
å¤ļ æķ°
å·² ä¹ħ
åħī æ´ģ
éĺ´ éĺ³
åĩĨç¡® æĢ§
æıīæįı çĿĢ
w ord
ä¸Ģ å¥Ĺ
ch an
ä»ĸä»¬ ä¹ĭéĹ´
çļĦäºº ä»¬
è£ħ ç½®
æĢª å¼Ĥ
æī¬ èµ·
æ·¡æ·¡ çļĦ
ic ial
çľŁ çĽ¸
ad en
Ġk le
çī©çĲĨ åŃ¦
çļĦ å¸®åĬ©
at ter
ä½ı çļĦ
ens chen
ä¾ Ħ
åĳľ åĴ½
ap an
çļĦæ°Ķ åĳ³
çļĦèĮ ĥ
é¡ĺ ãģĦ
å¥ ķ
ä¸¤ çĵ£
æ·± èĻķ
å¸Ī å§Ĳ
ãģı ãģª
çĻ¾ åĪĨ
è§¦ æĦŁ
Ġus ually
éĹª çĶµ
åļ £
çļĦçĭ Ĥ
Ġcount ries
Ġw ind
æĳ© æĮ²
éĢĲ æŃ¥
éĢĢ åĩº
çļĦèĪĮ å°ĸ
åĲģ åĲģ
Ġprovid ed
å¥¹ æ²¡æľī
he im
ä»Ģä¹Ī åĳ¢
åŀ ®
çļĦå¤§ æīĭ
èĥĮ åıĽ
çĪ½ çļĦ
Ġdif ficult
è·Ł æĪĳè¯´
ĠP er
Ġon ce
ĠG u
è¿ĻéĩĮ æĺ¯
Ġcont ent
å¦ĸ ç²¾
è°¨ æħİ
A B
D NA
ä¸į åºĶè¯¥
æ³ »
ç® į
æķ° åĢ¼
ãģķ ãģĽãģ¦
ell o
å¹¿ ä¸ľ
é¼ĵ é¼ĵ
çļĦè½ ®
ãģ ¼
æĺ¯ éĤ£ä¹Ī
çĿ Ľ
Ġt re
èµ ł
å¯¹ è§Ĩ
èµ° è¿ĽäºĨ
ä¸ŃçļĦ åºĶçĶ¨
Ġz e
æĢĴ çģ«
åī© ä½Ļ
å§ĵ åĲį
å¬Į å°ı
Ġc ity
Ġp ub
ar r
æģ ³
æķ° ç»Ħ
ä»£ çĲĨ
æĹ© å·²ç»ı
æĺ¯ å¥½
è¾£ æ¤Ĵ
Ġ Q
åľ° æĿ¿
åı¯ä»¥ èĢĥèĻĳ
äºĨä¸Ģ çķª
åįĹ æĸ¹
åįĹ äº¬
é¡¶ åĪ°
ell ing
èĭı èģĶ
éĩİ çĶŁ
ple ment
æĬĢèĥ½ åĴĮ
éĿŀå¸¸ çļĦ
g ing
ä¸į æĿ¥
çĿĢ æīĭ
æĪĲ äºº
æĬĬ è¿Ļ
çł ĸ
æĶ¶ åĽŀ
æ¯Ľ åıĳ
Ġãĥ ĸ
éŁ© åĽ½
å¥ĩæĢª çļĦ
å¯¦ åľ¨
ä¸Ŀæ¯« æ²¡æľī
ä¸Ģ å°ı
ãĢĢ ãĢĢ
èģĶ éĤ¦
å¼¯ èħ°
ä¸įæĸ· çļĦ
è¶ķ å¿«
çļĦ æ´»åĬ¨
è¿Ļ æĦıåĳ³çĿĢ
å½ĵ çĿĢ
æĸĩ æ¡£
æ¿ ĥ
æ²ī æ²ī
å°Ŀ å°Ŀ
icht ig
ç»· ç´§
ãģ¹ ãģ¦
å· ħ
éķ¿ éķ¿
éĸ Ĵ
éĢīæĭ© éĢĤåĲĪ
ĠU hr
Ã¶ ch
äºī è®®
è¯¯ ä¼ļ
Ġdies em
5 8
ä½ł è¿ĺæĺ¯
è¡ Ľ
åĥ ķ
åĪļ å¼Ģå§ĭ
æł¼ åħ°
åįĬ çĤ¹
ĠK inder
åĵŃ äºĨ
èµ¤ èº«
çĶŁåĳ½ çļĦ
è¢Ń æĿ¥
Ġind ic
9 7
L e
ä¹Ł æľīäºĽ
å¿ĥ ç¥ŀ
åīį ãģ«
å¸¦ åĪ°
åĪ© çļĦ
å¿ħ çĦ¶
Ġhe art
ç¡¬ äºĨ
ãģĿ ãģĵ
ÃŁ en
Ġreg ard
çļĦèıĬ ç©´
Ġpur pose
åľ¨ äºĨä¸Ģèµ·
å¾Ĺ å¤ª
åıĳ è¡Į
æĥħ ä¾£
am il
æĭ¿ åĩºæĿ¥
è»Ĭ ä¸Ĭ
æ¸´ æ±Ĥ
äº ŀ
åħ¨ è£¸
æĿĢ æīĭ
åħ´å¥ĭ åľ°
æī¶ å¥¹
èħ¥ èĩŃ
çļĦç®Ĺ æ³ķ
W hen
\ ]
äº ¨
æľī èĩ´
å¥¹ ä¾Ĩ
å¤ļ åħĥ
æ¯ı å½ĵ
çļĦå¤§ å±ģèĤ¡
æĭĽ èģĺ
ä¸Ĭä¸ĭ æĸĩ
èĤ¿ èĥĢ
çļĦ çĶ·
20 18
æĪĳä»¬çļĦ çĶŁæ´»
èĢĲ çĥ¦
çĲī çĴĥ
é Ī
èĩª å·²
re l
åĺ´ ä¸Ń
åĳ½ åĲį
éŃĶ çī©
éªĤ éģĵ
å«£ çĦ¶
å¯¿ åĳ½
ä¸įçĶ±èĩªä¸» åľ°
j e
æľī ä¸¤ä¸ª
Ġs elf
it ter
è¿ĺ ä»¥ä¸º
çŁ¥ èŃĺ
ä¿Ŀ å®Ī
é£İ æĥħ
å¸ĥ æ»¡
æĥĬ äºº
æĶ» åĬ¿
Ġthough t
è¯´ æĪĳ
Ġprov ides
Ġpop ulation
çĻ½ çİī
æº Ģ
ç¬Ķ çĽ´
åĸĺçĿĢ æ°Ķ
Ġnet work
è¿ĺæĺ¯ å¾Ī
æĮīæĳ© æ£Ĵ
çīĽä»Ķ è£¤
I s
Ġt arget
åī µ
åĲĮ æĻĤ
åĥ ħ
åģļ åĩºäºĨ
ĠG esch
ãģ¡ ãĤĩ
å¼µ éĸĭ
çļĦèº º
b es
çļĦ è®¡åĪĴ
ä¹Ł æĥ³
è¯´ æ³ķ
æĶ¾ çĿĢ
èĦļ è¸Ŀ
æĺ¾ èĳĹ
æĬĵ èµ·
200 8
éĺ» ç¢į
æ¼Ĥäº® çļĦ
å¯Ĥ éĿĻ
æĹ ·
æľī å¦Ĥ
ä»ĸ çİ°åľ¨
ãĥ³ ãĤ¯
è¿Ļç§į æĥħåĨµ
15 0
çĽ ¡
Ġg ot
åĸľ çĪ±
æĳ¸ åĪ°
ĠN ot
æļĹ èĩª
çĶļèĩ³ è¿ĺ
å¿½ çķ¥
æĺ¯åĲ¦ æľī
èª¬ æĺİ
éĢģæĪĳ åĽŀå®¶
Ġ ãĤ³
çļĦ åħ·ä½ĵ
è¯´ è¯´
é¢ ģ
ãĤī ãĤĮ
Ġ2 2
ãģĵãģ¨ ãĤĤ
çļĦçĲĨ è§£
Q L
Ġ ãĢĤ
è¯´ å®ŀè¯Ŀ
ç§į æ¤į
äºĨä¸Ģ éģį
Ġn ut
Ġse lect
å¤ı æĹ¥
Ġbl ood
çļĦç³ ĸ
o pp
ãĢĤ ãĢĳ
æ· ĩ
éľ Ħ
èĭ ĳ
çİ© äºĨ
æĶ¶ çĽĬ
åĢĴ äºĨ
ä¸Ģä¸ĭåŃĲ å°±
æ°§ æ°Ķ
èĭį çĻ½
Ġphys ical
o o
r or
çľĭ æ¸ħæ¥ļ
æīĭ æ³ķ
æĪĳä»¬ éĥ½
åıĺ ä¸º
åı¸ ä»¤
Ġein es
èľ ĺèĽĽ
Ġcan not
èŃ¦ åĳĬ
å¾®å¾® ä¸Ģç¬ĳ
åľ°åĮº çļĦ
G B
çĽ ¤
å½ °
ä¾ ®
æ£Ĵ äºĨ
ĠW ith
è¾¾ æĪĲ
æ¨¡ ä»¿
éŃħ æĥĳ
æİ© çĽĸ
æĸĩ æ¡Ī
åĮĸ åĴĮ
é©¬ è½¦
äºĨä¸¤ ä¸ĭ
1 20
å¥¹ å·²ç¶ĵ
Ġc ause
çĤ Ń
åĲĮ ãģĺ
æľ¬ äºĭ
è¿Ļæł· çļĦè¯Ŀ
æ¸ħ æĸ°
æ¸ħ æĻ¨
åı« ä½ł
Ã¶ s
å»ºè®® æĤ¨
èº² åľ¨
ãĤ± ãĥĥãĥĪ
çļĦ èĩª
å¤§ åŃ¦çĶŁ
ä»ĸ åĴĮ
om et
èĩ³ åħ³
çİ© æ³ķ
é¢ĨåŁŁ ä¸Ń
æĶ¾å¿ĥ åĲ§
åł´åĲĪ ãģ¯
on y
åĲ¸ è¡Ģ
èĻ½çĦ¶ æĺ¯
åĲĦç§į åĲĦ
æĺı æļĹ
éģĹ ä¼ł
åĹĵ åŃĲ
ç§į ç§į
æłĩ è®°
6 7
åĨ Ī
çļĦç ĺ
Ġf ol
us ion
ãģĵ ãģĵ
Ã¶ ff
Ġrelations hip
Ġ ill
æľĢ æĸ°çļĦ
è¨ Ŀ
ĠJ ohn
æĭĽ çīĮ
éĹ· åĵ¼
e le
Ġe ing
åĹ Ĵ
é¢Ħ æĬ¥
ç§» åĪ°
èĪį ä¸įå¾Ĺ
å¹« åĬ©
æ¡Ĩ æŀ¶
n ah
åĲĪ æĪĲ
çĽ¸ æľº
ç®Ģ çŁŃ
è·³ èĪŀ
av or
å°ıæĺİ æľī
æĬ¬èµ· å¥¹çļĦ
ä¹łæĥ¯ äºĨ
æĥ ®
ä¹Ł è®©
æľĢ æ·±å¤Ħ
è¿ĻäºĽ éĹ®é¢ĺ
è½¬ åĮĸä¸º
è¿ĩåİ» çļĦ
sy ch
ä»ĸ ä¸į
åİ» ä¸ĸ
æĦı åĽ¾
æ°´ æµģ
å·²ç»ı æľī
éĢļ è®¯
æŃ» æĪĳäºĨ
ul es
å¾Īå¤ļ äºº
ners uche
a cc
ä¸Ģ åĽ¢
åľ¨ ä¹İ
æī ³
è¿Ļ åĦ¿
åº ¸
æį ŀ
ĠA nt
ç¬ĳ æĦı
ç¿ ģ
æĢ» è§īå¾Ĺ
Ġgo al
èģĮ ä½į
è½® å¥¸
çļĦ è¯Ńè¨Ģ
ä¸Ģ è§ģ
æĹł è§Ĩ
é¡ ½
åįģ ä¸Ģ
iv ity
æ»ĳ åĬ¨
ens ive
çļĦ äº§åĵģ
æĪĳ åĲ¬è¯´
ä¸į ä¸Ģä¼ļåĦ¿
äºĮ æ°§åĮĸ
ä»£ åħ¥
éĨ ĩ
è¿ĺæľī ä¸ĢäºĽ
å°į æĸ¹
è¿Ļ èĤ¡
åĳ Ľ
ä¸ī ä½į
å¸¦ é¢Ĩ
å¼º åĪ¶
åĮ¹ éħį
h ib
Ġt it
it en
çľŁ å¿ĥ
æĶ¾ åŃ¦
åįģ åŃĹ
æĬķ éĻį
we ise
èĦĳæµ· éĩĮ
æĳĦåĥı å¤´
èº« å½±
Ġg ames
å¤ª éĥİ
æ¢ µ
æµ· å²¸
éľ² åĩºæĿ¥
Ã¤ s
æĮ¤ åĩº
èĪĩ å¥¹
ä¸ŃæıĲåıĸ åĩº
i us
å¾Ī é«ĺ
ç¨ ±
åķĨ äºº
è¢ľ åŃĲ
ä¹Łæ²¡ ä»Ģä¹Ī
çĭ¼ çĭĪ
å¯ ¨
é¢ ħ
èī² çĭ¼
ç¾İ äºĨ
çĽ¸ åĬł
ä¸Ģä¸ĭ å°±
ç©¿ èĳĹ
åĤ ·
ç¥ŀç§ĺ çļĦ
å¥¹ ä¸įåĨį
å½ ¬
Ġc ard
ä¸¤ åĽ¢
est er
éħį ç½®
æ¡Ī åŃĲ
ãģ£ãģ¦ ãĤĤ
æĬĹ è®®
åĲŀ åĻ¬
éĢ² éĸĢ
å¤§ æµ·
åĩł ç§į
è§£ äºĨ
æĪĳæĥ³ çŁ¥éģĵ
èĥ¡ ä¹±
çļĦ åĶĩ
ä¸Ģ éĻ£åŃĲ
ot al
ä¹³ æĻķ
ãĤĬ ãģ«
éĻ¤ ä»¥
èĩĢ çĵ£
èĵĿ å¤©
æĪ´ ä¸Ĭ
æ©Ł èĥ½
ful ly
l ung
ï¼Ł âĢ¦âĢ¦
Ġb rain
åħ¶ å¦Ļ
åĪ« çļĦçĶ·äºº
çľĭçĿĢ ä»ĸ
èĢĮä¸Ķ æĺ¯
Ġpr int
ä¸Ģ åº§
æĪĳ åıĳçİ°
åľ¨ å¿ĥéĩĮ
è¿Ļ åı¯
å°ı çĭĹ
ä¹ĭ ç±»
åĪĨ éĸĭ
æĹł åħ³
ä»Ģä¹Ī æł·
æµģ ä¸ĭ
ä¸ĢäºĽ åħ³äºİ
éĻĪ è¿°
åĨ¬ åŃ£
Ġgrow th
çĭ® åŃĲ
çĭ ¡
Ġre pl
ä¹³ å°ĸ
ãģ¾ ãģ¾
æ¯ı åĳ¨
åŃĺåľ¨ çļĦ
éģĹ äº§
S E
b ack
çļĦè ¸
è¦ģ ä¸įçĦ¶
äºĭ åĲİ
æľĪ äº®
ç²¾ ç¡®
æŃ¥ ä¼Ĳ
èĢ³ åŀĤ
é¢ĨåŁŁ çļĦ
è¤ Ĳ
çļĦæ°Ķ æ°Ľ
Ġdef in
i ber
è¿ĺ æĮº
å¥³ æĢ§çļĦ
çľ¼ çļĦ
æŃ£ ä¹ī
åĩł äºº
ãĥ¼ ãĤ·ãĥ§ãĥ³
æĿİ æĺİ
and om
åĤ į
éħĴ æĿ¯
éĿĴ éĿĴ
Ġpos itive
C D
M y
ell t
ç»Ŀå¯¹ ä¸įä¼ļ
Ġwebs ite
æĪĳ æľĢè¿ĳ
æīĢ èĥ½
ĠW er
èĦ± åħī
æ¡Ī ä¾ĭ
éĢīæĭ© äºĨ
æ¬£ åĸľ
Ġget ting
ç¼ĸç¨ĭ è¯Ńè¨Ģ
i ation
å¤§ äºĭ
åĲİ èĢħ
å¿ĥ è£¡
Ġp ie
çŁ¥éģĵ çļĦ
åĲĥ çĿĢ
åĪļæīį çļĦ
èļ ģ
éĴ¢ çĲ´
Ð ½
å± İ
è®© å¥¹çļĦ
ç¬¬ äºĶ
èĦļ æİĮ
æĭ¿ æĿ¥
æ¤ İ
è¿Ļä¸Ģ å¹ķ
éĸĭ èĳĹ
ä¾µ åħ¥
çļĦèĲ¥ åħ»
ä¸Ĭ çľ¼çĿĽ
çļĦè ķ
ä»ĸ å°Ĩ
å¾Ī æĬ±æŃī
çŃī åĽłç´ł
ro t
è§ģ è¯Ĩ
æıĴ å¾Ĺ
çļ® å¸¦
éĢĥ èĦ±
çļĦç³ »
ĠEuro pe
è¿Ļ æľ¬ä¹¦
æĽ °
Ġp ri
æµģ çķħ
ĠW o
æľĽ åİ»
çļĦå¤§ èĦĳ
éĢĤ çĶ¨äºİ
ä¸»äºº åħ¬
éĹ» åĪ°
Ġwho le
ä¸¦ æ²Ĵ
æ¯«ä¸į çĬ¹è±«
Ġent ire
çļĦç¿ »
æľ ķ
åľ¨ åįĬ
æĭ ¯
Ġo hne
å®ļ åĪ¶
å¹¶ å°Ĩåħ¶
åĤ ¢
æĮī éĴ®
çŁŃ è£¤
ä¸Ģ æĸ¹éĿ¢
æīĭ å¥Ĺ
Ġc ut
ĠA cc
åħĭ åĪ¶
çĽĳ çĭ±
çļ± çľī
ĠÃ ·
åı¬ åĶ¤
ch er
å¿« æŃ¥
æµ· åĨĽ
çĶľ çĶľ
éľĩ æĴ¼
çŃĶåºĶ äºĨ
? "
çļĦ ä¹Ł
äºĨ æĮĩ
ä½ł éĥ½
ä½ł åĨį
è¦ģ è¯´
æ¶ İ
æĮº æĭĶ
æĺ¥ å¤©
æĺ¥ èį¯
å¹¿ å·ŀ
ç²ī çº¢èī²
ï¼ĳ ï¼ĸ
é³ ŀ
æĴ¸ åĬ¨
sel ves
ä¸Ģ éĹª
ä»¥ åħį
å°± ä¸įä¼ļ
å¥³ å¥´
åĩł ä½į
éħ ¬
è§ģ æĪĳ
å±Ĥ å±Ĥ
fer ence
ĠPro gram
Ġmin utes
ä¸Ģ æĬ¹
le g
Ã¤ lt
çī¹åĪ« çļĦ
Ġneed ed
Ġunderstand ing
Ġpract ice
ĵ ãĤ¹
çļĦ ãģ«
ä¸Ģ æĦ£
æĪĳ å¾ŀ
âĢ¦âĢ¦ ï¼ī
it es
æıĴ è¿ĽæĿ¥
æ°ĳ ä¼Ĺ
Ġcomp let
d ate
ãģĦ ãģĨ
Ġg esch
åģľ äºĨ
åģľ çķĻ
åĬ³ åĬ¨
æĶ¾å¼Ģ æĪĳ
åŁİ åł¡
ag ing
ĠWh ile
çļ± çĿĢ
çĸ² åĬ³
æİĢ èµ·
Ġbre ak
abe i
æľī éĴ±
åį Ĵ
åĴĮ æĹ¶éĹ´
åĺ Ģ
é¾ ľ
å°Ħ è¿Ľ
éĻ¢ éķ¿
èĮĥåĽ´ åĨħ
Ġfin ancial
Ġsel bst
ä½Ķ æľī
çļ ĵ
çļĦ å¾®ç¬ĳ
éĹ® éĹ®
æĸ¯ çļĦ
æĹ© æĻ¨
åĪĹ èħº
å¢ŀ æ·»
æĩĤ å¾Ĺ
çļĦèħ¹ éĥ¨
çĿĢ èº«ä½ĵ
ä¹ĭ èī²
å½ĵ å¤©
æıĲ åĪ°äºĨ
and er
è¿Ĳ èĲ¥
çĸ¯çĭĤ åľ°
ä¸ĢéĻ£åŃĲ ä¹ĭå¾Į
w ischen
Ġ â
an ced
ĠS erv
ãĥ¼ãĥ Ĩ
å¼ķ ãģį
Ġrem ain
ä¸ĭ è½¦
æ³ķ å¸Ī
ç³ ľ
ä¸įè¦ģ åķĬ
ä¸įè¦ģ åĳĢ
åı³ èħ¿
æıī çĿĢ
æ´ĭ èĳ±
èº«è¾¹ çļĦ
é»Ŀ é»ĳ
Ĳ å°Ħ
ä½ł å¿«
ä½ł ä»Ĭå¤©
èĤ ®èĦı
åıĳ çļĦ
åģļ é¥Ń
ly ing
å¾®å¾® çļĦ
å°±åľ¨ è¿ĻæĹ¶
è´± è´§
å¹³åĿĩ åĢ¼
n ov
ä¸Ģ éĹ´
ä½ł åķĬ
çĶ¨ å°½
çī© æµģ
ĠS m
ãĤ¤ ãĤ¯
å¾ħ éģĩ
å¹¿ æĴŃ
ãģĹãģŁ ãģĦ
çļĦèĭ ı
Ġstand ard
çļĦ éĥ½æľĥ
æĺ¯ å°ı
éĽĻ èħ³
ç¿ĺ èĩĢ
çĽĴ åŃĲ
çļĦçĨ Ł
h alt
äºĨ åĽŀåİ»
åĴĮ æķ°æį®
ç¬ĳ äºĨèµ·æĿ¥
å¸Ĥ éķ¿
çĻ ĸ
ä¸½ ä¸½
åĪº çĹĽ
åľ¨äºĨ åľ°ä¸Ĭ
è¤ ĩ
V er
s q
æĹ ±
Ġf urther
æĽ´ å¿«
å·¥ èµĦ
åĲ¬ å®Į
èİī ä¸Ŀ
æŁ¥ æī¾
ç»ıåİĨ äºĨ
A D
åĴ ²
å¯¹ èĩªå·±çļĦ
èī ĩ
æ¶ ħ
ur t
çº§ çļĦ
åĽŀçŃĶ éģĵ
çļĦéĥ½æľĥ å¥³åŃĲ
æĪĳ æĦŁåĪ°
è¿ĺ å¾Ĺ
å¼Ģ åħ³
æ± Ģ
å®ļ å¾ĭ
ãĥ¼ ãģ®
çĽ® çļĦæĺ¯
åĭ Ł
å¥ĭ åĬĽ
æ¯įäº² çļĦ
ãĥ¬ ãĤ¹
Ġ8 0
çļĦç¬¬ ä¸Ģæ¬¡
è¶ģ æľº
S te
å¯¹ äººç±»
èī ĺ
ãĥ¼ ãĤ¿
æ¬¢ æĦī
ç»Ń ç»Ń
åıªæĺ¯ åľ¨
Ġ20 19
éĤ» å±ħ
çļĦ ä»İ
å°± è¡Į
åľ° éĹ®éģĵ
å¤© èµĭ
æľ¬ åľ°
çĽ´ èĤł
åŃĲ å¼¹
ç²¾ å½©
éŀ ł
å¯Ĵ åĨ·
ibr ary
æĿ¥ æıĲé«ĺ
è¢« ç»ĳ
Ġf ile
å¤© åķĬ
ãĤĬ ãģ¨
Ġ2 3
ãģĹãģ¦ ãģĦãģŁ
å¤ı å¤©çļĦ
Ġsh are
åĩĨç¡® çļĦ
çļĦè¨ Ģ
O P
äºĨ è¿ĽæĿ¥
è¿Ļ ä¼ļ
åı¯ä»¥ è¯´
ç¨ »
æľŁ çļĦ
æł¹æľ¬ æĹłæ³ķ
ãģªãģ© ãģ®
æ²¸ èħ¾
" )
åľ¨ çĶ·äºº
æĥ ķ
ĠS eit
ĠI ch
å¼º å¿įçĿĢ
è¥¿ æĸ¹
æ¬¢ åĸľ
è¿ľ ç¦»
Ġwe b
éĢı éľ²
åŃ©åŃĲ çļĦ
ier te
Ġtra vel
çĻ½èī² è¥¯è¡«
çļĦèĲ ½
çĶŁ æ®ĸ
om p
èĻ½çĦ¶ æ²¡æľī
ç²Ĺ éķ¿
åľ¨æĪĳ éĿ¢åīį
Ġpl ant
é¢ĳ ç¹ģ
ãģ«ãĤĪ ãģ£ãģ¦
é©ļ è¨Ŀ
å°ı åŀĭ
ä½ĵ çİ°
æº ¯
åĳĬè¯ī å¥¹
ç· ¨
å¨ģ å»ī
åļ ·
a ction
äºº æ°Ĺ
ä½ł å¦Ī
å¯¹ åħ¶
èĢĮ è¢«
çĤ¹ çĩĥ
æµģ åĩºæĿ¥
ç»Ĩ å«©
å¼ķ äºº
æķ°æį® è¿Ľè¡Į
æĩ Ī
è© ¹
çļĦçĪ Ĩ
ä¸ģ åŃĹ
æĪĳçŁ¥éģĵ äºĨ
ä¹Łæ²Ĵ çĶļéº¼
å¹³æĹ¥ éĩĮ
æĭ¯ æķĳ
" >
çļĦ è¿ĲåĬ¨
Ġt reffen
æľī åĬĽçļĦ
è¿Ļ ç¾¤
è¦ģ ä¹Ī
éĤ£ èĪ¬
çĤ «
æ¶ Ł
é» Ĵ
å¤ĸ åĽ½
å¥¹çļĦ å«©ç©´
è¡¨ åĵ¥
åįģ åĽĽ
æĥĬ äººçļĦ
åĸĺ æ°Ķ
åĢŁ åı£
Ġcol or
çļĦç¼ĸ ç¨ĭ
Ġ ents
ç´ Ģ
æĹł çº¿
åĶ ·
æ¼ ª
æĢ» ä¼ļ
ĠF orm
èº ¬
èĭ¦ ç¬ĳ
Ġman agement
èĻļæĭŁ çİ°å®ŀ
j oy
åĩº ç§Ł
Ġc oll
è§£ çŃĶ
Ġbe com
ãĤģ ãģŁ
èŃ¦ æĸ¹
çļĦè§Ĩ é¢ĳ
ä¸ĭæĦıè¯Ĩ åľ°
è¢«è®¤ä¸º æĺ¯
äºº æīį
è¿Ļ åĽŀ
ä»¥ æıĲé«ĺ
èµ· çłģ
çĻ ±
åĨ· ç¬ĳ
çļĦç¬ Ķ
éģİ äºĨä¸Ģ
å¿«éĢŁ åľ°
åĽ° æĥĳ
æ¶µ çĽĸ
es e
éĥ½ æĺ¯ä¸Ģ
éļı èĳĹ
å¦Ĥæŀľ æľī
æ¿Ģ åĬ±
é² ¸
çļĦçĲ ĥ
èĻķ çĲĨ
ãĤµãĥ¼ãĥ ĵãĤ¹
Ġt aking
ä½ł æĥ³è¦ģ
å¤§ çľ¼çĿĽ
åİ ¥
ä»ĸ å¦ĪçļĦ
äºĭ é¡¹
åĨ· æ±Ĺ
å¯Į åĲ«
n ame
ä¸Ģ éĥ¨åĪĨ
å° Ĥ
éĤ ĥ
å°ı å§ĳå¨ĺ
å¤ļ ä½Ļ
åĬł æĭ¿
æĿİ åĽĽ
ãĤ¯ ãĥĪ
ï¼ģï¼ģ ï¼ģãĢį
ãĤ¦ ãĤ§
æĭ¨ å¼Ģ
ç¬¨ èĽĭ
ä¸Ĭ å®ĺ
éĥ½ æľīäºĽ
å¾® å¼±
è¶Ĭ é«ĺ
ĠB est
çº¦ ä¼ļ
Ġso c
Ġfind en
çļĦçŃ ī
Ġgrou ps
b ased
Ġg est
è§ģ ä»ĸ
ur ity
äº¤ ç»ĩ
å¯Ĩ çļĦ
ä½Ļ éŁµ
du c
åĩ¤ åĩ°
çļĦçº¢ èī²
åŁºäºİ ä»¥ä¸ĭ
z ent
æĪĳ æĭ¿
Ġw on
ä»İ åīį
ç»ĵ å±Ģ
æ³¨ è§ĨçĿĢ
æĿĲ è´¨
æ¯ķç«Ł æĺ¯
ank s
ä¸į å®ļ
or es
åıĮ çĽ®
å© ¿
æķĳ åĳ½
å£® æ±ī
ç³Ĭ æ¶Ĥ
Ġteach ers
ç¹¼ çºĮ
l oad
åı¦ ä¸Ģç§į
æĬķ æ³¨
å®īåħ¨ æĢ§
åĨĴ åĩº
ä¸Ģæ®µ å¯¹è¯Ŀ
çĹķ è¿¹
Ġprodu ction
æĴ© æĭ¨
è®© å¥¹ä»¬
åģļ æ¢¦
çĸ ¤
ãģĻ ãģĲ
åº§ çļĦ
Ġpar ents
Ġlook ing
çĦ¶ å¤§
æľį ä»İ
å¢ĥ çķĮ
è¡Ģ åİĭ
æŀĦ éĢł
éħ¥ è½¯
ä¼ļ ä¸Ĭ
æ¶² é«Ķ
ä½Ĩæĺ¯ ä»ĸ
è¯· æĤ¨
å¨ĩ åĹĶ
æ© Ħ
Ġtyp es
Ġdise ase
çļĦ ä½İ
é£Ł è°±
å¥´ å®¶
èİ«åĲį åħ¶å¦Ļ
Ñ Ĥ
ç§į åŃĲ
ĠS pe
åł ħ
åĨĻ çĿĢ
ä»¤ ä»ĸ
çĻ¾ å¹´
åĩłä¸ª æľĪ
éĹŃçĿĢ çľ¼çĿĽ
æĮĩ æķ°
å®ī å¦®
å°±æĺ¯ äºĨ
ç»Ŀ ç¾İ
âĹ ı
ä¸»æĮģ äºº
Ġbenef its
a ul
æĿ¥ æī¾
åĴĮ é«ĺ
Ġm ag
æŁ ļ
Ġis n
èµ° è¿ĩ
åĪ¶ åĵģ
èĹı åľ¨
ãĤ¤ãĥ³ ãĥĪ
stit ute
Ġopt ions
å¤ ¢
åĪ° å¤§
å°ı éĽħ
æ· Ģ
åĨħ å°Ħ
éĥ¨ èĲ½
å¥¹çļĦ éĽĻæīĭ
æ³¨ æĸĩ
è¿ĳ å¹´æĿ¥
è¿Ļæĺ¯ åĽłä¸º
pt ions
ç¦ı åĪ©
æ±ģ æ¶²
å°¤ çī©
ãĥĸ ãĥ«
çļĦç½ĳ ç«Ļ
Ġt akes
ä¸º ä¸Ģ
Ġm ich
ãģĹ ãģªãģĦ
æķĻ åłĤ
åģľ ä¸ĭäºĨ
å®¤ åıĭ
åıªæľī ä¸Ģä¸ª
çķ¥ å¸¦
æĻ®éĢļ çļĦ
éĶĢåĶ® é¢Ŀ
äº Ĥ
æĪĳ æŃ£åľ¨
æĥ ¶
ä½ł ä¸įä¼ļ
å°ı èĦ¸
èĩª å®¶
èĢĮ ä¸ĭ
ä½ľ åĵį
æ¢ Ń
åĳ¼ åĶ¤
èĨ ļ
çļĦç¬¬ äºĮ
åĸīåĴĻ éĩĮ
åı ¨
éĥ½ å·²
èĦ ĸé¢Ī
åĽŀ åİ»äºĨ
ä»İ éĤ£
æŃ¤ äºĭ
äºĨä¸Ģ ä»¶
éľ² éľ²
æĶ¶ ç´§
Ġex erc
ãģĹãģ¦ ãģıãģłãģķãģĦ
æ¬¾ å¼ı
çĴ° å¢ĥ
æĪĳ ä¿©
Ġh in
è¯Ŀ éŁ³
æľīäºĽ äºº
ak t
æ¦ Ħ
æ²ī è¿·
è¹ Ħ
çļĦçĸ ĳ
Ġhal f
åİ ®
è° ľ
é» ¯
ĠG erm
ĠK e
åģ¥åº· åĴĮ
ä¾µçĬ¯ å¥¹
u z
çļĦäºº ç±»
Ġab ility
ä¸ĭæĦıè¯Ĩ çļĦ
äº¢ å¥ĭ
" ãĢĤ
ĳ èıĩ
å¼Ģ å±ķ
æĪĲ è¿Ļæł·
æĤ į
ĠP erson
å¤¹ åľ¨
èĥ½åĬĽ åĴĮ
æĶ¹åıĺ äºĨ
Ġcomple te
å° §
ä¸į æĺİçĻ½
ro om
å·¨ é¾Ļ
Ġpl ann
çļĦè¡¨ æ¼Ķ
Ġmod ern
å¤ ł
éĿ¢ è¯ķ
å¹¶ ä¸º
å¾Ģ å¸¸
Ġse en
ãģł ãĤįãģĨ
éĢł åŀĭ
å¿Ĺ æĦ¿
èĻļ å¼±
çĤº ä¹ĭä¸Ģ
çļĦç« ŀ
çļĦç¤¾ äº¤
Ġfam il
ä¸Ģ æĶ¯
in ary
å°ı åĢ©
å¥½ äºĭ
Ġd om
åºĶ ä»ĺ
æĶ¾ è¿Ľ
ç¥ŀ åľ£
æ¹ Ľ
ãĤī ãĤĮãģŁ
èĥ½å¤Ł åľ¨
æ´Ĺ å®Į
æ»ĭ æ»ĭ
çļĦç« ĭ
Ġactiv ity
L uc
Ġb ed
Ġf ig
ä¸¤ å¹´
åĽŀ åĳ³
æ£ ł
æ¹ Ĭ
æĭ¿ åĩºä¸Ģ
åª ¾
Ġint rodu
çºł ç»ĵ
çļĦ ä¸Ń
æĪĳ è¿Ļä¸ª
çĶ «
çī ¡
å¤ĸ äºº
æĶ¾ èĤĨ
ç´§ è´´
å¸® ä»ĸ
Ġde ath
å¨ģ å°Ķ
çĩĥ æĸĻ
çļĦèģĶ ç³»
8 6
ä¸ĭ ãģķãģĦ
è¢« åıĳçİ°
Ġb iet
æ°´ åĴĮ
ãĤĬ ãģ¾ãģĹãģŁ
è½¬ åĬ¨
æ½® åĲ¹
æĩ µ
Ġcomp an
ãģķãĤĵ ãģ®
åŀĥåľ¾ åĪĨç±»
Ġmain tain
Ġ æĸ°
ï¼ ¥
ä¸Ģ åħ±
ä¸Ģ æĬĸ
è¯ Ģ
çĿĢ ä»ĸçļĦ
ãĥ ¦
æĺİ äºĨ
æ°Ķ åĬ¿
ä»» æĦı
åıªæĺ¯ ä¸Ģä¸ª
ä¿® ä¸º
ä¸įå¾Ĺ äºĨ
çļĦèĭ ¦
èª¿ æķ´
D P
s et
Ġc y
è¿Ľ åº¦
å¤ĸ éĥ¨
å¾® ä¿¡
çļĦäºº å·¥
ç§ģ ãģ¯
èĥ¡ æ¤Ĵ
é£ĺ é£ĺ
å¥¹ä¸į æĸ·
çļĦç¾ŀ èĢ»
" ï¼Į
åĩº ä¹İ
èĤ ĺ
ä½¿ ãģĦ
èµ° çĿĢ
åŀ ¢
ç¾ŀ æĦ§
éĤ£æł· çļĦ
å¤Ħå¥³ èĨľ
A m
m ark
çļĦ é¦ĸ
è¦ģ åģļ
Ġd iv
åĬ¨ æĢģ
å¾Ī ä¸įéĶĻ
çķ Ķ
å·²ç»ı æĪĲä¸º
åĵį åºĶ
æĶ¯ éħį
ä»Ĭå¤© æĺ¯
ãģ§ãģĻ ãģŃ
Ġso ftware
åıªè¦ģ ä½ł
Ġ20 13
éĢļå¸¸ ä¼ļ
çļĦçĮ «
æĮĸ æİĺ
çļĦ åĬĽæ°Ķ
ä¸Ģ é¡¹
æĪĳ æĢķ
çİ ĸ
æĭ ·
Ġan im
å±ħ é«ĺ
æ¸Ĳæ¸Ĳ åľ°
ä¸īè§Ĵ å½¢
S ch
h old
åĴĮ æĥħæĦŁ
Ġd raw
Ġm or
èģ ¯
Ġan ything
æłĳ æľ¨
ç¥Ŀ ãģĦ
åŃ¸ çĶŁ
i ate
åĴĮ åŃ¦ä¹ł
æĥ³ åĬŀæ³ķ
ç© į
åĬĽ åŃ¦
ç² ¥
ä»Ĭ åĽŀ
èĬ± äºĨ
å¹² çĩ¥
Ġcomp lex
æµ´ å·¾
5 7
O L
æĽ ľ
æĽ´ æį¢
çĻ½ éĽª
çĶµ åĻ¨
æĢĿ å¿µ
æķĻ å¯¼
éĽª ä¹ĥ
çļĦèĤī å£ģ
æķ°æį® åºĵ
å®īåħ¨ åĴĮ
Ġ20 11
Ġes pecially
ç¸ ½
æ¸Ĺ åĩº
çļĦçĪ¶ æ¯į
ä¸ª ç³ĸæŀľ
ç§ ĥ
ä¸» å¼ł
åĮħ éĩĮ
çģµ æĦŁ
æŃ¦ æŀĹ
æŀľçĦ¶ æĺ¯
B ut
Ñ Ģ
èµ İ
åĪ° ä½ł
åı¯ä»¥ æĺ¯
æ³ķ è¯Ń
æµģ åĬ¨
å½± åŃĲ
æµ· æĭĶ
ç´ł è´¨
ĠV ers
our n
ä»į åľ¨
èı² èı²
æŃ£å¸¸ çļĦ
æĹħè¡Į èĢħ
ç¬¼ ç½©
çĭŃ çªĦ
Ġ é«ĺ
åķ ľ
é¸ ¦
éľĢè¦ģ èĢĥèĻĳ
æĪ¿ å±ĭ
æľª ç»ı
ĠH igh
èµĮ çĲĥ
idd le
b an
r ank
ä¸Ģ æĭī
äºĨ ä»ĸçļĦ
ä¼ļ åĳĺ
çļĦç £
é«ĺ æĮĳ
æľĢ éĢĤåĲĪ
åıĺ æį¢
çĦ¶åĲİ åľ¨
åı³ å°ıèħ¿
ï½ŀï½ŀ ï½ŀï½ŀ
Ġspec ies
Ġcre ated
å¥¹ æĬĬ
å¤ļ ãģı
ç¬ĳ åĺ»åĺ»
å¥¹çļĦ å¤§èħ¿
åŁº çĿ£
é² ¨
ç§ĭ å¤©
éĢ² è¡Į
çĸ¯ äºĨ
éĢıæĺİ çļĦ
Ġinit ial
ä¾® è¾±
u el
çļĦ æľįåĬ¡
âĢ¦âĢ¦ ï¼Į
Ġp ack
å¹¶ æĭ¢
Ġre view
am en
çİ© èĢį
ĠIn c
è·ª åľ¨åľ°ä¸Ĭ
å®½ æĿ¾
æ·±åħ¥ çļĦ
éĸī ä¸Ĭçľ¼çĿĽ
ä¸įåıĹ æİ§åĪ¶
çĶŁæĪĲä¸Ģæ®µ ä»ĸä»¬çļĦå¯¹è¯ĿåĨħå®¹
è²© å£²
Ġt w
or ing
æĶ¾ å¼ĢäºĨ
ï¼ģãĢį ãĢĮ
çļĩ ä¸Ĭ
æ¦Ĥ æĭ¬
é²ľ çº¢
çĽĳ è§Ĩ
Ġprob ably
Ġ å¦Ĥæŀľ
çļĦ æī£
Ġa ction
èĩ »
çľ¼ çľ¸
æĺİ æ²»
å®ŀ çĶ¨
Ġl ay
äº¤ è°Ī
çİ°åľ¨ å°±
äºĮ æ¥¼
èĵ ĵ
æİĴ æ³Ħ
è¾ĥ é«ĺ
é¢Ħ è®¡
Ġcost s
ãĥ ĺ
åĳ Ĺ
ä¸º éļ¾
Ġb ir
åĸ §
çĶ· çļĦ
un ter
æ·± å¤ľ
ãģĭ ãģ«
** .
èĦĨ å¼±
çļĦ åĬŁèĥ½
å¤§ æ¥¼
èĢĮ ä»ĸ
ç³ ¯
Ġl iter
æĺ¯ä¸Ģ ä»¶
ĠP ark
Ġcom es
çļĦæĥħ æĻ¯
æĪĳ ç¬¬ä¸Ģæ¬¡
æĿ¥ äºº
ä½ł åıĪ
ä¹ĭ æĥħ
é«ĺ æ¶¨
ä»İ äºĭ
å¾Ģ éĩĮ
è¿Ļä¹Ī ä¹ħ
è¯ķ éªĮ
çļĦæ·« èį¡
è§£éĩĬ ä¸Ģä¸ĭ
æ¸Ĳæ¸Ĳ çļĦ
ä¸įè§ģ äºĨ
è¬ Ŀ
Ġtry ing
æ½ĶçĻ½çļĦ åı³å°ıèħ¿
g esch
æĪĳ æľīäºĽ
åĴĮ æĬĢæľ¯
å¦ Ŀ
åĲĳ éĩı
è°ĥ çļ®
çº¦ ä¸º
å°¼ åħĭ
å°ĩ å¥¹
çļĦçľĭçĿĢ æĪĳ
Ġperform ance
çļĦ å½¢è±¡
å¾ ©
åı¯ åı£
at ory
èº« å½¢
åĽŀ æĿ¥çļĦ
äºĨä¸Ģ èĪ¬
çĭĤ éĩİ
çļĦç¬¬ ä¸Ģä¸ª
çļĦè¶ Ĭ
ä¹Ķ æ²»
çļĦ åĸĺæģ¯
æĪĳ åºĶè¯¥
åľ¨ æĥ³
ä¸ª å°ı
å¤© çľŁ
ç©¿ è¡£æľį
åŁİ çļĦ
æıĲä¾Ľ ä¸Ģä¸ª
è®¡ç®Ĺæľº ç§ĳåŃ¦
åĪĨåĪ« æĺ¯
æīĭ æŀª
Ġw o
Ġw alk
ou d
å°Ĩ å®ĥ
æĹł æĦıè¯Ĩ
æĸĩ çĮ®
åĥı çİ©åħ·
æµ· è¾¹
èĩ´ åĬĽ
è£Ļ æĳĨ
ç¼ł ç»µ
èĤļ åŃĲéĩĮ
è¿¹ è±¡
æ»ĭ æ¶¦
èĥ¯ éĹ´
iss en
Ġzwe i
ä¸į çŃī
ä¸į åĩĨ
ä½ł å·²ç»ı
ä½ł è¯´çļĦ
å¯ ¶
è¢« è¿Ļ
æĪĲ ä¸Ģä¸ª
è¿Ľ è¿Ľåĩº
æķ° åĪĹ
ç¬ĳ å£°
å¸Į å°Ķ
ç¿» éģİä¾Ĩ
ç§¯ ç´¯
çĶŁæĪĲ ä¸Ģç¯ĩ
Ġpr inc
ail ed
éĥŃ éĿĸ
Ġgl obal
èĦ« ä¸ĭ
l og
æīĭ æ·«
å¯¹ æĪĳçļĦ
åĨį åİ»
èµĦ æľ¬
çļĩ å®¶
ãģ«ãģª ãģ£ãģŁ
èĩªåĪĨ ãģ®
çļĦ çİĭ
è® ļ
æľĢ å°ı
Ġu r
æ»¡ éĿ¢
çº¢ éħĴ
çļĦå°ı èħ¿
Ġv iele
çļĦè¡ ¬
èĦļ å°ĸ
æ²Ļ æ¼ł
å¤ļå°ĳ æ¬¡
å¹¿æ³Ľ çļĦåºĶçĶ¨
çĨĬ çĮ«
èĻĲ å¾ħ
Ġdisc over
é£ŀæľº æĿ¯
æ« »
æĪ ¶
éĩįè¦ģ çļĦæĺ¯
çĨŁæĤī çļĦ
auf en
âĹ ĭ
åıĳçĶŁäºĨ ä»Ģä¹Ī
W eb
ä¸Ĭ ãģĮ
ä¸º ä¹ĭ
å¿ĥ æĢģ
ich ten
å¨ĩ åĲŁ
ill ed
ĠK B
çļĦæĢ§ æł¼
å¦¾ èº«
çļĦèķ ¾
u ed
èĩªå·± è¢«
ä¸» æ¼Ķ
åıĮ åĶĩ
æ¸ħ åĩī
ä½İ æ²ī
å·¥ä½ľ çļĦ
çļĦç¬ĳ å£°
Ġconne ct
O K
çļĦ å·¨ä¹³
å¤§ è§Ħæ¨¡
åıĪ æĬĬ
Ġg anz
éħ µ
am m
åį³ ä¾¿æĺ¯
ä¸Ģè¾¹ è¯´çĿĢ
éĻĲ äºİ
ä½ĵåĨħ çļĦ
çĥ¤ ç®±
åĵ¦åĵ¦ åĵ¦åĵ¦
ç«Ļèµ·èº« æĿ¥
èĩªå·± åĴĮ
ä¹ĭ éĸĵ
æĽ´ æ·±
åĲĮ æĢ§
éª ĩ
è¶ħ å¸Ĥ
æ´ĭ æ´ĭ
ĠY ork
çļĦè·¯ ä¸Ĭ
ä¸Ģæ¨£ ç¿»éģİä¾Ĩ
Ġeas y
è§Ĵèī²ä¿¡æģ¯ å®ĮæĪĲ
åŁºäºİä»¥ä¸ĭ è§Ĵèī²ä¿¡æģ¯å®ĮæĪĲ
æ©Ħ æ¦Ħ
åĥıçİ©åħ· ä¸Ģæ¨£ç¿»éģİä¾Ĩ
ä¸į çĪ½
ar i
æ°Ķ åĸĺ
çĻ½ ä¸Ŀ
çİ°åľ¨ å·²ç»ı
çĦ¶åĲİ æĬĬ
åįĬ å¹´
è§Ħ çŁ©
ĠIn formation
èľ· ç¼©
çļĦè© ±
çļĦ æ¦Ĥå¿µ
è¿Ļ ä¸į
å¼Ģ æĪ·
æ· ®
am s
çľĭçĿĢ çľ¼åīį
é»Ħ èī²çļĦ
æĬ¥ èŃ¦
ren g
çģ° èī²
Ġexper ien
çĢ ĳ
åŁºäºİä»¥ä¸ĭè§Ĵèī²ä¿¡æģ¯å®ĮæĪĲ ä¸Ģæ®µå¯¹è¯Ŀ
5 9
g s
ä¸Ģ æķ´å¤©
åį Ģ
çļĦè Ĺ
Ġs ource
éľ ī
èĢģ é¼ł
åıĹ ãģĳ
æ¿ ¡
åĬ© çĲĨ
ä¾Ĩ çļĦ
å·¦ è¾¹
çĶ» åĥı
Ġãĥ ŀ
Ġ20 10
éĢĥ éģ¿
çļĦæĢ§ æĦŁ
æĦ§ çĸļ
ä»ħä»ħ æĺ¯
åĵºä¹³ åĬ¨çī©
ä¸Ģ åĳ¨
åľ¨ å¤©
Ġp ict
è¿Ľ éĹ¨
Ġg el
ĠF ahr
é¡º æīĭ
æµĵ ç²¾
ä¼ģ æ¥Ń
ç¡®å®ŀ æĺ¯
ãĤª ãĥ³
ä¸įå¯¹ åĬ²
æįĤ çĿĢ
Ġinst all
è¿Ļ éģĵ
å§ Ĺ
ãģ¾ ãģł
Ġse ine
å¸ĥ ç½®
èĭ¥ çİ°
ä¹± ä¼¦
Ġprev ent
ĠIntern et
f ect
m it
ä¸ ¡
åľ¨ å¿ĥ
èĢĮ éĤ£
åı¯ä»¥ è¯´æĺ¯
åĬł å¤§
ç¼ ´
ĠW indows
çļĦå°ı èĦļ
é©¬ å°¾
Ġãĥ Ĳ
èģĮ åľº
200 7
R E
çļĦ éĤ£ç§į
å¥¹ åį´
çľ¼ çľ¶
æ²¡æľī åĬŀæ³ķ
ĠS ome
å®ī æĬļ
æĢİä¹Ī åģļ
æĵ Ĵ
ä»Ĭ åĲİ
åĢĴ åľ¨åľ°ä¸Ĭ
èĤīæ£Ĵ ä¸Ĭ
ãģķ ãĤī
ãĤ¢ ãĥĥãĥĹ
çĩ Ł
av id
ä¼łç»Ł æĸĩåĮĸ
å¾Ħ çĽ´
æµħ æµħ
çĮľ æµĭ
åĲ®åĲ¸ çĿĢ
Ġexpl ain
åľ¨ å¦Īå¦Ī
å°ı é¬¼
ä¹ĭ æĹħ
åı¯èĥ½ çļĦ
è¿ĻäºĽ éĥ½æĺ¯
æ¨¡ çī¹
éĨĴ è¿ĩæĿ¥
åĪ°æľĢ æ·±èĻķ
Ġ ãģĶ
çļĦ æ¯įäº²
ãģ« éĸ¢
ç©º éĸĵ
çŀ¬ éĸĵ
è´¯ ç©¿
ãĤ¿ãĤ¤ ãĥĹ
åĤ¢ ä¼Ļ
Ġ ä»ĸ
å¼ Ĭ
çļĦè ¤
çĶ· ä¸»è§Ĵ
æĮģ ä¹ħ
è¿Ĳ ä½ľ
ä¸ĩ åħĥ
çļĦæīĭ æ®µ
çļĦéĺ´ éĥ¨
é¥Ń åºĹ
è¿Ŀ åıį
ç²Ĺå¤§ çļĦèĤīæ£Ĵ
Ġf ast
è§£ éĻ¤
æĪĳçļĦ äºº
äºĶ å¹´
èĸ ¯
ãģ«ãģª ãĤĬãģ¾ãģĻ
éĢĴ ç»Ļ
å·²ç¶ĵ æ¿ķ
éłĤ åĪ°æľĢæ·±èĻķ
Ġequ ation
ĠJahr en
ä¸Ģ æĥ³
ä¸Ģ æĬ½
å¥¹ äºĨ
ä»¥ ä¸ĬçļĦ
åľ° åŁŁ
è£ Ŀ
åĨµ ä¸Ķ
é»Ħ æ¯Ľ
æ²ī éĨī
å¾ŀ å¾ĮéĿ¢
çļĦè°ĥ æķĻ
6 9
èĩ Ĭ
ä¼ļ è®©
æ¯Ķ äºļ
é¾Ļ å¤´
å¨ĺ äº²
ç¡¬ æĮº
æĻĥ åĬ¨çĿĢ
av ing
æ³Ħ äºĨ
æ®ĭ éħ·
æĬķèµĦ èĢħ
æĲħ åĬ¨
æīĭ éĩĮçļĦ
æĬĬ è¿Ļä¸ª
å¿« æ´»
å¢ Ĺ
è¿ĺæĺ¯ è¦ģ
éĢģ ä¸Ĭ
ãĥ³ãĥ Ģ
èĥ¯ ä¸ĭçļĦ
Ġeconom ic
Ġpa per
r um
ä¸Ģ æĹ¥
ä¸Ģ çº¢
åĴĮ è¡Įä¸º
å°± è·Ł
èĩª è§ī
è¯´ èµ·æĿ¥
Ġin put
åħĪ åĲİ
æİī çļĦ
ãģ£ãģ¦ ãģĦãģ¾ãģĻ
åĲ» çĿĢ
è¹ Ļ
çļĦç¾İ å¦Ļ
æ¥Ń çķĮ
Ġrel ated
h Ã¶
åľ¨ è£ıéĿ¢
çĿĢ ä»Ģä¹Ī
æīĭ è¡¨
åģ İ
åħī æ³½
çļĦä¸Ģ å¹ķ
æŀģ çĤ¹
åºķ éĥ¨
Ġse em
éħį ä¸Ĭ
åĮĹ éĥ¨
ç«¯ åºĦ
æ±Ĺ çıł
å´ ĸ
å½ķ åĥı
è±ª åįİ
çļĦå¯¹ è±¡
æĪĴ æĮĩ
z ahl
äºĨ è¿Ļä¸ª
at is
é« ĵ
äºĨä¸Ģ åıª
èµ° åĩºäºĨ
ĠM enschen
æıĴ çĿĢ
åħĭ æĺŁ
çļĦè¡Ģ æ¶²
äºº äºĭ
èĩª çŁ¥
èĩª æ²»
å¥½ åİīå®³
éĺ ±
Ġb ad
Ġp age
ä¸Ģä¸ª å¥³äºº
åģļ ä¸įåĪ°
èµ° è¿ĩåİ»
é© ´
åĪ¶ æŃ¢
æ·« ç¬ĳçĿĢ
Ġne ue
é¾Łå¤´ ä¸Ĭ
åł´ æīĢ
ä¸ĭ åİ»äºĨ
çŃī æĬĢæľ¯
å¥¹çļĦ åĺ´
å¤ª å¤§çļĦ
å®ī å¾·
æ£Ĵ èº«
å¾® å¼ł
èı ģ
ess en
è¿· èĮ«
æĪĸèĢħ è¯´
çķ¥ æĺ¾
Ġ9 0
è¿ĺ è¢«
çŃ Ľ
as ch
ãģĹ ãĤĥ
Ġl ength
éĹ¨ åīį
å·¥ä½ľ äººåĳĺ
éħį éĢģ
éĿĻéĿĻ åľ°
Ġand eren
et ic
åĪļ æĥ³
è£¤ è£Ĩ
ãģĿãĤĮ ãģ¯
Ġdesign ed
çļĦèº ¯
èĦ¾ æ°Ķ
è¿·è¿· ç³Ĭç³Ĭ
) ï¼Į
èĢ ¿
åİ Ħ
Ġe y
æ£ ļ
åģļ å¾Ĺ
un ch
Ã¤ uf
ãģĹãģ¦ ãĤĤ
pl ic
ä»¿ä½Ľ åľ¨
å¤©æ°Ķ é¢ĦæĬ¥
çļĦçŀ ª
ðŁ Ĵ
8 9
çļĦ åįĬ
æĪĳ å¿ĥä¸Ń
æĪĳ çĪ±ä½ł
æŃ ³
ä»ĸ æīį
èĥ½ åľ¨
Ġw en
æ¸ħ éĨĴäºĨ
é£İ éĽ¨
é¡¾ éĹ®
ä½³ äºº
Ġer st
æ²Ĵ éĢĻéº¼
èªª éģĵ
éĻ· éĺ±
æĪĳ å¿«
çĽ Ķ
åıĳ çĥŃ
åĽ½ åĬ¡
ĠA ct
å¨ĺ ä»¬
éļĲ èĭ¥çİ°
Ġãĥ ĳ
èī¯ ä¹ħ
Ġmean ing
f ind
æĪĳ å½ĵçĦ¶
åį ¦
ï¼ģ ãĢĮ
æĥ³ çŁ¥éģĵ
Ġb ar
åĽŀ å¤į
æīĢ è¯´çļĦ
ä½ı æīĭ
è¿Ļæł· åķĬ
ĠM y
çŀ Ń
ãĢı ï¼Į
æĻĥ æĻĥ
ãĥĩ ãĤ¶
Ġbel ow
åħ±äº§ åħļ
ä¸Ģ è¾Ĩ
åķ µ
éĿ¢ åĲĳ
Ġb al
å¹´ é½
ä½ı å®¿
å°ĳ è®¸
çĸ Ĩ
Ġre d
åħĪ åİ»
ä¸Ģä¸ĭ ä¸Ģä¸ĭ
å¼ķ èµ·äºĨ
ä¸ĢçĤ¹ éĥ½ä¸į
çªĹ å¸ĺ
w ort
çļĦ æŃ£
æĥ³ è®©
Ġo p
åıĳ äºĨ
ä¾¿ ä¼ļ
æĺ¯ä¸Ģ éĥ¨
ãģĪ ãģ°
Ġcondition s
äºĮæ°§åĮĸ ç¢³
is en
å¾Ī æĺİæĺ¾
è¡Į äºº
åºĶ å½ĵ
æ¼ ¸
çļĦå°ı èĦ¸
æĬ½ æīĵ
åĳĬ è¨´
å°ĸ éĶĲ
ãĥķ ãĤ§
ä¸§ å¤±
Ġindust ry
å°± çĶ±
æİ ¡
å¸¸ çĶ¨çļĦ
éĩĳ åıĳ
æĶ¶ èĹı
åıĺå¾Ĺ è¶ĬæĿ¥è¶Ĭ
ãģ§ãģĻ ãģĭ
ä¿© äºº
éĺ» æĮ¡
åİĭåĬĽ åĴĮ
Ġass ess
çĽ¸åĲĮ çļĦ
Ġproduct s
I V
ãĢĤ âĢĻ
æľī çĶ¨
æĿ¥ è§£åĨ³
èĩª æĿĢ
éĿ¢ åŃĲ
å°Ĩ åľ¨
éħ ¿
ä¸ī ç§į
ir m
çļĦä¸Ģ æł·
åľĨ åľĨ
è¯Ńè¨Ģ æ¨¡åŀĭ
äºī åıĸ
çļĦéĿ¢ ç§¯
çļĦèĮ ¶
ãģĺãĤĥ ãģªãģĦ
è¦ ³
è¯´ ä½ł
Ġc amp
è¡Į æĿİ
å°ĳ äºĨ
æ® º
è¨Ģ èĳī
num bers
z ie
an ze
æĦŁ æħ¨
è· ¡
å¨ Ĩ
å®¹ éĩı
ĠP res
çĲĥ åĳĺ
æİĮ å¿ĥ
å²ģ æľĪ
æģĭ äºº
Ġanal y
Ġtreat ment
æĪĳ åĽŀ
äºº å¦»
å°ı éĿĻ
å¯¹ æĪĳä»¬
èħ ®
ä»İ ä»ĸ
èµ° çļĦ
èĭ¥ éĽª
å¦ĩ å¥³
è³ £
æĭ¼ åĨĻ
æĪĸè®¸ æĺ¯
Ġinclud es
) ãĢĤ
C E
t ime
äºĨ åįĬå¤©
åĪĨ åĪ°
ç¦ ½
Ġk ids
çº¿ æĿ¡
ä»¥ä¸ĭ æĺ¯ä¸Ģä¸ª
æĺ ķ
åĲİ éĢĢ
it te
æĪĳä»¬ ä¹Ł
éķ¿ çĽ¸
å¸Ĥ æ°ĳ
åĩºäºĨ ä¸Ģä¸ª
ç§¯ åĪĨ
sch l
çıį çıł
çļĦèī ¾
å¤ļæł· æĢ§
èĪĶäºĨ èĪĶ
b et
çļĦ åĨ²åĬ¨
æ±Ĥ æķĳ
æŃ¥ è¡Į
å®¤ éĩĮ
æ¢¦ å¢ĥ
éĹª éĹª
Ġbl ock
Ġser ies
Ġmonth s
Ġnorm al
D o
Ġ è¿Ļ
åľ¨ æŁĲäºĽ
åĨį å¤ļ
å¥¹çļĦ å°ı
am a
ĠC ont
èİī å¨ľ
ç²Ĺ é²ģ
åĳĬè¯ī ä»ĸ
éĻĦè¿ĳ çļĦ
å¥ĳ çº¦
Ġpur ch
ä¸į èµ·æĿ¥
æĿ¥ è®¡ç®Ĺ
ä¾ ĥ
æĸ¹ å½¢
æİ¥ æĶ¶
æĭī éĵ¾
äº² è¿ĳ
ä»ĭç»į äºĨ
åºŁ å¼ĥ
Ġaut om
ĠTe chn
çļĦçĶŁæ´» æĸ¹å¼ı
çļĦ é¼»
Ġs che
è¡Į é©¶
ĠB o
ĠC or
ad a
çģ« å±±
Ġ2 8
åįĪ é¤Ĳ
èģļ ä¼ļ
Ġhow ever
Ġob serv
éķ¿ å®ĺ
è·Ł éļı
ãĥ¼ãĥ ŀ
èĭ¥ éļĲèĭ¥çİ°
æ´Ĺ è¡£
ãĥ³ãĥ Ń
åıªè§ģ å¥¹
Ġmach en
æĪĳä¹Łå¾Ī é©ļè¨Ŀ
h ing
Ñ ģ
ä½ł åĪ°åºķ
æķ Ľ
ä¸º æĪĳä»¬
è¿ĩ å¥¹
å½± éŁ¿
è¿Ĳ æ°Ķ
è·ĳ äºĨ
è¯·éĹ® æĤ¨
çļĦè¾ ĵ
Ġsim ply
çļĦç¨ĭ åºı
Ġpop ular
Ġprote ct
å¾ŀå¾ĮéĿ¢ æĬ±ä½ı
C P
N o
æĪĳ åĲ¬
æĻ Į
et y
æ¥ļ æ¥ļ
å©Ĩ å©Ĩ
åĩĨå¤ĩ å¥½äºĨ
ãĤı ãģŁ
åģı è§ģ
æĮĳæĪĺ åĴĮ
wh ere
b ra
ar ily
ĠA ns
æĭī åĪ°
å§Ĳå§Ĳ çļĦ
ĠJ an
æł¹æľ¬ å°±
çļĦè· ĳ
åĳĪ çİ°åĩº
ç»ĦæĪĲ éĥ¨åĪĨ
Ġac cept
Ġintern ational
è¯Ŀ æĿ¥
è¥ Ł
çļĦå°ı è¯´
ä¼ł è¾ĵ
çĥŃ éĩı
ck en
Ġim age
å°¼ æĸ¯
ac ed
iver se
Ġt ur
æĭ Ĺ
åĪĨ ç»Ļ
åı£ ä¸ŃçļĦ
èµ° è¿ĩæĿ¥
èµĦ è®¯
æľĢåĲİ ä¸Ģä¸ª
æıĴåħ¥ äºĨ
Ġmaterial s
çĿ «
åĵ ¨
Ġm er
ĠS ol
èĲ ¤
åĮĸ çŁ³
æµ· å¤ĸ
ä¸Ģä¸ĭ åĲ§
ĠE m
åĨľ æ°ĳ
åľ¨ åĺ´éĩĮ
è¦ģ åľ¨
æīį è¢«
æīĵ çł´
ä¾¿ æį·
Ġits elf
çļĦç¬¬ ä¸Ģ
è¿Ļæ®µ æĸĩæľ¬
æ»¡æ»¡ çļĦ
5 2
U N
ãģ ħ
å°Ĩ å®ĥä»¬
åį´ ä¹Ł
ä¾ĭ å¤ĸ
çģ« æĺŁ
æŃ¤æĹ¶ æŃ¤åĪ»
ä¼ģ åĽ¾
æĮ¡ ä½ı
Ġmat ter
æĴħ èµ·
C H
ãĢ ī
Ġt able
åħ¨ çĦ¶
æīĵ æĭĽåĳ¼
åıĺ éĿ©
art ment
ä¸ĵ å¿ĥ
ight s
æķ°åŃ¦ é¢ĺ
çļĦéķ¿ åº¦
ç»ĺ çĶ»
æ¯ıä¸Ģ å¯¸
çģ¼ çĥŃ
å·ħ å³°
ï ¾
äºĭ åĦ¿
åı£ è¯Ń
èĢģ çİĭ
åģļ å¥½äºĨ
ãģį ãģ¾ãģĹãģŁ
Ġens ure
è¯§ å¼Ĥ
v ention
ä¸Ģ è¨Ģ
å¤§ å¥¶åŃĲ
ä¸Ń è¢«
éĤ£ ä»½
å¥³ çļĩ
è¾¹ è¯´
æ¬¢ ä¹Ĳ
ä»¥ä¸ĭ æĺ¯æĪĳ
æ¹¿ éĢı
æĭį çħ§
ĠO ff
èı² å°Ķ
çº¯ ç²¹
Ġem p
ict ion
v or
Ã ¡
ï¼ Ĭ
ä¸į å±ĳ
è¯ ħ
Ġo ption
éĻ ¡
åĪĨ è¾¨
æīĵ ä¸ª
è¥ Ħ
Ġk m
çªģçĦ¶ éĹ´
èŃ ī
èıľ åįķ
æ³¡ æ²«
ãģķãĤĮãģ¦ ãģĦãĤĭ
åıĹæ¬¢è¿İ çļĦ
ä½£ åħµ
ä¸ª äººçļĦ
æĭ Ļ
èĢĮ æĪĲ
Ġc m
çĲĨ æīĢ
æ·± éĤĥ
æ·« åı«
ĠR ep
çĹĽ å¿«
åįĩ é«ĺ
äºĨ åı£
Ġin stead
åĸ ½
æĸĩ èīº
æĭī ä½ı
çļĦè´ ¡çĮ®
å®¢æĪ· çļĦ
ç¾½ æ¯Ľ
ç»ĦæĪĲ çļĦ
æĹ¥å¸¸ çĶŁæ´»
çļĦçĶŁ æĹ¥
ç°¡ åįĺ
I m
è¦ ļ
å°ı æľĪ
ç¾İ å®¹
è½» æĬļ
ãģ¾ ãģļ
æĴ ®
Ġcl aim
æĬĵä½ı å¥¹
è¿Ļ äºº
æĭ İ
çļĦç ¶
ä¹ĭ æĦı
æ± ©
çľ¼ è§ģ
ä¸ī åıĶ
å² Ķ
æ»ĳ å«©
èıľ èĤ´
æĴĳ çĿĢ
200 4
åĽ° æī°
åĶ¯ æľī
å»¶ ä¼¸
é»ı æ¶²
æ¸ħæĻ° çļĦ
Ġmult iple
N e
ä¸Ń åİŁ
éĤ£ ä¸¤ä¸ª
çľĭ ä¸įåĩº
æĮĩ äºĨæĮĩ
å¥ĩ å¼Ĥ
æį¢ ä¸Ĭ
ä¸¥ åİī
éĹŃ åĲĪ
æįķ æįī
æĪĳ åı¯èĥ½
è¾ Ĳå°Ħ
éļ ±
æ°´ åĪĨ
Ġy et
se qu
Ġde al
Ġim plement
éº» æľ¨
ç²¾æ¶² çļĦ
200 6
ail y
ä¼¯ çī¹
åļ Ĳ
çļĦèĥĮ æĻ¯
éĹ² çĿĢ
âĢ¦âĢ¦âĢ¦âĢ¦ âĢ¦âĢ¦âĢ¦âĢ¦
çŃĶæ¡Ī æĺ¯
ãĥĢ ãĤ¦
åħ¬åħ± äº¤éĢļ
Ġwr ite
çļĦ åı«å£°
ä¸Ģ å¥³
å¥¹ å·²
Ġl oss
av es
æ¹ĸ åįĹ
Ġrec ogn
é¾ľ éłŃ
Ġ ãĤª
ä¹ Ĺ
éķ¿ äºĨ
çĽ¸ éģĩ
ãģ¨ ãģĨ
id ge
å¹² æĪĳ
å±± å³°
Ġk l
å¤« å¦ĩ
ne w
åĭ¾ åĭĴ
çĶµè§Ĩ åī§
æİĢ å¼Ģ
è½¨ éģĵ
éĹº èľľ
G oogle
p a
çļĦ çĶµè¯Ŀ
åľ¨ èº«ä¸Ĭ
å¯¹ è¿Ļä¸ª
æŁĶ å¼±
å¸ĥ æŀĹ
çľŁçļĦ åĲĹ
å·¨ çī©
è¾ĥ ä½İ
ĠTe il
e ff
çļĦ çľĭ
æĪĳ èµ¶ç´§
Ġs ens
æīį æľī
åĮħ å®¹
æµ· ä¼¦
å¦Ĥæŀľ æ²¡æľī
å®¢ æĪ¿
å¨ģ åĬĽ
èİ« åĲįçļĦ
çĳŀ åħ¸
æ´ª æ°´
Ġaddition al
ãĤ ©
å°Ĩ è¿ĳ
ç¾İ æĻ¯
é¦ Ĵ
ç¦ ®
åİŁ æĿ¥çļĦ
æĪĺ å½¹
è®® ä¼ļ
é¢Ħ æĸĻ
Ġãĥ Ĺ
é¸Ł ç±»
çī¹æ®Ĭ çļĦ
è´ŁéĿ¢ å½±åĵį
çļĦ èĩªå·±
çļĦ æĹł
çļĦ çī¹çĤ¹
å¾Ĺ ä½ı
Ġm uss
é«ĺ éĽĦ
ä½Ĩ å®ĥ
ĠS ystem
çĽ¸ åħ¬
è¿Ĳ è½¬
å®ĺ åĳĺ
âĿ¤ âĿ¤
çļĦèĬ± çĵ£
å¿ĥçĲĨ åŃ¦
Ġval ues
èĩ´åĬĽ äºİ
8 00
M e
h aus
ãĢ Ī
ä¸ª åŃĲ
åĪ° æŃ¤
ä½ł ä»¥ä¸º
è¦ģ çŁ¥éģĵ
åħ¥ æīĭ
ĠE nd
è½¯ ç»µç»µ
æīĢæľī äººéĥ½
ä»į æĺ¯
èīºæľ¯ å®¶
Ġconsider ed
åĨ¤ æŀī
æ·±è¿ľ çļĦå½±åĵį
è¯´ æľį
Ġd est
å¹´ åº¦
å½ĵ æĪĳä»¬
çĲĨ å¿µ
åħ¬ æ°ĳ
æīĵ æĸŃäºĨ
ä¾¿ å°Ĩ
è¥¿ è£ħ
å®¹ é¢ľ
Ġen joy
ãģ¿ ãģŁãģĦ
çĥ¦ æģ¼
è£½ åĵģ
ä¼ĺç§Ģ çļĦ
å¯¦åľ¨ æĺ¯
Ġ )
å¯¹ çĿĢæĪĳ
çª Ł
åıį åĢĴ
çļĦä¸Ģ åıª
åįĬ å¤ľ
èĪĴæľį åĲĹ
å¡ŀ åħ¥
uch en
èī¾ å°Ķ
Ġge ht
sq rt
è¯ħ åĴĴ
b el
i pl
æ¢ Ŀ
ä»» åĩŃ
åĭ ĭ
æ¬¢ åĳ¼
æľª æĽ¾
éĢł æĪĲäºĨ
èĵ ĭ
çģµ å·§
åĮĹ æŀģ
çĶļèĩ³ æĺ¯
æĳĨ æīĭ
æĸĩåĮĸ èĥĮæĻ¯
èŃ¦ æĥķ
åįł é¢Ĩ
åºŁ è¯Ŀ
èĬ½ è¡£
è¬ Ľ
ãģªãĤĵ ãģ¦
b ol
ãĤ ¡
åĩº èº«
èĥ½ çľĭåĪ°
Ġw in
ãĤĴ æĮģ
ĠC as
éļ¾ å¿ĺ
æł¹æį® èĩªå·±çļĦ
åĪĿ æ¬¡
éĻĲ å®ļ
æĽ¼ å¦Ļ
çļĦè¶ ĭåĬ¿
æĻ®éĢļ äºº
å¼ºçĥĪçļĦ å¿«æĦŁ
ĠEar th
+ +
çļĦ åıį
ä¸Ģ è½¬
åĴĮ äººç±»
å¤§ å±ģèĤ¡
ä¹Ł éĿŀå¸¸
é¸ ¾
ç¿ İ
çĦ¶åĲİ çĶ¨
æī¶ ä½ı
çļĦæĢ§ èĥ½
au er
åĨľ æĿĳ
æ´Ĺæīĭ éĹ´
éģ¿åŃķ å¥Ĺ
v ant
z a
à ®
éĢ ŀ
åĮ ķ
éª Ĩ
Ġl iving
ĠP ython
åĵį å£°
ĠK on
... ãĢį
Ġun ique
çĸ« èĭĹ
ä¸į ä¸į
å¤§ åĸĬ
æĽ´ é«ĺçļĦ
åĲ« ç³Ĭ
æīŃ èħ°
Ġstud ies
åĲ¸åĲ® çĿĢ
å®Įæķ´ çļĦ
çĿĢ çľ¼çĿĽ
ä½ł çľŁçļĦ
å¿ĥ åĬ¨
Ġf inal
ed er
ç¢ Ł
å£« éģĵ
Ġus es
æħĮ å¿Ļ
çĶµè§Ĩ åı°
Ġdid n
Ġfre qu
Ġdirect ly
çļĦç¤¼ çī©
b ere
çļĦ å¤ļ
çļĦ æĬĢå·§
Ġa kt
ä¼ļ å¯¼èĩ´
re ib
æĸ° ä¸Ģ
ãĤĴ ä½¿
å¦Ĥæŀľ ä¸į
çİ© çİ©
ab en
ãģĵ ãĤĵãģª
ä¸ĢçĽ´ åĪ°
åĮĹ æĸ¹
å¼Ĥ çī©
é¢Ħ è®¢
çļĦçª Ĺ
åĴĮ éľĢæ±Ĥ
çļĦè ł
ä¸ĭ èº«åŃĲ
å¤§ èĩªçĦ¶
åĳ ¸
ï¼ģ ï¼ŁãĢį
åĲİ æĸ¹
è° Ń
Ġg reen
é¦Ļ çĶľ
æĶ¶ èİ·
åĢĭ äºº
Ġredu ce
æľĢ çĪ±
çĲĨ æĥ³
åĲį çīĮ
est s
ä¸įçŁ¥ ä½ķæĹ¶
æĹ¥å¸¸ çĶŁæ´»ä¸Ń
Ġhist or
èŁ ¹
çªģå¦Ĥåħ¶ æĿ¥çļĦ
g n
åĴĮ å¦Īå¦Ī
éĺ Ĳ
ä½ı å®ħ
åĩł ä½ķ
å®ī ç½®
ç¥ŀ çļĦ
å¼Ģå§ĭ åľ¨
æĹ¶éĹ´ åĨħ
ä½łä»¬ ä¸¤ä¸ª
æķħ ä½ľ
é¡¾ å¿Į
çĮ« åĴª
éĢ² æµ´å®¤
ace book
åı ¼
ä½ĵ åŀĭ
åıª çŁ¥éģĵ
å¹¶ çĶ¨
ä¸ĸ éĹ´
åĩ» è´¥
ç»Ŀ é¡¶
å¡ŀ è¿ĽäºĨ
ĠĠĠĠ ĠĠĠĠ
å½¤ å½¤
æ·ĩ æ·ĭ
çļĦ åıªæľī
ä¼ļ æĺ¯
Ġp lease
åĲ¬ åĲ¬
ad d
éŃĶ é¬¼
æ¬² æŃ»
æºĲ æºĲ
èįī åİŁ
èĶ ĳ
åĿĩ è¡¡
åĪĨç±» ä¸º
Ġenc ou
A r
ä¸Ģ è¶Ł
åŃ ½
åĪ° ä¸Ģ
ä»ĸ è¿ĺæĺ¯
ï¼ļ ãĢĬ
ä¹ĭ å¿ĥ
çĲ ¢
åĪĨ å¯¸
ä½Ĩ éĤ£
åĥ į
éľĢè¦ģ è¿Ľè¡Į
è®¤ åĲĮ
ä¸ĢçĤ¹ ä¹Łä¸į
ç®ĢçĽ´ æĺ¯
åıĸå¾Ĺ äºĨ
çļĦ è¯´çĿĢ
éľ ĵ
é«ĺ åĤ²
ç® «
æ¯Ķ åĪĨ
åģļ å®Į
ig ung
ä¾¿ è¢«
æ¸ħ æ°´
åĳĬ çŁ¥
è¿ľ ç¨ĭ
å¸ĮæľĽ èĥ½
éĢļå¸¸ æĺ¯
ç»Ļä½ł ä¸¤ä¸ª
Ġstart ed
W ir
s ing
æĪĳ å¾Ĺ
ä¸Ĭ å¤©
åĢ ¤
ar a
äºĨä¸Ģ å¤§çīĩ
æľĪ ä»½
åĻ¨ çļĦ
ĠE d
å¥½å¥½ åľ°
ç»ıåİĨ è¿ĩ
ä»¥ä¸ĭåĩłä¸ª æĸ¹éĿ¢
Ġnecess ary
ä¹Ł åı¯èĥ½
èĢĮ åħ¥
åı¯ä»¥ ä»İ
éĹ® å¥¹
ç¥ ·
åĩł åı¥
Ġse ction
è¿ĺæľī åħ¶ä»ĸ
åı¤ æĢª
åĲ¦ è®¤
èµ¤è£¸ è£¸
ï¼Ĵ ï¼Ĳ
Ġtrans l
çľ¯ çľ¯
5 4
: -
s um
ä½ł æ²¡
ä»¥ å¸®åĬ©
æĹ¥ åĲİ
æĮī çĿĢ
èĢ³ åħī
è» Ł
æľ¬èĥ½ åľ°
Ġche m
åĺ² ç¬ĳ
ĠAf ric
å¤ ¥
æĽ ³
æĬĬ èĦ¸
åĬł çĥŃ
äº² æīĭ
ä¼ł æī¿
æĦıæĢĿ æĺ¯
200 5
åı¥åŃĲ ä¸Ń
æ®ĸ æ°ĳ
ãģ£ãģ ±
r ast
åĲ ¨
ç»Ļ æĪĳçļĦ
è¯¥ æŃ»
ç²¾ å¿ĥ
ĠB rit
ãĥ¼ãĥ ©
ä¸Ģè¾¹ çĶ¨
è¿ĺæľī å¾Īå¤ļ
æĢ¥ éĢŁ
æľīæīĢ å¸®åĬ©
éĮ ¯
çĸ« æĥħ
æĪĳ èĢģåħ¬
æĲ ģ
èĩªçĦ¶ çİ¯å¢ĥ
çļĦæĢ§ çĪ±
æµ® çİ°åĩº
ä¸Ģçīĩ ç©ºçĻ½
ãģłãģĳ ãģ§
7 6
e um
çļĦ æľ¨
ä¹Ł å¤ļ
åĽŀ è¿ĩå¤´
æ²¡æľī ä¸Ģä¸Ŀ
st Ã¤nd
åĥ ¹
im ately
åľº åľ°
åıĭ å¥½
å®¢ æ§ĺ
ard en
æ©Ł æľĥ
çĩ¥ çĥŃ
æĲº å¸¦
reng th
éĩĮ æľī
äºĨä¸Ģ åĢĭ
ãģŁ ãģł
Ġst ates
ä¸ľ åįĹ
Ġcon duct
å¢ĥ åĨħ
èĦĳ åĲİ
æĸ¼ æĺ¯
Ġinvol ved
g le
p ri
y ear
ï¼ ©
å¦Ĥ çİī
åīį ä¸Ģ
ĠW ill
è¶Ĭ åįĹ
Ġst ring
æĬ½æıĴ èµ·æĿ¥
ä»° èµ·
èµŀ åı¹
å¤©èĬ± æĿ¿
Ġ ä½łå¥½
åľ¨ ç¾İåĽ½
ãĢĮ âĢ¦âĢ¦ãĢį
Ġs y
Ġd ou
è¡¨ éĿ¢ä¸Ĭ
æĸŃ æĸŃ
åĲĦ åĽ½
çŃĶ éģĵ
ä¿® æŃ£
ãģĬ ãĤĬ
åĪĹ åħĭæĺŁ
åģĩ çļĦ
èŃ¦ å®ĺ
æµĵ åİļ
Ġtra ck
ä¸ĵä¸ļ çļĦ
æľĢéĩįè¦ģ çļĦæĺ¯
Ġcompan ies
Ġ ä¸ª
å°ı åı£
âĢĿ âĢľ
å± į
å¤ļ ãģĦ
Ġe igen
im ent
ĠF inal
åıĳåĩº çļĦ
ah re
ä¸¤èħ¿ ä¹ĭéĹ´
åĹ¡ åĹ¡
Ġachie ve
æĪĳ ç»Īäºİ
å°ı çİī
âĢ¦âĢ¦ ï¼Ł
Ġf a
ç»Ļ ä½łä»¬
æĿ¾ äºĨä¸Ģåı£æ°Ķ
é²ľ èī³
èĲ¨ æĸ¯
åĪĹåħĭæĺŁ æķ¦
ä¸į å®¹
æĿ¥ è¿Ľè¡Į
åĪ° æĪĳçļĦ
Ġf ram
èĢģ å¨ĺ
ç¦ ħ
ig ns
ĠD u
æ°Ĺ æĮģãģ¡
éĽ¢ éĸĭ
Ġ æľī
åĴ ı
åıª æĢķ
å¾Ī æ¸ħæ¥ļ
åĲ¸ çĿĢ
Ġk omm
æĶ¯ åĩº
é¤Ĳ é¦Ĩ
æ³Ħ éľ²
ĠSch l
åĲ¸è¡Ģ é¬¼
ä¸ģåŃĹ è£¤
p end
åĽ ²
çĽ ²
ï¼ģ ï¼ī
è®© å¦Īå¦Ī
æĹł è¨Ģ
ç¥ŀ è¯Ŀ
é£İ åħī
ĠG ra
ãĤ¹ ãĥŀ
ĠJ apan
è³ ŀ
Ġext ra
ĠCent er
çļĦä¸Ģæ®µ å¯¹è¯Ŀ
çļĦ éĵģ
æĪĳ æĢ¥å¿Ļ
ä¸Ń åľĭ
al se
Ġse par
éĢģ å¥¹
åĨ· æ¼ł
çļĦçº ¯
åĽŀåĪ° å®¶
æ²»çĸĹ æĸ¹æ¡Ī
åĺ² è®½
ä¸º ä»Ģéº½
Ġg round
äºĶ åĪĨéĴŁ
Ġsu ff
ãĤĪ ãģŃ
çļĦçº ¸
éĻį ä¸´
å¤§ äººçļĦ
çĶ¨ æ°´
éĥ½ çŁ¥éģĵ
åı¯ä»¥ çĶ¨æĿ¥
æļĹ ä¸Ń
è´´ è¿ĳ
èķ¾ å¨ľ
Ġindividual s
åĬłæĭ¿ å¤§
åı¯ å°±
åĪĨ éĲĺ
æĪĳä»¬ åİ»
æĪĳä»¬ ä¸Ģèµ·
ãĤ° ãĥ©
æ¯«ä¸į çķĻ
ret urn
Ġide as
ç¥ ģ
å·¥ äºº
æĮĩ åįĹ
çļĦä¸Ģ éĿ¢
åĨĻ ä¸Ģä¸ª
é¤Ĳ æ¡Į
Ġar ch
æĪĳ ä¹Łä¸įçŁ¥éģĵ
âĢ¦âĢ¦ ï¼ŁãĢį
æĶ Ĵ
éĿ¢ å¯¹çĿĢ
åıĳ åĬĽ
èĢĮ è¿ĩ
äº¤ åª¾
Ġcont act
Ġmed ia
Ġt aken
åĴĮ çĲĨè§£
ä¹Ł åĽłä¸º
ãģĮ ãģĶãģĸãģĦãģ¾ãģĻ
ĠW ohn
ĠC he
æ¿ ĳ
è¯· æ³¨æĦı
æĭį æĭį
åĪĿ åŃ¦èĢħ
éĢĶ å¾Ħ
éĽ» èħ¦
Ġdet ails
æĿ± äº¬
5 3
S cript
s on
ĩ ãĤ£
Ġc ases
ed eral
Ġin form
å·² æľī
åĹ ľ
ĠP e
å¦Ĥæŀľ æĪĳä»¬
ç²ī ä¸Ŀ
ç²ī çº¢èī²çļĦ
åĨ¬ å¤©
isch er
Ġbas ic
ä¸į å¿į
å¸ ³
Ġo pp
æ£ µ
æĹ¥ è®°
å¹³ å®ī
å¹³ åİŁ
åįģ å¤ļ
è½¦ ç«Ļ
è¡Ģ èĦī
è¯Ħ åĪĨ
åı¯çĪ± çļĦå°ı
çļĦå°ıç©´ éĩĮ
æ¯ıæ¬¡ éĥ½
å»ºçŃĳ çī©
åłµ ä½ı
P l
æĿ Ń
er ap
åĴ »
åľ° åĳ»åĲŁ
ãģ® ãĤĤ
åıĪ å¤§
ç¾İ æ´²
åħ¬ çĪµ
è¯Ń çļĦ
å®¹ çº³
äººå·¥æĻºèĥ½ çļĦåıĳå±ķ
åį¡ å°Ķ
é¢Ħ æľŁ
æ³° åĽ½
æľīæīĢ ä¸įåĲĮ
æĮ¯ åĬ¨
è¿Ľè¿Ľåĩº åĩº
b a
æĪĳ è¿ĺæ²¡
å¥½ æĦŁ
Ġb ox
ä¸¤ èĢħ
æİ¥ åĪ°
ut en
ge ben
ç¢ ¾
æĮ¥ èĪŀ
âĻ ª
æĺ¯éĿŀå¸¸ éĩįè¦ģçļĦ
éĹªçĥģ çĿĢ
çļĦ ä½Ļ
ä»ĸ èĩªå·±
Ġs un
åĿ ª
èµ° è¿ĳ
è§īå¾Ĺ å¾Ī
å®Ŀ çİī
ä¸įçŁ¥ ä¸ºä½ķ
æĪĲä¸º ä¸Ģä¸ª
è¶ĬæĿ¥è¶Ĭ å¤§
åĩĮ ä¹±
ãĤ¸ ãĤ§
æĬ¹ èĤ¥çļĤ
ä¿¯ èº«
H T
a ches
æĢ§ åľ°
çľŁ æĥ³
ess er
çķĻ ä¸ĭçļĦ
èĬĤ çľģ
æĵį æĪĳ
ãĤı ãģĳ
çĲĨè§£ åĴĮ
åĩĳ è¿ĳ
Ġ åĪ¶å®ļ
å¥¹ åĢĳ
å°± çĽ´æİ¥
æīį çŁ¥éģĵ
éº» è¡£
ä¹° çļĦ
äºİæĺ¯ æĪĳ
çļĦåı£ èħĶ
ç«ŀäºī å¯¹æīĭ
Ġdam it
æĸŃæĸŃ ç»Ńç»Ń
b re
s en
çļĦ åĢ¼
åħ ĳ
ä½ł æľīæ²¡æľī
å®¶ åħ¬åı¸
è¿Ľ åĮĸ
ç¾İ çľ¸
èĭ Ł
åıĹ ä¼Ĺ
æ´» è·ĥ
ĠB es
é£İ éªļ
Ġpro gress
éŃĶ æĹı
è£ħ ä¿®
èĬĤ æĹ¥
éĢĻ ç¨®
ĠO b
ãĤ¢ ãĤ¯
çĶŁæĪĲ ä»ĸä»¬ä¹ĭéĹ´
è¦ģæ±Ĥ å¯¹è¯ĿåĨħå®¹
è¯¦ç»Ĩ ä¸°å¯Į
çīµ çĿĢ
è§Ĵèī²ä¿¡æģ¯ å¦Ĥä¸ĭ
ç»Ļä½łä¸¤ä¸ª è§Ĵèī²ä¿¡æģ¯å¦Ĥä¸ĭ
çĶŁæĪĲä»ĸä»¬ä¹ĭéĹ´ çļĦä¸Ģæ®µå¯¹è¯Ŀ
è¦ģæ±Ĥå¯¹è¯ĿåĨħå®¹ è¯¦ç»Ĩä¸°å¯Į
å¸ ĸ
åıĳ éĢģ
åħ¨ å¿ĥ
ãĥ³ ãģ®
å¸Ī å¨ĺ
å¤± æķĹ
çģ« çĥŃçļĦ
ious ly
çļĦçĻ ¾
æĥ ¡
èĩ ¨
æĦŁ åĨĴ
ç¯ĩ åħ³äºİ
è½® æµģ
åĽº çĦ¶
çİ©å¼Ħ çĿĢ
å²© çŁ³
è¯ĬæĸŃ åĴĮæ²»çĸĹ
ç±»ä¼¼ äºİ
çļĦäººå·¥ æĻºèĥ½
c el
çļĦ å½¢å¼ı
å¦ ²
å¾Ĺ ä¸į
Ġb ase
éľ² å¤©
é¦Ļ çļĦ
ĠG rund
èĥ¸ èĦ¯
åĵ¼ äºĨä¸Ģå£°
ä¸¢ äºĨ
ç§¯æŀģ çļĦ
à ¥
åĴĮ å·¥ä½ľ
å½ĵ åį³
æĹ¥ çĽĬ
éĵ Ľ
è°ĥ æĪı
ãģĤ ãģĤ
å¹¿ éĺĶ
Ġhat te
M S
äºĨ åĵ¦
å° ī
æĮ Ł
Ġse it
çļĦèº«ä½ĵ ä¸Ĭ
ç¤¼ æľį
èµ°äºĨ è¿ĽæĿ¥
Ġthem selves
åĬ¨å¼¹ ä¸įå¾Ĺ
S e
çļĦ å¤ª
åĪ° è¿ĻéĩĮ
éĢ į
ä¹Ł å¾Ĺ
æĹ¶ è¾°
éĺ ª
åĩł å£°
æĺ¯ä¸Ģ åıª
çµ ¶
ä¸įæķ¢ çĽ¸ä¿¡
å±Ħ éĩĮ
æ²¡äºĭ çļĦ
ãĥĻ ãĥ«
l or
çļĦ ä¸įåĲĮ
çļĦ æķıæĦŁ
åı¯ ä¸į
æīĢ è¯´
æľ¬ å½ĵ
åħ¨ èº«ä¸Ĭä¸ĭ
ç±» ä¼¼çļĦ
Ġex act
æģ¶ æĦı
åįı ä¼ļ
çļĦçİī è¶³
ãĤĦãģĻ ãģĦ
éı ¡
on str
ä¹Ł åıªæľī
ä¸Ģä¸ª äººçļĦ
çİĭ æľĿ
çļĦäºº åı£
ä¾Ŀ æį®
åŃ¦æł¡ çļĦ
æĭ¨ å¼Ħ
æĹĹ è¢į
çµĲ æŀľ
çļĦé»ĳ ä¸Ŀ
Ġdist rib
éĻĮçĶŁ äºº
ä¼ĺåħĪ çº§
l ike
âĢ¦âĢ¦ ãĢĮ
åĢ ¡
æį »
æŃ£ å¦Ĥ
çı Ĥ
è®©æĪĳ æĿ¥
å¯Ĩ åĪĩ
âĢĻ ï¼Į
çļĦç¥ŀ ç§ĺ
è¸© çĿĢ
éģ¥ æİ§
a e
çļĦ å«©
èµ· èº«åŃĲ
Ġal most
å¤į ä»ĩ
çĳ ¾
å·¨ æł¹
çļĦèħ° éĥ¨
éĢłæĪĲ çļĦ
æĹłå¿Į æĥ®
m on
ä¸į åıĳ
er ed
å°ı ç»Ħ
es en
ï¼ģ ãĢĳ
æ²¡ è¿ĩ
æĽ Ŀ
æİ¥ è¿ŀ
åĹ¯ åĵ¼
æľª ä¾Ĩ
ĠH ol
åĳ¨ è¾¹
åħĭ çļĦ
èĥĮ åĲİçļĦ
åįĥ éĩĮ
å±Ĥ çļĦ
ĠSt ate
åľ£ è¯ŀ
ä¹ĺ å®¢
ãĥĿ ãĥ¼ãĥĪ
åŁĥ åıĬ
ä» ĳ
å°ı éĽ¨
Ġd ate
å¾Ī æ£Ĵ
è·Ł åľ¨
æĢĿ ãģĦ
ç©º çļĦ
æĿĲ è³ª
åĨ° æ·ĩæ·ĭ
æİ¥åıĹ äºĨ
åĲĮåŃ¦ ä»¬
å¹¾ ä¹İ
å«Į çĸĳ
çļĦè± ª
Ġp ath
ä½ľ æĺ¯
ãģ® äºº
æİ¥ æīĭ
çŀ Ł
åı¶ èĵī
æ´ŀ ç©´
æķ´ä¸ª èº«ä½ĵ
ç½© æĿ¯
ä¼¯ çĪµ
åį± å®³
æ¬º éªĹ
èĺ ĳèıĩ
Ġstruct ure
ä¸į çĲĨ
ä½ł ç»ĻæĪĳ
èĩª é¡¾
çī Ĩ
le ment
ĠS er
æĢ» äººåı£
åı¥ åŃĲçļĦ
åĸľæ¬¢ ä½ł
åĲ« ä½ıäºĨ
å°¼ å°Ķ
æĢľ æĥľ
å¦ĤæŀľæĤ¨ éľĢè¦ģ
ĊĠĠĠĠ ĠĠĠ
åĩº è¡Į
å°ı èĪŀ
è¿ĩ å¾Ĺ
Ġw oll
ä¸įæĺ¯ åĲĹ
ĠI hnen
æĢĿ è·¯
èĪ¬ åľ°
ĠG eb
æľĢåĲİ ä¸Ģæ¬¡
çĨŁ äºĨ
åĿļ å¼º
çļĦçĪ± æĬļ
è¸© åľ¨
Ġdevelop ed
Ã¼ss en
H ello
æ²¡ çĶ¨
åĨį è§ģ
ä¸İ ä½ł
æĪĳçļĦ å·¥ä½ľ
å°±æĺ¯ ä¸Ģä¸ª
æ¯ı ä¸Ģä¸ĭ
è®¨ å¥½
åĿĲåľ¨ æ²Ļåıĳä¸Ĭ
und e
A ll
Ġ Ċ
å¼ Ľ
åĪĨ æĶ¯
æĹł è¾ľ
éĢļ äºĨ
æµģ éĩı
éĺ² å¤ĩ
çļĦçĪ ¸
éĤĦ æ²Ĵ
å§Ķ æīĺ
è¿ĺä¸į å¤Ł
å¹¿æ³Ľ åºĶçĶ¨
åŁĭ åľ¨
èĢ¸ åĬ¨
yp ot
åīįæīĢæľª æľīçļĦ
Ġ éĤ£
æĪĳ å¿ĥ
è¿Ļ çīĩ
éĿ¢ ç²ī
è¢« æĵį
æĥħ æĻ¯
æĹł ä¸Ģ
ä»Ģä¹Ī åķĬ
ç»Ļ ä»ĸä»¬
æ£ ±
æħ µ
äº² çľ¼
èª ²
çķĻ çĿĢ
éĢı çĿĢ
çļĦçº ¦
æ¯Ķè¾ĥ å¥½
Ġev ents
åĻ© æ¢¦
é ®
çļĦ åĲĮ
åħ Ģ
å¤§ æ±ī
å®ŀ è¡Į
og en
æĿĳ æ°ĳ
ç®± åŃĲ
Ġreg ular
çļĦç´« èī²
6 00
p i
çļĦ äºĶ
å¥¹ å¯¹
è¦ģ æ³¨æĦı
èĩª åĭķ
Ġs ix
çļĦç ĩ
è¿Ľ ç¨ĭ
èµ° äºĨåĩºæĿ¥
çł´ ç¢İ
èĿ İ
å¯¹æĪĳ æĿ¥è¯´
ä»ĵ åºĵ
æĪĲä¸Ģ åĽ¢
çĶ Ħ
åĴĮ æĬĢèĥ½
ãģ® åŃĲ
èĥ ´ä½ĵ
æ±Ĥ ä½ł
ç»§ç»Ń è¯´éģĵ
éĸĭ çĻ¼
è¾ĵ äºĨ
Ġlong er
æĬĽ å¼ĥ
Ġwrit ten
Ġ ä¸į
Ġ ---
éĤ£ æ¬¡
åĩł æŃ¥
Ġl ab
èĻ ı
é»ĳ é¾Ļ
çİ¯ èĬĤ
ä¹Łä¸į ç¦ģ
ç§ĳ æĻ®
Ã¶ l
è®¸å¤ļ äºº
Ġinc ome
æİ¥ä¸ĭæĿ¥ çļĦ
oun ter
7 2
è¿Ļ éĹ´
å¥¹ çĶ¨
Ġm om
è®© äººä»¬
Ġto ok
Ġu t
ä¸İ äºº
è¿ĺæĺ¯ åľ¨
ãĥĥ ãĤ·ãĥ¥
æĥĬ åı¹
Ġim m
æŃĮ æīĭ
å°¿ å°¿
åŃĲå®« éĩĮ
Ġcol lect
åĪ°è¾¾ äºĨ
çļĦ åĳ½ä»¤
âĢ¦ .
æĹł æĥħ
äºĭ åħĪ
æľ¬ ä½ĵ
å¤ª åĲİ
å°±æĺ¯ è¦ģ
èĲ¥ éĢł
æĦĪ æĿ¥
çļĦèĻ ļ
çļĦè£¸ ä½ĵ
é¦Ĵ å¤´
ä¸Ĭ å¸Ŀ
åŃĲ åľ¨
å°ı æħ§
ä¹Ł éĢĲæ¸Ĳ
al le
éĴ ¦
æ·« è´±
20 17
é¢Ĩ è¢ĸ
çĬ¶ æħĭ
åľ¨åľ° ä¸ĬçļĦ
Ġsch n
âĹ İ
æĳĩæĻĥ çĿĢ
çļĦ ä¹¦
çļĦ çĽ®çļĦ
è¿Ļ æĺ¯ä¸Ģç§į
è¿ĺ è¯´
æĦŁ å®ĺ
å¹¶ ç¡®ä¿Ŀ
ãģŁ ãĤĬ
åĽĽ å·Ŀ
ä¸įä¼ļ æľī
Ġde b
æĿ¾ äºĨåı£æ°Ķ
åķĨ åľº
Ġcomp ared
å¤ļå°ĳ éĴ±
èİİ èİİ
çļĦéķ¿ åıĳ
éĽĮ æĢ§
Ù Ħ
çļĦ äº²
çļĦ é©¬
ãģ® ãĤĪãģĨãģª
æŀľ æ±ģ
åİĭ ä½ı
ä¸Ģè¾¹ è¯´
çľ¼çĿ ģ
å®Ī åį«
æ´¾ å¯¹
éĴ» è¿Ľ
Ġplay ers
çļĦçĮ Ľ
èĦĸåŃĲ ä¸Ĭ
çļĦ é¾Ļ
åİŁ åħĪ
æµ· é²ľ
åĪº åħ¥
æ¡Ī çļĦ
hes is
j ust
z immer
çļĦ éĥ¨ä½į
åľ° çĶ¨
çĤ¹ åĩ»
çĮ ©
èº«ä½ĵ ä¸Ĭ
Ġse qu
ç¾ŀ å¾Ĺ
èľľ æ±ģ
å¿½ è§Ĩ
æĪĳä»¬åı¯ä»¥ ä½¿çĶ¨
Ġcolle ge
s w
çļĦ éĺ¿
è¿Ļ ä¸ľè¥¿
å¼Ģ å¤´
åıĳ è½¯
æł· æľ¬
æīį å¥½
Ġpre d
ç¢º å®ļ
Ġteach er
ãģ«ãĤĪ ãĤĭ
çļĦç±» åŀĭ
Ġpress ure
b ild
ä¸Ĭ è½¦
å¥¹ ä¾¿
å¤§ èĩ´
å¯¹ éĿ¢çļĦ
ç©º è°ĥ
è¿ĩæĿ¥ äºĨ
åħ¶ä¸Ń åĮħæĭ¬
æŀ¶ ä¸Ĭ
åħ® åħ®
c ies
Ġ ì
ä¹Ł ç®Ĺ
ä¹Ł ç®Ĺæĺ¯
å¥½ çĥŃ
æį Ĳ
ro id
æľº éģĩ
ä½Ĩæĺ¯ åį´
Ġcl os
Ġsp iel
æ¶Į ä¸Ĭ
åĲ¸å¼ķ åĬĽ
ãģĵãģ¨ãģĮ ãģ§ãģįãģ¾ãģĻ
æĦıå¤§åĪ© éĿ¢
ãĥ³ãĥŃ ãĥ¼ãĥī
æĺ¯ éĢļè¿ĩ
è¿Ļ å¤©
ä»ĸ æ²¡æľī
æ² ®
å°ı èİ¹
å¥½ æľĭåıĭ
å¾Ī èĩªçĦ¶
åħ¬ å°º
æĶ¾ èį¡
æĺ¯ä¸Ģ æĿ¡
ĠP C
å¦Ĥæŀľ æĪĳ
åĵ¥ å¸ĥæŀĹ
æĬ± çĿĢå¥¹
çĨŁ å¦ĩ
Ġen h
pr il
Ġever ything
æİĪ æĿĥ
ĠTr ans
in nen
æ² Ľ
ä¹Ł éļıçĿĢ
åıĳ èµ·
çľŁ æ°Ķ
ä¹Ĳ åĻ¨
æĢ¥ åĪĩ
è°ģ çŁ¥éģĵ
éª¤ çĦ¶
çĻº éĢģ
çľ¨ çľ¼
æģŃ æķ¬
çļĦç«ŀ äºī
æĪĳ æľīçĤ¹
åĬ ¹æŀľ
å¥¹ çļĦç¾İ
ä»ĸ äºĨ
éľ ¹
éķ¿ ä¹ħ
é© ¯
å¾® é£İ
ä¼ł æĦŁ
ĠE duc
ab y
çļĦèĥ ¡
èĸ ¬
åı³ è¾¹
åĪĿ æľŁ
ãģ§ãģį ãģ¾ãģĽãĤĵ
æĺ¨å¤© æĻļä¸Ĭ
res ult
æĦĪæĿ¥ æĦĪ
Ġ ir
çļĦ ä¸»äºº
æĿ¥ ä¸´
è¢« è§Ĩä¸º
çĪ ¾
ell ig
è§¦ çĶµ
Ġus ers
Ġfe ed
Ġuns ere
Ġevery one
m ar
Ġ ãĤ·
æľī çĶ¨çļĦ
æĿ¥ è¿ĻéĩĮ
å°± æľĥ
èµ· åĵĦ
is ions
çĶŁ åĩº
åĬł åī§
å¤ĸ çķĮ
åĲĪ æł¼
ol f
ĠG oogle
ä¹Łæĺ¯ ä¸Ģä¸ª
ä¸° èĩĢ
æİ¢ åħ¥
æĬ¬ æīĭ
å¤¹ æĿĤçĿĢ
æĸĩæľ¬ ä¸ŃçļĦ
å¼łå¼Ģ åĺ´
æĸ¯åį¡ èĴĤ
Ġocc ur
S P
g em
çļĦ æł¸å¿ĥ
Ġs pr
å£ ĵ
ĠS k
åĩł çĤ¹
å®Į åĲİ
åĺ´ éĩĮçļĦ
Ġv i
å¼Ħ çļĦ
æĮī ä¸ĭ
é¤ Ĭ
Ġein z
çļĦèħ ¥
åħ¶ä¸Ń ä¹ĭä¸Ģ
åģ· çľĭ
èĤĨ æĹłå¿Įæĥ®
ä»İæĿ¥ æ²¡
Ġetw as
æĪĳ è®°å¾Ĺ
çļĦç ĳ
æ¯ İ
è¿ĺ å¾Ī
å¤ļ å¤§çļĦ
å¤© é¾Ļ
å¦Ī åĴª
å¼ł å¼ĢäºĨ
å»º åĽ½
æĻºèĥ½ æīĭæľº
æĭ¿ äºĨ
Ġall ows
ĠSe c
æİ¨èįĲ ä¸ĢäºĽ
çļĦèĮĥ åĽ´
ä¸Ģ è¿ŀ
åľ¨ åĵª
åĩº æ°´
å¥½ åĩłæ¬¡
èĢĮ èµ·
åĸ ĩ
ĠS w
ãĤĴ ãģĻãĤĭ
èº«ä½ĵ åĴĮ
å¸ĥ æ»¡äºĨ
é£ŀ æºħ
åĽ¢ ä½ĵ
èıľ åĵģ
åģ· çª¥
é¢Ĺ ç³ĸæŀľ
ä¸Ńåħ± ä¸Ńå¤®
æ¸©å®¤ æ°Ķä½ĵ
Ġ âĸł
æľī åĩłä¸ª
éĢ ®
å°ı é¸Ł
Ġw id
Ġf all
åĪĨ æķ°
æ¶ ¡
æĪĳä»¬ æĺ¯
ĠD ep
å°Ħ èĢĮåĩº
é£Ł ãģ¹
æıĲä¾Ľ æĽ´
Ġ\ ).
ä»»ä½ķ çĶ·äºº
æĬµ åľ¨
æķ°åŃĹ åĮĸ
è²Į ä¼¼
å¿«ä¹Ĳ çļĦ
è½»æĿ¾ åľ°
å´ĩ æĭľ
äºº åĵ¡
èĢ ½
at ives
çĶŁ äºĨ
éĽ ³
ĠA g
æīĵ æī«
ĠR ed
å¿«æĦŁ çļĦ
åħŃ æľĪ
çļĦè´ µ
ä¸įçĶ¨ æĭħå¿ĥ
ä¸įç®¡ æĺ¯
Ġfe atures
åĢ© åĢ©
ãĥĩãĤ¶ ãĤ¤ãĥ³
O ne
ä¸ĭ èħ°
åķ °
ä½ĵ æ¸©
Ġm ath
ç¦ ¾
å¾® å¦Ļ
ä»Ĭ å¹´çļĦ
åĲĥ æİī
åıĸ æ¶Ī
ä¹Łä¸į åĨį
å¡ ĺ
Ġal tern
è¿ľ çļĦ
çĶľ çĤ¹
èĤł éģĵ
Ġhelp s
æ£ĭ çīĮ
éķ ĸ
Ġh ol
åĳ¢ åĸĥ
ĠC olle
çļĦè¡ Ĺ
é£ŀ å¿«
èĩ´ åĳ½
ãĤ¯ ãĥ©
æ²ī æĢĿ
è» į
Ġme chan
çĺ ĻçĹĴ
Ġinc or
çļĦèª ª
çļĦ æĿİ
åĴĮ ä½¿çĶ¨
ä¹ĭ å£°
åĽłä¸º å®ĥä»¬
éĽĨ æĪĲ
çļĦåľ° ä½į
éĺ² çº¿
az u
è¾¼ ãģ¿
æĪĳ åĨįä¹Ł
å¤§ èĤ¡
ãģ« è¡Į
æĮĩ å¤´
ve y
åĵĪ åĪ©
çļĦèĦ ±
çļĦäºº ç¾¤
çļĦèĤīæ£Ĵ ä¸Ĭ
æĵ¦ äºĨ
å°ģ éĹŃ
å°±åı¯ä»¥ äºĨ
åĽ¾åĥı è¯ĨåĪ«
å°± è¯´
åıĪ å°Ĩ
åħ¨ ä¸ĸçķĮ
æ´» æ³¼
é¾ į
ĠB ar
æĢ» ä½ĵ
çļĦä¸Ģ çĤ¹
æŁĶ é¡º
åĳµåĳµ åĳµ
æ¸ħæĻ° åľ°
é»ĳæļĹ ä¸Ń
æºĸ åĤĻ
ä¸įä»ħä»ħ æĺ¯
c d
çļĦ éĢīæĭ©
æľī ä½Ļ
éķ¿ è£Ļ
å¹¶ ä¸įèĥ½
om b
ver se
ĠC ol
æ¬² æ»´
Ġj etzt
éģ¿ å¼Ģ
éĤ£ä¸Ģ åĪ»
ren ch
ãĤ² ãĥ¼ãĥł
Ġ ?
æĪĳ æīĢ
å°ı åįİ
è¿ĺ ä¸įéĶĻ
è®© æĪĳçļĦ
å®¶ éĩĮçļĦ
as se
Ġn ature
åĨį çľĭ
åĲĪ åľ¨ä¸Ģèµ·
ãĤĴ è¡Į
ä¹³ æ²Ł
æĹħ ç¨ĭ
ç«ŁçĦ¶ æĺ¯
Ġsa f
æĭ¼åĳ½ åľ°
Ġsol ution
() `
åĪ° æľĢåĲİ
åıĳ èªĵ
è®© èĩªå·±çļĦ
éĿŀ æ³ķ
åĿĲ å¥½
äºĶ æ¬¡
æĢª ä¸įå¾Ĺ
ãģĭãĤī ãģ®
äº²åĲ» çĿĢ
ãĥĿ ãĤ¤ãĥ³ãĥĪ
è®¢ åįķ
Ġapplic ation
åĺĢ åĴķ
C O
E r
äºº æĢ§
è¿Ļ åħ·
è¡ ħ
æı į
æĹł æļĩ
æº Ŀ
ĠC ity
è¡£ æŁľ
ĠSt adt
åĩºä¸Ģ éģĵ
èµ°äºĨ è¿ĩæĿ¥
çļĦç¬ĳ äºĨ
åģ¶ åĥı
æ»¡æĦı åº¦
éĺ¶ çº§
äº¿ åħĥ
Ġteach ing
Ġenvironment al
çļĦ ä¸Ĭä¸ĭ
çļĦ æ¸©åº¦
æĪĳ åģļ
æĬ ľ
å¤§ é¾Łå¤´
æĶ¾ æīĭ
å°½ æķ°
éĺŁ åĳĺ
éªļ æī°
åı² èİ±
ru pp
E m
æĺ ¼
an nt
éĻ Ģ
Ġc ame
é«ĺ é«ĺçļĦ
å¹´ èĩ³
å®¹ åĻ¨
çļĦä¸Ģ æ¬¡
çļĦä¸Ģ çŀ¬éĹ´
åĽĽ çĽ®
ä¸½ å¨ľ
å¤± æİ§
å¤ľ éĩĮ
æİ§åĪ¶ ä¸įä½ı
éĻª ä½ł
è°¢è°¢ ä½łçļĦ
èĥĨ åŃĲ
æ¯ģ çģŃ
Ġav oid
éĬ Ģ
" "
} $
Ġ æķ°æį®
åĮ ł
éľ ı
åĽł èĢĮ
Ġg irl
im in
ãĤī ãģĹãģĦ
Ã¤ ft
èĬĤ èĥ½
å¯¼èĩ´ äºĨ
ãĥģ ãĤ§
è®¡ç®Ĺæľº è§Ĩè§ī
éľ¹ éĽ³
d ing
Ġ åķĬ
Ġ å¥½çļĦ
çļĦ æĦıè¯Ĩ
åĩº èī²çļĦ
å°± å¦ĤåĲĮ
å°ı éªļè´§
çĶŁ æ¶¯
èĢĮ çİ°åľ¨
å¤ļ æĥ³
æĳ ģ
çĽ´ äºĨ
Ġg ives
åĪ°äºĨ å¥¹
è¨Ģ èĩªè¯Ń
åı° åīį
æĵį ä½ł
æİī èĲ½
çĻ¾ å§ĵ
èºº ä¸ĭ
å½Ĵ ç±»
æ¯ıå¤© éĥ½
åĲ¸å¼ķ äºĨ
Ġag o
åİĭåľ¨ èº«ä¸ĭ
o e
çļĦ ä½ĵåĨħ
ä½ł çļĦèº«ä½ĵ
çļĦè ²
å°ı é¢ĸ
Ġm iss
çľ¼ ç½©
åħ¥ ãĤĮ
æķ° çĻ¾
ãģ« ãģĭ
åĮº åĪĨ
éħĴ éĩı
ĠPro f
æĤ£ èĢħçļĦ
çļĦèķ¾ ä¸Ŀ
è¿Ļ åıĮ
åľ° éĵģ
æĺİ æľĪ
ut h
äº¤ éħį
é©¬ æĿ¥
æĬ¥ ä»ĩ
åĲĽ ä¸»
çļĦæĥħ æ¬²
Ġup on
ãĥ¡ ãĥ³ãĥĪ
èĲ§ çĤİ
æģ° å¥½
Ġtool s
S A
^ {
è¦ģ å°Ĩ
å¥½ ç¬ĳ
æĦŁ åºĶ
æµģ éľ²åĩº
èĬ± èķĬ
éļ¾ åħį
ãģ£ ãģĭãĤĬ
ge w
ĠG er
è¿ĺæľī çĤ¹
å¾ħ ä¼ļ
æĬ¥ çº¸
åĮħè£¹ ä½ı
ç»Ļåĩº ä¸Ģä¸ª
æĹº çĽĽ
çļĦ æ¸¸æĪı
æĺ¯ äººç±»
ä»Ģä¹Ī æł·çļĦ
æŁ »
å¥¹çļĦ å°ıç©´
æľª èĥ½
åı° ä¸ĭ
åĵĪåĵĪ å¤§ç¬ĳ
ç»´ å°Ķ
ç»ĻæĪĳ ä¸Ģä¸ª
Ġsh ows
æ¾ İ
æĲŃ åľ¨
åĪĹè¡¨ ä¸Ń
æĸ°éĹ» æĬ¥éģĵ
ãĥļ ãĥ¼ãĤ¸
çļĦ å·¨å¤§
å¤§ å¹ħ
åı¯ çľŁ
ä¹Ł éļıä¹ĭ
an te
èĢĮ æĺĵ
åĸ Ģ
è¡Į èµ°
ent lich
åĨħ åĬĽ
äºĨä¸Ģ çīĩ
æĴ ĥ
ĠW ork
ce ed
çļĦäºº çĶŁ
Ġj e
ä¹³æĪ¿ ä¸Ĭ
ĠSt and
Ġall er
æĽ´å¥½åľ° ç®¡çĲĨ
å¾Ĺ åĥı
æľ¬ æĥ³
åĬł éĩį
Ġth ird
äºĨä¸Ģ éģĵ
æ¯Ķ èĩªå·±
è¿ĳ è·Ŀç¦»
ç»ıæµİ åıĳå±ķ
çļĦé«ĺ è·Ł
Ġrec ent
éĩĩåıĸ è¡ĮåĬ¨
æŃ»æŃ» åľ°
Ð¾ Ð
éģĵ ä¸Ĭ
ç¬ Ļ
ä¸ĸ ä¸Ĭ
è½¬ èĢĮ
éĢī æīĭ
åħŃ ä¸ª
å¸ħ åĵ¥
å¥½ä¸įå®¹æĺĵ æīį
çļĦ éĽªçĻ½
æĪĳ æľĥ
è¿ĩ æĪĳ
äºĨä¸Ģ åľº
å¤ĸ åĩº
æ¼ ¢
åı« ä»Ģä¹Ī
æĭ¿ æįı
Ġ2 7
.... ...
ĠN orth
è§Ĥ å¿µ
åĭ¾ èµ·
ãģ¨æĢĿ ãģĨ
Ġele ments
è¤¶ çļ±
Ġmeas ure
) ```
g round
t ra
çļĦ è®°å¿Ĩ
çĶ¨ é¤Ĳ
ä¼ļ åıĳçĶŁ
å¼Ģ å¿ĥçļĦ
éĿ¢ æĹł
ãģ® ãĤĪãģĨãģ«
ä¸» æķĻ
äºĨä¸Ģ èĤ¡
ĠA fter
éĩį éĩįçļĦ
ĠT est
çļĦä¸Ģ å¯¹
å¯¼ å¸Ī
æľºåĻ¨ ç¿»è¯ĳ
è¿½ éĢĲ
åĨĴ çĿĢ
çļĦå±ģèĤ¡ ä¸Ĭ
çļĦç½ Ĺ
Ġthink ing
çļĦèº¯ ä½ĵ
g ie
æľī åħ´è¶£
ä¸ĭ ä¸ĢæŃ¥
Ġs ound
æ¿ Ĵ
è¶ĬæĿ¥è¶Ĭ å¿«
åĨħå¿ĥ æ·±å¤Ħ
è¯¦ç»Ĩ çļĦ
ãĤ± ãĥ¼ãĤ¹
hal b
åįĬä¸ª å°ıæĹ¶
uÃŁ er
è¿Ļ å°ıåŃĲ
åıĳ çĥ«
Ġc le
æĦı åľ°
çľ¼ å¸ĺ
åĬł åĿ¡
åħ¬ äº¤
çĶ· ä¸Ģå¥³
å¤ĸ è§Ĥ
Ġre p
èħ¿ éĹ´
éł ĵ
ãĥ¡ ãĥ¼ãĥ«
å¹¿æ³Ľ åºĶçĶ¨äºİ
åĵªæĢķ æĺ¯
e ign
çļĦ æŀĹ
åľ¨ ä¸Ĭ
å¤§ äºİ
å¤ļ å¹´çļĦ
æīĢ å¸¦æĿ¥çļĦ
ĠI ns
åħĪ æĬĬ
æ¯ı äºº
æĺ¯ä¸Ģ çīĩ
ãģł ãģĮ
ä¸įçŁ¥éģĵ ä¸ºä»Ģä¹Ī
æİ¢ åĩº
è¶£ åĳ³
Ġev al
Ġproject s
çļĦè± ¡
k g
Ġ ãĤ¨
æĺ¯ è·Ł
éĤ ¹
åħ¨ ä½ĵ
æł¹ æīĭæĮĩ
åĲ¬ çļĦ
ver y
çĨ Ħ
èĩªçĦ¶ çģ¾å®³
åıĺå¾Ĺ æĽ´
ç§» æ°ĳ
ç´« èĸĩ
200 3
Ġvis it
Ġdoc ument
çĿ« æ¯Ľ
r ans
ä¸Ģ åĽŀ
å¤§ å°ıçļĦ
ç© ¹
é«ĺ ãģĦ
åĬł ä»¥
æĹ¥ è¯Ń
è¿Ļæł· ä¸ĢæĿ¥
è½¬ åĮĸ
åĽĽ å¹´
ĠH aus
åĨ· æ·¡
éł Ĳ
ãĥ³ãĥ Ĳ
è°Ī è®º
å¤ķ éĺ³
Ġbere its
ä¼łæĦŁ åĻ¨
) ;
P T
S QL
ä¸į ç¨³
çĿ ¿
åĴ Ģ
å¹ Ĥ
ä¹Ł ä»İ
ãģ® ãģ§ãģĻãģĮ
ag ed
Ġhe at
ä»ĺ ãģĳ
æł¹æľ¬ ä¸į
å°į æĪĳ
Ġfact ors
ä¾¡ æł¼
éĿ Ī
Ġd at
ãģ® ãģĤãĤĭ
ä¸İ ä¹ĭ
è§£ æķĳ
ãģ¦ ãģĦãĤĭ
å°±æĺ¯ ä¸ª
åĲ¸ åħ¥
è½¬ çľ¼
æīĢä»¥ æīį
æ¶Ī çģŃ
è§Ĥ æµĭ
ä»Ĭå¤© æĻļä¸Ĭ
æĪĳä¹Ł ä¸įæĺ¯
åģĩ å¦Ĥ
å¢ŀåĬł äºĨ
å®¢æĪ· æľįåĬ¡
è¡¨è¾¾ äºĨ
å«£ çº¢
Ġcell s
C on
çļĦ æ¶Īæģ¯
ä½ł åĪļæīį
éĥ½ è¯´
æ¸ Ī
å¤© æĸĩåŃ¦
æĥħ å½¢
ic a
ä»İ æĸĩç«ł
ä½¿ ä»ĸ
é¢Ĩ åı£
ä¸įåĲĮ äºİ
æ¥¼ ä¸Ĭ
ãĥ³ãĥ ĳ
æ»ļ æ»ļ
çļĦå¿ĥ æĢģ
Ġpre m
æİ¥è§¦ åĪ°
æĺ¾çĦ¶ æĺ¯
åĩºå£° æĿ¥
æľī ä¸ĢçĤ¹
ç´§ ç¼©
ä¹³ ç½©
è·Ł åīį
è½¦ åİ¢
åĵį äºĨ
ĠG ew
ãģı ãĤĮãĤĭ
çº¦ å®ļ
Ġ$ $
æľªæĿ¥ åıĳå±ķ
æĢ§æĦŁ çļĦ
è´¢ äº§
Ġbl ack
çļĦèĸ Ħ
æ²® ä¸§
8 7
½ åŃĲ
ä¸į æŃ»
å°ı äºĨ
æĤ ¸
è¿Ļä¸ª å§¿åĬ¿
ï½ Ħ
åĢĻ éĢī
éĩĳ éĴ±
å¸Ĥ åĮº
æĬ½ åĩºæĿ¥
åŁİ éķĩ
éĤ£ä¸ª æĹ¶åĢĻ
åľ£ æ´ģ
çļĦæ°Ķ è´¨
æ¡Ĥ èĭ±
ĠÂłĠÂł ĠÂłĠÂł
åĹĵ éŁ³
Ġassoci ated
ĠDeutsch land
g ra
åĴĮ åģ¥åº·
am t
ĠM al
çīĩ æ®µ
åįĬ æĻĮ
æīĢä»¥ ä»ĸ
çļĦå¤§ å¥¶åŃĲ
åĨ² æĴŀ
çµ ®
åı³ èĦļ
éĿł åľ¨æĪĳ
çļĦèħ ĭ
Ġ4 5
Ġad ult
è¯ļ å®ŀ
Ġincre asing
ä¸ĬçıŃ æĹı
Ġmethod s
çļĦ æ»ĭåĳ³
ä»¥ åħ¶
Ġs ag
çĶŁ æŃ»
æ²¡æľī æĥ³åĪ°
æŃ¤ æ¬¡
æľº çļĦ
æ¯ı æĹ¥
çľĭçĿĢ éĤ£
è½¦ éĩĮ
ĠH is
ä¸įæĸŃ åıĳå±ķ
åĲ« éĩı
æĪĳä¸į çĶ±
çīĻ åħ³
å¸Ĥåľº èĲ¥éĶĢ
å¹½ çģµ
Ġfl ow
B l
E M
Ã Ń
Ġ å¥¹
åľ¨ ä½¿çĶ¨
ä½ł æĬĬ
çĦ¶ åľ°
å¦Ĥ ä¸Ŀ
åı£ ç½©
åħ¬ äºĭ
çĪ± ä¸Ĭ
ä¹Ĳ åĽŃ
ä¹Łæĺ¯ æľĢ
æĢ¥ çĿĢ
æĮĳ è¡ħ
è´Ł æĭħ
åĩºä¸Ģ åī¯
åİŁæĿ¥ å¦ĤæŃ¤
Ġev idence
çº¸ å·¾
æį§ çĿĢ
ï¼ ²
åľ¨ åĲĮä¸Ģ
ä¸ª ä½ĵ
è®© æĤ¨
å¤ª å¤ļäºĨ
é»ĳ çĻ½
ãĥ¼ãĥ Ĭ
æĬ± ç´§
çŁŃ ä¿¡
ç¶ Ń
ä¸ĬéĿ¢ çļĦ
éĻª çĿĢ
çļĦé«ĺ åº¦
ãģŁãĤģ ãģ«
Ġeffect ive
C C
ä¸Ģ éļ»
Ġt er
è¿Ļ çķª
åĴĮ èµĦæºĲ
ä½ĵ è´¨
åĨį ä¹Łæ²¡æľī
un t
ĠW elt
åĽĽ å¤§
ist ics
æ¯Ľ æ³½
å¥½åĥı åľ¨
é¥Ń èıľ
æıı åĨĻ
ãĥŃ ãĤ°
Ġacc ur
åİīå®³ äºĨ
ãĤĮãģ¦ ãģĦãĤĭ
è®Ĭ æĪĲ
é§ ħ
n o
çļĦ ä¸¾åĬ¨
ä¸Ģ æĸ¹
ä¸Ģ ç·Ĵ
æĪĳ å¿įä¸įä½ı
æµģ äºĨåĩºæĿ¥
æĢ» çĲĨ
æĬ± çĿĢæĪĳ
çĿ¡ è£Ļ
ç²ī èī²çļĦ
æİ§åĪ¶ äºĨ
ä¼Ĭ æĸ¯
ĠSch w
éŃĶæ³ķ å¸Ī
åºŀ å¤§
åĩĳ åĪ°
æ³³ è¡£
Ġplay er
Ġa im
æµ Ļ
Ġg ain
iz es
çĪ¬ è¡Į
Ġpart s
æĻ¶ æĻ¶
æ¯Ķå¦Ĥ è¯´
å§Ĩ æĸ¯
çĸ² åĢ¦
Ġrece ive
Ġkosten los
h ood
å¤§ æĸ¹
è¿ĺ çĶ¨
Ġp o
è¿Ľ èĢĮ
as c
åıĪ ä¼ļ
ãģ¨ ãģ¦ãĤĤ
æĺ¯ä¸Ģ å®¶
ĠC ons
æĢ» éĥ¨
åİĭ ç¼©
Ġcl ose
éĶģ éĵ¾
çļĦæĢ§ æ¬²
åĩĿ èģļ
Ġ7 0
ä¾į å¥³
çļĦèĥĮ åĲİ
èĪĶèĪĲ çĿĢ
Ġsqu are
â ķ
Ġ å»ºç«ĭ
ä»ĸ çĶ¨
Ġf ace
çĥ Ļ
æŃ¤ åĲİ
åŁ Ķ
æľŁ éĸĵ
Ġr en
ãĥ¼ãĥ ĳ
æķħ éļľ
ä¼¼ä¹İ ä¹Ł
èĢģå¸Ī çļĦ
è§£éĩĬ éģĵ
ç¸ «
éĶħ ä¸Ń
ãģ² ãģ¨
æĳ§ æ¯ģ
ourn al
6 2
a el
æľī åĲį
å°± åĴĮ
åīį åĪĹèħº
è®© çĶ·äºº
æīĵ å·¥
èĪĴ çķħ
ãĤ¤ ãĤ¹
Ġwe it
æİ¢ æµĭ
æĬļ å¼Ħ
èĴĤ å¨ľ
Ġqu ite
è¨Ń è¨Ī
ĠAust ral
çļĦçĪ¸ çĪ¸
r icht
ãĢį ,
åī ĥ
ä½ĵ æ¶²
æ·« æ¬²
Ġz wischen
åĬŀ äºĭ
é»Ħ çĵľ
çĨŁ å¥³
æĳ© æīĺ
åģĩ æľŁ
gen cy
èĩ£ æľį
Ġstr ateg
å¼ºè°ĥ äºĨ
éĸ¢ ä¿Ĥ
åı¯éĿł æĢ§
åģľè½¦ åľº
æ¯Ľæ³½ ä¸ľ
ä¸Ģ å¦Ĥ
å°ı åĪļ
è¡ Ķ
Ġs ides
èĢĮ è¿Ļ
åħ¬ å¸ĥ
èĢħ ä¸į
çī¹ åĪ¥
æ¢ ¢
åĭ ¿
éĺ´ åĽĬ
Ġr ates
åģľ é¡¿
æŀģ åĬĽ
ass er
åıĳçĶŁ åľ¨
åįģåĪĨ çļĦ
å¥¥ è¿Ĳ
åĢŁ åĬ©
åĩŃ åĢŁ
éĽ¯ éĽ¯
ç»« åįİ
èģĶåĲĪ åĽ½
c il
Ġb in
åıĪ èĥ½
èĢģ å¹´
è§ģ çļĦ
å¤ª ä¹ħ
un kt
Ġst rength
ä¹Łä¸į çĶ¨
å»ºè®® åĲĹ
Ġall es
und es
æĭĸ å»¶
ĠHe alth
6 3
çļĦ å¼Ģå§ĭ
æĪĳ åĪļ
åıĳ è¾¾
æĬĬ åĺ´
ä¼¼ åľ°
ä¿® çĲĨ
ç¿» æ»ļ
ast ic
æĢĴ åĲ¼
æĬµ ä½ı
ition s
éĽªçĻ½ çļĦ
çķ¶ æĻĤ
çľ¼çĿģ çĿģ
b and
in ux
çľĭ åľ¨
æŃ£ è¢«
èĲ İ
å¤ª ç¾İäºĨ
ĠP at
åĽĽ éĿ¢
ä¸Ģæ¬¡ æĢ§
åįķ åħĥ
å¸Ĥåľº ä¸Ĭ
åĽ½å®¶ çļĦ
æĥħæĦŁ åĪĨæŀĲ
æ¾³ å¤§åĪ©
çļĦèĤ©èĨĢ ä¸Ĭ
æĬ¬èµ·å¤´ æĿ¥
æĺ¯ çĶ¨
å¥¹ å¼Ģå§ĭ
åĴĮ éĺ¿
çļĦè Ķ
ä¹Ł å¯¹
éĥ½ ä¸įæĺ¯
æĢ§ åĳ½
èĤ¡ éĹ´
æī¾ ä½ł
éĿŀå¸¸ éĢĤåĲĪ
çľ¼çĿĽ éĩĮ
é±¼ ç±»
å±Ģ éĿ¢
èĶ ļ
è¯´è¯Ŀ äºĨ
æ²¡äºĭ åĲ§
Ġeffect s
éģĭ åĭķ
ç¿»è¯ĳæĪĲ ä¸Ńæĸĩ
å®ª æ³ķ
åĤį æĻļ
Ġ æıĲä¾Ľ
Ġs ort
å¿ĥ ä¸Ĭ
ic les
å¿« äºĨ
ĠS outh
il le
è¿Ļä¸ª è¯į
æĹ¥ åĨĽ
æľĪ çĲĥ
æĺŁ åº§
ä¹ī åĬ¡
çĪ½ å¾Ĺ
çºª å½ķ
æĿ¥èĩª äºİ
è´ŀ æĵį
çļĦèĨ Ŀ
S p
ä¸Ģ éľĩ
å¥¹ èĥ½
ce ption
ãģĭ ãĤĭ
ĠL ear
pp er
op t
ens ion
æ±ī è¯Ń
æ¯ıä¸ª æľĭåıĭ
Ġrel ig
Ġ200 8
çļĦ éĴ±
æĪĳ åĪļæīį
çľĭ çĶµå½±
æĽ´ åĸľæ¬¢
æĺİ åªļ
æīĵ å¾Ĺ
è¿Ļæł· ä¸ĭåİ»
ãģ¾ ãģ¨
ãģ¾ ãĤĭ
ers ch
ç»Ĩ éķ¿
ç»Ĩ èıĮ
èĭ± ä¿Ĭ
æķı éĶĲ
Ġ\( \
ç²Ĵ åŃĲ
y ond
åľ¨ æ¡Į
åĵ ®
éĤ£ åī¯
åīį éĿ¢çļĦ
é«ĺ æł¡
åĪ« åĨį
çĶ± æŃ¤
um b
éľ² äºĨåĩºæĿ¥
èĲ½ åĪ°
å¸ĥ å±Ģ
è§Ĥ èµı
åģ¥ å£®
æıĲé«ĺ äºĨ
ä¸ŃåĽ½ å¤§éĻĨ
éĵģ éĵ¾
è®¾è®¡ å¸Ī
äºĨåĩł æ¬¡
ç»¿ èī²çļĦ
n a
Ġ æĺ¯çļĦ
åľ¨ æµ´å®¤
æİ ·
èĢĮ éĿŀ
æ²¡æľī è¢«
ud get
éĺŁ çļĦ
ĠU r
åĸ· æ´Ĵ
ç§» å¼Ģ
èī¾ ä¸½
èĤ¥ èĥĸ
åģ¶ æķ°
æķ¬ éħĴ
èį· åħ°
ãĥį ãĥĥãĥĪ
Ġcho ose
Ġconc ern
ĭ äºĨ
ä¸Ģ å¸¦
æĺ¯ å¤§
æŃ£ åĩĨå¤ĩ
å¸¸ çĶ¨
çĶ± æĸ¼
äºĮ å¥³
æĬĢæľ¯ æĿ¥
çİĩ åħĪ
é¡¾ ä¸įå¾Ĺ
éĻħ åħ³ç³»
ç¶ ł
Ġres pect
åı¯ä»¥å¸®åĬ© åĮ»çĶŁ
æľĢè¿ĳ çļĦ
åĲİéĿ¢ çļĦ
Ġbest e
Ġcontin ue
J ack
c ome
å·²ç»ı ä¸į
åĪ¶ æĪĲ
ä¸įåľ¨ ä¹İ
åĤ¨ åŃĺ
Ġdec re
å²Ĥ ä¸įæĺ¯
çļĦ æĦŁè¦º
å°ı æ¯įçĭĹ
èĩª è±ª
ar ies
Ġin nov
å½ĵ ä»£
åıį åĩ»
ĠH ere
åĽ´ ç»ķ
ier ten
æī¹ åĩĨ
çĶŁæ°Ķ äºĨ
Ġtemper ature
A G
er ation
æľī ä½ķ
éĤ£ åĦ¿
Ġc arb
Ġf oot
çĭ ©
åĽ½ å¤ĸ
ĠA ug
ot el
æĺ¯ä¸Ģ é¡¹
çİ¯ ç»ķ
åĳĬ çĻ½
éĶĻ è¿ĩ
äºļ å½ĵ
åĩĨå¤ĩ çļĦ
Ġ5 00
é²ľ å«©
Ġge f
rit t
åĽ¢éĺŁ åĲĪä½ľ
æĭĸ éŀĭ
å¥Ķ è·ĳ
æĹłæķ° æ¬¡
Ġpat ients
çļĦèĪĴ æľį
Ġfri end
çĢĳ å¸ĥ
åĮķ é¦ĸ
åľ ³
Ġs onder
Ġc opy
Ġf est
å¾Ī ç®Ģåįķ
å¹´ éĹ´
çĻ½ äºĳ
çĽ¸ çŃī
æĪĺ èĥľ
äºļ å¨ľ
èĦ± ä¸ĭäºĨ
äºĨæĪĳ ä¸Ģçľ¼
å©ī åĦ¿
æ¸©æļĸ çļĦ
æĩĴ å¾Ĺ
ãģ¨ãģª ãĤĬãģ¾ãģĻ
Ġgre ater
åĴĮ æĿİ
éĩĮ å¤´
al y
åĲĳ èĩªå·±
é© Ĺ
èĩ³ æŃ¤
è¿ŀ åĲĮ
è°ĥ çĶ¨
åĿļ åĨ³
5 1
ãĥ ´
ä»ĸ ä¸Ģ
èĩª è¨Ģèĩªè¯Ń
å¯¹ åķĬ
éĿ¢ çĽ®
çĶ± ç¾İ
éŃ ļ
åĿı ç¬ĳ
æµĵ å¯Ĩ
å¼± çĤ¹
é¼ĵ èĥĢ
å²Ľ ä¸Ĭ
ze ich
åħ±åĲĮ åĬªåĬĽ
ĠAmeric a
Ġvers ion
è·¯æĺĵ æĸ¯
I ch
çļĦ å§¿æĢģ
è¿Ļ å¥Ĺ
æĸ §
å¤§ çĻ½
èĩª æĦ¿
re w
å¿ĥ çĪ±
Ġh ost
Ġh ope
Ġg as
Ġl ack
å© µ
åıį èĢĮæĺ¯
é©¬ æĭī
ä¸įè¿ĩ æĪĳ
çİ¯å¢ĥ ä¸Ń
æķı æį·
é¢ĨåŁŁ çļĦåºĶçĶ¨
çļĦè´ Ń
æ¸ħæ¥ļ åľ°
Ġdem and
å°Ħç²¾ äºĨ
Ġfl u
å²Ĺ ä½į
åĽ½åĬ¡ éĻ¢
Ġ âĨĴ
è® ª
ï¼ģ âĢľ
Ġw a
st ra
å°ĳ çļĦ
äº¤ æıĽ
æķĪ åºĶ
åľŁ è±Ĩ
Ġer sten
çļĦç¬ĳ çĿĢ
çļĦæ°´ å£°
æħµ æĩĴ
å°± åħĪ
Ġm Ã¶glich
åı£ çĲĥ
Ġn ight
èĲ ¦
åį´ è¿ĺæĺ¯
ä¸įçŁ¥éģĵ èĩªå·±
åĽ¾ å½¢
å¤§èħ¿ åĨħä¾§
èªª æĺ¯
æĳĦ æ°ı
è±Ĩ è±Ĩ
Ġem ot
Ġanal ysis
èµļ éĴ±
à ¦
Ġ å¹´
äºĨ ä»Ģä¹Ī
å®ŀ ä¹ł
ç¨ ½
æıĲ éĹ®
æīĵ æ¹¿
äº² çĶŁ
ä¼ł åħ¥
æ¶Ī æķ£
èĭ¥ æºª
æĬķ ç¥¨
æĪĳæĥ³ äºĨè§£
åħ¶å®ŀ æĺ¯
éĵ¾ æİ¥
çļĦèľľ æ±ģ
æĬĳ éĥģ
9 3
Ġ æ°´
ä¸Ģ ä¸ĸ
åĪ ģ
è¿Ļ ä¸Ģä¸ĭ
çļĦè ŀ
ä¹ĭ çī©
å®ļ çĲĨ
æ²¡æľī ä¸Ŀæ¯«
åıĹ å®³
æīĵ è´¥
èĤī ç¼Ŀ
äº² çĥŃ
åĲĥ äºĨä¸Ģ
åĿĲ ä¸ĭæĿ¥
æ¸¸ ç§»
åĨ· åį´
éħį æĸĻ
æ¢¦ é¾Ļ
å®ĺ ç½ĳ
å¨ģ ä¸¥
æĺ¯ä»Ģä¹Ī æĦıæĢĿ
å¼Ģåı£ éģĵ
çļĦå¨ĩ åĸĺ
æ··åĲĪ çī©
Ġcurrent ly
ĠCom p
æ¾³å¤§åĪ© äºļ
c os
ï¼ ®
å° »
éĤ£ ä»¶
Ġd oll
æĹł å¤Ħ
Ġh om
æ¯Ķ ä½ł
æĶ¾ ä¸ĭäºĨ
å¤Ħ åŃĲ
ur z
éĵ ł
ĠL ie
å¤į æ´»
å·¥ä½ľ åĴĮ
ä¹ħ èĢĮ
å¥¶ éħª
æİĴ éĻ¤
Ã¶ t
ä¼´ ä¾£
è¿ĺæ²¡ çŃī
Ġdem onstr
çļĦçĥ Ł
ĠÃ ĸ
ä¸§ å°¸
çļĦèĤ¥ èĩĢ
Ġcreat ing
S c
åı ©
åľ¨ èº«åĲİ
éĥ½ æĥ³
è¶ ĭ
æĹł éľĢ
æĸ° åĬłåĿ¡
è¥ ª
ĠM ore
çĹĽ çļĦ
ä¼¸ åĩºäºĨ
ä»¤ çĭĲ
çĪ¸ å¦Ī
æĬĵ ç´§
çļĦè´ ±
ä¾§ éĿ¢
èĲ¥ ä¸ļ
çľī æ¯Ľ
è·ª ä¸ĭ
æĹłå¥Ī çļĦ
Ġadv ant
ĠRes earch
è²ł è²¬
æĹł çĳķ
ãģĦ ãģĭ
æĸĩ éĿĻ
åħ¬ å®ī
Ġn un
ĠS oc
åħ³ èĬĤ
Ġl ives
Ġre v
Ġre ach
å°±æĺ¯ åľ¨
éļ¾ é¢ĺ
å¤± ä¸ļ
ä¼¤ çĹķ
è°ģ çŁ¥
åªļ èį¯
éĹª èĢĢ
Ġper fect
æ¯ıä¸ª äººçļĦ
éĻª æĪĳ
åĲĮæł· çļĦ
çļĦè¯´ æ³ķ
éĽ¶ é£Ł
çļĦéĺ´éģĵ éĩĮ
k er
çļĦ æĻĤéĸĵ
åĴĮ ä»ĸçļĦ
ï¼Ł ï¼ī
æĸ¹ è¨Ģ
åĽŀ æĥ³èµ·
æ°Ķ å¾Ĺ
ç¬ĳ å¾Ĺ
æĢĿ ä¹±
ç»Ĩ èĩ´
è§Ĩ éĩİ
å±± åĮº
æ°ĳ éĹ´
å®« æ®¿
æ¹¿ çĥŃ
Ġcomp on
ãĤ¸ ãĥ¥
å°ģ åį°
è¿ĺä¸į å¦Ĥ
æ²¾ æŁĵ
åĺ¿åĺ¿ åĺ¿
é¢¨ æł¼
b it
ãĢ ľ
ä¸Ģ åĲĪ
æĺ¯ ä¸įä¼ļ
å® ķ
or f
åĬ¨ æĥħ
çļĦèĤ ł
ĠF in
ãģķ ãģ¾
çļĦèĥ ĥ
ãģĳ ãĤĮãģ°
å¥Ĺ å¼ĦçĿĢ
åī§ æľ¬
éĹª çĿĢ
å½»åºķ çļĦ
èİ² å¨ľ
èĢĢ çľ¼
Ġfr ont
Ġporn o
ä¸į å¹¸
è¦ §
åľ° è¢«
å¥½ çİ©
è¿ĩ æ»¤
å§ ¥
å¥³ å©¿
åı¯ä»¥ åĩıå°ĳ
å¾Ī éĩįè¦ģ
æĽ´ æĶ¹
çĽ® ä¸į
çª į
åĨ² æ´Ĺ
æ¹¿ æ·ĭæ·ĭ
æıī äºĨ
åıĳçĶŁ çļĦ
éĢ² åħ¥
Ġinclud ed
çļĦç®¡ çĲĨ
åĵ ī
èĩª å°Ĭ
éĤ£ æĪĳä»¬
Ġd ating
å§ Ŀ
æĹł è¯Ń
åĥ »
æ·« ç§½
çļĦä¸Ģ æĿ¡
ĠF Ã¼r
ãĥ¼ãĥ ķ
æĵį æİ§
æľĥ æľī
éĵ¶ èī²
éļ¾ä»¥ ç½®ä¿¡
Ġbeh ind
è¿Ļä»¶ äºĭæĥħ
ontak t
èĩªé¡¾ èĩª
åĴĮ çİĭ
çľĭ èµ·ä¾Ĩ
Ġc redit
æ¶ ķ
å¼ł åı£
æĭī ä¸ĭ
çĥŃ å¸¦
æŀģ ä¹Ĳ
çļ® éŀŃ
æį¢ ä¸ª
è¯Ĺ äºº
èĤ¥ ç¾İ
Ġstep s
åīĶ éĢı
çĲĨæīĢ å½ĵçĦ¶
v est
~ ãĢį
çļĦ ç»ıéªĮ
çĶ ¬
åľ¨ ä»ĸä»¬
å°± ä»İ
re c
Ġm Ã¼ssen
é«ĺ è´¨éĩı
ãĤĴ ãģ¤
ç©´ ä¸Ń
æµ· å¹³
ä¼ł å¥ĩ
åı° ä¸Ń
èĥĮ å¯¹çĿĢ
è¸ ī
æĻĵ å¾Ĺ
æ¸ħæ¥ļ çļĦ
çĪ¹ çĪ¹
åĻ¢åĻ¢ åĻ¢åĻ¢
Ġcent ury
z u
z ug
åı¯ è§Ĩ
æĦŁ åĪ°äºĨ
éĽ ŀ
çī¹ çļĦ
åıį æĩī
ä¹¦ æĪ¿
æľīä¸Ģ åĢĭ
çĩ Ī
Ġsch w
æĭĸ çĿĢ
éĥģ éĹ·
ãģĤãĤĬ ãģĮ
ç¾İåĳ³ çļĦ
åľ¨è¿Ļç§į æĥħåĨµä¸ĭ
åĪ° äºĨä¸Ģ
ä¸ĭ æ¥¼
æł Ī
å°ı åħ°
è¯´ èµ·
å¤© æĸĩ
æĽ´ è¡£
æľĢ é«ĺçļĦ
éª ı
æľĪ åĦ¿
å®Ŀ èĹı
und er
Ġout side
çļĦå¤§èħ¿ ä¸Ĭ
Ġdig ital
çļĦ èĢ³æľµ
åĴĮ å¤ĦçĲĨ
ä½ł æĶ¾å¿ĥ
èĥ ±
å¤Ħ åľ¨
å¸¦ èµ°
Ġfor ce
ĠC ount
è¯· éļıæĹ¶
æĪĺ æľ¯
æķħ äºĭæĥħ
åıĳåĩº äºĨä¸Ģå£°
åĪĨéĴŁ åĲİ
ä¸ĢæŃ¥ æŃ¥
éļ¾éģĵ æĺ¯
ä¸įèĩªè§ī åľ°
æłĸ æģ¯
ãģ ¬
è¿Ļ ä½¿å¾Ĺ
ï¼ģ âĢ¦
è¿ĺ å¸¦çĿĢ
å¤© æīį
è· Ħ
å£° æĺİ
éª ¸
ï½ ĩ
èĳĹ æĪĳçļĦ
å¸Ĥ çļĦ
è¿ĻäºĽ ä¸ľè¥¿
æĺŁ éĩİ
Ġex ec
Ġ3 5
æĬ¬ é«ĺ
ãģ¤ ãģ®
åĳľåĳľ åĳľåĳľ
éĺ´éģĵ åĨħ
åĪĽéĢł åĩº
Ġident ify
E in
åľ¨ åħ¶
æĹ¶ å¸¸
æĿİ åĵģ
å¤« ä¹ĭ
èĢĥ ãģĪ
ä¹ħ ä¹ĭ
æĥĬ åı«
æĳĩ æĽ³
çİ¯ä¿Ŀ æĦıè¯Ĩ
Ġdies es
ï¼İï¼İ ï¼İï¼İ
è´¦ æĪ·
æ¢Ĩ æ¢Ĩ
Ġsonder n
è¿ ¸
è¿Ļ ä¸īä¸ª
æīĭ æĦŁ
åģļ ä¸Ģä¸ª
å¼ł æī¬
ãĤĴ ãģĹãģ¦
çĮ ¿
ç¢ ±
çļĦäºº éĥ½
çķĮ éĿ¢
åįİ ä¸½
åĨ² çĿĢ
** ,
æ¹¿ éĢıäºĨ
æł¡ æľį
åįĥ å¹´
Ġsc reen
çļĦç²ī å«©
åĪĨæ³Į çī©
çļĦçĻ ¼
bo ard
ä¸Ģ éĻ£
äºº å½¢
å¥¹ åıªæĺ¯
Ġd aily
åĬĽ ä¸į
å·² å©ļ
æĸĩ çī©
æĸ° çĶŁ
ãģ¨ ãģĹãģŁ
çī¹ æľīçļĦ
ĠB ere
ãģı ãĤīãģĦ
iv il
ãģĬ ãģĻãģĻãĤģ
çļĦåľ° æŃ¥
èĥ¡ èĲĿåįľ
Ġcl imate
çİ¯ä¿Ŀ çļĦ
çĻ» éĮ²
åĵĢ åļİ
ãģ§ãģ¯ ãģªãģĦ
è¾ĵåĩº ç»ĵæŀľ
ä¸įçĶ±èĩªä¸» çļĦ
Ġfil m
d own
Ġ ï¼ļ
Ġ ãĥª
çļĦ æŃ¦åĻ¨
as ons
åĲĮ ä¸Ģä¸ª
æ³ķ æľ¯
åıĪ ç²Ĺ
ä»İ æ²¡
æŀľ å®ŀ
æµģ è¡ĮçļĦ
id ed
æŃ» æĪĳ
éĿŀ è¦ģ
åĿĲ åľ¨åľ°ä¸Ĭ
è¶´ åľ¨åľ°ä¸Ĭ
æķ´ä¸ªäºº éĥ½
ç©Ĩ æ¡Ĥèĭ±
Ġfact or
Ġdel iver
æ£ķ èī²
N ow
V D
W indows
çĿĢ å®ŀ
åĪ° å°¾
éļ İ
é«ĺ çŃī
åŃ¦ ä½į
æĬĬ é¸¡å·´
åĲį åįķ
è¥¿ åĮĹ
em pt
åĬ© äºº
è®¸ åı¯
æŀģ å¤§
Ã¤ re
çļĦèº«ä½ĵ éĩĮ
æĢ¥ äºĨ
çģµ åĦ¿
ä¼ĳ éĸĴ
éĩİçĶŁ åĬ¨çī©
èĵĿå¤© é¹ı
æ©Ħæ¦Ħ æ²¹
ãĥĢãĤ¦ ãĥ³ãĥŃãĥ¼ãĥī
çļĦ æĳ©æĵ¦
ä¸Ń ä½¿çĶ¨
åľ° äº§
èĤ ¾
è½» èĸĦ
å¤ª å¤§äºĨ
ä¹Ĳ ä¹Ĳ
è®¾ æľī
åĢĴ åľ¨åºĬä¸Ĭ
æĬĢæľ¯ çļĦåıĳå±ķ
å·¥ä½ľ æķĪçİĩ
éĢģ åĽŀ
ä¸ĩ çī©
æĺ¥ é£İ
ãĥ© ãĤ¤ãĥ³
ç¦ģ ä¸įä½ı
éĶģ éª¨
ien cy
æ±½ æ°´
å¹½ é»ĺ
åĻĹ åĳ²
Ġbec ame
çļĦçĸ ¯
çĮİ çī©
åĴĮ ä¼ĺåĮĸ
è¿ĩ ä¸Ģæ¬¡
åĬ¨ äººçļĦ
çŃī ä¼ļ
Ġand ere
æ£ ĺ
ut ed
å®ĥ åľ¨
åĳ³ çļĦ
èĦļ å¿ĥ
ä»ĸçļĦ é¸¡å·´
åĮ» å¸Ī
os ph
é¢¤æĬĸ èµ·æĿ¥
Ġpre t
æ¹ĸ æ³Ĭ
âĹ Ĩ
çķľ çĶŁ
min ist
åĵĹ åķ¦
Ġess ential
Ġpriv ate
æľī æĦıæĢĿ
åĴĮ å¯¹
å¸ °
ä¹Ł åºĶè¯¥
ĠS a
æ¯Ķ åĸ»
çī¹ åľ°
éĩĳ é¢Ŀ
Ġr at
ä¾Ŀ åģİ
æĮī åİĭ
ell er
ãĥ« ãģ®
åĪĿ ä¸Ń
åĵŃ çĿĢ
ä¾µ èļĢ
çĪ¬ èµ·æĿ¥
éĽĨä¸Ń åľ¨
æīĴ å¼Ģ
éĴĵ é±¼
çļĦç¦ ı
åı²èİ± å§Ĩ
ä¸Ģ å·´æİĮ
è¿Ļ å¥³äºº
æĿ¥ å¸®åĬ©
å°ı å¦¹
ä¸º ä¸Ģä¸ª
åıĳ åĳĨ
è¿Ľ æĿ¥çļĦ
å¹³ äºĨ
é¸ ¢
èĮ ħ
çķĻ ä¸ĭæĿ¥
ç±³ å¨ħ
ĠWh y
ä¸ĭä¸Ģ ç§Ĵ
ä»ĸåĢĳ çļĦ
ä»¥ä¸ĭæĺ¯ä¸Ģ éģĵ
å§£ å¥½çļĦ
ä¸į å¥½çļĦ
er ve
æľī å®³
å¤§ ä¼Ĺ
å¤§ å§¨
æ² ¥
åľ° ä¸ĬçļĦ
åıĳ åħī
ãĤĴ ä½ľ
æĢ» è£ģ
ä¸ĸçķĮ ä¸Ń
æŃ¦ è£ħ
æ±Ł éĽª
Ġwor th
è¿½ æº¯
èĤ¥ åİļ
çĶŁæĢģ çİ¯å¢ĥ
åĵĪåĵĪåĵĪåĵĪ åĵĪ
Ġappro pri
éĥĬ å¤ĸ
è¿Ļ åĲį
å¥¹ å°Ĩ
çľĭ çĶµè§Ĩ
èĢĮ ä¸Ĭ
uf act
ĠSt r
è®² è§£
ä¼ı åľ¨
åĩĨç¡® æĢ§åĴĮ
Ġdec ision
å·į å·į
æ¼ĶåĶ± ä¼ļ
æķħäºĭæĥħ èĬĤ
s es
çļĦ å¹²
ä¸Ģ åıĳ
æĿ¥ çĿĢ
ä»ĸ çļĦèĤīæ£Ĵ
åı¯ æĦĽ
å°ı èİī
è¿ĩ çĺ¾
å¯¹ æĤ¨
çľ¼ çıł
èĤī æĦŁ
åıĮ å³°
çĪ± èİī
æľŁ éĻĲ
if orn
æİ¨ æĸŃ
ä¼¸ è¿ĽäºĨ
æĪĳä¹Ł è¦ģ
å©ļ çº±
æłĳ åı¶
æĬµ æĮ¡
é©¬ä¸Ĭ å°±è¦ģ
å¹¿æ³Ľ çļĦ
æļĳ åģĩ
çīĪæĿĥ æīĢæľī
" :
ä¸Ģ äº®
äºĨ åĽŀæĿ¥
re et
æĥ³ è¯´
å¤ļ å¤ļ
å¤ļ è°¢
æĹł åĲį
ĠA re
æīĵ çļĦ
è¯¥ ä¸įä¼ļ
éľĢè¦ģ åľ¨
æŃ» åĲİ
ç«ĭ ãģ¡
è¿ŀ çĿĢ
èĦļ ä¸«
åĲĦ å¼ı
åŁİ éĩĮ
åĪĻ åľ¨
èĤīæ£Ĵ åľ¨
åªļ èĤī
ãĤŃ ãĥ³ãĤ°
ĠCh ar
åľ°çĲĥ çļĦ
ä¹ĥ æĺ¯
ãģĹãģ¾ ãģ£ãģŁ
Ġopportun ity
A V
ä¸į è¢«
åı¯ è°ĵ
Ġb order
ä½ĵ è´´
å±ķ è§Ī
å°Ķ çļĦ
åģľ åľ¨
ãĥ¼ãĥ ģ
ob ile
åĤ¬ æĥħ
Ġprodu ce
ç»Ļå®ļ ä¸Ģä¸ª
èµ¢ å¾Ĺ
çļĦä¸ĭ å·´
Ġincre ased
çŁŃæļĤ çļĦ
ä¾¦ æİ¢
çļĦçł´ åĿı
Ġbehav ior
åĸ·æ¶Į èĢĮåĩº
æ¬²ä»Ļ æ¬²æŃ»
çļĦ åıĳçĶŁ
åĴĮ æľĭåıĭ
ä½ł è¿Ļæĺ¯
å°± å¾Ī
Ġo il
ç« ¿
åģļ ä¸ª
ç¬¬ åħŃ
ãĤ¤ ãĥ¤
Ġex press
éł ¼
æ²ī çĿ¡
æĭĽ å¾ħ
æĺİæĺİ æĺ¯
çļĦè§Ĩ è§ī
iqu es
æıīæĲĵ çĿĢ
ãĤ® ãĥķãĥĪ
çļĦè´¢ åĬ¡
d es
z ial
æĪĳ ä¸Ģå®ļä¼ļ
çľ ·
ä»ĸ èĥ½
Ġthe ory
å¼Ģ èĭŀ
Ġg leich
ï¼ŁâĢĿ âĢľ
Ġz usammen
æĪĳä»¬åı¯ä»¥ éĢļè¿ĩ
çģ¿ çĥĤ
ä¹ħèĢĮ ä¹ħä¹ĭ
çļĦ åħ´å¥ĭ
çļĦ å£°åĵį
åľ¨ åĨħ
å¤§ åĨĽ
å¾Ī å°ı
åĪĨ åī²
Ġl ed
å¥¹çļĦ å±ģèĤ¡
ich te
æīĢä»¥ å¥¹
Ġ20 21
èı² äºļ
å¿ĥçĲĨ åģ¥åº·
çļĦçĤ¹ äºĨ
åŃ¦çĶŁçļĦ åŃ¦ä¹ł
Ġparticular ly
f re
k te
ä¸Ģ èµ·æĿ¥
å¥ İ
ä½ł çľĭçľĭ
ä»ĸ ä¾¿
äºİ æŃ¤
çİ° çĬ¶
ãģ® ãģ¿
st ring
æİ¥ å¾ħ
åıĺ å¤§
ãģŁ ãģı
éĵ ®
æ¥ ŀ
æĢ» åħ±
æİ¨ å¼ĢäºĨ
åĨĽ å®ĺ
èĵ ®
ç¾ŀ çº¢
pt ember
ĠJ ahre
æĸĹ äºī
æļĸ æļĸ
ĠRe ad
ines e
Ã¤hr end
fol g
æĿİåĵģ éĺ³
R O
åľ° éĩĮ
Ġm Ã¶ch
ä»İ ä»¥ä¸ĭ
èĢģ æ±ī
é¢ĺ æĿĲ
è² ´
ther n
é¼» èħĶ
æµ¸ æ³¡
æĭĵ å±ķ
Ġbenef it
ï¼ §
å°ı åĮº
ä¹Ł å¸¸
åıĳ ä½ľ
Ġf ail
æį ²
çĲĨ æĢ§
çľŁ ç©º
å¤ĸ äº¤
åģļ ä¸ĢäºĽ
ç«ĭ æ³ķ
æľ¯ è¯Ń
Ġse arch
åĪĹ ä¸¾
æŁ¥ çĲĨ
eit er
æĬĺ æī£
ç¢İ çīĩ
Ġbl og
å®¾ é¦Ĩ
çıĬ çıĬ
åĪ¶éĢł ä¸ļ
âĺħ âĺħ
Ġinte gr
ç¬Ķè®° æľ¬
çļĦ åı¥åŃĲ
ä¸Ģ ç´§
ä¸Ģ å¯¸
æĪĳ éĿŀå¸¸
å°± çľĭåĪ°
çĦ ķ
é«ĺ æ¸©
äºĨä¸Ģ å¤§
å¤į åħ´
é£ŀ éĢŁ
Ġsu st
199 0
ĠSc ience
ĠÃľ ber
w ers
å¥¹ æŃ£åľ¨
åı¯ æģ©
åĮ ¿
ç¾İ çĽ®
è½» çĽĪ
è·¯ è¿ĩ
çħ ¤
éĶĻ è§ī
ç»§ç»Ń è¯´
çĻ¾ ç§ĳ
ãĤ« ãĥ¼ãĥī
è®ĵ æĪĳåĢĳ
Ġnew s
Ġrun ning
. ãĢĬ
C an
æĪ ¸
æľī ä¸Ģæ¬¡
ä¼ļ å¾Ī
ä¸Ģä¸ª å°ıæĹ¶
æĹł èĥ½
çľŁ çļĦè¦ģ
éĹ® ä½ł
åĽ½ ç«ĭ
éĺ´ å½±
ä½Ĩæĺ¯ çİ°åľ¨
çİī ç±³
èĲ½ ç©º
Ġas pect
ä¸¤ä¸ª çĶ·äºº
æıĲä¾Ľ æĽ´å¥½çļĦ
äººå·¥æĻºèĥ½ åı¯ä»¥
Ġhe ld
Ġcan cer
éĨĴ çĽ®
ä¿ĿæĮģ åģ¥åº·
æīĳ åĵ§
ç®ĢçĽ´ å°±æĺ¯
Ġ200 9
æ¬£èµı çĿĢ
åĨĻä¸Ģç¯ĩåħ³äºİ äººå·¥æĻºèĥ½
çļĦçĵ ľåŃĲ
s k
ĵ é¦ĸ
åħ ¢
è¿Ļ åĩł
å°ı å¥³çĶŁ
éĤ£ è¢«
çŁ ¶
å¹³ åĩ¡
åį³ éĢĿ
çļĦå¤§ éĹ¨
æĬ¤ åį«
çķĻ ä¸ĭä¸Ģ
èĢ³ æľº
å²Ľ å±¿
âĻ¥ âĻ¥
å±ıå¹ķ ä¸Ĭ
ç²Ĺæļ´ çļĦ
Ġinterest ing
çĮ´ åŃĲ
çļĦ æ¸ħ
ä¸į ç¡®å®ļ
er o
åĽ Ķ
åĴĮ çĽ®æłĩ
åĪ° æĹ¶
åĩº å·®
åĩº è½¨
å°ı çĶ·åŃ©
éĤ£ çĶ·äºº
æ³ ŀ
å¤´ æĿ¥
å¹¶ è¿Ľè¡Į
ĠS im
è¿Ļä¸ª åľ°æĸ¹
æľį åĭĻ
ĠI I
åįģ ä¸ª
çļĦèĤī ç¼Ŀ
åı° åįĹ
èĦ± åİ»
ãĤ¢ ãĥĹãĥª
æĪ¿éĹ´ åĨħ
æ¨± èĬ±
Ġeconom y
ï¼Ŀï¼Ŀ ï¼Ŀï¼Ŀ
ãģ¡ãĤĩ ãģ£ãģ¨
éĢį éģ¥
F l
åľ° åĲĳ
Ġb en
çĽ´ è§ī
ãģ« å¯¾
çĽ¸ è«ĩ
è¿Ļæł· è¯´
çĽ® çĿ¹
Ġbe g
ä»£ è°¢
çı Ģ
çļĦä¸Ģ å¤©
æİĴ æĸ¥
æ´Ĺ æ¼±
éĢīæĭ© ä¸Ģä¸ª
çļĦäºĭ çī©
é¼» å°ĸ
å°±ç®Ĺ äºĨ
åĢ¾ åĲ¬
ç»ĵæŀĦ åĴĮ
æĦ£ äºĨä¸Ģä¸ĭ
çºł æŃ£
å®Ł éļĽ
Ġfri ends
Ġtradition al
æ·¹ æ²¡
è©³ ç´°
8 2
9 4
B C
Ġ éĢģæĸĻçĦ¡æĸĻ
çļĦ å¿µå¤´
æĮ ļ
re h
æĥ³ æĬĬ
èĩªå·± å·²ç»ı
çŃī äºĨ
Ġl ate
è¿Ļæł· ä¸Ģä¸ª
æ·± çļĦ
æĬ½ åĩºä¸Ģ
ãĥ¼ãĥ ª
æľīä¸Ģ ä¸Ŀ
æĺ¥ åħī
ç»´ ä¿®
åįĪ é¥Ń
ãģĦãģŁ ãģĹãģ¾ãģĻ
Ġdis play
é¢Ŀ å¤ĸ
çļĦçĭ ¼
Ġatt ack
æĥ¹ å¾Ĺ
è®²è¿° äºĨ
Ġpolit ical
çļĦç¶ ĵ
çļĦ åĩºçİ°
å¤§ åİ¦
å¿« æĿ¥
ãģ¯ ãģªãģĦ
ot o
Ġwh ite
èĭ¥ æľī
Ġne uen
è² Ŀ
å°ĸ ç«¯
ze ug
æ·ĭ æµ´
é¡µ éĿ¢
çĢ ļ
å½¢å®¹ è¯į
èľĤ èľľ
è´· æ¬¾
çļĦ æ°ĽåĽ´
ä¸º åħ¶
å£° åĴĮ
ï¼ī -
çī¹ å¾
çĽ® çŀª
å°Ħ åĪ°
ä¼¸ åĲĳ
æŃ¦ å£«
åĸ· åıĳ
å±ĭ åŃĲéĩĮ
Ġout put
èµŀ ç¾İ
çļĦçĥŃ æĥħ
è¨Ń å®ļ
Ã¶glich keit
åħħæĸ¥ çĿĢ
çŃ· åŃĲ
ä»¥ä¸ĭæĺ¯ä¸Ģéģĵ å°ıåŃ¦
ä¸Ģ åĩº
ä¸į å°ı
ãĤ ħ
åĲĮ æĥħ
ä¸įæĺ¯ ä»Ģä¹Ī
éľĢè¦ģ æł¹æį®
èĦ¸ åºŀ
Ġst ay
æķĻ å¥¹
éĩĳ åĪļ
å°Ħ åħ¥
ä»¥ä¸ĭ æŃ¥éª¤
éł ¸
è·³ è·ĥ
çĽ¯ çĿĢæĪĳ
æī« æıı
Ġtyp ically
ĠDes ign
æĪĳ çĪ±
ĠS ince
åıĮ çľ¸
å¤ª æ£ĴäºĨ
Ġst ore
åŀ Ĵ
çĥŃ çĪ±
èĢĥ éªĮ
ä¹± åĬ¨
å½±åĵį åĪ°
ç¿» äºĨ
éĸĭ æĶ¾
Ġãĥ ı
åı¹ äºĨä¸Ģåı£æ°Ķ
åŁºæľ¬ çļĦ
çļĦç©´ åı£
éģķ ãģĦ
9 2
f r
çļĦ åĨ²åĩ»
ä¹ į
çĽ ı
éĥ½ ä¸įèĥ½
èĩªå·± çļĦèĤīæ£Ĵ
Ġf air
æĸ¹ ä½į
ut sche
åĮħ åİ¢
ç»Ĩ å¾®
rom e
æĹı çļĦ
éģİ çļĦ
ç«ĭåĪ» å°±
éĿ¢å¯¹ éĿ¢
èĪ° å¨ĺ
éħ± æ²¹
çĽ¸äºĴ ä½ľçĶ¨
çķ° å¸¸
Ġcho ice
M P
å¾ ĺ
è¦ģ å¥½å¥½
Ġf arm
åĨį æĢİä¹Ī
æĶ¾ å¤§
æħ¢ çĤ¹
æŀĹ æĻĵ
éĿŀå¸¸ éĩįè¦ģçļĦ
ä¸įçŁ¥éģĵ æĺ¯
æĬ¬ èµ·äºĨ
æ³¢ æµª
æ¼« æŃ¥
èĤļ èĦĲ
âĶĢâĶĢ âĶĢâĶĢ
Ġstat ement
k ontakte
č Ċ
Ġ ç¡®å®ļ
çľ¼ çľĭçĿĢ
åĩł æł¹
æĶ¾ é¬Ĩ
çİĭ æĺŁ
Ġan ge
ĠE ner
å®¢ è§Ĥ
å¨ĩ å£°
æ½® æ°´
ç¡¬ æ¢Ĩæ¢Ĩ
èģĶ ç»ľ
åĩĮ äºĳ
æ¯ĶèµĽ ä¸Ń
Ġmed ical
b or
f all
o ice
çļĦ åĦ¿åŃĲ
åľ¨ åħ¶ä¸Ń
çļĦè Ĵ
Ġd abei
æĸ° åħ´
åĪ°äºĨ æĪĳ
ir us
å¯¼ èĪª
ä¹ĭåĲİ çļĦ
æĿ¾ å¼Ľ
ik el
éĹ» åĲį
Ġpre c
ä¸ĬæĿ¥ åĽŀ
ç¹ģ æ®ĸ
Ġpri or
T S
l am
Ĥ èļģ
æĪĳ ä¸Ģçľ¼
ä¸į çĽ¸
Ġp sych
åı£ åĳĨ
ĠT ag
è¨ İ
äº¤ éĶĻ
ãĥ³ ãĤĴ
ä¼ł éĢģ
èĥĮ éĥ¨
ĠK osten
æĪĳè·Ł å¥¹
åĲĮæĢ§ æģĭ
ä»¥ä¸ĭæĺ¯ä¸Ģéģĵå°ıåŃ¦ æķ°åŃ¦é¢ĺ
æĪĳ ä»¥ä¸º
å¥¹ åİŁæľ¬
å°± çĶ¨
åĲİ æľŁ
Ġw Ã¼r
å¹¶ æĹł
çĻ½ èĬ±èĬ±
åľº ä¸Ĭ
è¿ĺæĺ¯ ä¸ª
çļĦå°ı å¥³çĶŁ
ä¼ł éģį
æ¹ ¯
æ¸© æ¶¦
Ã¤ l
æĥĬ éĨĴ
çħ§ æĺİ
è®©æĪĳ æĦŁåĪ°
éļĲ çŀĴ
ĠSt ra
åľ¨åľ° æĿ¿ä¸Ĭ
èªª å®Į
âĢķâĢķ âĢĿ
ãģ§ãģį ãģªãģĦ
ãģķãĤĵ ãģ¯
åĪĨåĪ« ä¸º
Ġthrough out
ä¸įèĩªè§ī çļĦ
Ġpercent age
E s
f ang
çļĦ æĶ»åĩ»
ä»¥ éģ¿åħį
åŃĲ ä¾Ľ
è¡ Ļ
éķ¿ åŁİ
ich ael
Ġst ock
åı« å¥¹
Ġon es
ä¸ĢèĪ¬ æĿ¥è¯´
çĭĹ çļĦ
æĳĨ åĩº
Ġver schied
çİ¯ä¿Ŀ çļĦæĸĩç«ł
åģ¶ çĦ¶
Ġcons ist
Ã¤t z
for der
å¤ī ãĤı
åľĺ éļĬ
g a
Ġ âĢĿ
äºº ãģ®
è¦ģ çĶ¨
è¿ĩ äºĨä¸Ģä¼ļ
å¾Ĺ å¥½
is a
Ġb le
åŃ¦ çļĦ
éħ ¶
è¿Ļä¹Ī å¥½
Ġpro pos
éĤ£äºĽ äºº
çľ¸ åŃĲ
äº¿ ç¾İåħĥ
èµĦæĸĻ æĿ¥æºĲ
Ġsom et
æĮª åĬ¨
éĢĽ è¡Ĺ
D I
s u
çļĦ æµª
åı¯ åı¯
ï¼ģ âĢĻ
çŃī å¤ļç§į
èĤī æ´ŀ
åĸľ åī§
è¿Ļä¹Ī å¤§çļĦ
ãĤĤ ãģ¡
èĻ½çĦ¶ å¥¹
çŀ ħ
å³ »
åı² ä¸Ĭ
èİ« éĿŀ
è®©äºº æĦŁåĪ°
æĮĤ äºĨ
ä¸ģ é¦Ļ
çļĦçĻ½ ä¸Ŀ
é»ŀ éłŃ
ä¼ģä¸ļ å®¶
æĤ² é¸£
ä¸¥éĩį çļĦ
Ġpol icy
Ġpub lished
l age
ä¸Ģ æıĲ
æĪĳ æĵį
å°ı åĿĹ
èĩªå·± éĤ£
çŁ¥ æĻĵ
è° ĳ
Ġl assen
am ed
åŀĭ åı·
èĨ ³
ãģ£ãģ¦ ãĤĭ
åĸĿ çĿĢ
ä¸ºä»Ģä¹Ī ä¸į
çļĦäºĭ ä»¶
ãĤ³ ãĥŁ
æ°Ĺ ãģĮ
çĹ´ è¿·
h aps
Ġ Ø
Ġ æĪĳä»¬
çļĦ æĦŁåıĹ
ä¸į èĢĲçĥ¦
æī ī
æľī ç©º
it ude
å± ī
Ġb ott
ĠA pril
å¥¹çļĦ åıĮèħ¿
èį Ĩ
æ´» å¡ŀ
å°Ķ èĴĻ
å¤į åĪ¶
è£ħ çĿĢ
ãĥĪ ãĥ¬
åį¡ çīĩ
ä¿¡æģ¯ åĴĮ
è®² è¯Ŀ
è®¾è®¡ ä¸Ģä¸ª
åºĨ å¹¸
å¡ĳæĸĻ è¢ĭ
åĳķ åĲĲ
çļĦèī² å½©
æľī éĤ£ä¹Ī
è¿Ļ ç¯ĩ
æĹ¶ ç©º
çļĦç ¦ģ
Ġe mer
äºĨä¸Ģ åįĬ
ĠS on
åĨį çĶ¨
å·²ç»ı å¾Ī
ä¿Ŀ èŃ·
æĸ° äº§åĵģ
é¥ ²
æıĴ åĪ°
åĲĥ ä¸į
è¯· æķĻ
ç¦» åŃĲ
çļĦå¤§ çľ¼çĿĽ
æ±Ł åįĹ
èį¡ èį¡
åĩĮ æĻ¨
çĽ®æłĩ åĴĮ
Ġpre p
çļĦèł ķ
Ġsust ain
! ?
b ot
â ¼
ï¼ ¹
æľ Ń
åľ ĸ
å¥½ äºº
Ġp oor
å°Ĩ è¿ĻäºĽ
éķ ¶
æıĲ çĿĢ
çģ ĳ
ãģ« ãģĤãĤĭ
ĠM a
æ¶Ī æŀģ
æ»ĳ è¿ĩ
æĢĴ æ°Ķ
åĲŀ åħ¥
çļĦèĬ ³
ä¼Ł å¤§çļĦ
åĳĥ åĳĥ
Ġwur den
8 4
B S
ä»ĸ å¼Ģå§ĭ
éĤ£ å®¶ä¼Ļ
çľĭ ä¸į
an cy
ãģ® ãģ§ãģĻ
çĽ¸ è¿ŀ
æĪĳçļĦ éĺ´èĮİ
å®ĥ å°Ĩ
äºĮ å¹´
è¶Ĭ å¤§
um ps
æŁĶ å£°
å¸ĥ é²ģ
å¿ħ å®ļ
Ġhe ute
ĠJ ust
åĶĶ åĹ¯
åıĳçĶŁ è¿ĩ
äºĮåįģ ä¸ī
æĺł åħ¥
Ġro om
å¹« æĪĳ
åĲĪçĲĨ çļĦ
é»ĺé»ĺ åľ°
å¼§ åº¦
L P
h ab
çļĦ éĿĴ
çļĦ æĦŁæĥħ
ä»¥ çĤº
åĲİ ç»Ń
è¢« å°ı
Ġf ish
Ġf avor
ä¸Ģä¸ª æĺ¯
ä¸¤ å£°
å¹¶ æıĲé«ĺ
çĽ´ æµģ
ra ge
èĩªå·±çļĦ å°ı
æĹ© åľ¨
åİĭ åľ¨äºĨ
ä¹ħ ä¹ħ
å¤ľ èī²
å»ºç«ĭ ä¸Ģä¸ª
å¥½å¥ĩ å¿ĥ
çļĦçŀ ³
Ġsur face
èĩī ä¸Ĭ
Ġneg ative
èµ¤èº« è£¸ä½ĵ
æ°Ķåĸĺ åĲģåĲģ
ä¸į åıĺ
è¿Ļ ç±»
è¿Ļ åıªæĺ¯
èµ ĺ
éĥ½ éĿŀå¸¸
åıĳ éŁ³
ing er
çŃī åľ°
ä½ıäºĨ å¥¹
èī¾ ä¼¦
åħħæ»¡ çĿĢ
åĽŀåİ» åĲ§
Ġfe et
Ġgra du
Ġdev ice
æľī åĪ©
è¿Ļ åı¯èĥ½
en nen
åĩº å¸Ń
æ²¡ å¥½
è¢« ä¸Ģä¸ª
åĪĨ è£Ĥ
é«ĺ å³°
åĶ ¸
éĴ ³
æ·± æ¸Ĭ
ä¸Ŀ çº¿
çĥŃ æµģ
ab et
å·¥ä½ľ ä¸ĬçļĦ
Ġ2 6
ç»ĻæĪĳ ä¸ĢäºĽ
åĩı ç¼ĵ
åĲ¦ å®ļ
åŃ¦çĶŁ ä»¬
åĥµ å°¸
èĩªåĬ¨é©¾é©¶ æ±½è½¦
Ġsoc iety
! ãĢį
ä¸Ģ åħ±æľī
æĺ¯ æ²¡æľī
æĪĳ æĺİçĻ½äºĨ
ä½ł å¾Ī
he ad
ou ch
åģļ çļĦäºĭæĥħ
æ·± åľ³
éļı åı£
é£İ çļĦ
ä½İ åĲ¼
æıĲä¾Ľ æĽ´åĬł
å¯Ĩ éĽĨ
æķĻèĤ² åĴĮ
çļĦç¬ĳ æĦı
eb ru
çļĦç¼ º
æĭ¼åĳ½ çļĦ
è¯¸ å¤ļ
æĴ© èµ·
Ġsoll te
çł° çł°
çĤ½ çĥŃ
èĩ³åħ³ éĩįè¦ģ
9 1
æľī ä¸įå°ĳ
çļĦè Ŀ
å¤§ å¥¶
å¯¹ å¥¹çļĦ
è¿ĺ åī©ä¸ĭ
åı¯ä»¥ åĲĹ
ä½Ĩ æ²¡æľī
çŃī å¤ļä¸ª
åıĪ è¯´
æĶ¾ äºĨ
ï½ ĭ
è¥¿ çĵľ
ĠB us
é¦Ļ èī³
ess or
ä¹Łä¸į å¥½
è®® åĳĺ
ç´ł é£Ł
è¿Ļä¸Ģ å¤©
çļĦç¾İ èĩĢ
æĶ» æĵĬ
ç¤¼ æĭľ
Ġoff ers
è¡ĮæĶ¿ åĮº
çļ±çĿĢ çľīå¤´
Ġplann ing
å¾ Ĭ
èµ· åĪĿ
åķĬ åĵĪ
çŃī åĢĻ
å¹¶ æł¹æį®
æīĵ è½¬
å¸® æĪĳæĥ³
éĺ¿ éĩĮ
é¦ĸ éĥ½
ĠK ing
ä¼ĺ ç¾İçļĦ
ç§Ģ èĭ±
æ²Ĵ æĥ³åĪ°
ä¼Ł å¤§
ĠBe i
çĿģ å¼ĢäºĨ
çļĦå¥½ å¤Ħ
åĭī åĬĽ
åģļäºĨ ä»Ģä¹Ī
çļĦç¨ ³
ä¸ĢåĬ¨ ä¸įåĬ¨
å½· å½¿
æ©¡ èĥ¶
amer a
çļĦç³ĸ æŀľ
é® ®
æĵ¦äºĨ æĵ¦
o es
æĪĳ åıªå¥½
ä¸į éĢļ
æĥ Ł
çĤ ĸ
Ġp ick
ãģ® ãģĶ
åĦ Ģ
ç²¾ åįİ
è± ģ
ãģĭ ãĤĤãģĹ
ä¸įè¿ĩ ä»ĸ
çĶŁæ´» åľ¨
éļĲ ç§ĺ
Ġj ud
æ±ī åŃĹ
ä»ķ æ§ĺ
çļĦç´§ å¼ł
Ã¼n st
« èĬ¦
ä¸Ģ æľĥ
äºĨ æī¿
åľ¨ è¿ĻäºĽ
åı¯ å¿ĥ
ä½¿ åĩº
æ·« éĤª
è½¦ éĹ¨
Ġse ason
é£ŀ èĪŀ
ä¿® å£«
ãģĬ é¡ĺãģĦ
å·¦ äº¬
è¿ĩäºĨ å¤ļä¹ħ
éģį å¸ĥ
au pt
çĦ¦ çĤ¹
Ġprofession al
D F
i Phone
s m
æĪĳ è¿ŀå¿Ļ
çŃ ł
å¤ļ äºº
Ġl abor
èµ° åĩºæĿ¥
å±± ä¸Ĭ
åı¯æĺ¯ æĪĳ
ç¾¤ å²Ľ
Ġun it
åĬªåĬĽ åľ°
çİ°ä»£ ç¤¾ä¼ļ
ç²ĺ æ¶²
çĶ¨åĬĽä¸Ģ æĮº
çĶ¬ éģĵ
çļĦ çĶµ
çļĦ å¿«ä¹Ĳ
å¿ ĳ
ä¸ĭ åºĬ
Ġs al
æŁ ¿
ãĤĴ ãģĭ
åĪļ ä¸Ģ
æļ «
åįģ ä¹Ŀ
ä¸ĢäºĽ äºº
ãģı ãĤĵ
æĥĬ å¥ĩ
æ¯« ç±³
ä½ľä¸º ä¸ĢåĲį
åĸĦ äºİ
æľĢå¤§ åĢ¼
åĹ¯åĹ¯ åĹ¯
Ġsol ve
åł´åĲĪ ãģĮãģĶãģĸãģĦãģ¾ãģĻ
å®´ ä¼ļ
æħ¾ çģ«
çķ¢ ç«Ł
M I
ä¼ ¶
å¿ Ĳ
he l
å°± æĽ´
å°ı å®Ŀ
ch te
Ġc ook
å¹¶ ä½¿çĶ¨
æľīäºĽ åıĳ
çĲĥ éĺŁ
åĿĲ äºĨä¸ĭæĿ¥
Ġ= =
å¼Ĥ æĢ§
çļĦçĮ İ
lie ÃŁ
æĬ±åľ¨ æĢĢéĩĮ
E C
åľ¨ æĹģè¾¹
å¤§ åĬĽçļĦ
å¾Ĺ ä¸Ģ
Ġb ur
æ£ º
åĲį çīĩ
ãģĻ ãģİ
äº¤ ç¼ł
å°±æĺ¯ æĪĳ
ä¹Ĳ è§Ĥ
äºĶ çĻ¾
åĪºæ¿Ģ äºĨ
ç¼ĸ çłģ
ob e
è¦ĭ åĪ°
çļĦç´ ł
Ġadd ed
çĽ¸å½ĵ äºİ
ç¨ĭåº¦ ä¸Ĭ
Ġreg ion
æ´¥ æ¶²
Ġlet z
æĴ° åĨĻ
æľī å¿ĥ
åĴĮ ä»ĸä»¬
æĥ ¬
Ġw ent
å¼Ģ æľĹ
åı¯ä»¥ å¾ĹåĪ°
éľ İ
çĤ¹ ä»Ģä¹Ī
åĺ Ĩ
ç¼ ħ
æĸ° äºº
æ£Ĵ æ£Ĵ
ä¿¡ å¿µ
æĭī çļĦ
ĠM c
è¯ģ å®ŀ
å¥³åŃ© åĦ¿
æł¹æľ¬ æ²¡
ãĥŃ ãĥ¼
ĠZ e
çļ± äºĨ
Ġatt ention
éĴ¢ éĵģ
æ¼ı æ´ŀ
çĶŁæĪĲä¸Ģä¸ª åħ³äºİ
æīĵéĩı çĿĢ
b ach
çļĦ æ¿Ģæĥħ
æĺ¯ åĽłçĤº
ä½ł å®¶
he t
å°± ä¸ĢçĽ´
éĥ½ ç»Ļ
ä¿ ŀ
åıĳ ä¸Ŀ
å¤© ä¸Ĭ
æĬĬ è¡£æľį
ĠA c
ĠM itt
æĬ½ è±¡
ill ing
ĠN et
ä¸ºäºĨ è®©
èħ° ä¸Ĭ
Ġ3 2
å¥½èĪĴæľį åķĬ
æ··åĲĪ çĿĢ
Ġplay ing
çļĦèħ¿ ä¸Ĭ
Ġorgan ization
ä¼ª è£ħ
ĠEduc ation
çļĦ é¡¶
æĹ ¬
Ġt un
å¸ ¥
å¥½ ç¾İ
å¥½ çľĭçļĦ
éĤ£ å°ı
å¤© ä½ĵ
å¹´ ä»½
èį «
æį¢ æĪĲ
æĸ¹æ³ķ æĿ¥
ide os
éģĩ è§ģ
ä¸ĭéĿ¢ æĺ¯
Ġapp l
ä¸ĭä¸Ģ åĪ»
éĵĥ å£°
çļĦéĿ¢ å®¹
Ġhealth y
åĴ¬çĿĢ çīĻ
ï½Į ï½ħ
åĩĦ æĥ¨
å¿Ĳ å¿ĳ
P I
y ou
« éĿ¢
Â ²
æĪĳ æŃ£
æľī æ°§
ä¸Ĭ ä¾Ĩ
åı¯ ä¹Ĳ
è´ ¡
èµ° ä¸Ĭåīį
ä¾¿ å¼Ģå§ĭ
å¼º æļ´
ĠK ind
æĢª çļĦ
æ¼Ķ åĮĸ
çł´ å¤Ħ
æľĢç»Ī è¿ĺæĺ¯
å¹½ å¹½
ä¸°æ»¡ çļĦä¹³æĪ¿
æĤ¨åı¯ä»¥ ä½¿çĶ¨
æ¡£ æ¡Ī
èłķ åĬ¨çĿĢ
Ġsuccess ful
åıİ ç´į
Ġ ä¸Ģ
Ĥ ¬
äºĨ ä¹Ī
äºº åĲį
çĿĢ äºĨ
è¿ĩ äºĨä¸Ģä¼ļåĦ¿
çŃī ä¿¡æģ¯
ä»Ģä¹Ī æĦıæĢĿ
ent e
æŃ¤ å¤Ħ
å·²ç»ı åĪ°äºĨ
èĲ½ ãģ¡
èħ° èº«
åĵ¼ ä¸Ģå£°
è¿İ æĿ¥
ä»Ļ äºº
æľīä»Ģä¹Ī äºĭ
ä¸įä»ħ æĺ¯
èĬ³ å¿ĥ
çĶµåŃĲ åķĨåĬ¡
åĲ¬è¯´ è¿ĩ
åľ¨ æĿİ
è¯´ åĩºäºĨ
åī ĸ
æ· ļ
åĲĮ å¿Ĺ
åĲĳ ä½ł
æ¯Ķ å¥¹
å¸® æĤ¨
ä¸įè¿ĩ å¥¹
ãĥ¼ãĥ Ĳ
å¥ĩ è¿¹
ç®Ģ ç§°
ä¸ĵ å±ŀ
å®ĥä»¬ åľ¨
èĥ¡ æĢĿä¹±
éĻĨ ç»Ń
ç¹ Ķ
ç«¹ æ¸ħ
é»ı ç³Ĭç³Ĭ
ãģķãĤĵ ãģĮ
æ±ĩ èģļ
æĵįä½ľ ç³»ç»Ł
çļĦçĹĽ æ¥ļ
åĪĨæ³Į åĩº
ĠFr ank
Ġask ed
å¦¥ åįı
çļĦ å¦»åŃĲ
åĪ° ä¸Ģè¾¹
æĦı ä¹±
Ġh or
ç¡ «
ãĤĴ ä½¿çĶ¨
èĲ½ åħ¥
åĳ¨ æ¢¦é¾Ļ
Ġit ems
æĿĢ å®³
å¾®å¾® é¢¤æĬĸ
é¼» åŃĶ
éĿ¢ä¸´ çĿĢ
Ġlead ing
åĹ· åĹ·
iforn ia
åľ¨ æīĭéĩĮ
âĢ¦âĢ¦ âĢ¦ãĢį
æį ¶
ä»İ éĩĮéĿ¢
çĻ½ äºĨ
æĸ° å¨ĺ
ãģĮ ãģªãģĦ
æĴ ¬
è½¯ çļĦ
å®Įåħ¨ æĺ¯
èĨ £
ãģĬ ãĤĬãģ¾ãģĻ
è¿· å¤±
æįı äºĨ
çľ¼åīį è¿Ļä¸ª
è£¹ çĿĢ
åĺ´å·´ ä¹Ł
åĻĹ åĻĹ
çģ° æĦı
ove mber
æ³¥ æ³ŀ
è¢ģ åªĽ
XX X
Ġscient ists
æºĿ éĢļ
\ (
ä¸Ģ å¹ħ
æľī çĽĬ
å°ı éķĩ
ä½Ĩ çĶ±äºİ
é¡ ·
çĽ´ çº¿
åĲ¬ è¿ĩ
çİ© è¿ĩ
çĻ «
pl an
åĸĿ æ°´
Ġapp ly
èĢ» è¾±
å©ī è½¬
æĪĳè¿ĺ ä»¥ä¸º
åĩ¹ éĻ·
éĳ «
Ġve h
ãģķãĤī ãģ«
P A
ä¸ Ł
è¿Ļ åĩłä¸ª
å¸ ¯
çĦ ¼
or ge
å¤ļ å½©
åı¯ä»¥ å°Ŀè¯ķ
åĪĨ çļĦ
æĪĳä»¬ ä¸¤ä¸ª
åĭ ģ
åĲĥ éĨĭ
Ġk onn
è·¯ è¾¹
åĲĮæĹ¶ ä¹Łåı¯ä»¥
çĳ ļ
å·® åĪ«
æĸ½ åĬł
çłĶç©¶ æīĢ
å¿«éĢŁ åıĳå±ķ
è¼ ¸
Ġoff icial
Ġzur Ã¼ck
åı ĥ
äºĨ çļĦ
æĪĳ èµ·èº«
æľī ä¸¤
çĿĢ åĳ¢
è¿Ľ åĺ´éĩĮ
ĠS an
èĤī ç±»
æĪĸ ç¼º
ä¸įæĺ¯ è¯´
é¢¤ å·įå·į
ĠO ut
çİ¯å¢ĥ éĹ®é¢ĺ
Ġpl ants
åĶĲ å©·
lich er
çľ¼ç¥ŀ ä¸Ń
çļĦçĥ ¤
çļĦä¹³ æ²Ł
çļĦè½¯ ä»¶
D A
çļĦ ç§ĺå¯Ĩ
ä¸Ģ æ¦Ĥ
ç» ħ
he mat
å¤© çļĩ
å°ĳ é¾Ļ
Ġbe aut
åįģ ä¸ĥ
è¡£ è¡«
ä¸įè¦ģ èĦ¸
æīĺ ä¸ĭ
ä»Ļ å¥³
æĺ¨ å¤ľ
ãģĦãģŁ ãģłãģĳ
å¼¯ ä¸ĭèħ°
åĭĥ èµ·çļĦ
åĪĳ èŃ¦
å¯¹åĩĨ äºĨ
çĽ®çŀª åı£åĳĨ
h igh
æĪĳ è¿ĺè¦ģ
åľ¨ æŀĹ
å°ı èĻİ
åľ° çĽ¯çĿĢ
ä¹ĭ ä½Ļ
å¹³ å¤į
ä»» åĳ½
åĭ »
æ¨ ¹
ĠW enn
å¸Ī å¦¹
Ġr andom
æŁĶ éŁ§
å¸ĥ èİ±
èĦ± è¡£æľį
ç¯ ī
åħ¨èº« éĥ½
ç´« èī²çļĦ
çĪ¬ åĪ°
åĵİ åĵŁ
å¦Ĥæŀľä½ł æĥ³
ãĤ½ ãĥķãĥĪ
Ġlead ers
Ġcrit ical
r at
à ²
çļĦ æŃ»
åľ¨ éĢĻåĢĭ
å°± åıªæľī
éĤ£ é¢Ĺ
ç§ ©
Ġd iet
ä»İ èĥĮåĲİ
æĪĳä»¬ ä¿©
ä¸İ èĩªå·±
èĮ Ĺ
éĩĳ èī²çļĦ
æĬ½ å±ī
çİī ä½ĵ
ãĤī ãģĭ
ä¼¸ å±ķ
çĽ´æİ¥ æĬĬ
Ġnot hing
æľ¨ æĺŁ
éļĶ èĳĹ
18 0
å®£ è¨Ģ
æ¨¡åŀĭ çļĦ
ä¸įåĨį æĺ¯
æĺ¾å¾Ĺ æľīäºĽ
å¹¸ç¦ı çļĦ
hl t
å±Ĭ ãģĳ
åģ¥èº« æĪ¿
ograph y
æıīäºĨ æıī
O r
åľ¨ èĥ¸åīį
ç» °
åĩº ãģ¦
Ġf it
åīį éĢĶ
åı¯ä»¥ ä½¿
äºĨä¸Ģ ä»½
æ·± åĸī
um ents
é£Ł åłĤ
os ing
ç»Ŀ ä¸ĸ
èĥĮ å¿ĥ
èĥ½å¤Ł å¸®åĬ©
ç£¨ æĵ¦
èĮ¶ åĩł
ĠSe xt
ĠCh ina
æ»¡èĦ¸ éĢļçº¢
Ġvar iety
ĠComm un
éĺ¿æĭī ä¼¯
çļĦç³» ç»Ł
çļĦ æİ§åĪ¶
ä¸į åĪ©
å· »
éĤ£ åĲį
ä¸º é¦ĸ
âĢľ ,
çī ł
Ġw onder
éĥ½ éľĢè¦ģ
å¼ł ä¸ľ
ĠI nt
æĢİä¹Ī è¿Ļä¹Ī
å±± åºĦ
åĥıæĺ¯ è¢«
æĸĩæľ¬ åĨħå®¹
Ġgo es
æ±ī åł¡
çļĦè¶ ´
å°¤åħ¶ æĺ¯åľ¨
é¥®é£Ł ä¹łæĥ¯
æľŁå¾ħ çĿĢ
çŀ³ åŃĶ
åº§ä½į ä¸Ĭ
ĠAcc ording
ãĤıãģŁ ãģĹ
Ġ å½ĵ
æľī èĬĤå¥ı
ä½ł çļĦå°ı
å¿ĥ æĦı
çĤ¹ ç¼Ģ
èĢģ å¤«
st Ã¼t
ä¸İ çīĪæĿĥæīĢæľī
et en
åħ³ èģĶ
çĽ¸ æİ¥
çĽ¸ åĨĮ
å¹³ æĻĤ
å¡ Ĺ
å±± çļĦ
èĭ¥ ä¸įæĺ¯
èī³ èī³
ãĥ¬ ãĥ¼
èºº åľ¨åľ°ä¸Ĭ
éĤĦ åľ¨
Ġfe ature
å®¡ åĪ¤
èµ« çĦ¶
ãģĵãĤĮ ãģ¯
Ġele ment
Ġexerc ise
ĠJan u
ï¼ ¨
ä¹ĭ ä¸º
ic iency
è§£ æŀĲ
ãģĮ ãģĤãĤĬ
em ents
æľª å°½
éĽħ çļĦ
éº» çĹ
æĪĳä¹Ł ä¼ļ
ãĢĤãĢĤ ãĢĤâĢĿ
ãģ© ãģĵ
rou p
è¿ĲåĬ¨ åĳĺ
éĻĦ ä»¶
åļ ĵ
å¾Ĵ åĬ³
è´¢ å¯Į
åĪĽéĢł åĬĽ
az on
æľĢä½³ çĶ·ä¸»è§Ĵ
çŁ© éĺµ
çļĦèĭ± æĸĩ
Ġmov ie
Ġsomet imes
2 50
f le
in put
å¾Ĺ æĽ´åĬł
å¾Ĺ ç½ª
çľ¼ ä¸ĭ
ãģª ãĤĵãģł
å®ī çĲª
æ½ °
ĠF ar
åįĹ åĮĹ
äºļ é©¬
Ã¶ ÃŁ
æĶ¿åºľ åĴĮ
å¦ĸ èī³
é©± åĬ¨
æħķå®¹ éĿĸ
çº¢äºĨ èĦ¸
Ġbro ad
éĹŃä¸ĬäºĨ çľ¼çĿĽ
/ >
åĲ Ń
äºº æĺ¯
æľī åĩł
éĤ ¢
å¥½ æŃ¹
ï¼ļ ï¼Ī
è½ ¿
çĶŁ å®Į
æ¸ħ æĺİ
è¥¿ åħ°
èĬ± çļĦ
åİĭ ä½İ
åĶĩ çĵ£
19 80
æ»¡è¶³ æĦŁ
åŀĤ ä¸ĭ
åĺī åĺī
åĨł çĬ¶
è½»å¾® çļĦ
ãģĹãģ¦ãģĬ ãĤĬãģ¾ãģĻ
æĪĳ é©¬ä¸Ĭ
çĦ¶ èĭ¥
ä½ĵ ç§¯
åĥı æľī
éĢļ éģİ
åģļ äºĭ
éĶ ¯
å¤Ħ å¢ĥ
å¼ł ä¼Ł
å¡ µ
çº¿ ç´¢
ĠR uss
ust r
äº«åıĹ åĪ°
ç¬¬ä¸Ģ æĹ¶éĹ´
æĭĴç»Ŀ äºĨ
çļĦéĤ£ä¸Ģ åĪ»
7 1
ä¸į æĶ¾
ä¸į è¯Ń
ä¸Ĭ æĺł
Ġw atch
åĢ Ķ
å°Ĩ å¤´
çľ¼ çļ®
çĶ· æł¹
å¹¶ ä¸įçŁ¥éģĵ
æħ ®
Ġst aff
ĠF amil
ĠF rench
éĤ£ä¸ª å¥³äºº
æĵį çºµ
çĨŁ çĿ¡
æģ¶ åĬ£
éĩĩ è®¿
Ġte le
æĹĭ åį³
å¹¾ æ¬¡
éĢĤåºĶ äºĨ
Ġbu ilt
çļĦç²ī èī²
ä¸¤æł¹ æīĭæĮĩ
Ġprovid ing
ä¸į å¦Ļ
æĪĳä»¬ å·²ç»ı
æĪĳä»¬ å¿ħé¡»
éķ¿ è¾¾
ĠS am
æĢĿ æĢĿ
Ġst op
åı« ä»ĸ
æķĻ ä¸»
çķĻ æĦı
Ġ20 18
æ¬£ çĦ¶
ç¢° è§¦
æĿĳ åºĦ
ä¹ĺ åĿĲ
Ġappro x
fahr en
çģ«è¾£ è¾£
< /
N ew
S M
ä¸į æĽ¾
èĢĮ æŃ¤æĹ¶
éľ Ĩ
äºĨä¸Ģ æł¹
çĻ½ è¡£
ĠS T
Ġg ar
ä¸ī å¤§
çĽ® æ¨Ļ
Ġy es
æĢİä¹Ī ä¹Ł
å¸Ī èĮĥ
Ġr ules
æĭ¿ åĩºäºĨ
å¤ĩ åıĹ
ãģı ãĤĬ
çĹĽ å¾Ĺ
ä¾Ŀ çħ§
äºļ ä¸Ŀ
ag s
éĢĢ ä¼ĳ
æĺ¨ æĹ¥
èİ¹ èİ¹
ä¿ı èĦ¸ä¸Ĭ
çģŃ ç»Ŀ
å¹« å¿Ļ
èŁ Ĵ
åłħ æĮº
d om
f te
h a
çļĦ å·¥åħ·
ä¸į å°±
å¥¹ æīĵ
è§ ħ
å°± å½ĵ
çĽ¸ è²Į
å¹³ æ°ĳ
æķ´ åĲĪ
ä¸Ģä¸ĭ ä¸ĭ
ĠK ar
æĪĲåĬŁ åľ°
åŁĭ æĢ¨
èĬĿ å£«
çļĦèĲ¥ éĶĢ
æĹłå°½ çļĦ
ypot hesis
å¾ĺ å¾Ĭ
çģ°æĦı åĨ·
k now
æĪĳ ä¸Ģä¸ªäºº
äºº åĬĽ
ä»ĸ åį´
å¤ļ å¤§
åħ¥ çĿ¡
éĥ¨ å±ĭ
æ¿Ģ åĬ¨çļĦ
å«© æ»ĳ
äº® äºĨ
ĠU p
Ġ3 00
Ġj o
çĶ¨æĪ· ä½ĵéªĮ
ä¸īä¸ª æľĪ
çļĦé«ĺ æīĭ
å®½ æķŀ
æ©Ł åĻ¨
çį ²
åĩ¹ åĩ¸
ĠPart nersuche
å¯Ŀ å®¤
å¹´é½ ¡
çļĦçĤ¹äºĨ çĤ¹å¤´
é İ
çļĦ åı£æ°´
ä¸Ģ æ¨¡
çĿĢ èħ°
åĴĮ åĪĽæĸ°
âĢľ âĢ¦âĢ¦âĢĿ
åİ» éĻ¤
å¿ĥ äºĨ
Ġc apt
åıª éľĢ
ï½ Ĳ
éĴ Ŀ
ãģ¯ ãģĬ
æĦŁè§ī èĩªå·±çļĦ
å¤« äººçļĦ
ä¸įä¼ļ åĨį
ä¸įçŁ¥ æĺ¯
åį° åĪ·
ç§ĭ æľĪ
é¢Ĺ ç²Ĵ
çĲª äºļå¨ľ
ĠAss oci
} }
ä¸Ģ åĩ»
è¿Ļ è¾ĪåŃĲ
ï¼Ł ãĢĳ
è¯´ åĲ§
èĢĮ ç¾İ
é«ĺ äºİ
ãģĦ ãĤĦ
çĽ´ åĨ²
å¼ł æĹłå¿Į
åĽłä¸º ä½ł
æĹ¶éĹ´ ç®¡çĲĨ
um n
ad es
èĢĥ åı¤
æĶ¿ æĿĥ
çļĦåľ° çĲĥ
ç»ĳ æŀ¶
çĸ² åĬĽ
å§Ĭ å¦¹
åªĽ åªĽ
Ġref lect
Ġsit uation
1 10
æĪĳ å¸®ä½ł
en k
å¥¹ éĥ½
å¥¹ å¤§æ¦Ĥ
å°ı å¤©
ç² ¤
Ġl if
æĻļ ä¸ĬçļĦ
åĬŁ æ³ķ
éĿĴ å°ĳå¹´
åĨ² åĪ·
æĪĲäºĨ ä¸Ģä¸ª
ang er
ä»£è¡¨ çĿĢ
æ±ĩ æĬ¥
åĻ« åĻ«
8 3
e es
Ġ è¿Ļä¸ª
çļĦ åľĨ
æĪĳ åīĽ
æĸ ĭ
ä¸ĭ å®ļ
å¤§ åĩ¤
ï¼Ł âĢľ
ä¹ĭ æĺİ
Ġc ool
Ġp ark
æĬĬ éĹ¨
Ġe at
æīį åĪļ
æļ Ħ
è± ļ
è¨Ģ ãģĨ
å±ķ çİ°åĩº
è½¯ èĤī
çĿ¡ èĳĹ
ä¿® è¡Į
ä¸Ģå®ļ çļĦ
ãĥ¬ ãĥĵ
å±ĭ é¡¶
éª¨ éª
çļĦæ·« ç©´
çļĦçģ °
Ġpre fer
Ġuse ful
Ġcent er
Ġrece ived
htt p
Ġbecom es
çļĦ ä¸ĭèº«
æĿ¥ ä¸ª
å¤§ åĸľ
ä¸Ń å¿ĥçļĦ
Ġs on
æ¬ ¸
æĥ³ åĲĥ
Ġto ld
è¥¿ åįĹ
ç®¡ å®¶
é¦ĸ é¢Ĩ
ãģĹãģ¦ ãģ¿
æĴĳ èµ·
over n
att le
ãĥ¼ãĥĨ ãĤ£
èµĦæĸĻæĿ¥æºĲ ä¸İçīĪæĿĥæīĢæľī
çļĦ åĲĳ
çļĦ åĵ¦
ä»¥ æĪĳçļĦ
at form
åıª åľ¨
åĪĨ å¼ĢäºĨ
æĽ´ å¿«åľ°
èĬ ¹
Ġe th
ãģĦ ãģ§
æ¢ §
éº ¥
æĹ© é¥Ń
é£Ł éģĵ
ç©¿ æĪ´
éĺ¿ é£ŀ
å¼ķ åħ¥
é¡º çķħ
æīĺ èµ·
å£® è§Ĥ
æĬ½æĲĲ çĿĢ
âĢķâĢķâĢķâĢķ âĢķâĢķâĢķâĢķ
Ġcult ure
H P
çļĦ ä½ł
çļĦ å«©èĤī
çļĦ æĭĽçīĮ
æĪĳ æľĢ
å°ı ç¾İ
æĭ ĭ
ãģĦ ãĤį
è¯Ń è°ĥ
ç»ĵ éĩİ
ç¬¬ ä¸ĥ
Ġ2 000
çĿ¡ åİ»
è§¦ æĳ¸
å®īåħ¨ çļĦ
æĪĳä»¬çļĦ äº§åĵģ
è®¾è®¡ åĴĮ
åĽŀå®¶ äºĨ
åĻĹ æ»ĭ
çŀª çĿĢ
èİīèİī ä¸Ŀ
ä¸Ģ åłĨ
æĺ¯ å¤ļä¹Ī
æĪĳ åĳ¢
äºº ãģĮ
æľī ä»½
è¿ĺ ä¸įçŁ¥éģĵ
ç¾İ ä¹³
å¹¶ ä¸įä¼ļ
è®¤ è¯ģ
æĭ¿ ä¸ĭ
ä¹ĭåĲİ å°±
éĢļè¿ĩ å¯¹
é¡¹ éĵ¾
åĮħåĲ« äºĨ
èĤĽ å¡ŀ
ãĤ¶ ãĥ¼
åĴļ åĴļ
l agen
è¿Ļ æľīåĬ©äºİ
å¤§ å¼ł
ä»ĸ ãģ®
çĽ¸ æīĭ
ç¬ĳ èµ·æĿ¥
ä½ķ å¿ħ
çª ¦
æµģ ä¼ł
ä»£ ä¹ĭ
æ³¨ å®ļ
è¿Ļç§į ä¸ľè¥¿
çĹĽ æ¥ļ
æĬ¤ çĲĨ
éº» éº»
çļĦç¾İ æĻ¯
è¿½ è¸ª
åıĤä¸İ èĢħ
éĩįéĩį åľ°
Ġweek s
æľīéĻĲ åħ¬åı¸
Ġorig in
Ġlim it
éĺĲ è¿°
Ġsaf ety
a ult
r an
å¥¹ ä¼¼ä¹İ
ä¸º äººç±»
å®¶ éĹ¨
äºĨä¸Ģ å¤©
éĹ¨ ä¸Ĭ
æĪ¿ ä¸Ń
ä¸ľ éĥ¨
éĺ³ åı°
äºĳ åįĹ
é²ľ æĺİ
è´¨éĩı åĴĮ
èīºæľ¯ åĵģ
âĪ¶ ãĢĮ
åı¯æĢľ çļĦ
åī§çĥĪ åľ°
Ġdist ance
æĳ§ æ®ĭ
åĽ ³
çİ ·
å¤§ æ±Ĺ
ä»¥ å¾Į
ï¼ļ ãĢİ
è¯´ äºĽä»Ģä¹Ī
éĿ¢ éĥ¨
åħ¶ åĲİ
çī© èģĶç½ĳ
éĢļ å¾Ģ
æĪĳçļĦ å¤´
æľĪ åŃĲ
æµ· æ°´
æĹ© æĹ©
æİ¨ ç§»
å°½ åħ¨åĬĽ
ä¼ĺ è´¨
åĪºæ¿Ģ å¾Ĺ
åħį å¾Ĺ
çļĦè¡¨ çı¾
åľ¨ä¸Ģèµ· çļĦ
æ´Ľ åħĭ
çĿĢä¸Ģ æł¹
Ġac adem
Ġlar ger
çļĦçľ¼ åħī
æº« æŁĶ
Ġmess age
Ġpret ty
æĪĳ å»ºè®®
åĽ £
Ġf ix
ãģ« ãģ¦
å¼º åĬ²
æĸ¯ ç§ĳ
åįĬ å°ıæĹ¶
ĠE ach
éĿĴ æ¶©
å®Įåħ¨ è¢«
æĺ¥ èĬĤ
è² Ĥ
æĹħ å®¢
æ¸¸æĪı ä¸Ń
éĢ¼ è¿ĳ
çĥ§ çĥ¤
äºĮåįģ ä¹Ŀ
åľ¨èĩªå·± èº«ä¸Ĭ
åĪ¶å®ļ ä¸Ģä¸ª
å°½åı¯èĥ½ åľ°
Ġproper ty
æ² Į
æ» Ķ
ä¸¤ æŃ¥
æ³ķ å®ĺ
çŃī ä»ĸ
å·²ç»ı æ²¡æľī
ç¦ Ħ
æĪĸ æľįåĬ¡
Ġst ra
ä¹Łä¸į éĶĻ
åŃ¦ä¹ł æĸ°
å¦Ĥä½ķ ä½¿çĶ¨
çĽ´æİ¥ å°Ĩ
å·¦ èĦļ
Ġqu ant
å¦ĸ å¨Ĩ
ä»° å¤´
çļĦåıĮ èĦļ
çļĦèĥĮ ä¸Ĭ
çķĻä¸ĭ ä»»ä½ķ
åĮĢ ç§°
Ġloc ation
la ub
t est
Ġ ãģ®
æĺ µ
éĿ ĵ
ä»İ åºĬä¸Ĭ
æĪĳä»¬ åħ¬åı¸
å¸¦ åĩº
è·Ł æĪĳçļĦ
äº² äº²
äº² åĪĩ
å² ĳ
åĿĲ åľ¨æĪĳ
ä»¥ä¸ĭ éĹ®é¢ĺ
ä¸ĢçĽ´ ä»¥æĿ¥
å®Ŀ è´µ
åĨ° å·Ŀ
ãĥ© ãĥĥãĤ¯
æľĿ å»·
æīĺ çĿĢ
æµĳ èº«ä¸Ĭä¸ĭ
å½ķ éŁ³
åķªåķª åķªåķª
æĿ± è¥¿
Ġsupp ly
åĻª éŁ³
Ġanim als
ĠColle ge
P r
é ĭ
Ġ à¤
ä¸Ģ æĭ³
ä¸į è¿ľ
åıĳ çĶµ
å¤ļ å°ıæĹ¶
Ġm icro
æĤ ļ
éĹ® äºĨ
è¿ĺæĺ¯ æ²¡æľī
ter m
åĲĥ åĪ°
se c
èĴ ²
åĪĽ ç«ĭ
é¢Ħ æĦŁ
çīĽ é¡¿
ç· ı
è´´ åĲĪ
çļĦèĥ½ æºĲ
çļĦè§Ħ åĪĻ
æĢİéº¼ è¾¦
å¤ªç©º æİ¢ç´¢
å¤§ãģį ãģª
Ġexpect ed
çļĦ çļ®
ç© ©
åħ¬ åĭĻ
äºĨä¸Ģ å¼ł
è¿Ļä¸ª åĲįåŃĹ
åħ³ ä¸ĬäºĨ
ç´§ åĩĳ
ãģª ãģĹ
æĪĸ çĽ´æİ¥
ur ance
åĵģ è³ª
è¥¿ éĥ¨
ä¸įè¿ĩ æ°Ķ
ä¿® å¥³
éģİ åİ»
ãĤ¿ ãĥ«
ern en
è¡¥ åģ¿
äººæ°ĳ å¸ģ
å¤¸ å¥ĸ
ash ing
åħħè¶³ çļĦ
ãĤ¼ ãĥ³ãĥĪ
7 3
A b
Ġ åĹ¯
æĪĳ çľĭåĪ°å¥¹
ä¸Ĭ éĹ¨
å¤§ æ¨ĵ
åľ° æ¯¯
å¥½ æĺ¯
éĽ į
Ġp en
å°Ĩ è¦ģ
æ°´ å£°
åĨħ å£ģ
éĶ ¥
åĲ¬ ä»İ
ãģ¾ ãģĹãĤĩãģĨ
æŃ» äºº
ĠB ed
èĬ± æł·
çĳ Ľ
èĭ¥ å¹²
è¸ ®
æ³¨æĦı åĪ°äºĨ
åĿı äºº
å¥³åŃ© çļĦ
æĪ¿éĹ´ çļĦ
we g
~~ âĢĿ
äºĨæĪĳ åĲ§
æįŁ å®³
æľªæĿ¥çļĦ åıĳå±ķ
Ġsein er
éĻ½ åħ·
çļĦçı į
æĮ« æĬĺ
Ġinde pend
k a
çĽ £
è¯´ å¥¹
ç»Ļ å°ı
ç»Ļ ä½łçļĦ
åĨħ åŃĺ
ãģł ãģ¨
Ġhe av
çº§ åĪ«
Ġun its
æĪĳä¸į æķ¢
è®¾è®¡ çļĦ
å¹¶ä¸Ķ åľ¨
æľīäºº åľ¨
ond s
è´± äºº
erv ation
Ġeff icient
å®¡ æŁ¥
Ġmem ory
Ġsum mer
Ġelect ric
Ġconst ant
Ġdeg ree
äº¨ åĪ©
7 9
l i
ä¸Ģ é¡¶
åĴ Ĩ
ä»ĸ æľī
åľ° æĿ¿ä¸Ĭ
âĢ¦âĢ¦ ãĢı
èĩª æĭĶ
Ġs em
éĿ¢ åĽ¢
åĬł æ·±
äºĨä¸Ģ å±Ĥ
ä½ķ å¤Ħ
ä¸Ŀ ç»¸
ĠW as
æ±Ĥ ä½łäºĨ
èĲ½ çļĦ
è§Ĥ éŁ³
åĪĽ å§ĭ
æī¶ èĳĹ
Ġqu al
å¦® åŃĲ
çļĦå¿ĥ æĢĿ
åħ³éĶ® ä¿¡æģ¯
ç¨³ å®ļçļĦ
Ġro ad
å¹²åĩĢ åĩĢ
åĺ´è§Ĵ ä¸Ĭ
çļĦåĲİ èĥĮ
èĮ« çĦ¶
Ġ %
çľĭ åĩºæĿ¥
Ġd rei
it iz
Ġc ross
çİ° æľī
åį´ çªģçĦ¶
çİ© å¾Ĺ
å¦ĤæŃ¤ çļĦ
è¯Ĺ è¯Ĺ
Ġden n
é¢ľ èī²çļĦ
ä¸įåı¯ æĪĸç¼º
æīĵå¼Ģ éĹ¨
åħ³éĶ® åŃĹ
çļĦåıĮ åĶĩ
Ġsol ar
æĩī å°į
ĠMar ch
å¹³æĸ¹ åħ¬éĩĮ
çķ¢ æ¥Ń
è¡Ľ çĶŁ
á ŀ
çļĦ ä½ľåĵģ
çļĦ ä¿ıèĦ¸
å¤ļ åĲĥ
æĢ§ è³ª
å¹¶ ä¸İ
çĻ½ èĻİ
ĠS port
èĤī çľ¼
è¶Ĭ å¤ļ
æĶ¶ è´¹
åŀĭ åħ¬åı¸
ãĤ¤ ãĥī
åĮĹ æµ·
çļĦè§ ģ
è¾ĥ å¤§
ä½³ ä½³
æķĳ æĪĳ
éĵ¶ æ²³
çļĦæ·« éĿ¡
åĩī éŀĭ
ç¶ĵ æŃ·
å¦ĸ æĢª
Ġsa fe
èĢģæĿ¿ å¨ĺ
åķı ãģĦ
åįļå½© åħ¬åı¸
çļĦ éħĴ
ä¸Ģ çļĦ
å°± å¾Ģ
å£ ĳ
æľ¬ æĢ§
ç»Ļ äºĨæĪĳ
çĲĨ æĪĳ
çķĮ çļĦ
éł Ī
èĹ »
çļĦè¡¨ è¾¾
åĴ¬ äºĨ
Ġer w
æķĳ æı´
ãĥ¡ ãĥª
çĽĲ åĴĮ
Ġeas ily
åĪ°å¤Ħ éĥ½æĺ¯
ï¼ĳï¼ĸ ï¼Ĳ
çļĦ èĩĢèĤī
ä¸Ģ çĶ·ä¸Ģå¥³
Ġs ources
çº ¬
Ġm ilit
æģ ķ
è¡Į ç¨ĭ
æĺ¯ä¸Ģ æ¬¾
ĠD ay
ĠF il
åĽĽ åŃ£
åĿĲ åĪ°äºĨ
åĲĦ å¤Ħ
ĠG em
Ġse ek
èħ° å¸¦
çļĦç¾İ ä¹³
å¤ĦçĲĨ åĻ¨
åĢ¾ æĸľ
Ġdevelop ing
éª¨éª ¼
Ã ³
Ġ æīĭ
ä¸Ģ ç´ļ
æĺ¯ çľŁ
åľ¨ çİĭ
in os
Ġs old
æĻ ĸ
ing en
å®¶ åĽŃ
æĬĬ ç²¾æ¶²
Ġto wards
ä¸¤ éģĵ
çĽ¸ ä¼¼çļĦ
å°½ æĥħçļĦ
å¾· æĭī
æĶ¹ ç¼ĸ
ä¸ĩ ç¾İåħĥ
æĬ¥ åĲį
æ¯« åįĩ
åģ· è¢Ń
åį« åħµ
ä»»åĬ¡ çļĦ
å¾ĹåĪ° çļĦ
èĥ¡ åŃĲ
åľ°çĲĥ ä¸Ĭ
åĪĽéĢł ä¸Ģä¸ª
ĠAl so
æį§ èµ·
çĿģå¼Ģ çľ¼
äºµ è£¤
ä¿ĺ èĻı
´ çļĦ
ä¸į å®¢æ°Ķ
æī ķ
å¥¹ æħ¢æħ¢
éĤ ¸
çĻ½ çĻ½
ä¸ī çĻ¾
Ġv ia
åħĭ èİ±
å¼ķ èµ·çļĦ
æĪı è°ĳ
æĭį åįĸ
ä»¿ä½Ľ æĺ¯
Ġrem ov
èĪĴéĢĤ çļĦ
è¯´åĩº åı£
ç²Ĺæļ´ åľ°
Ġwr ong
ĠIntern ational
L et
W ith
g ers
w itter
å· ©
å¤§ èĩ£
éļ ª
åħ¬ éĸĭ
æµģ åĪ°
äºĮ æ¬¡
é£İ åĳ³
æ¿Ģ èµ·
å°Ħ å®Į
è¿ĻäºĽ æķ°æį®
æĬķ å½±
ĠO f
æ³¢ çī¹
ä»Ķ ç´°
ç»ıéªĮ åĴĮ
çļĦæ°´ æŀľ
æ³ī æ°´
æħĪ åĸĦ
çļĦè½¯ èĤī
çļĦèį¯ çī©
çĻĮ çĹĩ
ĠServ ice
çļĦ åŃĹ
å° ĭ
åĴĮ éģĵå¾·
å¯ ĩ
çĶŁ å¹³
ä¸¤ çĤ¹
æĢ§ åĪ¥
é¦ Ģ
å®ī å®ļçļĦ
çĪ± æĥħçļĦ
ĠM et
ĠB ay
ĠB ook
ç«ĭ åľ¨
éļ¾ åłª
å¦Ĥæŀľ è¯´
ä¹Łä¸į ç®¡
åĳ¨ éķ¿
æ¨¡ åĿĹ
.... âĢĿ
åºĹ åĳĺ
æĳĩ åĬ¨
æģĲ é¾Ļ
æĭ¥ åłµ
äºĨåĩł åı¥
å¯Ĵ æĺŁ
æĤł ä¹ħ
ç¸ ±
åıĪæĺ¯ä¸Ģ éĺµ
æĵļ èªª
g leich
çļĦ é»ĺå¥ĳ
is piel
ch ange
Ġf ul
ä¸Ģä¸ª éĹ®é¢ĺ
éĢļ éĢļ
Ġl oad
æ»¡ èº«
å¥¹çļĦ éĺ´éģĵ
çĪ± äºº
çİĭ åħ«
ãģĭ ãĤı
å°Ħ äºĨåĩºæĿ¥
åĳĬ åĪ«
æ¢¦ å¹»
ç®Ģ çº¦
éªļ æµª
è·³ æ§½
ok e
éĤĦ èĥ½
ĠSe ptember
ĠCh inese
çļĦçº¢ æĻķ
ste in
åŀĥåľ¾ æ¡¶
èµ¢ äºĨ
æ¸ħéĨĴ è¿ĩæĿ¥
çķı æĥ§
) ^
n ung
çļĦ æ¡ĪåŃĲ
ä¸į åħį
ä¸Ń åįĹéĥ¨
çĦ ī
åĲİ æīį
è¡Į æ¥Ń
Ġl ost
å¹³ æ·¡
ä¹³ äº¤
å°±æĺ¯ ä¸ºäºĨ
åºĬ éĵº
od es
ä¹Łæĺ¯ ä¸ª
ãģĤ ãģ®
æł¡ èĬ±
æ²ī æ²¦
å½ĵçĦ¶ äºĨ
æĪĳå°± å¾Ī
è¾¾åĪ° é«ĺæ½®
Ġop in
w ith
äºĨ å¾Īä¹ħ
åĲİ èĦĳ
Ġw ild
Ġb esch
é«ĺ äº¢
èĢģ æĺ¯
çĻ½ æĻ
ĠA uch
å¤Ħ çĶ·
æĭī ä¸ģ
äºĮ å¹´åīį
è¿ĻäºĽ ä¿¡æģ¯
ä¹Łä¸į åı¯èĥ½
çľĭåĪ° èĩªå·±
ç½ĳ é¡µ
æĻĤ ãģ«
éĽħ åħ¸
èĪĶ å¹²åĩĢ
çĭĤ ä¸ī
æľįåĬ¡ åĻ¨
åĽŀçŃĶ è¿Ļä¸ªéĹ®é¢ĺ
éĹŃ åĺ´
æµĵ åº¦
å±ħçĦ¶ æĺ¯
æ°¸ æģĴ
åĩ¶ çĭł
ä¸¤æĿ¡ èħ¿
åĨįä¹Ł æĹłæ³ķ
Ġgener ally
Ġcommun ication
æģ° åĪ°
ï½ī ï½İ
Ġtop ic
æķŀ å¼Ģ
ï½Ķ ï½Ļ
æ«» æ¡ĥ
çĦ¶èĭ¥ å¤±
åħ¬åĭĻ åĵ¡
T V
æĪĳ çĶļèĩ³
æĪĳ æĦ¿æĦı
ä¸į åĸľæŃ¡
è¿Ļ æĸ¹éĿ¢
ä½ł å¤ª
è¯´ æĿ¥
åīį åĩłå¤©
ä½Ĩ å¤§éĥ¨åĪĨ
æĶ¾ åĪ°äºĨ
èģ °
èĳ «èĬ¦
åĽłä¸º æĺ¯
ä»Ĭ å¤ľ
æŁĶ æ»ĳ
èĦ± ä¸ĭæĿ¥
èį¡ å¦ĩ
ç¾¤ ä¼Ĺ
åĴ¬ ç´§
èĴĤ å¨ħ
çļĦè¡Į æĺŁ
Ġro ck
æī¿åıĹ çĿĢ
ä¿¯ ä¸ĭèº«
æ¸Ĺ éĢı
D ies
g rund
l oss
p ir
u h
åĴ Ľ
åĪ° ä¸Ģä¸ª
æł ĵ
Ġd ich
éļ §
Ġh our
çī© ä»¶
å¤ĸ å©Ĩ
éª °
åľº çļĦ
ãģı ãĤĮ
ä¸ªäºº ä¿¡æģ¯
éĤ£ç§į æĦŁè§ī
åįł æĢ»äººåı£
çļĦçĻ½ æµĬ
éķĩ å®ļ
å±ģçľ¼ éĩĮ
ãĤį ãĤĵ
èħ¾ èħ¾
éĩĩåıĸ æİªæĸ½
æĪĳçļĦå°ı å¼Łå¼Ł
Ġunser er
åĮºåĿĹéĵ¾ æĬĢæľ¯
ãģĤãĤĬãģĮ ãģ¨ãģĨ
çļĦ ç»ıåİĨ
äºº å¾Īå¤ļ
ä¸Ĭ æ¥¼
åĴĮ æŀĹ
åľ° å½¢
Ġs av
åĲİ ä¾¿
æĹ¥ åľ¨
éĺ´ ç²¾
è·Ł ä½łè¯´
ä¼¼ æĺ¯
ĠD et
æĿİ èĢģå¸Ī
ri al
ç®¡çĲĨ åĴĮ
Ġcl ick
ãĤ° ãĥ«
çľĭèµ·æĿ¥ å¾Ī
Ġrem ember
çħ® çĨŁ
åĺŁ åĽĶ
Ġsl ow
èµĭ äºĪ
ĠUnter nehmen
çļĦçº¤ èħ°
ä¸ĥåħ« ç³Ł
H E
çļĦ åĲįç§°
åĬ ¹
å¤§ åıĳ
è¦ģ è®©
âĢ¦âĢ¦ ãĢĳ
çº ı
è¢« åĪ«äºº
Ġb ank
Ġf Ã¼hr
å®ŀ åľ°
èĲ ¬
åħ³ éĹ¨
ä¹³ èĥ¶
é»ĳ å®¢
éļ¾ ä¸º
ĠD on
å°Ķ åħĭ
éĺ³ ç²¾
è¹ ĳ
é¡¹ å°ĳé¾Ļ
æĳĨ å¼Ħ
Ġyour self
èĤ¥ ç¡ķ
ph as
ãģĦãģ¦ ãģĦãĤĭ
çıį è´µ
éĽ¶ åĶ®
è¿Ī åħĭ
å®Ľ èĭ¥
ä¸Ģ åı°
å°ı å©·
å°ı åĴĮå°ļ
ä»¬ éĥ½
è¿ĺ è®°å¾Ĺ
è¢« èĤīæ£Ĵ
Ġc ateg
åĪĨ äºĨ
ä»İ è¿Ļç¯ĩæĸĩç«ł
å¼º ç¡¬
Ġbe gan
è¥¿ åĵ¥
ä»£ çļĦ
ç¤¾ åĽ¢
os en
è¿ľ æĸ¹
èĽĭ èĽĭ
åĿĹ éĴ±
è¿½ éĹ®
ä¸´ åºĬ
åĽ° å¢ĥ
çĻ» æĹ¶
æľ± ç«¹æ¸ħ
çĶŁçī© åŃ¦
ç¾İçļĦ åĳ³éģĵ
Ġag re
Wh y
Ġrequ ires
Ġresearch ers
ĠFra uen
Ġcharact ers
çµ² è¥ª
ç¿ħ èĨĢ
çļĦèĨĿ çĽĸ
! "
M it
æĺ¯ ä½łçļĦ
ä»ĸ ä»İ
Ġs or
æīĭ æĮģ
æŀ ·
å¤© èī²
æĽ´ åĩĨç¡®åľ°
éħ ®
è¿Ļæł· åĲ§
åĽłä¸º ä»ĸä»¬
ĠW ie
ĠC O
ç»Ĩ å°ı
å®Įåħ¨ çļĦ
çµ µ
éĸĵ æİ¥
éĢĥ èµ°
ãĥŃ ãĥ³
é¢Ŀ å¤´ä¸Ĭ
çļĦèģ ·
å¼ºçĥĪçļĦ åĪºæ¿Ģ
çļĦè§Ĵ èĲ½
Ġtechn iques
åĨĴéĻ© èĢħ
æĺĨ èĻ«
èĢħä¸į æĭĴ
Ġ ãĢİ
çļĦ å¤©æ°Ķ
ä½ ¬
åĩ ¦
è¦ģ ä½ł
Ġd rug
åīį ä»Ĩ
ãģ® ä¸Ĭ
é¡ §
åħ¨ æĸ°çļĦ
é¦ ħ
èĤī èī²
ãģĻ ãģ¹ãģ¦
Ġ1 50
çļĦå°ı çĶ·çĶŁ
ĠH ist
çļĦèĤī æ´ŀ
å°½ äºĨ
èĭ± å¯¸
çļĦæīĭ èħķ
Ġdo ch
ä¾§ èº«
ç¬¬ä¸Ģæ¬¡ çľĭåĪ°å¥¹
çļĦèĦļ è¸Ŀ
è¯º æĭī
åĴķ åķ¾
Ġset t
Ġstart ing
æĮ¤åİĭ çĿĢ
å¤ªå¹³ æ´ĭ
â ĭ
åĩº å¥¹çļĦ
å¤© é¹ħ
å¨ ¼
ç² ª
å¹³ ç¨³
èĻ Ł
å¹² çĿĢ
åıĳçİ° çļĦ
çļĦèĥ ľ
ç§° èµŀ
ç®Ģ åĮĸ
éĺ² æĬ¤
éĹ» çĿĢ
èĥ¡ è¯´
Ġgo als
Ġsub st
Ġinst it
å¸ħ æ°Ķ
éŃı é¹ı
èĬĬ èĬĬ
çļĦ æ©Łæľĥ
æĿ µ
ä¸ĭ ä»¤
åı¯ çĶ¨
æ²¡æľī è¯´è¯Ŀ
éĥ¨ ç½²
ä½¿ åĳ½
éŁ³ é¢ĳ
æµģ çļĦ
ĠD em
æĶ¶ è´Ń
Ġ2 9
ĠK unden
æĬĸ åĬ¨çĿĢ
Ġcont ains
å¦³ è¦ģ
æĨ ¨
Ġsur v
éĿ´ åŃĲ
å¤§åı£ å¤§åı£
é«ĺä¸Ń çĶŁ
Ġprom ot
ĠCal ifornia
èĩªçŁ¥ ä¹ĭæĺİ
å°ı æ´ģ
æ¯ ĵ
Ġc at
é£ ¾
å°ĳ éĩı
å¸¸ è§Ħ
ä¸ī æĺİæ²»
æĭī å¥½
è¿Ľè¡Į çĿĢ
æĢķ æĺ¯
éł ĥ
çļĦåľ° åĮº
å¾®å¾® å¼łå¼Ģ
åĿĲåľ¨ åºĬä¸Ĭ
200 2
ä¾µ çķ¥
çļĦæĢ§ åĻ¨
åı¯æĢķ çļĦ
Ġinterest ed
Ġorgan iz
Ġhapp ens
è¿İåĲĪ çĿĢ
èĳ¡èĲĦ éħĴ
èĮī èİī
çļĦèĦļæŃ¥ å£°
çļĦè½® å»ĵ
éģ¥æİ§ åĻ¨
çĻ½æĻ ¢
7 4
çļĦ ä»£è¡¨
ä¸Ģ ç¼©
å¥ ļ
çĶŁ æľº
è¿Ľ åĪ°
èµ° åĬ¨
æ¿Ģ å°ĦèĢĮåĩº
éĺ¿ æĸ¯
ä»ĸçļĦ éĺ´èĮİ
çģ« éĶħ
æĮº åĬ¨çĿĢ
çľŁçļĦ å¥½
ãģ© ãĤĤ
æ´»åĬ¨ çļĦ
äººå®¶ çļĦ
æ´¾ åĩº
çļĦèĦļ æİĮ
å½¢æĪĲ çļĦ
æĹłå¥Ī åľ°
çļĦèĦĸåŃĲ ä¸Ĭ
åįµ èĽĭ
çľĭèĳĹ å¥¹
çļĦç©¿ èĳĹ
Ã¤d chen
d ien
æľī å¤«ä¹ĭ
åĴĮ å¥¹çļĦ
åı¯ä»¥ èªªæĺ¯
çŁ¥éģĵ å¥¹
è·Ł å¥³åıĭ
çİĭ çĪ·
æĵ ĭ
èĬ± æľµ
åĲ¸ åĬĽ
åĩı èĤ¥
ĠJ u
åıĳçĶŁ çļĦäºĭæĥħ
åıĮèħ¿ éĹ´
èģĬ èģĬ
å¤§éĩı ä½¿çĶ¨
iel ds
ç¼º å°ĳ
å¸¦æĿ¥ æĽ´å¤ļçļĦ
åŃķ å¦ĩ
æĦıä¹ī çļĦ
è®¤çľŁ åľ°
ä½łçŁ¥éģĵ åĲĹ
çĢ °
è¶ķ ç·Ĭ
AP P
ä¸Ģ è½¯
æĪĳ åĪļåĪļ
åĴĮ éĤ£
å¤§ ç´Ħ
åŃĲ åŃĻ
å°ı ä¸«å¤´
ä¸Ń å¸¸
le ep
èĢģ æĿİ
éĩį å»º
ãģ§ ãģĬ
ĠT V
ul ations
æ¸© çĥŃçļĦ
èĢĮä¸Ķ è¿ĺæĺ¯
éĢīæĭ© åĲĪéĢĤçļĦ
æĪı åī§
æĿĥ éĻĲ
åıĮèħ¿ ä¹ĭéĹ´
ãĥķ ãĥ¬
åĭ¾ åĭ¾
åĳĨ æ»ŀ
éĵĥ éĵĽ
Ġem ail
å¢¨ è¥¿åĵ¥
Ġany one
éĩĩçĶ¨ äºĨ
äºĨå¥½ åĩł
çļĦçģ« çĦ°
éģ© ä¸Ń
ron ic
Ġcap ital
èħĭ ä¸ĭ
ä¸Ģæ¬¡åıĪä¸Ģæ¬¡ çļĦ
Ġbir th
çİ· æ±¡
çĢ° æ¼«
U T
æĪĳ çĪ¸
Ġw ood
æį º
ä»İ èĩªå·±
æķ° æĺ¯
èĢħ æŃ»
ä¸ļ ç»©
å¾Ģ å¾Į
åĻ¨ åħ·
åįĬ çĲĥ
èĦļ çļĦ
æĺŁ ç©º
éĤ£ä¹Ī å¤§
æ·¡ æ°´
ä¼Ļ åŃĲ
ãĥĩ ãĥ¼ãĤ¿
åĮĹäº¬ å¸Ĥ
éĢ£ çµ¡
Ġclass room
Ġright s
ç´ħ éħĴ
oun cil
åı¦ä¸Ģæĸ¹éĿ¢ ä¹Łæĺ¯
Ġdev ices
Ġquick ly
Ġabs ol
æģ°åĪ° å¥½å¤Ħ
m ore
ä½ł çĽ´æİ¥
åı¯ è¡Į
åĬĽ åľ°
æ£Ĵ åŃĲ
å¼º åĬ¿
Ġst ress
æī¾ äºĨ
Ġk om
åį³ æĹ¶
çİĩ åĴĮ
çŁŃ æĸĩ
åĢĭ åŃĲ
èĥ¡ æ¡ĥ
ough t
Ġmon itor
çŁ¿ çī©è´¨
Ġest im
yn am
Ġopportun ities
ä¸Ģç·Ĵ ãģ«
âĭ ¯
c ause
çļĦ é¢ĨåŁŁ
ä»ĸ äººçļĦ
å¥½ èĻķ
åıª ä¸įéģİ
ç¾İ è²Į
æĲ Ģ
èĳĹ ä½ľ
æĿİ åįİ
åįĬ å²Ľ
æİ¨ éĹ¨
é¡¶ åĪ°äºĨ
å¥Ĺ åŃĲ
æĩ Ĭ
å¸¦çĿĢ ä¸Ģä¸Ŀ
åı¯èĥ½ä¼ļ å¯¹
ord in
çĬ¹ å¤ª
itt ing
ä»¥ä¾¿ æĽ´å¥½åľ°
æĦŁæĥħ ä¸ĬçļĦ
sh ip
çļĦåŃĲå®« åı£
Ġdescri bed
Ġleg al
æ¨Ĥ æĸ¼
Ġlim ited
Ġtit le
ç§ĳæĻ® æĸĩç«ł
Ġappropri ate
ç§© åºı
ç»ĵéĩİ å·Ŀ
äºĨ å£°
ä¸Ĭ åı¸
å¥¹ ä¸Ģçľ¼
it ect
è®© ä½łä»¬
æĦı æĦ¿
ä»Ģä¹Ī äºĭæĥħ
Ġth erap
å¹¶ è¿ĶåĽŀ
çĻ½ æ·¨
äº¤ æ¬¢
ĠM icrosoft
ç¨ĭ æĻĵ
è¿ĻäºĽ æĬĢæľ¯
æĶ¶ å¥½
Ġex hib
èĦ± äºĨä¸ĭæĿ¥
Ġim ag
çĪ¶ åŃĲ
çłĶ ç£¨
è´´ èº«
äº¬ éĥ½
éĢ² éĢĻ
æĶ¾æĿ¾ èº«å¿ĥ
å¤ī æĽ´
stell ung
æĦļ èł¢
éĸĭçĻ¼ çļĦ
åĭ» ç¨±
æ«»æ¡ĥ å°ıåĺ´
S ie
} \
Ġ ä¿ĿæĮģ
ï¼Į ãĢİ
çļĦ åģ¥åº·
åľ¨ ä¸įåĲĮ
åĴĮ é¢¨
è¦ģ æĥ³
at ively
Ġd azu
å¯¹ å¤ĸ
è¿ĺ æķ¢
ä»İ å¤´
è½» åĴ¬
åĲĳ æĿ¥
åŃĹ çļĦ
åįĬ å¾Ħ
çĥŃ è¡Ģ
éĻ© äºĽ
Ġãĥ Ļ
ç¦ģ å¿Į
éģĩ è¦ĭ
ãĤ« ãĥ©ãĥ¼
èĿ ł
Ġsich er
å®¶åºŃ æĪĲåĳĺ
å¤§äºĨ çľ¼çĿĽ
èĬĻ åħ°
åıªä¸įè¿ĩ æĺ¯
è¡¬ è¡£
ä¿º ãģ¯
éłĨ æīĭ
åħ¬åĪĨ çļĦèº«é«ĺ
èĦ¾ æ°£
èĥ¸èĨĽ ä¸Ĭ
ç·© ç·©
åįĶ èª¿
æ½º æ½º
çļĦçĸ¯ çĭĤ
åĴĨ åĵ®
p id
v is
çļĦ çī¹
çļĦ æķ°åŃĹ
æĪĳ å·²ç¶ĵ
åĩº åħ¥
å°ı èĲĿèİī
éĤ£ éº¼
æīĭ å¿ĥ
éĥ½ è§īå¾Ĺ
åıĪ ç¡¬
ic ip
èĤī èĮİ
å¹³ èµ·
å¾· ä¸½èİİ
æĺ¥ å®µ
æ§ Ĳ
åĩĿ è§Ĩ
199 9
åĶ¤ éĨĴ
æĪª çĦ¶
è¿½æ±Ĥ çļĦäºº
è¿Ļä¹Īå¤ļ å¹´
æľĢéĩįè¦ģ æĺ¯
Ġä¸Ĭ ä¼ł
ä¸į è´Ł
å¥¹ åħĪçĶŁ
ä½ł æľĢè¿ĳ
å¤§ æĥĬ
æ² ¼
å°ı äºº
å°ı æŀĹ
å°ı æŁĶ
åıĳ éº»
Ġm ut
ä½Ĩ æ¯Ķä¾ĭ
å°Ĩ è¿Ļ
æľ¬ ä»¥ä¸º
è¿Ļä¸ª åı¥åŃĲ
æĪĳçļĦ æīĭæĮĩ
ç¬ĳ çľ¯çľ¯
æ»¡ å¤´
çĿ¡ å¾Ĺ
åįİ çĽĽ
ä¸įçŁ¥éģĵ è¯¥
ĠV al
åĲĲ åĩºæĿ¥
éĢĲ æ¼¸
èī³ ä¸½
æ»¡è¶³ çļĦ
å¦® ä¸Ŀ
çļĦåĴĮ å°ļ
è²· ãģĦ
é½ģ é½ģ
Ġ æĹ¥æľ¬
è¿Ļ ä¼ļåĦ¿
çĿĢ çľ¼
Ġb ul
å¹´ åĲİ
é© ¼
è¥¿ åį¡
è± Ĭ
éĢģ ä½ł
åħħ å¯¦
å·¦ èĤ©
ãĥª ãĥ³ãĤ°
æĺ¯åľ¨ äºĮå¹´åīį
å°¿ çĹħ
Ġ$ \
ond ers
ç¢İ äºĨ
Ġget s
çļĦä¹³ å°ĸ
ĠTe am
æĤĦæĤĦ åľ°
Ġlar gest
åĽ½æ°ĳ åħļ
== ==
cd ot
ç¬¬ä¸Ģæ¬¡çľĭåĪ°å¥¹ æĺ¯åľ¨äºĮå¹´åīį
h am
ä¸į æĺĵ
çĿĢ åľ°
ä¸ĭ åŀĤ
ä¹Ł æ¸Ĳæ¸Ĳ
è¿Ľ å±ĭ
åħ¬ æĸ¤
æĮĩ åĲĳ
ĠB as
ab ilities
ä¸ĩ ä¸ĩ
èĦ± åı£
çļĦè¡¨ éĿ¢
å¼¹ æĢ§çļĦ
Ġman ufact
åĸĤ åĸĤ
è®¤è¯Ĩ åĪ°
æįŁ ä¼¤
åİ¨ å¸Ī
ãĥĬ ãĥ¼
Ġequ al
Ġmach ine
çµĦ ãģ¿
Luc y
çļĦè±¡ å¾ģ
f alls
Ð »
çļĦ åı¯èĥ½æĢ§
æĪ »
Ġc and
æĦı çĬ¹
ä½Ĩ å¦Ĥæŀľ
æĭī æĭī
æķ´ æ´ģ
ĠD is
æĿİ é¾Ļ
èĢĥ ãģĪãģ¦
æľīä¸Ģ å®ļçļĦ
ĠTh en
çĦ¡ ä»»ä½ķ
æ²¾ çĿĢ
iss ions
ä¹¡ æĿĳ
æ¶Īå¤± åľ¨
æ²ŁéĢļ åĴĮ
æ·±åĪ» çļĦ
æīĢéľĢ çļĦ
åĸ¶ æ¥Ń
æģ³ æ±Ĥ
éĿ¢ éľ²
ç«ĭ æĸ¹
éĿŀå¸¸ æĢ§æĦŁ
åĪĩ åī²
Ġex pos
ç±³ é¥Ń
æĪĳä¹Ł æĥ³
æĿĥ çĽĬ
å¹¸ åľ¨
å¾Īå¿« ä¾¿
è¦ĭ åĪ°å¥¹
çļĦèĦļ åºķ
è½® å»ĵ
æľ± åĶĩ
Ġke in
éĴ» çŁ³
ä¹ĸä¹ĸ çļĦ
çļĦç½ĳ ç»ľ
æŁ³èħ° åıĬ
éĤ£æĻĤ æĪĳåīĽ
éĤ£æĻĤæĪĳåīĽ éĢ²éĢĻ
çļĦ å±Ħ
çļĦ å¤Ħå¥³
äºº æł¼
en cy
æĭ ļ
æİ ²
æīĭ éĵĲ
éĥ½ å°į
èī ·
ro te
å¿« ä¸ĢçĤ¹
æīĵ éĽ»è©±
æĤ¨ åľ¨
æµģ åĩºäºĨ
id ing
è¿ŀ å¸¦çĿĢ
ä¸° ä¹³
åģ· æĥħ
ç»ķ è¿ĩ
å¥¹åľ¨ éĢĻè£¡
æľĢå¾Į å¥¹
èª° ä¹Łæ²Ĵ
å®¶ä¸Ń åŀĭåħ¬åı¸
éĥ½æľĥ å¿įä¸įä½ı
Ġfamil ies
ä¸Ńåľĭ åı¤åħ¸
çļĦé«ĺè·Ł éŀĭ
è²łè²¬ éĸĭçĻ¼çļĦ
æļ« æĻĤ
å®īå®ļçļĦ çĶŁæ´»
çļĦ åĩĨå¤ĩ
çļĦ æĢĢéĩĮ
ä¸Ģ åŃĹ
åľ §
è¦ģ æ¯Ķ
è¯´ ä»ĸ
èĤ ĭ
åĮ Ī
è¢« åĬ¨
å¹´ åľ¨
æıĲ åĩºçļĦ
ĠA ir
ä¿Ŀ ç½Ĺ
å¹³ åĿĲ
un ft
åıĬ æ«»æ¡ĥå°ıåĺ´
Ġst yle
èĬ± éĴ±
ä¸Ķ åĭ»ç¨±
çļĦå°ı å¥³åŃ©
çļĦä¸Ģ é»ŀ
çº¿ çļĦ
å¼ķ è¯±
Ġde ep
ber t
éĽĨ ä½ĵ
èĢ³ ä¸Ń
åľ¨äºĨ å¥¹
åĿļ æŀľ
åī¯ ä½ľçĶ¨
200 1
è¶´ åľ¨åºĬä¸Ĭ
ä¸įçĶ¨ äºĨ
æĤĦ çĦ¶
çļĦåıĮ å³°
ä¹ĥ èĩ³
çļĦç¡ ķ
Ġwant ed
!! !
èĢĮå¥¹ åīĩæĺ¯
çµĲå©ļ æĻĤ
éĽĻå³° åłħæĮº
ç·£ éĹľä¿Ĥ
ä»»ä½ķçĶ·äºº è¦ĭåĪ°å¥¹
çļĦç¨³ å®ļ
éĽĻå³°åłħæĮº æ¸¾åľĵ
ä¸į åıªæĺ¯
äºº ä¹ĭ
æľī ä¸Ńåľĭåı¤åħ¸
éģ ²
èº« çĿĢ
èº« å¤Ħ
Ġb udget
Ġf ire
çŁ £
çĻ½ éĩĳ
ç¬ĳ èĦ¸
ä¸įæĺ¯ çļĦ
äºĮ å§Ĳ
çĶ·äºº çļĦèĤīæ£Ĵ
éľ² å¨ľ
å®Įåħ¨ æĹłæ³ķ
æķ°æį® ä¸Ń
ä¹± ä¸ĥåħ«ç³Ł
åĪĽ æĸ°çļĦ
Ġim med
åħ° å¾·
åĸĿ éĨī
èį¯ åīĤ
åį° è®°
å¿ĺ äºĨå¥¹
è°Ī åĪ¤
åı¦ä¸Ģ éĥ¨éĸĢ
å¥ĸ é¡¹
è´¢ æĶ¿
é«Ķ æł¼
åķĬåķĬåķĬåķĬ åķĬåķĬåķĬåķĬ
èĩī åıĬæ«»æ¡ĥå°ıåĺ´
éĽĻèħ¿ çĻ½æĻ¢
è¾¦åħ¬ å¤§æ¨ĵ
æ·±åĲ¸ ä¸Ģåı£æ°Ķ
augh t
æľīä¸Ģæ®µæĻĤéĸĵ äºĨ
åĩºç§Ł è½¦
çļĦçĵľåŃĲ èĩīåıĬæ«»æ¡ĥå°ıåĺ´
çĻ½æ·¨ çļĦçĵľåŃĲèĩīåıĬæ«»æ¡ĥå°ıåĺ´
ä½Ĩæ¯Ķä¾ĭ éģ©ä¸Ń
æŁ³èħ°åıĬ éĽĻå³°åłħæĮºæ¸¾åľĵ
éĤ£æĻĤæĪĳåīĽéĢ²éĢĻ å®¶ä¸Ńåŀĭåħ¬åı¸
éĥ½æľĥå¿įä¸įä½ı æ³¨çĽ®
è²łè²¬éĸĭçĻ¼çļĦ æ¥ŃåĭĻ
èĢĮå¥¹åīĩæĺ¯ åı¦ä¸Ģéĥ¨éĸĢ
ä»»ä½ķçĶ·äººè¦ĭåĪ°å¥¹ éĥ½æľĥå¿įä¸įä½ıæ³¨çĽ®
æľīä¸Ńåľĭåı¤åħ¸ ç¾İçļĦåĳ³éģĵ
éĽĻèħ¿çĻ½æĻ¢ ä¸Ķåĭ»ç¨±
Ġ ï¼³
çļĦ å°ĳå¹´
æĪĳ å¾Įä¾Ĩ
äºº æĿ¥
è¿Ļ åı¥
å¥¹ åĢĭåŃĲ
å¤§ åį«
åĩº åįĸ
è¦ģ æŃ»äºĨ
åľ° è¯´çĿĢ
èĩª ç§°
åıĳ è¨Ģ
èĭ Ķ
æĶ¾ å£°
Ã¤ ll
æ¬² æ±Ĥ
æİī ä¸ĭ
åºĹ éĵº
æľĿ æĪĳ
éĻ¤äºĨ åĥħ
Ġcomm and
èĬĻ èĵī
çľĭåĲĳ äºĨ
è¹Ń çĿĢ
Ġwar en
ç§Ł å±ĭ
Ġgra ph
æĳĦå½± å¸Ī
Ġcolle ction
çµĮ é¨ĵ
åģļèµ· äºĭ
çĶŁæ®ĸ åĻ¨
åı¯è§Ĩ åĮĸ
äºļé©¬ éĢĬ
æĵļèªª éĤĦæ²Ĵ
åı¯ä»¥èªªæĺ¯ çĦ¡ä»»ä½ķ
æ¨Ĥæĸ¼ åĬ©äºº
å¥¹åľ¨éĢĻè£¡ æľīä¸Ģæ®µæĻĤéĸĵäºĨ
ä»»ä½ķçĶ·äººè¦ĭåĪ°å¥¹éĥ½æľĥå¿įä¸įä½ıæ³¨çĽ® çīĩåĪ»
å¥¹åĢĭåŃĲ å¬Įå°ı
åı¯ä»¥èªªæĺ¯çĦ¡ä»»ä½ķ äº¤éĽĨ
L L
u ell
éĤ£ å¤´
it able
an st
è¾ Ł
é«ĺ æĺĤ
ä¸» å¯¼
çľŁ è¯ļ
æĹ¥ æĬ¥
ig es
å¹² ä½ł
å¾Į ç¹¼
åĨĽ åĽ¢
ãģķ ãģĽ
æİĴ åĩº
æĺ¥ æĥħ
èĭ¦ èĭ¦
åħ« åį¦
é¥® åĵģ
è¯´ä¸į åĩºçļĦ
åĴ½ åĸī
è£½ éĢł
åĲĦä¸ª é¢ĨåŁŁ
LE D
è¤ª åİ»
åıĻ è¿°
å±¤ è¾¦åħ¬å¤§æ¨ĵ
èľ¡ çĥĽ
åĽºçĦ¶ éĩįè¦ģ
åīįä»Ĩ å¾Įç¹¼
è¿½æ±ĤçļĦäºº åīįä»Ĩå¾Įç¹¼
çµĲå©ļæĻĤ è¿½æ±ĤçļĦäººåīįä»Ĩå¾Įç¹¼
éĻ¤äºĨåĥħ åľ¨åĲĮä¸Ģ
æĵļèªªéĤĦæ²Ĵ çµĲå©ļæĻĤè¿½æ±ĤçļĦäººåīįä»Ĩå¾Įç¹¼
å±¤è¾¦åħ¬å¤§æ¨ĵ çļĦåľ°
r ite
çĿĢ ä½ł
æĿ¥ ç¡®å®ļ
åĩº ãģĹ
å¥½ éļ¾åıĹ
re is
å¾Ī å¸¥
ç¾İ èĩĢ
å°±æĺ¯ ç¾İ
ĠB a
ĠB ra
æĬ½ æ³£
ĠN ovember
è² ¨
æ±ī åŃĲ
æĪĳè¦ģ å¥½å¥½
éĤĦ ä¸į
è°Ī è¯Ŀ
æī£ åŃĲ
åĴķ åı½
å®ŀéĻħ æĥħåĨµ
çļĦçĲĨ è®º
ä¹ĭå¾Į å¥¹
ãģĴ ãĤĭ
for ce
çļĦä¸» ç®¡
Ġihr er
æĿŃ å·ŀ
åħ¨å¿ĥ æĬķåħ¥
ç·£éĹľä¿Ĥ èĢĮå·²
éĻ¤äºĨåĥħåľ¨åĲĮä¸Ģ å±¤è¾¦åħ¬å¤§æ¨ĵçļĦåľ°
b au
çļĦ åĬŁåĬĽ
ä¸ĭ åĶĩ
å°± æĿ¥
æ²¡ è§ģè¿ĩ
å¿ĥ èĻļ
å£ ½
åħ¨ éĥ½æĺ¯
Ġh arm
å¸¸ è¯Ĩ
ä¸ī å¥³
ur ns
é»ĳ åıĳ
åĵĪ å°Ķ
æĦŁè§ī å¾Ī
çİ© æ¸¸æĪı
ĠE ine
ãģĨ ãģ¡
å¨ĩ æŁĶ
å¿į èĢħ
ĠO ct
åıĳåĩº å£°éŁ³
æķ£ èĲ½åľ¨
æĳĩ æ»ļ
å½ĵæĹ¶ çļĦ
æĤ² æĥ¨
å¼· çĥĪçļĦ
ä¸įéģİ èª°ä¹Łæ²Ĵ
æ´Ĺå®Į æ¾¡
åĳĬè¨´ æĪĳçļĦ
ĠAug ust
æĪĳå¾Įä¾Ĩ æīį
éĻ¤äºĨåĥħåľ¨åĲĮä¸Ģå±¤è¾¦åħ¬å¤§æ¨ĵçļĦåľ° ç·£éĹľä¿ĤèĢĮå·²
ä¸įéģİèª°ä¹Łæ²Ĵ æĪĲåĬŁ
äºĨ çīĩåĪ»
æĪĳ èªįèŃĺ
äºº ä¹Ł
ä¸ª å°ıæĹ¶
åĩº éłŃ
å°± å¾Ĺ
ä¹ĭ ä¸ŃçļĦ
å¤ļ åįĬ
çľ¼ åºķ
æ¸ħ éĻ¤
æ¯į ä¹³
åıĸ èĢĮ
ach en
åİĨ ç¨ĭ
è¿· æģĭ
éģİ å®īå®ļçļĦçĶŁæ´»
æľºåĻ¨ äººçļĦ
åħ¨èº« èµ¤è£¸
åĵŃ èħĶ
æĥľ æĥľ
éªĳ åħµ
æĢĿèĢĥ åĴĮ
åĲ¯ åıĳ
çģĮ åħ¥
åĬŀåħ¬ æ¡Į
éĶĻè¯¯ çļĦ
Ġhapp y
è´ªå©ª åľ°
éģ¸æĵĩ äºĨä¸ĢåĢĭ
6 1
A t
l ose
Ġ ä¸İ
ä¸į å¿ħè¦ģçļĦ
åľ¨ ä¸Ģè¾¹
å°± åıĪ
å¥½ ç´§
åīį è¡Į
ä»Ģä¹Ī éĥ½ä¸į
æĢİä¹Ī çľĭ
éĩĳ çīĽ
ul ate
é©¬ å°Ķ
ä¼ł åĪ°
è½¬ è¿ĩ
åįĬ éĢıæĺİ
ãĤ¹ ãĥļ
èĢ³ èµ¤
æĮĳ èµ·
çıŃ çº§
çļĦè´ §
Ġpr ices
å°į å¤ĸ
åĬ² åĦ¿
æī¶ èµ·
æŀ¶ æŀĦ
ç§ĳæĬĢ çļĦ
ç´§å¼ł çļĦ
çļĦç£ ¨
è¦ĭåĪ° æľĢä½³çĶ·ä¸»è§Ĵ
åħ¬åĭĻåĵ¡ éģİå®īå®ļçļĦçĶŁæ´»
å¹³èµ· å¹³åĿĲ
æľĢå¾Įå¥¹ éģ¸æĵĩäºĨä¸ĢåĢĭ
æľĢå¾Įå¥¹éģ¸æĵĩäºĨä¸ĢåĢĭ åħ¬åĭĻåĵ¡éģİå®īå®ļçļĦçĶŁæ´»
çļĦ å¥¶
çļĦ çĶŁåĳ½
ä¸į èĩ³äºİ
æľī å¹¾åĢĭ
ä¸Ĭ ä¸Ģæ¬¡
Ġs il
å¾Ĺ å®ľ
çĶŁ åĬ¨
äºĨä¸Ģ æĿ¯
ĠS l
ç¥ Ģ
æľį çĶ¨
ãģ¯ ãģļ
çİ°åľ¨ æĪĳ
çļĦä¸Ģ çīĩ
ç¦» ä¸įå¼Ģ
å¤ĩ ä»½
ĠL et
éĢĻ å®¶åħ¬åı¸
è®¤ä¸º æĺ¯
ãĢĳ ãĢĲ
è§£åĨ³ äºĨ
ä¹³å¤´ ä¸Ĭ
ll o
åĭķ çĶ»
çļ± èµ·
å»¶ éķ¿
ä¸įå¤ª å¥½
Ġclass es
ä»ĸåĢĳ å°į
å¯»æ±Ĥ å¸®åĬ©
ç¥Ī ç¥·
éĺ¿å°Ķ æīĺ
æłª å¼ı
åľ¨ å¿ĥä¸Ń
å¤§ æĭĩæĮĩ
èĢģ å¸«
çĽ¸ æĭ¥
å¤Ħ ç½ļ
æ·± æĥħ
éľĢè¦ģ æĪĳä»¬
éĺ´ æł¸
åĻ¨ æĿĲ
ä»ĸçļĦ è¯Ŀ
åıªæĺ¯ ä¸ª
èĽ Ĭ
åĸľæ¬¢ åĲĥ
èĢĮä¸Ķ é«Ķæł¼
ç¿» çĿĢ
ãĤĦ ãģ£ãģ¦
çĦ¡ åŃĺ
çľĭäºĨ çľ¼
ous ly
å°±ä¼ļ è¢«
æ¼« éķ¿
åľ°çľĭçĿĢ æĪĳ
åĽºå®ļ åľ¨
çļĦçķ «éĿ¢
Ġrecomm end
çŃĽ éĢī
ãĤĤãģ¡ ãĤįãĤĵ
èĦ¾æ°£ å¾Īå¥½
åįİçĽĽ é¡¿
æĪĳå¾Įä¾Ĩæīį è¦ĭåĪ°æľĢä½³çĶ·ä¸»è§Ĵ
èĢĮä¸Ķé«Ķæł¼ å¾Īå¥½
çļĦ åı£ä¸Ń
æĪĳ è¢«å¥¹
åĪ° åı¦ä¸Ģ
å°± åī©
å°± ä¸įæķ¢
ï¼Ł ãĢĮ
Ġf ederal
åįĬ åĪĨ
å®¤ çļĦ
ĠN ow
çĨŁ ä¹ĭå¾Įå¥¹
èĢ³ éĤĬ
ç§ģ ãģ®
ãĥ³ãĥ Ħ
åĲĲ çĿĢ
èµ¶ åĪ°
è°Ī è°Ī
ãĥ¡ ãĥ¼ãĤ¸
åŀĤ çĽ´
ç»Ŀå¯¹ æĺ¯
ĠCh ild
Th at
Ġact ual
æĴķ å¼Ģ
çļĦéľĢæ±Ĥ åĴĮ
å¹¾åĢĭ æľĪ
åĲĥå®Į é¥Ń
èĤ©èĨĢ ä¸Ĭ
æ¯Ķè¼ĥ çĨŁä¹ĭå¾Įå¥¹
æľĢéĩįè¦ģæĺ¯ èĦ¾æ°£å¾Īå¥½
æ¯Ķè¼ĥçĨŁä¹ĭå¾Įå¥¹ åĳĬè¨´æĪĳçļĦ
o om
æĿ¥ è¡¨è¾¾
éĿ ¥
ar ter
éķ¿ åīĳ
å¤ª èĪĴæľįäºĨ
çº¢ æ¥¼
ä»ĸä»¬ éĥ½
ĠB ild
è¿ĳ åľ¨
åĨ· èī³
ak er
èĩªçĦ¶ èĢĮ
èĭ¥ ä¸Ķ
ä¸ĢçĽ´ æĺ¯
æį¢ è¡£æľį
åıªæľī åľ¨
æı¡ èĳĹ
Ġãĥ Ŀ
æĽ¾ åľ¨
æĬĬå¥¹ åĢĳ
ac ity
åįĸ åĬĽçļĦ
ĠSch ul
åį³ä½¿ ä¸įæĺ¯
ä¼łæĿ¥ ä¸Ģéĺµ
æµ¸ æ¹¿
èģĬå¤© æľºåĻ¨äºº
Ġsec urity
è¯´åĪ° è¿ĻéĩĮ
åīĽ åĩº
è¯ŀ çĶŁ
æĲħæĭĮ åĿĩåĮĢ
çļĦçı Ń
æ¯Ķè¼ĥ å¥½
æĪĳçĽ¸ çķ¶
çļĦèĪŀ è¹Ī
æı® çģĳ
è¦ºå¾Ĺ éĤ£äºĽ
Ġregard ing
å±į éª¨
Ġcle an
æĪĳèªįèŃĺ å¥¹åħĪçĶŁ
u gen
çļĦ ä¿ĿæĬ¤
çļĦ æŁĶè½¯
çļĦ åĽ½å®¶
åı¯ ä¸įèĥ½
å°± ä¸įèĥ½
çľŁ çĲĨ
éĹ® ä»ĸ
æıĲ åıĬ
æİ¥ åı£
çŁ¥éģĵ æĪĳ
ï¼ī ãĢį
éĴ §
åĪļ èĲ½
æĭī é«ĺ
ãĥ³ ãĤº
ä¸įè¦ģ è¿Ļæł·
ä¹Łæĺ¯ å±įéª¨
åħ¬åı¸ ä¸Ģç´ļ
æ²ī éĩįçļĦ
ri er
Ġver w
çļĦè´ Ŀ
åŃĺåľ¨ çĿĢ
éĥ½ä¸į åĨ¤æŀī
å°±ç®Ĺ æĪĳåı¯èĥ½
éłŃ é«®
åĺ´å·´ éĩĮ
æĬķèµĦ ç»ĦåĲĪ
çµ¦ æĪĳå¾Ī
çķ¶çĦ¶ èĥ½åĬĽ
æŃ· ç¶ĵ
ä¸»ç®¡ éĥ½å°į
å¤±æķĹ èĢħæŃ»
éĢĻå®¶åħ¬åı¸ çµ¦æĪĳå¾Ī
æĪĳçĽ¸çķ¶ ä¿¡ä»»
è¦ºå¾ĹéĤ£äºĽ å¤±æķĹèĢħæŃ»
æĪĳèªįèŃĺå¥¹åħĪçĶŁ ä¹ĭå¾Į
åħ¬åı¸ä¸Ģç´ļ ä¸»ç®¡éĥ½å°į
å°±ç®ĹæĪĳåı¯èĥ½ ä¹Łæĺ¯å±įéª¨
è¦ºå¾ĹéĤ£äºĽå¤±æķĹèĢħæŃ» çļĦä¸Ģé»ŀ
C om
N S
w ise
çļĦ å¼ł
ä¸Ģ æĿ¾
è¿Ļ èº«
å¯ ¥
å°± è§īå¾Ĺ
çĶ¨ å¿ĥ
ä¼ļ å½±åĵį
Ġd ir
åİ» çľĭçľĭ
èĢĮ å¼Ĥ
å¤´ æĻķ
éķ £
çģ £
Ġg iving
æľį é¥°
æĪĳçļĦ å°ıç©´
åĪ°äºĨ ä¸Ģä¸ª
id ents
è¶³ äºĨ
å¸Ĥ ä¸Ńå¿ĥ
os is
ĠK le
èĬĤ çĤ¹
éĻ¤ åİ»
çŁ³ æ²¹
çļĦèħ Ķ
å¥´ å©¢
çļĩ å®«
çļĦæĥħ ç·Ĵ
å¤§èħ¿ æł¹éĥ¨
çģĮ èĤł
æ³° åĿ¦
ä¸įåı¯èĥ½ çļĦ
åĴª åĴª
çļĦé¦Ļ èĪĮ
Ġsay ing
åģıåģı æĪĳ
è¾¾åĪ°äºĨ é«ĺæ½®
ç·£ å¥½
æĪĳçļĦäºº ç·£å¥½
zie h
åı¦ä¸Ģæĸ¹éĿ¢ä¹Łæĺ¯ æĪĳçļĦäººç·£å¥½
çķ¶çĦ¶èĥ½åĬĽ çļĦè¡¨çı¾
éĢĻå®¶åħ¬åı¸çµ¦æĪĳå¾Ī å¤§çļĦ
åħ¬åı¸ä¸Ģç´ļä¸»ç®¡éĥ½å°į æĪĳçĽ¸çķ¶ä¿¡ä»»
å°±ç®ĹæĪĳåı¯èĥ½ä¹Łæĺ¯å±įéª¨ çĦ¡åŃĺ
è¦ºå¾ĹéĤ£äºĽå¤±æķĹèĢħæŃ»çļĦä¸Ģé»ŀ éĥ½ä¸įåĨ¤æŀī
æĪ ®
æĺ¯ å°Ĩ
æĪĳ å½ĵæĹ¶
åĩº ãģĻ
çľĭ å®Į
Ġw oman
å¿ĥ çĶŁ
æł· å¼ı
çľ¼ ä¸ŃçļĦ
èī² é¬¼
et te
è¯¥ åħ¬åı¸
éĺ´ éĺľ
å¹² éĥ¨
if ul
ä¸ŃçļĦ ä¸Ģä¸ª
os h
å·¦ ä¾§
ä¸ĵ è¾ĳ
åĲĲ æ§½
æĶ» çķ¥
æ³ª çıł
ç³ĸ å°¿çĹħ
æııè¿° äºĨ
Ġbest en
ä¸įå¾Ĺä¸į è¯´
âĢ»âĢ» âĢ»âĢ»
åı¤èĢģ çļĦ
ĠLeb en
åļ£ å¼ł
æı®çģĳ ç©ºéĸĵ
çķ¶çĦ¶èĥ½åĬĽçļĦè¡¨çı¾ åĽºçĦ¶éĩįè¦ģ
éĢĻå®¶åħ¬åı¸çµ¦æĪĳå¾Īå¤§çļĦ æı®çģĳç©ºéĸĵ
A A
P ad
äºº äºº
ä¸Ĭ å¸Ĥ
å°ı äºĭ
æĽ´ æ·±åħ¥
ãģĦ ãģ«
åĨħ èĦı
èĤī ä¾¿åĻ¨
å¹³ æģ¯
æĢ» çĿ£
è¿Ļä¹Ī æĥ³
è·¯ çļĦ
ä¹¦ åĮħ
é¡¶ ä½ı
çļ® éŀĭ
çĸ¼ å¾Ĺ
è©± ä¸į
çļĦç¤ º
ç¨® é¡ŀ
åĶ¾ æ²«
æģŃ åĸľ
çļĦè´Ł éĿ¢
çļĦ ç§ģå¤Ħ
æĪĳ è¿Ļæł·
æŀ ¢
çİ° ä»Ĭ
ç»ı è¿ĩäºĨ
æĪĳçļĦ å¸³
åıį æĦŁ
åıį æĢĿ
Ã¼ h
æľª å¿ħ
ç»Ĩ èħ°
åı¸ é©¬
çģ« çĥ§
è°ĥ ä¾ĥ
ä¾Ĩ å¾Ī
è¿· ç³Ĭ
å½±åĵį åĬĽ
åĢĭ ä½į
äººä»¬ å¯¹
éĽĦ ä¼Ł
äºĮåįģ æŃ²
ä¸įç®¡ éĸĵæİ¥
å¾Ĵ å¼Ł
éĩįè¦ģçļĦ ä½ľçĶ¨
èļ Ĥèļģ
è´ªå©ª çļĦ
åħ¬åħĥ åīį
Ġchallen ges
äººåĵ¡ éĥ½å¾Ī
çļĦçŀ³ åŃĶ
O ptions
Ġ ãĤµ
çļĦ æľĢåĲİ
æĪĳ å¸¦
æĪĳ ç»§ç»Ń
å¥¹ èº«ä¸Ĭ
è¿ĺ å°Ĩ
è¢« éĤ£
Ġb rown
é«ĺ å£°
æĬĬ ä½łçļĦ
ãģ® æĹ¥
åıĪ éķ¿
Ġth reat
ç¥ Ł
ĠT rain
åıį åĢĴæĺ¯
å°Ħ åĩ»
åĿĲ æľĪåŃĲ
éĿĴ çĴĩ
æłĩ æ³¨
åĬŀ çĲĨ
ç§° ä¹ĭä¸º
Ġim ages
ãģĵãģ¨ ãģ«
ãĤı ãĤĬ
åı¯ä»¥å¸®åĬ© äººä»¬
å¦¹å¦¹ çľĭå¾ħ
åĪ°åºķ æĺ¯ä»Ģä¹Ī
çļĦçĹ ĩ
ä¼ģä¸ļ çļĦ
è¶´åľ¨ æ¡Įä¸Ĭ
éĽķ å¡ĳ
æĲľç´¢ å¼ķæĵİ
å¿Ļç¢Į ä¸Ķ
ä¿¡çĶ¨ åį¡
è³£ æĪĳçļĦå¸³
éº»çĹ ¹
æĪĸçĽ´æİ¥ äººåĵ¡éĥ½å¾Ī
ä¸įç®¡éĸĵæİ¥ æĪĸçĽ´æİ¥äººåĵ¡éĥ½å¾Ī
T æģ¤
ä¸į è¯´è¯Ŀ
åľ¨ è¿Ľè¡Į
åľ¨ æĢĢéĩĮ
è¦ģ åİ»äºĨ
ï¼ģ âĢ¦âĢ¦ãĢį
åıĪ æĥ³
çĥ ¨
æĪ¿ åĨħ
ĠM at
æĿ¡ çº¦
æīĢä»¥ å¸¸å¸¸
èĽ Ļ
éĢģ åħ¥
å¿Ļ çĿĢ
ä¸ĢèĪ¬ äºº
æ´Ĺ èĦĳ
ä¸° çĽĪ
éº» ç»³
æĪĳè¦ģ ä½ł
æ¡ĥ æºĲ
èªī ä¸º
æĸ¹ç¨ĭ å¼ı
æĮ« æķĹ
je kt
çĿ¡èĳĹ äºĨ
ä¾Ĩå¾Ī éłĨæīĭ
ä¸įç®¡éĸĵæİ¥æĪĸçĽ´æİ¥äººåĵ¡éĥ½å¾Ī è³£æĪĳçļĦå¸³
p m
u he
ä¸Ģ éĥİ
æĪĳ å·¦æīĭ
åĴĮ æĶ¹è¿Ľ
åĪ° æŀģéĻĲ
åı¯ ç¬ĳ
å°ı æ°£
ar row
åĺ Ķ
å½ĵ æĹ¥
å¹¶ ç»Ļåĩº
å² ¡
å±ģ ç©´
åİĭ ä¸ĭ
æĪĳä¹Ł æ²¡
Ã¼r lich
ç«¯ çĿĢ
æ·¡ æ±Ł
å°į çļĦæĻĤéĸĵ
æĴĳ å¾Ĺ
çķ¶ ä½ľæĺ¯
èº² å¼Ģ
çģĮ æ»¡
æĹ¥åŃĲ éģİçļĦ
çļĦé¦Ļ åĳ³
éĢĻåĢĭ è¡Įæ¥Ń
Ġjed och
ï½ķ ï½Ĥ
Ġeval u
çļĦç¶ĵ çĩŁ
åģļèµ·äºĭ ä¾Ĩå¾ĪéłĨæīĭ
å¿Ļç¢Įä¸Ķ åħħå¯¦
æĹ¥åŃĲéģİçļĦ å¿Ļç¢Įä¸Ķåħħå¯¦
i ples
l ier
ï¼ ŀ
çļĦ å®ļä¹ī
æľī æ´»åĭķ
åı¯ æ²¡
éĩĮ è¾¹
éĿ¢ å¸¦
æĹł åıĮ
Ġh y
åĲĪ æĭ¢
ç¤ ģ
æĤ¨ èĥ½
æµ· æµª
äºļ åİĨ
ä¸ĢçĽ´ æ²¡æľī
ell ow
æ²» çĲĨ
èĤĮ èĨļ
ç»¿ å¸½
ç»ĳ åľ¨
ä¸¢ èĦ¸
æĥħæĦŁ åĴĮ
ä¹Łå¾Ī å°ıå¿ĥ
Ġact ive
çļĦèį £
éĥ½å¾Ī å¬Į
Ġexam ples
ä¸įéģİ éĥ½å¾Īå¬Į
Ġhand s
åīª åĪĢ
Ġtest s
fÃ¼ g
Ġbegin ning
çŀŃ è§£äºĨ
ĠPres ident
ç¦® çī©
è·³æ§½ é¢¨
éģĩè¦ĭ å°į
åıĸèĢĮ ä»£ä¹ĭ
éĢĻåĢĭè¡Įæ¥Ń è·³æ§½é¢¨
Ġ åĬłåħ¥
er ia
çĿĢ è¿·
ä»ĸ è¢«
å°ı è¯Ĺ
å¥³ ä¸»è§Ĵ
éĿ¢ æĿ¡
åŃ¦ åĽŃ
åĩł çĻ¾
æ¯Ķ ä»ĸ
çİ°åľ¨ è¿ĺ
ir it
éĿŀ åĩ¡
è¿Ļç§į æĸ¹å¼ı
åı° éĺ¶
æĶ¯ éĵħç¬Ķ
åĽ´ è§Ĥ
ĠJ es
éĸĭ éĸĢ
è¿½ åĬł
çĽĸ ä½ı
ç¤¼ ä»ª
å¸Ŀ çİĭ
Ġsp ent
çĤº äºĨ
çĽĽ éĻ½
Ġover all
åĤ² æ°£å¾Ī
æĪĳå¾Ī æħ¶
åĺ´è§Ĵ æµģåĩº
199 7
äºĨä»ĸ ä¸Ģçľ¼
ãģ» ãģĨ
å¹« å¥¹
éĻ° çĽĽéĻ½
éĽĸçĦ¶ éĻ°çĽĽéĻ½
çļĦçĭ¬ çī¹
æ°£å¾Ī çĽĽ
ä¹Łæ²ĴçĶļéº¼ äº¤éĽĨ
éĥ½å·² çµĲå©ļ
çķ¶æĻĤ åīĽ
ä½Ĩå¤§éĥ¨åĪĨ éĥ½å·²çµĲå©ļ
å¹¸åľ¨ å°įçļĦæĻĤéĸĵ
åģıåģıæĪĳ åĤ²æ°£å¾Ī
éĢĻåĢĭè¡Įæ¥Ńè·³æ§½é¢¨ æ°£å¾ĪçĽĽ
æĪĳå¾Īæħ¶ å¹¸åľ¨å°įçļĦæĻĤéĸĵ
éĽĸçĦ¶éĻ°çĽĽéĻ½ è¡°
åģıåģıæĪĳåĤ²æ°£å¾Ī éĩį
æĪĳå¾Īæħ¶å¹¸åľ¨å°įçļĦæĻĤéĸĵ éģĩè¦ĭå°į
p ite
s pe
Ġ æĻºèĥ½
çļĦ éĻĪ
çļĦ çĶ·åŃĲ
ä¸Ģ å¹¶
æĪĳ æĹ©å°±
å¥¹ ä»İ
ä»ĸ å¾Ī
ä¸Ń å±±
ä¸» çļĦ
èĤī æ¬²
åĮĸ äºĨ
çŁ¥éģĵ åĲĹ
ç¥ŀ ä»Ļ
æ·± æµ·
åĲ¸ åıĸ
æĮº èħ°
äºĳ è®¡ç®Ĺ
çļ® éĿ©
æĵį å¼Ħ
åĽłæŃ¤ ä¹Łæ²ĴçĶļéº¼äº¤éĽĨ
åľ¨æĪĳ èĥ¸åīį
åĸĿ éģĵ
Ġso on
äºİæĺ¯ ä»ĸ
ç¬¬ä¸ī åĢĭ
ä¼ºåĢĻ å¤§å°ıå§Ĳ
Ġihr en
çķ¶çĦ¶ å®¹è²Į
æľªå©ļ çļĦåıªæľī
è£¡éĿ¢ éĽĸçĦ¶éĻ°çĽĽéĻ½è¡°
æĪĳä¸Ģå®ļ æľīä»½
è¾¦åħ¬å®¤ è£¡éĿ¢éĽĸçĦ¶éĻ°çĽĽéĻ½è¡°
çļĦæĥħå½¢ä¸ĭ åħ¨å¿ĥæĬķåħ¥
åľ¨å¿ĥ çģ°æĦıåĨ·
éłĵ æĻĤ
å°įæĪĳ å¾Īå¥½
å§£å¥½çļĦ ä¹Łæľī
çļĦå°ıå¥³çĶŁ å°įæĪĳå¾Īå¥½
äºļä¸Ŀ å¨ľ
ä¸įåĸľæŃ¡ ä¼ºåĢĻå¤§å°ıå§Ĳ
æĦŁæĥħä¸ĬçļĦ æĮ«æķĹ
æŃ·ç¶ĵ æĦŁæĥħä¸ĬçļĦæĮ«æķĹ
åĢĭä½į æķ¸
æľīæ´»åĭķ æĪĳä¸Ģå®ļæľīä»½
çķ¶æĻĤåīĽ æŃ·ç¶ĵæĦŁæĥħä¸ĬçļĦæĮ«æķĹ
æľªå©ļçļĦåıªæľī åĢĭä½įæķ¸
åľ¨å¿ĥçģ°æĦıåĨ· çļĦæĥħå½¢ä¸ĭåħ¨å¿ĥæĬķåħ¥
C S
Ġ æľ¬
çļĦ ä¾ĭåŃĲ
æĺ¯ åı¯ä»¥
åľ° åı«
çī Ŀ
å¾Ĺ æĦıçļĦ
æĦŁ æģ©
æĽ´ åħ·
æľĢ æľī
Ġh o
ãģĦ ãģ¾ãģĽãĤĵ
æĪĳçļĦ æľªä¾Ĩ
çİĭ æĺİ
Ġ1 20
è¿Ļç§į æĸ¹æ³ķ
Ã¤ h
åĢĴ æĺ¯ä¸ĢäºĽ
çŃĶ çŃĶ
æºĲ èĩª
æľĭåıĭ ä»¬
æĪĳä¹Ł æĬĬå¥¹åĢĳ
åĿı äºĭ
å¡ŀ å°Ķ
çĺ ¤
ä¼´ éļı
å§Ķ ä¼ļ
ç¤¾æľĥ çļĦå°ıå¥³çĶŁå°įæĪĳå¾Īå¥½
èĪĩæĪĳçĽ¸ èĭ¥ä¸Ķ
å¹´é½¡ èĪĩæĪĳçĽ¸èĭ¥ä¸Ķ
éļ§ éģĵ
åīĽåĩº ç¤¾æľĥçļĦå°ıå¥³çĶŁå°įæĪĳå¾Īå¥½
äºĮåįģæŃ² åĩºéłŃ
çļĦç¶ĵçĩŁ æĪĳçļĦæľªä¾Ĩ
ä¹Łå¾Īå°ıå¿ĥ çļĦç¶ĵçĩŁæĪĳçļĦæľªä¾Ĩ
æĪĳå¾Īæħ¶å¹¸åľ¨å°įçļĦæĻĤéĸĵéģĩè¦ĭå°į çļĦåħ¬åı¸
çķ¶çĦ¶å®¹è²Į å§£å¥½çļĦä¹Łæľī
åľ¨å¿ĥçģ°æĦıåĨ·çļĦæĥħå½¢ä¸ĭåħ¨å¿ĥæĬķåħ¥ å·¥ä½ľä¸Ń
åĢĴæĺ¯ä¸ĢäºĽ äºĮåįģæŃ²åĩºéłŃ
æĪĳä¹ŁæĬĬå¥¹åĢĳ çķ¶ä½ľæĺ¯
å¹´é½¡èĪĩæĪĳçĽ¸èĭ¥ä¸Ķ æľªå©ļçļĦåıªæľīåĢĭä½įæķ¸
åº ĩ
åı¯ çľŁæĺ¯
å°± è¶Ĭ
å°ı èī¾
å°ı å¼Łå¼Ł
æīĭ ãĤĴ
å¤´ çĹĽ
Ġf em
å¾Ī éķ¿
èĢģ èĢģå®ŀ
ä»Ģä¹Ī éĥ½æ²¡
éķ¿ çŃĴ
Ġn ation
å®Į åħµ
å¹³ æĿ¿
un ction
åįģ æĮĩ
åģľ çķĻåľ¨
åįķ æīĭ
æŀģ åħ·
çĬ¶ æ³ģ
å°į åħ§
å¯¼èĩ´ çļĦ
åħ·ä½ĵ æĿ¥è¯´
çĪ¬ èµ·èº«
åĩĿ åĽº
ä»ª åĻ¨
å¯¹å¥¹ è¯´
ke hr
air s
çļĦè£¤ è£Ĩ
çĪ±å¥½ èĢħ
å°Ĭæķ¬ çļĦ
æĪĳä¹ŁæĬĬå¥¹åĢĳçķ¶ä½ľæĺ¯ å¦¹å¦¹çľĭå¾ħ
å¥¹ è¶´
ä»¥ åĨħ
åĵ ½
çĶ¨ çĿĢ
èĢģ èĢħ
æ°Ķ è±¡
èµ° ä¸Ĭ
å°Ħ è¿ĽäºĨ
åĵį èµ·äºĨ
ãĤĵ ãģ§ãģĻ
os ition
åĽ´ çĿĢ
æ´Ĺ ä¸ª
èľ Ģ
è² ¼
ĠJ ew
èį¯ åĵģ
Ġme in
è¢ĭ åŃĲ
ĠIn stitute
çº³ ç±³
çıį å¦®
ç»µ è½¯
ç¾İäºº åĦ¿
çļĦèĲ Ŀ
å¤§éĥ¨åĪĨ éĥ½åľ¨
éľ¸ çİĭ
éģ© åĲĪ
å¿įåıĹ çĿĢ
çĶ¨åĬĽä¸Ģ æĭī
æĪĳä¹Łæĺ¯ åħ¶ä¸Ńä¹ĭä¸Ģ
Ġapplic ations
ä¹İä¹İ çļĦ
Ù ħ
äºĨ åĩłä¸ª
åľ¨ åīį
å¥¹ åıªèĥ½
å¦ ¤
è¦ģ æľī
çĽ İ
è¢« èĤı
ed ia
éķ¿ è¾Ī
åĨį ä¹Łä¸į
ä¸įè¿ĩ è¿Ļ
ä»¥ä¸ĭ åı¥åŃĲ
ãĥ« ãĥĪ
æĬļ æħ°
éĺ² æ°´
çļĦçĪ ½
åľ£ æ¯į
åŃĺåľ¨ ä¸ĢäºĽ
æĺı æĺı
Ġsa ve
åĤ» äºĨ
çĹķ è·¡
Ġph one
æĮĳéĢĹ çĿĢ
åĪ°å¥¹ å®¶
Ġins ide
Ġinst ance
åĲĮæĦı äºĨ
çļĦé¦Ļ æ°Ķ
Ġloc ated
åĺŁ åĺŁ
è·Łå¥¹ èģĬå¤©
Ġestab lished
æľ¬å½ĵ ãģ«
l ang
æľī ä¸įåĲĮçļĦ
å°ı éĻĪ
çľĭ ä¸įæ¸ħ
è¢« ä»ĸä»¬
è¢« æĭī
Ġf at
ä¸İ äººç±»
åıĮ åıĮ
ä¿¡ å¥³
ĠM ac
äº² æĪļ
å¹² å¦Ī
Ġ3 1
æĮĳ æĥħ
è°ģ èĥ½
æľĥ æľīå¾Īå¤ļ
æ³Ľ çº¢
åłĤ åłĤ
æľ¬æĿ¥ å°±æĺ¯
Ġbl ue
æĤ² åĵĢ
åĩ¸ æĺ¾
æĴŀåĩ» çĿĢ
éĢĻè£¡ äºĨ
é¡¯ çı¾
çļĦå¹´ ç´Ģ
æľīæ°§ è¿ĲåĬ¨
åĺ´å·´ä¹Ł çĶľ
çķ¢æ¥Ń å¾Į
ä½ Ł
æĪĳ åĲ¬åĪ°
å°ı èĪĮ
å¾Ĺ èµ·
åıª æĦŁè§ī
åıª çķĻä¸ĭ
è° £
ĠS ub
åĨį ä¸į
çĽ´ è§Ĩ
åģļ çļĦäºĭ
åį´ æ²¡
æ® Ĩ
è¯¥ æŃ»çļĦ
é£İ æµģ
æıĴ åĪ°åºķ
æķĻ ä½ł
th at
ç©¿ åĨħè£¤
Ġr ule
çİī ä¹³
åħ´ èµ·
åĨ³ èµĽ
åĢĴ ä¸ĭ
ãĤ¤ ãĥ³ãĥ
çµ ¨
åºĹ éķ¿
å¥Ĺ è£ħ
ĠJ une
ä¸¤äºº éĥ½
æ·· å¾Ĺå¾Ī
ç§ĳæĬĢ åıĳå±ķ
ãģ«ãģª ãĤĬ
åį±éĻ© çļĦ
land s
éĢĻè£¡ ä¸ŃåįĹéĥ¨
IN G
è¿«ä¸įåıĬå¾ħ åľ°
æĹłåı¯ å¥Īä½ķ
è¦ı åīĩ
Ġrespons ible
ä»ĸåĢĳçļĦ åľĺéļĬ
ä¸Ĭä¾Ĩ çļĦå¹´è¼ķ
' .
A lex
a ctions
æĪĳ å¹³æĻĤ
å® ¸
Ġt en
ä¸Ĭ å¥¹
èµ· åĪ°
éĥ½ ä½ľ
åĽŀ æĥ³
æĪĳä»¬ æĿ¥
è¯Ŀ äºĨ
æıĲ äº¤
å¤ĸ ä¾Ĩ
æĢİ èĥ½
æ·« çº¹
æĮģ æľī
è®¤ å®ļ
éĿĴ é¾Ļ
ç½ĳ åıĭ
ç¡¬ çĶŁçĶŁ
çĨŁ çµ¡
æĿŁ çļĦ
å¹½ é¦Ļ
åı¦å¤ĸ ä¸Ģä¸ª
è¡¨è¾¾ å¼ı
æ±¤ åĮĻ
ä¾ĿæĹ§ æĺ¯
ç¥Ŀ ç¦ı
æ··åĲĪ åľ¨ä¸Ģèµ·
ä¸įéģİ å¤§éĥ¨åĪĨéĥ½åľ¨
è³ĩ æ·±
è®ĵæĪĳ èŀįåħ¥
åıĪä¸į å°ıæ°£
çµķ ä¸įæľĥ
å¾Īå¿«çļĦ è®ĵæĪĳèŀįåħ¥
Ġpie ce
ä¹ħèĢĮä¹ħä¹ĭ ä»ĸåĢĳå°į
æºĿéĢļ åįĶèª¿
æĦıçĬ¹ æľªå°½
æ¨Ĥæĸ¼åĬ©äºº åıĪä¸įå°ıæ°£
å°įå¤ĸ å°įåħ§
éĢĻè£¡ä¸ŃåįĹéĥ¨ ä¸Ĭä¾ĨçļĦå¹´è¼ķ
ä¸įéģİå¤§éĥ¨åĪĨéĥ½åľ¨ çı¾åł´
å¾Īå¿«çļĦè®ĵæĪĳèŀįåħ¥ ä»ĸåĢĳçļĦåľĺéļĬ
æºĿéĢļåįĶèª¿ çļĦé»ĺå¥ĳ
å°įå¤ĸå°įåħ§ æºĿéĢļåįĶèª¿çļĦé»ĺå¥ĳ
e v
g end
i at
çļĦ åħ¨
æĪĳ çļĦèĦ¸
æĪĳ éĥ½ä¼ļ
è¿Ļ çŃī
è¯´ èĩªå·±
å¿ĥ äºĭ
å¥¹çļĦ èĢģéĹĨ
ç«ĭ æĹ¶
Ġan c
æĻĤ ä»£
åĽłæŃ¤ æ²Ĵ
çĶ¨åĬĽ æĲĵæıī
æĳĩ çĿĢå¤´
ç§Ģ ä¸½
çŃĸ åĪĴ
é²ľ èĬ±
åĸĦ çĶ·
æ±ģ æ°´
å°ģ ä¿¡
çĿĢä¸Ģ æĿ¡
Ġdies en
ç¬¬ä¸ī æ¬¡
æ¯ıä¸Ģ å¤Ħ
åĶĶåĶĶ åĶĶ
æĪĳçļĦå·¥ä½ľ æĢ§è³ª
è¸ī è·Ħ
å¹¾åĢĭæľĪ ä¾¿åľ¨
æĪĳå¹³æĻĤ æ¨Ĥæĸ¼åĬ©äººåıĪä¸įå°ıæ°£
ä¹ħèĢĮä¹ħä¹ĭä»ĸåĢĳå°į æĪĳå°±å¾Ī
éĢĻè£¡ä¸ŃåįĹéĥ¨ä¸Ĭä¾ĨçļĦå¹´è¼ķ äººå¾Īå¤ļ
å°įå¤ĸå°įåħ§æºĿéĢļåįĶèª¿çļĦé»ĺå¥ĳ å¾Īå¿«çļĦè®ĵæĪĳèŀįåħ¥ä»ĸåĢĳçļĦåľĺéļĬ
åĽłæŃ¤æ²Ĵ å¹¾åĢĭæľĪä¾¿åľ¨
æĪĳçļĦå·¥ä½ľæĢ§è³ª éľĢ
çļĦ åŃ¦ä¹ł
ä¸Ģ è¯į
éĿ¢ çº¢
Ġc a
ar ah
å®¶ æĹģéĤĬ
ä½Ĩ å®ĥä»¬
æĤ ¯
st off
çĶ· åŃ©åŃĲ
Ġl ibrary
è¨ Ĭ
am ent
ĠB undes
é»ĳ èĥ¡æ¤Ĵ
æŀĹ æ¢¦
ãĤī ãģļ
åį¡ çī¹
å¯Į è´µ
åħ¨èº« çļĦ
æ´Ľ æĿī
éĢ² éĢĢ
å¥¥ æĸ¯åį¡
çļĦå·¥ä½ľ å°±çĶ±
å±ķç¤º äºĨ
çļĦè£Ļ æĳĨ
å¸¶æĹ©é¤Ĳ çļĦå·¥ä½ľå°±çĶ±
Ġbiet et
å¤§éĩıä½¿çĶ¨ éĽ»èħ¦
å°±æĺ¯ç¾İ èĢĮç¾İ
ç¬¬ä¸īåĢĭ å°ıåŃ©
çĨŁçµ¡ èµ·ä¾Ĩ
ä¹ħèĢĮä¹ħä¹ĭä»ĸåĢĳå°įæĪĳå°±å¾Ī çŀŃè§£äºĨ
æĪĳçļĦå·¥ä½ľæĢ§è³ªéľĢ å¤§éĩıä½¿çĶ¨éĽ»èħ¦
å®¶æĹģéĤĬ å°±æĺ¯ç¾İèĢĮç¾İ
% ï¼Ľ
á »
çļĦ éħ¥èĥ¸
ä¸į çķĻ
åĪ° åľ°ä¸Ĭ
åı¯ å¥¹
å¥½ æ·±
æīĭ å·¥
èĢĮ èĩªå·±
ä½Ĩ æĪĳä»¬
æĸ° å©ļ
è·Ł éĽ²æ¢ħ
ç²¾ åħī
ce an
èĻ½çĦ¶ åľ¨
åħħ çĶµ
éĻĪ ä¸Ģ
çļĦæĺ¯ ä»Ģä¹Ī
åĨ° åĿĹ
ç´¢ æĢ§äº¤
æĦŁåĪ° ä¸Ģéĺµ
çĶŁæĪĲ çļĦ
ä¼Ĭ ä¸½èİİ
ä¸ĢæŃ¥ ä¸ĢæŃ¥
ãĥĩ ãĥ«
åłĨ ç§¯
ä½łæĢİä¹Ī äºĨ
æįĤ ä½ıäºĨ
å¥ī çĮ®
Ġcare er
å¾Įä¾Ĩ ç´¢æĢ§äº¤
æĻĤåĢĻ å¥¹èĢģéĹĨ
å¥¹èĢģéĹĨ å®¶æĹģéĤĬå°±æĺ¯ç¾İèĢĮç¾İ
æľĢæĹ© æĺ¯è·Ł
åħ¶å¯¦ æľĢæĹ©æĺ¯è·Ł
Ġann ual
è¾¦åħ¬å®¤ æ··å¾Ĺå¾Ī
èĳ£äºĭ éķ¿
Ġmom ent
å°±æľĥ å¹«æĪĳ
Ġvi ol
æĺ¯åĽłçĤº æľīå¹¾åĢĭ
åĥıæľī æĻĤåĢĻå¥¹èĢģéĹĨ
æīĢä»¥å¸¸å¸¸ æľĥæľīå¾Īå¤ļ
å¥¹çļĦèĢģéĹĨ æİ¥è§¸
åĽłæŃ¤æ²Ĵå¹¾åĢĭæľĪä¾¿åľ¨ è¾¦åħ¬å®¤æ··å¾Ĺå¾Ī
ç¬¬ä¸īåĢĭå°ıåŃ© åĿĲæľĪåŃĲ
çĨŁçµ¡èµ·ä¾Ĩ æĺ¯åĽłçĤºæľīå¹¾åĢĭ
è·ŁéĽ²æ¢ħ çĨŁçµ¡èµ·ä¾Ĩæĺ¯åĽłçĤºæľīå¹¾åĢĭ
å¾Įä¾Ĩç´¢æĢ§äº¤ æľĪ
åħ¶å¯¦æľĢæĹ©æĺ¯è·Ł å¥¹çļĦèĢģéĹĨæİ¥è§¸
å°±æľĥå¹«æĪĳ å¸¶æĹ©é¤Ĳ
åĥıæľīæĻĤåĢĻå¥¹èĢģéĹĨ å°±æľĥå¹«æĪĳå¸¶æĹ©é¤Ĳ
æīĢä»¥å¸¸å¸¸æľĥæľīå¾Īå¤ļ å¥½èĻķ
åĽłæŃ¤æ²Ĵå¹¾åĢĭæľĪä¾¿åľ¨è¾¦åħ¬å®¤æ··å¾Ĺå¾Ī çĨŁäºĨ
è·ŁéĽ²æ¢ħçĨŁçµ¡èµ·ä¾Ĩæĺ¯åĽłçĤºæľīå¹¾åĢĭ å°Ī
p ass
u a
Ù Ī
çļĦ èĩĢ
æĪĳ åīĩæĺ¯
å°ı å¼ł
æ¯ Ļ
ch ten
éĽ ĳ
åĢ ı
è¡Į äºĭ
å½ĵ éĢī
ä¸» è¯Ń
å¸¸ äºº
åıĹ è¿ĩ
éĩį åºĨ
æ¯Ķ ä¹ĭåīį
èĤī æ£į
ç´§ çļĦ
ä»ĸä»¬ ä¼ļ
se e
å¸Ĥ åł´
åĿĲ æłĩ
æīĢä»¥ åľ¨
ä¸¤ä¸ª æķ°åŃĹ
åĢĴ åľ¨äºĨ
æĮº çĽ´
ä¸ĩ éĩĮ
éħį å¤ĩ
åĪºæ¿Ģ ä¸ĭ
éĩİ å¤ĸ
ä¼Ĭ èİīéĽħ
å®Ī ä¸į
åĭĥ åĭĥ
å¹¾ åĪĨéĲĺ
çļĦèĭ ¹æŀľ
éľ¸ éģĵ
è²» èĻķçĲĨ
å¹¾åĢĭ åª½åª½
å¥¹èĢģéĹĨ çĶŁå®Į
å¥¹åĴĮ å¹¾åĢĭåª½åª½
æľīä¸Ģæ®µæĻĤéĸĵ å¥¹èĢģéĹĨçĶŁå®Į
éĢģå¥¹ åĽŀå®¶
å¸¶æĹ©é¤ĲçļĦå·¥ä½ľå°±çĶ± å¥¹åĴĮå¹¾åĢĭåª½åª½
å¾Įä¾Ĩç´¢æĢ§äº¤æľĪ è²»èĻķçĲĨ
è·ŁéĽ²æ¢ħçĨŁçµ¡èµ·ä¾Ĩæĺ¯åĽłçĤºæľīå¹¾åĢĭå°Ī æ¡ĪçļĦ
å¸¶æĹ©é¤ĲçļĦå·¥ä½ľå°±çĶ±å¥¹åĴĮå¹¾åĢĭåª½åª½ æ¡ĳ
8 1
h Ã¶r
s ort
} \)
ä¸Ģ ä¾§
æĺ¯ è¿Ļæł·çļĦ
en er
ä½ł åĢĳ
éĹ °
ä»¥ åĩıå°ĳ
éĺ İ
ar es
Ġm is
ä½Ĩ æĺ¯ä¸Ģ
æĽ´ é«ĺæķĪ
Ġh on
çĭ Ģ
ãģ« åĲĳ
ãģĹ ãģ£ãģĭãĤĬ
æĪ¿ åľ°äº§
æľĽ è¿ľ
äºĶ æľĪ
æĢ¥ èĳĹ
ç»´ å¤ļ
é¤Ĳ é¥®
AI åľ¨
æĭĶ æ²³
çĦ¡ è©±ä¸į
ob il
æĤ¦ èĢ³
è¡Ĺ å¤´
Ġcommun ic
çį µ
âĿ¤ï¸ı âĿ¤ï¸ı
Ġste ht
æº« æļĸ
è·ŁéĽ²æ¢ħçĨŁçµ¡èµ·ä¾Ĩæĺ¯åĽłçĤºæľīå¹¾åĢĭå°Īæ¡ĪçļĦ éĹľä¿Ĥ
å¸¶æĹ©é¤ĲçļĦå·¥ä½ľå°±çĶ±å¥¹åĴĮå¹¾åĢĭåª½åª½æ¡ĳ æİ¥æīĭ
çĦ¡è©±ä¸į è«ĩ
æĪĳ çļĦçĲĨæĻº
æľī è¿Ļä¹Ī
ä¹Ł åĽłæŃ¤
åıĪ ç¾ŀ
åĥı ä¸Ģä¸ª
æĹ¥ åħī
un st
è·¯ å¾Ħ
Ġse i
éĤ£ä¸ª å°ı
åĬŁ æķĪ
éļıçĿĢ æĬĢæľ¯çļĦ
åĿļ å®ļçļĦ
çĸ¼ çĪ±
Ġad apt
çĶľ ç¾İçļĦ
ä¸ĬéĿ¢ çļĦéĹ®é¢ĺ
ç©¿çĿĢ ä¸Ģä»¶
Ġtra de
æĺł çĶ»
æĢ¨ å¥³
æĴķ æī¯
èĤĨ èĻĲ
éĽ²æ¢ħ çļĦå¹´ç´Ģ
çļĦçģ« çĥŃ
çļĦè§Ĥ ä¼Ĺ
è«ĭ åģĩ
èĪĩæĪĳçĽ¸ å½·
æ·¡æ±Ł çķ¢æ¥Ńå¾Į
æľīä¸Ģæ®µæĻĤéĸĵå¥¹èĢģéĹĨçĶŁå®Į ç¬¬ä¸īåĢĭå°ıåŃ©åĿĲæľĪåŃĲ
éĽ²æ¢ħçļĦå¹´ç´Ģ èĪĩæĪĳçĽ¸å½·
æ·¡æ±Łçķ¢æ¥Ńå¾Į å°±åĪ°
f eld
ï¼ ±
çļĦ å¹´è½»
å¤§ åĲĥ
å¤§ çīĽ
è¦ģ åĬłçıŃ
Ġc ru
Ġm ix
çĪ ²
åħ¥ ãĤĬ
äºĨä¸Ģ ä½į
äºĨä¸Ģ æŃ¥
åį´ è§ģ
æ·« è´¼
é¦Ļ æ°´
ĠF ebru
è¿ĳ æľŁ
æŁĶ æĥħ
çģ« ç®Ń
å¾Į åľ¨éĢĻåĢĭ
ç»Ŀ ä¸įä¼ļ
éĽ¨ æ°´
æĺ¥ æ°´
ç£ ħ
æĳĨ åĬ¨çĿĢ
æ¡Į éĿ¢
æŁĲ äºº
æłĳ æŀĿ
æ²Ĵ ä¾Ĩ
ä¿ĥ éĶĢ
æīĳ åħĭ
çķ¶ å®Įåħµ
ä¹Į æĸ¯
æ½ľ æĦıè¯Ĩ
å¦Ĥæŀľä½ł åĸľæ¬¢
Ġag ree
æĪĳåĢĳ è®ĬæĪĲ
çļĦç¡® æĺ¯
é¥¼ å¹²
å·« å¥³
ä½ıæĪĳ çļĦèĦĸåŃĲ
çļĦè¤ ¶
ĠDep artment
çļĦèģ· åł´
æ·¡æ±Łçķ¢æ¥Ńå¾Įå°±åĪ° éĢĻè£¡äºĨ
å¾Įåľ¨éĢĻåĢĭ æ¥ŃçķĮ
çķ¶å®Įåħµ å¾Įåľ¨éĢĻåĢĭæ¥ŃçķĮ
v ision
åľ¨ æĩīå°į
äºº åķĬ
åĴĮ æĪĳä»¬
åĴĮ ç»ıæµİ
Ġs us
è¾ ķ
å¿ĥ æĢ¡
æĪĲ å°±æľī
åı¯ä»¥ çľĭåĩº
æĦı èŃĺ
å¨ ²
çĶ· æĢ¨å¥³
è¿Ļä¸ª æķħäºĭ
åħĪ ä¼ĳæģ¯ä¸Ģä¸ĭ
åĳ¼ åĸĬ
äºĶ æĮĩ
æľĢåĲİ è¿ĺæĺ¯
æ¯Ľ è¡£
ç®¡çĲĨ å¸«
èĪ¬çļĦ æĦīå¿«
Ġrec ently
æľīå¾Īå¤ļ æİ¥è§¸
çıĬ çĳļ
ç¾Ĭ åº§
è¹² ä¸ĭ
Ġsmall er
èĢĮå¥¹ éĤĦæĺ¯
ãģ¾ãģŁ ãģ¯
Ġprev ious
éĹľä¿Ĥ è®ĵæĪĳåĢĳ
Ġscient ific
æµģæµª ä¸ĢéĻ£åŃĲä¹ĭå¾Į
åĲĦç§įåĲĦ æł·çļĦ
æĸĩåĮĸèĥĮæĻ¯ æİ¥è¿ĳ
åĪĨå¯¸ æĭ¿æįı
ä¸ĭå®ļ åĨ³å¿ĥ
æĪĳåīĩæĺ¯ çķ¶å®Įåħµå¾Įåľ¨éĢĻåĢĭæ¥ŃçķĮ
çĦ¡è©±ä¸įè«ĩ çļĦæľĭåıĭ
æľīå¾Īå¤ļæİ¥è§¸ çļĦæ©Łæľĥ
éĹľä¿Ĥè®ĵæĪĳåĢĳ æľīå¾Īå¤ļæİ¥è§¸çļĦæ©Łæľĥ
ä¸Ģ å¿ĥ
æĪĳ åĨ³å®ļ
äºº éĸĵ
er em
çĽ ª
å¥½ åĩłä¸ª
æİ º
å± ¡
çĶŁ èĤ²
æĽ ł
æĪĲ è¯Ń
é« ª
å·² å¹³èµ·å¹³åĿĲ
Ġe g
æ°´ éĩĮ
Ġn ames
æīį åįİ
å¥¹çļĦ è¯Ŀ
è¿Ļæł· äºĨ
æ´» æĢ§
ç¬¬ ä¸īä¸ª
è¯· å¸®æĪĳ
æĭ¿ ä¾Ĩ
æĺ¾ çľ¼
åĨĽ çļĦ
çļĦæīĭ æ³ķ
è¶ħ è¿ĩäºĨ
åªļ æĢģ
æĻĥ äºĨ
è¿ĺæ²¡ æĿ¥å¾ĹåıĬ
åĲ¹ å½¿
åĬłä¸Ĭ çŁ¥èŃĺ
åıªè§ģ ä»ĸ
ç¹ģ èį£
Ġatt empt
æĪĳè·Ł å¥¹èĢģéĹĨ
æľīä¸Ģæ®µ ç¤¾æľĥ
Ġgrow ing
âĢĶâĢĶâĢĶâĢĶâĢĶâĢĶâĢĶâĢĶ âĢĶâĢĶâĢĶâĢĶâĢĶâĢĶâĢĶâĢĶ
åĮĸå¦Ĩ åĵģ
çĤĻ çĥŃ
å¥¹å·² æľīä¸Ģæ®µç¤¾æľĥ
åĶ¸ ç¶ĵ
å·¥ä½ľä¸ĬçļĦ éĹľä¿Ĥè®ĵæĪĳåĢĳæľīå¾Īå¤ļæİ¥è§¸çļĦæ©Łæľĥ
è³ĩæ·± ç®¡çĲĨå¸«
æĪĳåĢĳè®ĬæĪĲ çĦ¡è©±ä¸įè«ĩçļĦæľĭåıĭ
åľ¨æĩīå°į éĢ²éĢĢ
æĪĲå°±æľī å·®è·Ŀ
èĢĮå¥¹éĤĦæĺ¯ è³ĩæ·±ç®¡çĲĨå¸«
æµģæµªä¸ĢéĻ£åŃĲä¹ĭå¾Į æīįè¢«
åĲ¹å½¿ èĪ¬çļĦæĦīå¿«
åĬłä¸ĬçŁ¥èŃĺ æĸĩåĮĸèĥĮæĻ¯æİ¥è¿ĳ
å¥¹å·²æľīä¸Ģæ®µç¤¾æľĥ ç¶ĵæŃ·
å¥¹ çļĦç©¿èĳĹ
ä½ł ä¸įèĥ½
èĩª åľ¨
åıĳ äº®
Ġb all
æĸ¹ ãģĮ
as te
æĤ µ
æŃ£ å¯¹çĿĢ
Ġl at
è§£ èĦ±
ç¦ Ģ
æĸ° æĬĢæľ¯
ãĤĴ éģ¸
å¹³ éĿ¢
çļĦèĤ ı
ä»ĸä»¬ æĺ¯
ĠM ot
æ·« ä¹±çļĦ
æº ¼
ĠC D
ä¸ĬçļĦ åĪĨå¯¸æĭ¿æįı
ä¾Ĩ æī¾æĪĳ
ãģĤ ãĤĮãģ°
èĦ± æİīäºĨ
æ²» çĻĤ
Ġãĥ Ń
å¤¹ ä½ıäºĨ
è¶ĬæĿ¥è¶Ĭ å¤ļçļĦ
æ´Ľ æĸ¯
ip ment
çļĦåľ°æĸ¹ å¤ļ
æĬĺ åıł
æĬĬå¥¹ æī¶
å£ģ ä¸Ĭ
çļĦè½ ¨
æĽ¿ æĪĳ
å°±åĥı åĴĮé¢¨
ä½¿å¾Ĺ æĪĳè·Łå¥¹
æĹħæ¸¸ æĻ¯çĤ¹
åĽłç´ł åĬłä¸Ĭ
ä½łè¯´ ä»Ģä¹Ī
çĨĬ çĨĬ
éĻĮ çĶŁçļĦ
æĮĸ ä¾ĨçļĦ
Ġdr ive
nis se
ç©¿å¥½ è¡£æľį
çļĦéĥ½æľĥå¥³åŃĲ åĲ§
å¥¹çļĦç¾İ éºĹ
çļĦè² ¬
ä»¤çĭĲ åĨ²
æĢ§åĪ¥ åĽłç´łåĬłä¸Ĭ
èģ° æħ§
çļĦèģ·åł´ æĪĲå°±æľīå·®è·Ŀ
æĪĳåīĩæĺ¯çķ¶å®Įåħµå¾Įåľ¨éĢĻåĢĭæ¥ŃçķĮ æµģæµªä¸ĢéĻ£åŃĲä¹ĭå¾Įæīįè¢«
æĪĳè·Łå¥¹èĢģéĹĨ å·²å¹³èµ·å¹³åĿĲ
åĶ¸ç¶ĵ ä½¿å¾ĹæĪĳè·Łå¥¹
åľ¨æĩīå°įéĢ²éĢĢ ä¸ĬçļĦåĪĨå¯¸æĭ¿æįı
å°±åĥıåĴĮé¢¨ åĲ¹å½¿èĪ¬çļĦæĦīå¿«
åĶ¸ç¶ĵä½¿å¾ĹæĪĳè·Łå¥¹ çļĦèģ·åł´æĪĲå°±æľīå·®è·Ŀ
åľ¨æĩīå°įéĢ²éĢĢä¸ĬçļĦåĪĨå¯¸æĭ¿æįı å¾Ĺå®ľ
e ins
u it
çļĦ æĹ¶åĪ»
äºº åģ¶
ä¸ª ä¸ª
åĩº è¡Ģ
or ation
æĥ³ çľĭ
åıĪ ç§°
åı£ éĩĮ
å¿« åıĹä¸įäºĨ
æĸĩ æ´ģ
å¹¶ äºİ
æıĲ åĪ°çļĦ
æīĵ æ¹¿äºĨ
å¥¹çļĦ åĵģåĳ³
äº¤ æĽ¿
çĬ Ģ
ĠD a
è½¬ è¿ĩæĿ¥
çĥŃ éĹ¨
åĪĩ é½¿
éĻ¢ åŃĲ
æıĲé«ĺ çĶŁäº§
é¤Ĳ åħ·
æīŃ æįı
Ġãĥ Ľ
åĽŀçŃĶ ä¸ĬéĿ¢çļĦéĹ®é¢ĺ
æľĥ åĶ¸ç¶ĵä½¿å¾ĹæĪĳè·Łå¥¹çļĦèģ·åł´æĪĲå°±æľīå·®è·Ŀ
æĭĽ æīĭ
æĭĶ äºĨåĩºæĿ¥
çŀ¬éĹ´ å°±
å¤ĸéĿ¢ çļĦ
lud e
ä¿ı çļ®
éĿ¢ä¸Ĭ åįĩ
åı¯èĥ½æĺ¯ åı°åĮĹ
ä¹Łèĥ½ é¡¯çı¾
ãģ¨ãģª ãĤĭ
å¹¹ åĺĽ
éĮ¢ åİ»
æľīä¸Ģå®ļ é¢¨æł¼
åĲįçīĮ ä¹Łèĥ½é¡¯çı¾
å½Ĵç±» ä¸º
çļĦåĴĮå°ļ æľĥåĶ¸ç¶ĵä½¿å¾ĹæĪĳè·Łå¥¹çļĦèģ·åł´æĪĲå°±æľīå·®è·Ŀ
è·Łå¥¹èģĬå¤© å°±åĥıåĴĮé¢¨åĲ¹å½¿èĪ¬çļĦæĦīå¿«
å¤ĸä¾Ĩ çļĦåĴĮå°ļæľĥåĶ¸ç¶ĵä½¿å¾ĹæĪĳè·Łå¥¹çļĦèģ·åł´æĪĲå°±æľīå·®è·Ŀ
å¥¹çļĦç©¿èĳĹ æľīä¸Ģå®ļé¢¨æł¼
æĢ§åĪ¥åĽłç´łåĬłä¸Ĭ å¤ĸä¾ĨçļĦåĴĮå°ļæľĥåĶ¸ç¶ĵä½¿å¾ĹæĪĳè·Łå¥¹çļĦèģ·åł´æĪĲå°±æľīå·®è·Ŀ
æĪĳåīĩæĺ¯çķ¶å®Įåħµå¾Įåľ¨éĢĻåĢĭæ¥ŃçķĮæµģæµªä¸ĢéĻ£åŃĲä¹ĭå¾Įæīįè¢« æĮĸä¾ĨçļĦ
c ont
m ann
Ġ ä¿ĿåŃĺ
ä¸Ģ ç±³
ä¸Ģ ä¸¾
éĤ£ ä¸įæĺ¯
éĤ£ åĢĭ
çĶ¨ èĪĮå°ĸ
ic it
ç´§ è´´çĿĢ
å» ĸ
ç¨ĭ å¼ı
å±ķ éľ²
çĥŃ çĥĪ
çľĭåĪ° ä»ĸ
ãĤĵ ãģ©
ĠL a
ĠL ang
ä¸įåĲĮ æĦı
Ġex pression
æĶ¿ åħļ
çĭĹ ä¸Ģæł·
æ²ī éĹ·
èĭı çĲ³
ä¸Ģéĺµ åŃĲ
ä¹Ŀ é¾Ļ
è¿Ļæ¬¡ çļĦ
éħ¸ å¥¶
å¤§åŃ¦ çļĦ
res h
ãģªãģı ãģª
rie b
ï¼° ï½ķï½Ĥ
èĸ° åĦ¿
åį³ä½¿ä¸įæĺ¯ åĲįçīĮä¹Łèĥ½é¡¯çı¾
æ´ĽæĿī çŁ¶
çļĦè²¬ ä»»
åı¯èĥ½æĺ¯åı°åĮĹ çļĦéĥ½æľĥå¥³åŃĲåĲ§
N T
Ġ è½ī
åľ¨ å°ĳå¥³
æľī å¹¾æ¬¡
å¥¹ çļĦèĦ¸
Ġs ong
å¾Ĺ ä¸įåĪ°
åĨį è¯´äºĨ
ãģĹ ãĤĪãģĨ
ur en
åĭ Ĳ
æĽ´åĬł åħ´å¥ĭ
æĺ¥ ç§ĭ
çĭĤ åĲ»
çıŃ éķ¿
Ġer halten
æ¡ĥ åŃĲ
çļĦçĹ īæĮĽ
æ¸¯ åĮº
çļĦçĸ ²
Ġeff ort
å¡ĳ éĢł
æĪª èĩ³
æĥ¹ äºº
è®ĵæĪĳ è¿·æĥĳ
çļĦåİŁ åīĩ
Ġexact ly
æĳ©æīĺ è½¦
å¥¹çļĦç¾İéºĹ èģ°æħ§
å¥¹çļĦç¾İéºĹèģ°æħ§ è®ĵæĪĳè¿·æĥĳ
M ark
å¤§ å¤¥
å¥½ å¥ĩæĢª
å¦Ĥ æĦı
æ¸ º
æ¸ İ
å¤ļ å²ģ
Ġh och
æŃ¤ äºº
çĻ½ æ´ģ
è¿Ļæł· å°±
æ¸ħ åĨ·
ç«ĭ ãģ¦
åĲĥ å¾Ĺ
ãĥ¼ãĥ ĭ
éĢĤ å®ľ
ä¹± äºĨ
è¿· å®«
æģ¶ å¿ĥçļĦ
ãĤµ ãĥĿãĥ¼ãĥĪ
å½¼ å¾Ĺ
æĢİä¹Īæł· äºĨ
æĹ¢çĦ¶ å¦ĤæŃ¤
æķħæĦı çļĦ
æľīå¤ļ ä¹Ī
èµ·ä¾Ĩ äºĨ
Ġear n
çļĦå°ıèħ¹ ä¸Ĭ
Ġsuggest s
èķ© å©¦
è¤Ĳ èī²
ãĤ¢ãĤ¯ ãĤ»
åį³ä½¿ä¸įæĺ¯åĲįçīĮä¹Łèĥ½é¡¯çı¾ å¥¹çļĦåĵģåĳ³
f s
ì Ŀ
æĺ¯ å¹»æĥ³
ä¸Ĭ æĮº
å¥¹ è«ĭåģĩ
ä½ł æīĢ
æ² §
åľ° è´¨
éĤ£ åĩłä¸ª
éĺ Ģ
éĥ½ åĪ°äºĨ
ig ation
éĴ Ļ
åĹ ²
æ¸ħ åĦ¿
ĠM ary
å»º èŃ°
éĹ®é¢ĺ åĴĮ
æĿİ éĽª
çļĦä¸Ģ åıĮ
ç©¿ æ¢Ń
ãĤ¹ ãĤŃ
æĬ± åĪ°åºĬä¸Ĭ
ist ance
æ»ĳ ç¨½
å¼Ĥ èĥ½
Ġwe il
æĦŁåĪ° éĿŀå¸¸
éģİ åİ»äºĨ
åħµ åĻ¨
è¿İ æĿ¥äºĨ
æ© ±
å®£ åĳĬ
ç»ıéªĮ ä¸°å¯Į
ï¼ĳ ï¼Ĵ
ä¸ĵä¸ļ äººå£«
Ġset ting
æĦıè¯ĨåĪ° èĩªå·±
........ ........
è®½ åĪº
å°ıå¿ĥç¿¼ç¿¼ åľ°
éľĢè¦ģçļĦ æĻĤåĢĻ
ĠDies e
htt ps
ele br
å¹¾ä¹İ å¿ĺäºĨå¥¹
ellig ence
çĦ¶èĭ¥å¤± çļĦæĥħç·Ĵ
æĤµ çĦ¶èĭ¥å¤±çļĦæĥħç·Ĵ
æĤµçĦ¶èĭ¥å¤±çļĦæĥħç·Ĵ ä¾¿
I ON
k ommen
ä¸Ĭ æīĭ
æĢ ł
å¥½ ä¸ľè¥¿
çĶŁ çĹħ
åıĳ æĥħçļĦ
Ġm other
åı¯ä»¥ åĪ©çĶ¨
åı¯ä»¥ è®©ä½ł
å·² æĪĲä¸º
æĽ´ è¿Ľä¸ĢæŃ¥
ãģ® åķĨåĵģ
æĪĳçļĦ å¥³åıĭ
äº¤ æŃ¡
åıĸ æĤ¦
æİ¨ æµĭ
è¿Ļæĺ¯ ä¸ª
éĢĻ åŁİå¸Ĥ
éł »
æģ¶ æ¯Ĵ
æĦıè¯Ĩ åĪ°äºĨ
oc ol
çĺ ©
ãĤ³ ãĥ¼ãĥ
è¿ĺæ²¡ è¯´å®Į
åħ¸ ç¤¼
å®ŀéĻħ åºĶçĶ¨
èĥŀ èĥİ
ĠPl an
åı¬ å¼Ģ
æĻ¶èİ¹ åīĶéĢı
çı¾åľ¨ çļĦå¹´è¼ķ
çĶŁçĲĨ çļĦéľĢæ±Ĥ
èĢĮä¸Ķæĺ¯ è¶Ĭ
ä¼Ĭæĸ¯ åħ°
å·²å©ļ çļĦèº«ä»½
çĢ°æ¼« ä¸Ģæķ´å¤©
æľīå¹¾æ¬¡ å¥¹è«ĭåģĩ
å¹¾ä¹İå¿ĺäºĨå¥¹ å·²å©ļçļĦèº«ä»½
æĤµçĦ¶èĭ¥å¤±çļĦæĥħç·Ĵä¾¿ çĢ°æ¼«ä¸Ģæķ´å¤©
æľīå¹¾æ¬¡å¥¹è«ĭåģĩ æ²Ĵä¾Ĩ
) ãĢģ
M A
c ol
Ļ èĿł
çļĦ æīĵ
çļĦ æĸĩåĮĸ
å¥¹ çĶļèĩ³
å¥¹ ä¸ĭéĿ¢
å¥¹ ç©¿èĳĹ
è¦ģ åĳ½
å°ı å®ĩ
æ° ¯
Ġd ed
åİ» ï¼°ï½ķï½Ĥ
è¢« åĳĬ
çŃ Ŀ
le ction
ä½ľ åī§
æĪĳä»¬ å®¶
äºĨä¸Ģ æ®µ
ĠS ing
å¤ĸ åģ´
è± Ķ
æ¬¢ æ¬¢
ĠD ire
å¸Ī å°Ĭ
å¾Ģ æĹ¥
å¸ĥ æĭī
å¤ľ è¶Ĭ
** **
çĪ½ åĪ°
çĪ½ å¿«
åĩłä¹İ æ²¡æľī
çļĦçº ¹
èİİ èİī
çĭłçĭł çļĦçŀª
æ¶Į åħ¥
çº³ åħ¥
ä¹ĭå¾Į éĤĦæĺ¯
ãģłãģĳ ãģ©
è¾ħ å¯¼
å°½æĥħ åľ°
éļ± ç´Ħ
I G
çļĦ æ³ķ
âĢ ¥
æĪĳ ä¹ĭåīį
ä¸Ĭ åİķæīĢ
åĴĮ æķĻèĤ²
åĨ ¶
ä¹Ł æĹł
åİ» åĵªéĩĮ
è¢« æĬĵ
åıĳ æİĺ
Ġm iles
åīį æıĲ
å¾Ī éľĢè¦ģçļĦæĻĤåĢĻ
å¹¶ éĢļè¿ĩ
è½» ç¬ĳ
è½» èĢĮæĺĵ
åħī æºľæºľ
Ġ1 000
å±± ä¸ľ
ä¸ĢäºĽ æľª
çº¿ æĢ§
ä¾Ĩ æŃ¤
æĢĢ éĩĮçļĦ
æľīä¸Ģ ç¨®
çĶ» å®¶
ä¸įçŁ¥ æľī
ãĥ³ãĥ Ķ
è³ ½
æ°¸ ä¹ħ
éŁ© è¿Ľ
æ¯«æĹł çĸĳéĹ®
Ġass ign
åħģ è¨±
çļĦè§Ĩ éĩİ
å¤§å¤ļ ä¸įæĺ¯
å®¢åİħ éĩĮ
Ġsein en
Ĥèº ª
è¤ª ä¸ĭ
å°±ä¸ļ æľºä¼ļ
åĪĨæīĭ ä¹ĭå¾ĮéĤĦæĺ¯
é£¯ å¾Į
æĪĳæľĥ åİ»ï¼°ï½ķï½Ĥ
æĳĦæ°ı åº¦
æľĥæľī çĶŁçĲĨçļĦéľĢæ±Ĥ
çĶ·æĢ¨å¥³ ä¹Łå¤ļ
Ġè½ī è½ī
å¾ĪéľĢè¦ģçļĦæĻĤåĢĻ æĪĳæľĥåİ»ï¼°ï½ķï½Ĥ
åĪĨæīĭä¹ĭå¾ĮéĤĦæĺ¯ æľĥæľīçĶŁçĲĨçļĦéľĢæ±Ĥ
{ \
çļĦ å¤ľæĻļ
âĢ §
ä¸į ä¸ĭæĿ¥
è¿Ļ åŃ©åŃĲ
æĬ ŀ
ä½ł æĺ¯æĪĳ
æĹ¶ åĪĨ
çĶ¨ èĦļ
çĶ¨ éĮ¢åİ»
åī ¤
å¥³ åŃ¸çĶŁ
å£° èªī
äºĨä¸Ģ å®¶
èĢħ ãģ®
å¾® åįļ
è¿ĺæĺ¯ ç¬¬ä¸Ģæ¬¡
ĠP ort
æĬ½ äºĨåĩºæĿ¥
æīĢä»¥ çķ¶
è½¯ äºĨ
å¼ķ å¾Ĺ
å¥ĩ æķ°
Ġcom ment
ä»½ é¢Ŀ
åı³ ä¾§
Ġpart y
çĪ¶äº² çļĦ
pect ive
çĶļéº¼ åĸĦçĶ·
çĽ¡ èĪĪ
æĪĳä¹Łä¸įæĺ¯ çĶļéº¼åĸĦçĶ·
éº¥ åħĭ
è·Łå¥³åıĭ åĪĨæīĭä¹ĭå¾ĮéĤĦæĺ¯æľĥæľīçĶŁçĲĨçļĦéľĢæ±Ĥ
æĽł çĶ·æĢ¨å¥³ä¹Łå¤ļ
éĢĻåŁİå¸Ĥ çĩĪ
c od
çļĦ èĩªçĦ¶
çļĦ çī¹å¾ģ
æĪĳ æĦŁè§īåĪ°
æĪĳ æ²Ĵæľī
åĬ ĩ
he st
ä»ĸ åıªæĺ¯
éĤ£ éģĵ
ç¾ ħ
çĽ® å½ķ
æĭī å¥¹
æł¼ æł¼
èĲ½ åľ¨äºĨ
ç¡¬ ä»¶
Ġch ance
çīĽ æİĴ
ç¨į çŃī
çĺ ĭäºĨ
éĢļå¸¸ åľ¨
æ±Ĺ æ¶²
æī¾åĪ° ä¸Ģä¸ª
éªĳ èĩªè¡Įè½¦
ãĥ¡ ãĥ¼ãĤ«ãĥ¼
çº¤ èħ°
å¥³æĢ§ å¾Ī
Ġass um
å¹¼ ç¨ļ
é¢¨ å¡µ
Ġhigh ly
èĲĮ èĲĮ
ï¼į ï¼į
èģ½ å¥¹
çķ¶çĦ¶ æĽłçĶ·æĢ¨å¥³ä¹Łå¤ļ
ĠBer lin
Ġinfl u
æĪĳåĨįä¹Ł å¿įä¸įä½ıäºĨ
ç¶ł çļĦåľ°æĸ¹å¤ļ
ç´ħéħĴ ç¶łçļĦåľ°æĸ¹å¤ļ
åıªä¸įéģİ çµķä¸įæľĥ
åĺĶ åĲĲ
çĶ¨éĮ¢åİ» è§£æ±º
éĢĻåŁİå¸ĤçĩĪ ç´ħéħĴç¶łçļĦåľ°æĸ¹å¤ļ
d o
ä¸Ģ åįĥ
in ct
åĽ ī
åĩº åĶ®
Ġs n
éĩĮ åħĭ
it ation
åĬ¨ æĳĩ
å¤© åĲİ
çŃī çļĦ
åı£ çļĦ
çĻ½ çļĦå¤§èħ¿
æ·« éŃĶ
um ber
éĥ½æĺ¯ åľ¨
ä¸įåĲĮ çļĦæĺ¯
æ¢¦ éĩĮ
åĽ¾ è¡¨
ä»ħ æľī
ĠU se
è§¦ ç¢°åĪ°
ç§ģ ä¸ĭ
å°į æ¯Ķ
æŁ³ èĮľ
Ġcont ract
Ġpart ners
çļĦå¤© ç©º
Ġimport ance
æ²¦ éĻ·
Âł ĠÂł
Ġfig ure
çı¾åľ¨çļĦå¹´è¼ķ å¥³æĢ§å¾Ī
èĢĮä¸Ķæĺ¯è¶Ĭ å¤ľè¶Ĭ
è½»èĢĮæĺĵ ä¸¾
åıªä¸įéģİçµķä¸įæľĥ çĶ¨éĮ¢åİ»è§£æ±º
çı¾åľ¨çļĦå¹´è¼ķå¥³æĢ§å¾Ī éĸĭæĶ¾
D S
Ġ ä¸ĭè½½
ä¸į æľį
å¥¹ ä¸Ģè¾¹
ä½ł è·Ł
è¦ģ æĿ¥äºĨ
åĢ Ĩ
åı¯ä»¥ çİ©çļĦ
èĬ ®
æĺİ çŁ¥
äºĨä¸Ģ ç³»åĪĹ
éĹ® çŃĶ
ãģĹ ãģªãģĮãĤī
åĪ« æĥ³
è¯· è¾ĵåħ¥
ãĤĤ ãģ£ãģ¨
åı° è¯į
æĳ¸ åĪ°äºĨ
çĶŁæ´» è´¨éĩı
åį¡ æĭī
ĠJ un
æĬ¬ èµ·æĿ¥
æīŃ è¿ĩå¤´
æĸĩæľ¬ è¿Ľè¡Į
è¼ ©
ä¹ĺ ä»¥
åħ© èħ¿
åĪĽæĸ° åĴĮ
éĢ£ çºĮ
ĠMus eum
è½¬è¿ĩèº« æĿ¥
çĹĴçĹĴ çļĦ
ä¸¦ä¸į å¸¸
çļĦä¹Ł å¤§å¤ļä¸įæĺ¯
ä¾ĨæŃ¤ çļĦä¹Łå¤§å¤ļä¸įæĺ¯
èĢĮä¸Ķæĺ¯è¶Ĭå¤ľè¶Ĭ æĮĳæĥħ
ä¾ĨæŃ¤çļĦä¹Łå¤§å¤ļä¸įæĺ¯ ä¿¡å¥³
R es
` ï¼Į
çļĦ é¢ĳçİĩ
ãĢĤ âĢ¦âĢ¦
éĥ½ å°Ĩ
æı £
è¿Ļä¸ª æľºä¼ļ
ãĥ¼ ãĤ¿ãĥ¼
å¥¹çļĦ å¤´
å¤ª çĪ½äºĨ
è¡¨ å¼Ł
çĶµ æºĲ
åıį å·®
åĽłä¸º è¿Ļ
ĠM ost
è¿ĺæĺ¯ æľīäºĽ
ĠB re
æĻº åķĨ
if ically
å¤± æİª
äºĶ å®ĺ
Ġcom ing
åĲ« åľ¨åĺ´éĩĮ
æ¹¿ åº¦
åģĩ æĹ¥
ãģĶ äºĨæī¿
èĥ¯ éĥ¨
ï¼ĵ ï¼Ĳ
Ġmed ic
å¹³æĸ¹ ç±³
èµĶ çİĩ
ç·´ ç¿Ĵ
æħ¶ çĶŁ
Ġbal ance
Ġkomm t
æĢİéº¼è¾¦ åĳ¢
ç¸± æĥħ
3 000
: ||
F F
Ġ çĶ¨
åı Ń
æĪĳ ä¸Ģä¸ª
ä¸į å¿ĺ
åĪ° å®¶
å°ı è¯´çļĦ
å¿ĥ æĿ¥
çŃ Ĩ
å¾Ī å¥ĩæĢª
çĤ¹ åįĬ
æĹł æķĮ
æ°´ æ±ªæ±ª
åħ³ åĪĩ
çĪ± ä¸į
çĽ® ãģ®
åı« äºº
åĲĥ é¥±
èĲ½ è·ĳ
ä¸¤ä¸ª äººçļĦ
èº«ä¸Ĭ çļĦè¡£æľį
äººå·¥æĻºèĥ½ çļĦåºĶçĶ¨
è¡Ģ èħ¥
Ġwe ather
ĠO ver
è§¦ åıĬ
ä¸¾ æŃ¢
ä¹Ŀ é»ŀ
ãĤ¸ ãĥ§
Ġsp end
é»ŀ é»ŀéłŃ
æīĳ éĢļ
èį£ èªī
Ġaut h
af Ã¼r
Ġprocess es
Ġmem ber
è¿Ļä¸¤ å¤©
è³ĩ æĸĻ
æ¸¸æ³³ æ±ł
åªļçľ¼ å¦Ĥä¸Ŀ
åĽŀåħ¬åı¸ äºĨ
ĠInformation en
ï½Ķï½Ļ ï½Įï½ħ
é¢¨å¡µ å¥³éĥİ
ä¸¦ä¸įå¸¸ èĲ½ç©º
e y
Ġ å½ĵçĦ¶
Ġ ä¸¦ä¸įå¸¸èĲ½ç©º
ä¸Ģ æľµ
åľ į
äºĨ ä¸ī
åľ¨ æµ·
æŃ Ĩ
å¯ Ĳ
å°ı ä¼Ł
âĢĿ ï¼ĮâĢľ
Ġw ide
å¾Ī æľīè¶£
èĢģ å¤©
éĩį åĨĻ
åĥı è¿Ļæł·
æµģ åĤ³
åħĪ èµ°
çİĭ åĲī
èĬ± çĶŁ
Ġv oll
æĿİ æĸĩ
é¦Ļ æĸĻ
ĠF all
èĻ½çĦ¶ æĪĳ
ist ry
ä¾Ĩ èĢħä¸įæĭĴ
æļĹ èī²
åįļ å®¢
å°ĸ éłŃ
æĸĩåĮĸ çļĦ
é¥® çĶ¨
æ´¾ çļĦ
Ġsp read
è½® åĪ°
çļĦè· ª
å»¶ ç»Ń
åħ§ åģ´
ke y
å¸¶ å°ıåŃ©
Ġmat ch
Ġdam age
ç²® é£Ł
é¢¨å¡µå¥³éĥİ ä¸Ģæ¦Ĥ
N BA
Ù Ĩ
æĪĳ è¨ĺ
åľ¨ è«ĩ
äºº ä¸º
åĩº èĩª
ï¼ģ ï¼ŁâĢĿ
ä¼ļ åıĺæĪĲ
åıª é¡¾
åıª ç·Ĭ
çĤ¹ å¤ļ
ä½ľ æ¥Ń
çľ¼ èī²
èĤī çļĦ
ĠI de
ãģĮ å¿ħè¦ģ
ãģ¾ ãģ£ãģŁ
è·Ł èĩªå·±
ĠH ar
Ġal though
op f
æºĲ äºİ
ä¹± é¢¤
å½±åĵį äºĨ
æ¤ Ń
çĶļèĩ³ é¢¨å¡µå¥³éĥİä¸Ģæ¦Ĥ
åıªèĥ½ åľ¨
éĸĭ æĪ¿éĸĵ
åľ£ è·¯æĺĵæĸ¯
ä¸įçĶ± çļĦ
çĥ¦ èºģ
çĻ½èī² çļĦèĥ¸ç½©
ä¸ĭä¸Ģ ä»¶
ht ml
Ġsim pl
è¿Ŀ æ³ķ
çµ¦ å¥¹
ĠBl ack
Ġvis ual
éľ²å¤© éĥ½ä½ľ
åħŃæľĪ äºĮåįģä¸ī
éĥĬå¤ĸ éľ²å¤©éĥ½ä½ľ
æįıäºĨ æįı
æľīå¤«ä¹ĭ å©¦
Ġï¼³ ï½Ķï½Ļï½Įï½ħ
éĥĬå¤ĸéľ²å¤©éĥ½ä½ľ éģİ
p oint
z y
ï ¿
ä¸Ģ å±ģèĤ¡
å¤§ ä¸įäºĨ
ä»¥ æ»¡è¶³
å¾Ĺ åĪĨ
å¥¹çļĦ æħ¾çģ«
è¿ĺæĺ¯ ä¼ļ
éº Ĵ
éļ¾ ä¸įæĪĲ
äº§ éĩı
æ¹ ĥ
å¿ħ ãģļ
èĦ± åħīäºĨ
åĪĿ å§ĭ
æģ¶ èĩŃ
æŃĮ èģ²
æ·· æ²Į
éĩĩ éĽĨ
åĥıæĺ¯ è¦ģ
æ±¡ ç§½
æ»¡æĦı åľ°
éĽ²æ¢ħ ä¹ħäºĨ
Ġexp and
ĠApp le
å¼¥æ¼« çĿĢ
èĪĩå¥¹ äº¤æŃ¡
æĭĹ ä¸įéģİ
åķıãģĦ åĲĪãĤıãģĽ
çµ¨ å¸ĥ
å®Īä¸į çķĻä¸ĭä»»ä½ķ
åıªç·Ĭ å®Īä¸įçķĻä¸ĭä»»ä½ķ
çĶļèĩ³é¢¨å¡µå¥³éĥİä¸Ģæ¦Ĥ ä¾ĨèĢħä¸įæĭĴ
M ar
ä¸Ģ åīįä¸Ģ
æľī èĳĹ
Ġa st
åĴĮ å¼ł
åĴĮ çİ¯å¢ĥ
çļĦç ¹
is ation
æĥ³ ä½Ķæľī
èĪ Ĺ
è®© éĤ£
æ¯Ķ ä¸įä¸Ĭ
ich en
æ¸ħ æľĿ
çİ© åĦ¿
ç©¿ çµ²è¥ª
åĳ¨ éģŃ
æĭ¿ è¿ĩ
æķĪ çĽĬ
ä¸ĩ åĨĨ
ä»· éĴ±
ost er
éĤ£äºĽ èķ©å©¦
pr Ã¼
åĢĳ ä¹ĭéĸĵ
ç¹ ³
è´± å¥´
æ»¡æĦı çļĦ
çļĦéĩįè¦ģ ç»ĦæĪĲéĥ¨åĪĨ
çļĦçŃ ĸ
é³ ¥
åĲĥå®Į é£¯å¾Į
Ġold er
Ġbo ard
èħ¦ ä¸Ńå¸¸
èªįèŃĺ éĽ²æ¢ħä¹ħäºĨ
éĻ¡ çĦ¶
æµ·å¹³ éĿ¢ä¸Ĭåįĩ
æĺ¯å¹»æĥ³ èĪĩå¥¹äº¤æŃ¡
éº¥åħĭ é¢¨
æľīå¤«ä¹ĭå©¦ çĶļèĩ³é¢¨å¡µå¥³éĥİä¸Ģæ¦Ĥä¾ĨèĢħä¸įæĭĴ
åıªç·Ĭå®Īä¸įçķĻä¸ĭä»»ä½ķ çĹķè·¡
æĥ³ä½Ķæľī å¥¹çļĦæħ¾çģ«
éĤ£äºĽèķ©å©¦ ä¸Ń
èħ¦ä¸Ńå¸¸ æĺ¯å¹»æĥ³èĪĩå¥¹äº¤æŃ¡
3 60
c ast
çļĦ åĨħå¿ĥ
ä¸Ģ ä»¶äºĭ
æĺ¯ åħ³äºİ
å¥¹ éĥ¨éĸĢ
å°ı è·¯
Ġs ou
an cing
ä½ĵ é¦Ļ
æĪĲ éĥ½
ä½Ĩ çĽ®åħī
æīĢ æ¬²
st ep
ãģ« ãģĹãģ¦
ãģ¯ ãģĦ
ç²¾ åħ³
ĠH ier
ãĤ¹ ãģ®
æĻļ ä¸Ģé»ŀ
æĶ¯ æĴĲ
Ġex tens
åħ± é¸£
æĻĤ ä¹Łå¸¸
æĻĤ èħ¦ä¸Ńå¸¸æĺ¯å¹»æĥ³èĪĩå¥¹äº¤æŃ¡
ç®Ģ è¦ģ
æķ£ äºĨ
æģ¶ ä½ľåī§
Ġãĥ Ģ
ru it
èĢģåħ¬ æ±Ĥæķĳ
çĸ¼ çļĦ
éĽĻ é»ĳèī²
æĬĬå¥¹ ä»£åħ¥
Ġtra in
åħ´è¶£ çĪ±å¥½
ä¸»åĬ¨ çļĦ
åºŀ å¤§çļĦ
çģ¾ éļ¾
åīĽ å¥½æĺ¯
åĮĨ å¿Ļ
æĺ¯å¥¹ äºĮåįģä¹Ŀ
ä¸ĢåĢĭ çĳŀåħ¸
è¶ķ ä¸ĢåĢĭçĳŀåħ¸
æĪĳä¹Łå¾Ī å¿Ļ
å¥¹èĢģåħ¬ ä¹Łå¾Ī
åı£è¢ĭ éĩĮ
ĠProdu kt
Ste p
å¿ĹæĦ¿ èĢħ
èµ·åĵĦ è¦ģ
ä»Ĭå¹´çļĦ åħŃæľĪäºĮåįģä¸ī
çĽ®ä¸į è½¬
è¦ģåĬłçıŃ è¶ķä¸ĢåĢĭçĳŀåħ¸
æīĢä»¥çķ¶ å°ıæľĭåıĭ
åı¯ä»¥çİ©çļĦ çĽ¡èĪĪ
åıªç·Ĭå®Īä¸įçķĻä¸ĭä»»ä½ķçĹķè·¡ çļĦåİŁåīĩ
æĻĤä¹Łå¸¸ æĬĬå¥¹ä»£åħ¥
æĺ¯å¥¹äºĮåįģä¹Ŀ æŃ²
ä»Ĭå¹´çļĦåħŃæľĪäºĮåįģä¸ī æĺ¯å¥¹äºĮåįģä¹ĿæŃ²
è¦ģåĬłçıŃè¶ķä¸ĢåĢĭçĳŀåħ¸ çļĦæ¡ĪåŃĲ
æĻĤä¹Łå¸¸æĬĬå¥¹ä»£åħ¥ éĤ£äºĽèķ©å©¦ä¸Ń
m ission
x y
å¤§ å®Ŀ
ä¸Ń æĢ§
æīĭ è¶³
å± ¯
æĦŁ çļĦ
æĬĬ å¸¶å°ıåŃ©
om in
è½» èĶĳ
çŁ¥éģĵ ä»ĸ
ãģĻ ãĤĮãģ°
åĪļ è¦ģ
æ·« æħ¾
éĩĳ é»Ħèī²
æĸ¯ åŁº
Ġv irt
ãĤ¹ ãĥĿ
è¯ķ è¿ĩ
éĨ «
é»Ħ æĺı
éĢĻ é¡¯å¾Ĺ
éĸĭ æĺİ
Ġpl ans
è»Ĭ åº«
è¯¾ åłĤ
æĿĳ éĩĮ
ä¸ĭä¸Ģ éĽĻé»ĳèī²
olog ies
åıªå¥½ æīĵéĽ»è©±
å¥¹åľ¨ æĭĹä¸įéģİ
éĤ£å¤© åħ¶å¯¦
çľĭçļĦ åĩºä¾Ĩ
ĠPl ay
é¥¿ äºĨ
è®ĵå¥¹ åı¯ä»¥çİ©çļĦçĽ¡èĪĪ
geb ot
çµĲå©ļ çļĦå°ıçĶ·çĶŁ
åĲĳä»ĸ èĢģåħ¬æ±Ĥæķĳ
ä¸¦æ²Ĵ ç©¿çµ²è¥ª
Ġcoll abor
æĽĿ åħī
åħ¬äºĭ æĻĤèħ¦ä¸Ńå¸¸æĺ¯å¹»æĥ³èĪĩå¥¹äº¤æŃ¡
éĿŀå¸¸æĢ§æĦŁ è¿·äºº
çļĦçĹĩ çĬ¶
çļĦè²¬ä»» æīĽ
ä¸ĢäºĽæľª çµĲå©ļçļĦå°ıçĶ·çĶŁ
ç¸±æĥħ æĻĤä¹Łå¸¸æĬĬå¥¹ä»£åħ¥éĤ£äºĽèķ©å©¦ä¸Ń
å°ĸéłŃ é«ĺè·Łéŀĭ
åľ¨è«ĩ åħ¬äºĭæĻĤèħ¦ä¸Ńå¸¸æĺ¯å¹»æĥ³èĪĩå¥¹äº¤æŃ¡
çµ¨å¸ĥ å°ĸéłŃé«ĺè·Łéŀĭ
å¥¹éĥ¨éĸĢ ä¸ĢäºĽæľªçµĲå©ļçļĦå°ıçĶ·çĶŁ
å¥¹èĢģåħ¬ä¹Łå¾Ī éĸĭæĺİ
æīĢä»¥çķ¶å°ıæľĭåıĭ ä¾Ĩæī¾æĪĳ
éĢĻé¡¯å¾Ĺ éĿŀå¸¸æĢ§æĦŁè¿·äºº
ä¸ĭä¸ĢéĽĻé»ĳèī² çµ¨å¸ĥå°ĸéłŃé«ĺè·Łéŀĭ
åıªå¥½æīĵéĽ»è©± åĲĳä»ĸèĢģåħ¬æ±Ĥæķĳ
éĤ£å¤©åħ¶å¯¦ æĪĳä¹Łå¾Īå¿Ļ
5 000
ä¸Ģ æĻĥ
ä¸į çĽ¸ä¿¡
ï¼ļ [
æ· ħ
æĹł éģĹ
ãģ« ãģ¨
Ġl ines
çĶµ ç£ģ
è¶Ĭ è¿ĩ
æĶ¶ èµ·
ä¸¤ä¸ª æľĪ
åĪĩ ãĤĬ
æ²» æĦĪ
ĠU K
éĺ² å®Ī
ç§¦ å¤©
æĻĵ å½¤
çľĭäºĨ æĪĳä¸Ģçľ¼
åĩºä¸Ģ ä¸Ŀ
åĬłåħ¥ äºĨ
éĢĹ å¼Ħ
è®¯ æģ¯
res p
åį§å®¤ éĩĮ
å¯¾ è±¡
æįī äºº
æĪĳæľī é»ŀ
èħ³ ä¸ĭä¸ĢéĽĻé»ĳèī²çµ¨å¸ĥå°ĸéłŃé«ĺè·Łéŀĭ
ãĤ¹ãĥĨ ãĥł
Ġmov ing
çļĦç¢ °
æıŃ ç¤º
å°ĳæķ° æ°ĳæĹı
çļĦåĽŀ çµķ
çļĦæĥħå½¢ä¸ĭ åıªå¥½æīĵéĽ»è©±åĲĳä»ĸèĢģåħ¬æ±Ĥæķĳ
Ġchallen ge
å°ıå¥³çĶŁ èµ·åĵĦè¦ģ
ç¦®çī© äºĶ
å¹«å¥¹ æħ¶çĶŁ
å¥¹ç©¿èĳĹ çĻ½èī²è¥¯è¡«
æĥ³ä½Ķæľīå¥¹çļĦæħ¾çģ« è¶Ĭé«ĺ
åīĽå¥½æĺ¯ ç¦®çī©äºĶ
ä»Ĭå¹´çļĦåħŃæľĪäºĮåįģä¸īæĺ¯å¥¹äºĮåįģä¹ĿæŃ² çļĦçĶŁæĹ¥
æĬĬå¸¶å°ıåŃ© çļĦè²¬ä»»æīĽ
å¥¹åľ¨æĭĹä¸įéģİ çļĦæĥħå½¢ä¸ĭåıªå¥½æīĵéĽ»è©±åĲĳä»ĸèĢģåħ¬æ±Ĥæķĳ
åľ¨è«ĩåħ¬äºĭæĻĤèħ¦ä¸Ńå¸¸æĺ¯å¹»æĥ³èĪĩå¥¹äº¤æŃ¡ çļĦçķ«éĿ¢
å¥¹éĥ¨éĸĢä¸ĢäºĽæľªçµĲå©ļçļĦå°ıçĶ·çĶŁ å°ıå¥³çĶŁèµ·åĵĦè¦ģ
æīĢä»¥çķ¶å°ıæľĭåıĭä¾Ĩæī¾æĪĳ æĻĤ
a ched
i i
Ġ Ã¼
çļĦ çĶŁçī©
çļĦ åĲ«ä¹ī
ä¸Ģ é½Ĳ
ä¸į é«ĺåħ´
æī ±
å¾ µ
å½ĵ çľŁ
ç¾İ å¦ĩäºº
çĽ´ åĭ¾åĭ¾
è¡¨ å¦¹
ĠM r
å« ĸ
åĿĲ èµ·æĿ¥
ç¼ĵ åĴĮ
ç¿» çĤĴ
è² ¡
æĪĳæĥ³ éĤĦæĺ¯
å¥Ī å¥Ī
åĲ¯ ç¤º
åħ© åģ´
èĨĿ èĵĭ
è½ī èº«
é»Ľ çİī
çľ¨ äºĨ
éĽ£ éģİ
Ġeas ier
æİ¢è®¨ äºĨ
ï¼¸ ï¼¯
æ¹¿æ¼īæ¼ī çļĦ
Ġassist ant
è¯´ä¸įåĩº è¯ĿæĿ¥
æĪĳåıªèĥ½ å¾ĪæĬ±æŃī
Ġsym bol
ĠLeb ens
æĬĬå¸¶å°ıåŃ©çļĦè²¬ä»»æīĽ èµ·ä¾Ĩ
å¥¹éĥ¨éĸĢä¸ĢäºĽæľªçµĲå©ļçļĦå°ıçĶ·çĶŁå°ıå¥³çĶŁèµ·åĵĦè¦ģ å¹«å¥¹æħ¶çĶŁ
æĪĳåıªèĥ½å¾ĪæĬ±æŃī çļĦåĽŀçµķ
B r
i ra
ä¸Ģ ä¸Ĭ
æľī éĹ®é¢ĺ
è® ³
ä¸ĭ è»Ĭ
[...]
