{
  "version": "1.0",
  "truncation": null,
  "padding": null,
  "added_tokens": [
    {
      "id": 0,
      "content": "<|endoftext|>",
      "single_word": false,
      "lstrip": false,
      "rstrip": false,
      "normalized": false,
      "special": true
    },
    {
      "id": 1,
      "content": "<|im_start|>",
      "single_word": false,
      "lstrip": false,
      "rstrip": false,
      "normalized": false,
      "special": true
    },
    {
      "id": 2,
      "content": "<|im_end|>",
      "single_word": false,
      "lstrip": false,
      "rstrip": false,
      "normalized": false,
      "special": true
    },
    {
      "id": 3,
      "content": "<|object_ref_start|>",
      "single_word": false,
      "lstrip": false,
      "rstrip": false,
      "normalized": false,
      "special": true
    },
    {
      "id": 4,
      "content": "<|object_ref_end|>",
      "single_word": false,
      "lstrip": false,
      "rstrip": false,
      "normalized": false,
      "special": true
    },
    {
      "id": 5,
      "content": "<|box_start|>",
      "single_word": false,
      "lstrip": false,
      "rstrip": false,
      "normalized": false,
      "special": true
    },
    {
      "id": 6,
      "content": "<|box_end|>",
      "single_word": false,
      "lstrip": false,
      "rstrip": false,
      "normalized": false,
      "special": true
    },
    {
      "id": 7,
      "content": "<|quad_start|>",
      "single_word": false,
      "lstrip": false,
      "rstrip": false,
      "normalized": false,
      "special": true
    },
    {
      "id": 8,
      "content": "<|quad_end|>",
      "single_word": false,
      "lstrip": false,
      "rstrip": false,
      "normalized": false,
      "special": true
    },
    {
      "id": 9,
      "content": "<|vision_start|>",
      "single_word": false,
      "lstrip": false,
      "rstrip": false,
      "normalized": false,
      "special": true
    },
    {
      "id": 10,
      "content": "<|vision_end|>",
      "single_word": false,
      "lstrip": false,
      "rstrip": false,
      "normalized": false,
      "special": true
    },
    {
      "id": 11,
      "content": "<|vision_pad|>",
      "single_word": false,
      "lstrip": false,
      "rstrip": false,
      "normalized": false,
      "special": true
    },
    {
      "id": 12,
      "content": "<|image_pad|>",
      "single_word": false,
      "lstrip": false,
      "rstrip": false,
      "normalized": false,
      "special": true
    },
    {
      "id": 13,
      "content": "<|video_pad|>",
      "single_word": false,
      "lstrip": false,
      "rstrip": false,
      "normalized": false,
      "special": true
    },
    {
      "id": 14,
      "content": "<|audio_start|>",
      "single_word": false,
      "lstrip": false,
      "rstrip": false,
      "normalized": false,
      "special": true
    },
    {
      "id": 15,
      "content": "<|audio_end|>",
      "single_word": false,
      "lstrip": false,
      "rstrip": false,
      "normalized": false,
      "special": true
    },
    {
      "id": 16,
      "content": "<|audio_pad|>",
      "single_word": false,
      "lstrip": false,
      "rstrip": false,
      "normalized": false,
      "special": true
    },
    {
      "id": 17,
      "content": "<tts_pad>",
      "single_word": false,
      "lstrip": false,
      "rstrip": false,
      "normalized": false,
      "special": true
    },
    {
      "id": 18,
      "content": "<tts_text_bos>",
      "single_word": false,
      "lstrip": false,
      "rstrip": false,
      "normalized": false,
      "special": true
    },
    {
      "id": 19,
      "content": "<tts_text_eod>",
      "single_word": false,
      "lstrip": false,
      "rstrip": false,
      "normalized": false,
      "special": true
    },
    {
      "id": 20,
      "content": "<tts_text_bos_single>",
      "single_word": false,
      "lstrip": false,
      "rstrip": false,
      "normalized": false,
      "special": true
    },
    {
      "id": 21,
      "content": "<tool_call>",
      "single_word": false,
      "lstrip": false,
      "rstrip": false,
      "normalized": false,
      "special": false
    },
    {
      "id": 22,
      "content": "</tool_call>",
      "single_word": false,
      "lstrip": false,
      "rstrip": false,
      "normalized": false,
      "special": false
    },
    {
      "id": 23,
      "content": "<tool_response>",
      "single_word": false,
      "lstrip": false,
      "rstrip": false,
      "normalized": false,
      "special": false
    },
    {
      "id": 24,
      "content": "</tool_response>",
      "single_word": false,
      "lstrip": false,
      "rstrip": false,
      "normalized": false,
      "special": false
    },
    {
      "id": 25,
      "content": "<think>",
      "single_word": false,
      "lstrip": false,
      "rstrip": false,
      "normalized": false,
      "special": false
    },
    {
      "id": 26,
      "content": "</think>",
      "single_word": false,
      "lstrip": false,
      "rstrip": false,
      "normalized": false,
      "special": false
    },
    {
      "id": 27,
      "content": "<|buffer1|>",
      "single_word": false,
      "lstrip": false,
      "rstrip": false,
      "normalized": false,
      "special": false
    },
    {
      "id": 28,
      "content": "<|buffer2|>",
      "single_word": false,
      "lstrip": false,
      "rstrip": false,
      "normalized": false,
      "special": false
    },
    {
      "id": 29,
      "content": "<|buffer3|>",
      "single_word": false,
      "lstrip": false,
      "rstrip": false,
      "normalized": false,
      "special": false
    },
    {
      "id": 30,
      "content": "<|buffer4|>",
      "single_word": false,
      "lstrip": false,
      "rstrip": false,
      "normalized": false,
      "special": false
    },
    {
      "id": 31,
      "content": "<|buffer5|>",
      "single_word": false,
      "lstrip": false,
      "rstrip": false,
      "normalized": false,
      "special": false
    },
    {
      "id": 32,
      "content": "<|buffer6|>",
      "single_word": false,
      "lstrip": false,
      "rstrip": false,
      "normalized": false,
      "special": false
    },
    {
      "id": 33,
      "content": "<|buffer7|>",
      "single_word": false,
      "lstrip": false,
      "rstrip": false,
      "normalized": false,
      "special": false
    },
    {
      "id": 34,
      "content": "<|buffer8|>",
      "single_word": false,
      "lstrip": false,
      "rstrip": false,
      "normalized": false,
      "special": false
    },
    {
      "id": 35,
      "content": "<|buffer9|>",
      "single_word": false,
      "lstrip": false,
      "rstrip": false,
      "normalized": false,
      "special": false
    }
  ],
  "normalizer": null,
  "pre_tokenizer": {
    "type": "ByteLevel",
    "add_prefix_space": false,
    "trim_offsets": true,
    "use_regex": true
  },
  "post_processor": null,
  "decoder": {
    "type": "ByteLevel",
    "add_prefix_space": true,
    "trim_offsets": true,
    "use_regex": true
  },
  "model": {
    "type": "BPE",
    "dropout": null,
    "unk_token": null,
    "continuing_subword_prefix": null,
    "end_of_word_suffix": null,
    "fuse_unk": false,
    "byte_fallback": false,
    "ignore_merges": false,
    "vocab": {
      "<|endoftext|>": 0,
      "<|im_start|>": 1,
      "<|im_end|>": 2,
      "<|object_ref_start|>": 3,
      "<|object_ref_end|>": 4,
      "<|box_start|>": 5,
      "<|box_end|>": 6,
      "<|quad_start|>": 7,
      "<|quad_end|>": 8,
      "<|vision_start|>": 9,
      "<|vision_end|>": 10,
      "<|vision_pad|>": 11,
      "<|image_pad|>": 12,
      "<|video_pad|>": 13,
      "<|audio_start|>": 14,
      "<|audio_end|>": 15,
      "<|audio_pad|>": 16,
      "<tts_pad>": 17,
      "<tts_text_bos>": 18,
      "<tts_text_eod>": 19,
      "<tts_text_bos_single>": 20,
      "<tool_call>": 21,
      "</tool_call>": 22,
      "<tool_response>": 23,
      "</tool_response>": 24,
      "<think>": 25,
      "</think>": 26,
      "<|buffer1|>": 27,
      "<|buffer2|>": 28,
      "<|buffer3|>": 29,
      "<|buffer4|>": 30,
      "<|buffer5|>": 31,
      "<|buffer6|>": 32,
      "<|buffer7|>": 33,
      "<|buffer8|>": 34,
      "<|buffer9|>": 35,
      "!": 36,
      "\"": 37,
      "#": 38,
      "$": 39,
      "%": 40,
      "&": 41,
      "'": 42,
      "(": 43,
      ")": 44,
      "*": 45,
      "+": 46,
      ",": 47,
      "-": 48,
      ".": 49,
      "/": 50,
      "0": 51,
      "1": 52,
      "2": 53,
      "3": 54,
      "4": 55,
      "5": 56,
      "6": 57,
      "7": 58,
      "8": 59,
      "9": 60,
      ":": 61,
      ";": 62,
      "<": 63,
      "=": 64,
      ">": 65,
      "?": 66,
      "@": 67,
      "A": 68,
      "B": 69,
      "C": 70,
      "D": 71,
      "E": 72,
      "F": 73,
      "G": 74,
      "H": 75,
      "I": 76,
      "J": 77,
      "K": 78,
      "L": 79,
      "M": 80,
      "N": 81,
      "O": 82,
      "P": 83,
      "Q": 84,
      "R": 85,
      "S": 86,
      "T": 87,
      "U": 88,
      "V": 89,
      "W": 90,
      "X": 91,
      "Y": 92,
      "Z": 93,
      "[": 94,
      "\\": 95,
      "]": 96,
      "^": 97,
      "_": 98,
      "`": 99,
      "a": 100,
      "b": 101,
      "c": 102,
      "d": 103,
      "e": 104,
      "f": 105,
      "g": 106,
      "h": 107,
      "i": 108,
      "j": 109,
      "k": 110,
      "l": 111,
      "m": 112,
      "n": 113,
      "o": 114,
      "p": 115,
      "q": 116,
      "r": 117,
      "s": 118,
      "t": 119,
      "u": 120,
      "v": 121,
      "w": 122,
      "x": 123,
      "y": 124,
      "z": 125,
      "{": 126,
      "|": 127,
      "}": 128,
      "~": 129,
      "¡": 130,
      "¢": 131,
      "£": 132,
      "¤": 133,
      "¥": 134,
      "¦": 135,
      "§": 136,
      "¨": 137,
      "©": 138,
      "ª": 139,
      "«": 140,
      "¬": 141,
      "®": 142,
      "¯": 143,
      "°": 144,
      "±": 145,
      "²": 146,
      "³": 147,
      "´": 148,
      "µ": 149,
      "¶": 150,
      "·": 151,
      "¸": 152,
      "¹": 153,
      "º": 154,
      "»": 155,
      "¼": 156,
      "½": 157,
      "¾": 158,
      "¿": 159,
      "À": 160,
      "Á": 161,
      "Â": 162,
      "Ã": 163,
      "Ä": 164,
      "Å": 165,
      "Æ": 166,
      "Ç": 167,
      "È": 168,
      "É": 169,
      "Ê": 170,
      "Ë": 171,
      "Ì": 172,
      "Í": 173,
      "Î": 174,
      "Ï": 175,
      "Ð": 176,
      "Ñ": 177,
      "Ò": 178,
      "Ó": 179,
      "Ô": 180,
      "Õ": 181,
      "Ö": 182,
      "×": 183,
      "Ø": 184,
      "Ù": 185,
      "Ú": 186,
      "Û": 187,
      "Ü": 188,
      "Ý": 189,
      "Þ": 190,
      "ß": 191,
      "à": 192,
      "á": 193,
      "â": 194,
      "ã": 195,
      "ä": 196,
      "å": 197,
      "æ": 198,
      "ç": 199,
      "è": 200,
      "é": 201,
      "ê": 202,
      "ë": 203,
      "ì": 204,
      "í": 205,
      "î": 206,
      "ï": 207,
      "ð": 208,
      "ñ": 209,
      "ò": 210,
      "ó": 211,
      "ô": 212,
      "õ": 213,
      "ö": 214,
      "÷": 215,
      "ø": 216,
      "ù": 217,
      "ú": 218,
      "û": 219,
      "ü": 220,
      "ý": 221,
      "þ": 222,
      "ÿ": 223,
      "Ā": 224,
      "ā": 225,
      "Ă": 226,
      "ă": 227,
      "Ą": 228,
      "ą": 229,
      "Ć": 230,
      "ć": 231,
      "Ĉ": 232,
      "ĉ": 233,
      "Ċ": 234,
      "ċ": 235,
      "Č": 236,
      "č": 237,
      "Ď": 238,
      "ď": 239,
      "Đ": 240,
      "đ": 241,
      "Ē": 242,
      "ē": 243,
      "Ĕ": 244,
      "ĕ": 245,
      "Ė": 246,
      "ė": 247,
      "Ę": 248,
      "ę": 249,
      "Ě": 250,
      "ě": 251,
      "Ĝ": 252,
      "ĝ": 253,
      "Ğ": 254,
      "ğ": 255,
      "Ġ": 256,
      "ġ": 257,
      "Ģ": 258,
      "ģ": 259,
      "Ĥ": 260,
      "ĥ": 261,
      "Ħ": 262,
      "ħ": 263,
      "Ĩ": 264,
      "ĩ": 265,
      "Ī": 266,
      "ī": 267,
      "Ĭ": 268,
      "ĭ": 269,
      "Į": 270,
      "į": 271,
      "İ": 272,
      "ı": 273,
      "Ĳ": 274,
      "ĳ": 275,
      "Ĵ": 276,
      "ĵ": 277,
      "Ķ": 278,
      "ķ": 279,
      "ĸ": 280,
      "Ĺ": 281,
      "ĺ": 282,
      "Ļ": 283,
      "ļ": 284,
      "Ľ": 285,
      "ľ": 286,
      "Ŀ": 287,
      "ŀ": 288,
      "Ł": 289,
      "ł": 290,
      "Ń": 291,
      "ï¼": 292,
      "ä¸": 293,
      "ï¼Į": 294,
      "çļ": 295,
      "çļĦ": 296,
      "ãĢ": 297,
      "äº": 298,
      "ãĢĤ": 299,
      "åı": 300,
      "ä»": 301,
      "ãģ": 302,
      "è¿": 303,
      "æĪ": 304,
      "å¤": 305,
      "âĢ": 306,
      "æľ": 307,
      "ä½": 308,
      "æĺ": 309,
      "ä¸Ģ": 310,
      "åľ": 311,
      "äºĨ": 312,
      "å°": 313,
      "å¥": 314,
      "åĲ": 315,
      "ä¹": 316,
      "åĪ": 317,
      "æĺ¯": 318,
      "åħ": 319,
      "æĪĳ": 320,
      "ä¸į": 321,
      "å®": 322,
      "çĶ": 323,
      "è¯": 324,
      "åľ¨": 325,
      "æĿ": 326,
      "æī": 327,
      "âĢ¦": 328,
      "ç»": 329,
      "åĬ": 330,
      "æĹ": 331,
      "ãĤ": 332,
      "åŃ": 333,
      "å¾": 334,
      "çĿ": 335,
      "åĩ": 336,
      "äºº": 337,
      "Ġt": 338,
      "å·": 339,
      "er": 340,
      "æľī": 341,
      "è¿Ļ": 342,
      "å¼": 343,
      "ä¼": 344,
      "çĿĢ": 345,
      "in": 346,
      "åĴ": 347,
      "çľ": 348,
      "æĸ": 349,
      "Ġa": 350,
      "ĥ½": 351,
      "æĿ¥": 352,
      "ãĥ": 353,
      "en": 354,
      "ä¸Ĭ": 355,
      "éĩ": 356,
      "ä¸ª": 357,
      "è®": 358,
      "å¥¹": 359,
      "æĬ": 360,
      "åį": 361,
      "å¿": 362,
      "èĢ": 363,
      "åĽ": 364,
      "åĴĮ": 365,
      "æĢ": 366,
      "èµ": 367,
      "æĥ": 368,
      "èĩ": 369,
      "å¹": 370,
      "åĪ°": 371,
      "å¦": 372,
      "åĨ": 373,
      "ä½ł": 374,
      "çļĦè": 375,
      "ä¸ĭ": 376,
      "å¸": 377,
      "ãĢģ": 378,
      "è§": 379,
      "he": 380,
      "æĦ": 381,
      "æŃ": 382,
      "åº": 383,
      "çİ": 384,
      "ãĢĮ": 385,
      "éĹ": 386,
      "å¤§": 387,
      "éĢ": 388,
      "ãĢį": 389,
      "åĳ": 390,
      "åİ": 391,
      "è¦": 392,
      "ä»ĸ": 393,
      "å¯": 394,
      "ä»¥": 395,
      "æ²": 396,
      "éģ": 397,
      "åĩº": 398,
      "on": 399,
      "æł": 400,
      "åı¯": 401,
      "æķ": 402,
      "åŃĲ": 403,
      "éĿ": 404,
      "è¦ģ": 405,
      "å°±": 406,
      "éĤ": 407,
      "å°ı": 408,
      "ä¸Ń": 409,
      "åĵ": 410,
      "ä¹Ł": 411,
      "åľ°": 412,
      "çĽ": 413,
      "âĢ¦âĢ¦": 414,
      "èĩª": 415,
      "es": 416,
      "å¥½": 417,
      "è¡": 418,
      "ï¼ļ": 419,
      "æĹ¶": 420,
      "ï¼ģ": 421,
      "Ġs": 422,
      "éĤ£": 423,
      "ä¸º": 424,
      "èĥ½": 425,
      "âĢľ": 426,
      "çĦ": 427,
      "âĢĿ": 428,
      "ç§": 429,
      "ï¼Ł": 430,
      "æĭ": 431,
      "æ°": 432,
      "å½": 433,
      "Ġthe": 434,
      "at": 435,
      "ä»¬": 436,
      "º«": 437,
      "æİ": 438,
      "or": 439,
      "çī": 440,
      "æĮ": 441,
      "è¯´": 442,
      "çĶ¨": 443,
      "çĦ¶": 444,
      "éģĵ": 445,
      "ä¼ļ": 446,
      "çľĭ": 447,
      "èĤ": 448,
      "æ³": 449,
      "åķ": 450,
      "åĲİ": 451,
      "è¿ĩ": 452,
      "èµ·": 453,
      "ä¹Ī": 454,
      "çļĦç": 455,
      "æ¯": 456,
      "æīĭ": 457,
      "æŀ": 458,
      "è¢": 459,
      "åī": 460,
      "ä¾": 461,
      "åĮ": 462,
      "å¾Ĺ": 463,
      "éĩĮ": 464,
      "Ġd": 465,
      "it": 466,
      "is": 467,
      "ch": 468,
      "éĺ": 469,
      "å±": 470,
      "æ¬": 471,
      "Ġw": 472,
      "an": 473,
      "å¯¹": 474,
      "re": 475,
      "è¾": 476,
      "è½": 477,
      "æµ": 478,
      "å§": 479,
      "è¿ĺ": 480,
      "çĶŁ": 481,
      "æĶ": 482,
      "æ²¡": 483,
      "èº«": 484,
      "éĥ½": 485,
      "çº": 486,
      "æĻ": 487,
      "é¢": 488,
      "å¼Ģ": 489,
      "ä¿": 490,
      "å¥³": 491,
      "æĥ³": 492,
      "åİ»": 493,
      "å·±": 494,
      "æı": 495,
      "éĿ¢": 496,
      "è¢«": 497,
      "èĩªå·±": 498,
      "å¿ĥ": 499,
      "Ġo": 500,
      "åģ": 501,
      "åıĳ": 502,
      "æĽ": 503,
      "èĢĮ": 504,
      "å¦Ĥ": 505,
      "æĦŁ": 506,
      "éĻ": 507,
      "æ¸": 508,
      "åĬ¨": 509,
      "nd": 510,
      "çŃ": 511,
      "å£": 512,
      "ä¹ĭ": 513,
      "al": 514,
      "Ġb": 515,
      "éĽ": 516,
      "Ġc": 517,
      "çĤ": 518,
      "å¤´": 519,
      "åĢ": 520,
      "Ġf": 521,
      "èĦ": 522,
      "è´": 523,
      "ä½ĵ": 524,
      "çĲ": 525,
      "åķĬ": 526,
      "èĪ": 527,
      "Ġp": 528,
      "å¤ļ": 529,
      "åıª": 530,
      "ing": 531,
      "çŁ": 532,
      "ar": 533,
      "ç«": 534,
      "Ġm": 535,
      "å¤©": 536,
      "æ·": 537,
      "èī": 538,
      "æĪĲ": 539,
      "æł·": 540,
      "äºĽ": 541,
      "ä¸Ģä¸ª": 542,
      "æ´": 543,
      "ç©": 544,
      "çĪ": 545,
      "éļ": 546,
      "ç´": 547,
      "äºİ": 548,
      "è·": 549,
      "ç¾": 550,
      "åĬĽ": 551,
      "æĸ¹": 552,
      "åīį": 553,
      "åı¯ä»¥": 554,
      "ed": 555,
      "Ġin": 556,
      "åĸ": 557,
      "ou": 558,
      "é«": 559,
      "è¶": 560,
      "è®©": 561,
      "çİ°": 562,
      "ç¬": 563,
      "å¾Ī": 564,
      "åĪĨ": 565,
      "ç»ı": 566,
      "æĥħ": 567,
      "éĹ´": 568,
      "æĦı": 569,
      "éľ": 570,
      "å®¶": 571,
      "è¿Ľ": 572,
      "é«ĺ": 573,
      "æ±": 574,
      "Ļ½": 575,
      "ä½Ĩ": 576,
      "ion": 577,
      "çĤ¹": 578,
      "le": 579,
      "å¹´": 580,
      "å°Ĩ": 581,
      "æ»": 582,
      "æ¶": 583,
      "åŃ¦": 584,
      "æģ": 585,
      "å·²": 586,
      "ä½ľ": 587,
      "è¡Į": 588,
      "Ġof": 589,
      "ç®": 590,
      "èħ": 591,
      "æĬĬ": 592,
      "æĽ´": 593,
      "Ġto": 594,
      "ãģ®": 595,
      "..": 596,
      "è£": 597,
      "as": 598,
      "é£": 599,
      "ä¸¤": 600,
      "æĹł": 601,
      "éķ": 602,
      "æľĢ": 603,
      "é¡": 604,
      "äºĭ": 605,
      "å¨": 606,
      "åĺ": 607,
      "éĥ": 608,
      "åĲĮ": 609,
      "æį": 610,
      "æ³ķ": 611,
      "çľ¼": 612,
      "ä»Ģ": 613,
      "å£°": 614,
      "çŃī": 615,
      "çŁ¥": 616,
      "åıĪ": 617,
      "èĥ": 618,
      "æĢ§": 619,
      "åĿ": 620,
      "ç§į": 621,
      "åĽŀ": 622,
      "ic": 623,
      "Ġand": 624,
      "ä»İ": 625,
      "çĥ": 626,
      "åı£": 627,
      "æĤ": 628,
      "æīĢ": 629,
      "ä½ı": 630,
      "å®ļ": 631,
      "è°": 632,
      "ro": 633,
      "èĢģ": 634,
      "èĬ": 635,
      "èī²": 636,
      "æ²¡æľī": 637,
      "ä»Ģä¹Ī": 638,
      "é»": 639,
      "æ¬¡": 640,
      "Ġe": 641,
      "æŁ": 642,
      "æľ¬": 643,
      "å¦Ī": 644,
      "æĺİ": 645,
      "åħ¥": 646,
      "ent": 647,
      "åħ¨": 648,
      "Ġh": 649,
      "æŃ¤": 650,
      "åħ¶": 651,
      "æ°Ķ": 652,
      "ãĢĤãĢį": 653,
      "å¿«": 654,
      "æĪĳä»¬": 655,
      "ãģĦ": 656,
      "å½ĵ": 657,
      "ç»Ļ": 658,
      "ĊĊ": 659,
      "çĭ": 660,
      "ç¾İ": 661,
      "ç½": 662,
      "ĠĠ": 663,
      "ç²": 664,
      "åĽł": 665,
      "el": 666,
      "ä¸»": 667,
      "èĭ": 668,
      "çĲĨ": 669,
      "åĬł": 670,
      "çľŁ": 671,
      "Ġth": 672,
      "åŁ": 673,
      "è¯Ŀ": 674,
      "st": 675,
      "æ°´": 676,
      "çķ": 677,
      "éķ¿": 678,
      "æĸĩ": 679,
      "æĳ": 680,
      "æŃ£": 681,
      "è§ī": 682,
      "åĨħ": 683,
      "æķ°": 684,
      "åħ¬": 685,
      "åºĶ": 686,
      "éĥ¨": 687,
      "äºĨä¸Ģ": 688,
      "çĶ·": 689,
      "å¹¶": 690,
      "çĻ½": 691,
      "æŀľ": 692,
      "éĹ®": 693,
      "çī©": 694,
      "Ġn": 695,
      "æ£": 696,
      "ĠS": 697,
      "ç¼": 698,
      "è¾¹": 699,
      "åĨį": 700,
      "åĥ": 701,
      "å®ŀ": 702,
      "åĦ": 703,
      "å°ĳ": 704,
      "åĽ½": 705,
      "ç¥": 706,
      "il": 707,
      "ç¨": 708,
      "åĶ": 709,
      "å¸¸": 710,
      "çĽ´": 711,
      "ä½¿": 712,
      "æıĲ": 713,
      "Ġu": 714,
      "æİ¥": 715,
      "æħ": 716,
      "é¦": 717,
      "çģ": 718,
      "åĦ¿": 719,
      "åıĹ": 720,
      "èİ": 721,
      "ĠA": 722,
      "ä¸İ": 723,
      "om": 724,
      "Ġg": 725,
      "et": 726,
      "å¤ĸ": 727,
      "éĩį": 728,
      "å·¥": 729,
      "è¿Ļä¸ª": 730,
      "å·²ç»ı": 731,
      "æľº": 732,
      "åĲ§": 733,
      "éª": 734,
      "åĥı": 735,
      "è½»": 736,
      "åĲĪ": 737,
      "æīį": 738,
      "ãģ«": 739,
      "åº¦": 740,
      "Ġis": 741,
      "åĩł": 742,
      "æīĵ": 743,
      "éħ": 744,
      "ãģĹ": 745,
      "èĲ": 746,
      "åĲĳ": 747,
      "åħ³": 748,
      "æ¯Ķ": 749,
      "æĶ¾": 750,
      "ãĢĤâĢĿ": 751,
      "èĤī": 752,
      "éŁ": 753,
      "ç³": 754,
      "éĢļ": 755,
      "æĹ¥": 756,
      "Ġl": 757,
      "ç±": 758,
      "å®Į": 759,
      "åģļ": 760,
      "åĮĸ": 761,
      "è§ģ": 762,
      "éĶ": 763,
      "ie": 764,
      "ãģ§": 765,
      "æľį": 766,
      "ç´§": 767,
      "ç¡": 768,
      "èµ·æĿ¥": 769,
      "è§£": 770,
      "åıĮ": 771,
      "çĽ¸": 772,
      "ãģ¦": 773,
      "æĪĳçļĦ": 774,
      "ct": 775,
      "å¤Ħ": 776,
      "ãĥ¼": 777,
      "ç¬ĳ": 778,
      "çĹ": 779,
      "åħī": 780,
      "å§Ĳ": 781,
      "åıĺ": 782,
      "ãģŁ": 783,
      "æ»¡": 784,
      "çŁ¥éģĵ": 785,
      "ä¿Ŀ": 786,
      "ç¦": 787,
      "ig": 788,
      "æĸ°": 789,
      "ãģª": 790,
      "éľĢ": 791,
      "èµ°": 792,
      "å¥¹çļĦ": 793,
      "çĸ": 794,
      "ä¸ī": 795,
      "ĠT": 796,
      "åĪ«": 797,
      "éĩı": 798,
      "ï½": 799,
      "ç¤": 800,
      "å¼ł": 801,
      "im": 802,
      "æĮĩ": 803,
      "ä½į": 804,
      "ï¼ī": 805,
      "æĪĸ": 806,
      "ut": 807,
      "ol": 808,
      "åĲĹ": 809,
      "åĲį": 810,
      "ï¼Ī": 811,
      "ãģ¨": 812,
      "ur": 813,
      "æ¡": 814,
      "å§ĭ": 815,
      "ä¾¿": 816,
      "å¤ª": 817,
      "èį": 818,
      "ra": 819,
      "ä¸įæĺ¯": 820,
      "é©": 821,
      "èĢħ": 822,
      "æľĪ": 823,
      "å¸¦": 824,
      "åį´": 825,
      "å©": 826,
      "é¢ĺ": 827,
      "åĻ": 828,
      "æĢİ": 829,
      "æł¹": 830,
      "åĲ¬": 831,
      "åĺ´": 832,
      "å®ī": 833,
      "å¢": 834,
      "åĵģ": 835,
      "ãģĻ": 836,
      "è¡¨": 837,
      "çĪ±": 838,
      "éĹ¨": 839,
      "ç¥ŀ": 840,
      "éĴ": 841,
      "ãĤĴ": 842,
      "ãĤĭ": 843,
      "ï¼ŁãĢį": 844,
      "ä½ķ": 845,
      "ĠI": 846,
      "çī¹": 847,
      "åĢĻ": 848,
      "è¯Ń": 849,
      "åĹ": 850,
      "çĶµ": 851,
      "æ£Ĵ": 852,
      "çº¢": 853,
      "ï¼ģãĢį": 854,
      "åĪ°äºĨ": 855,
      "ï¼ļãĢĮ": 856,
      "ãģ¯": 857,
      "å¹³": 858,
      "æĤ¨": 859,
      "ãģĮ": 860,
      "å»": 861,
      "è¿Ļæł·": 862,
      "çĽ®": 863,
      "çª": 864,
      "èģ": 865,
      "00": 866,
      "éŁ³": 867,
      "æµģ": 868,
      "ich": 869,
      "ot": 870,
      "å¼º": 871,
      "æ¸ħ": 872,
      "å®ĥ": 873,
      "åĪļ": 874,
      "ve": 875,
      "èĳ": 876,
      "Ġre": 877,
      "æļ": 878,
      "æ¢": 879,
      "è¨": 880,
      "åĪ¶": 881,
      "un": 882,
      "ä»»": 883,
      "æ·±": 884,
      "id": 885,
      "äº¤": 886,
      "ä¹³": 887,
      "çĶ±": 888,
      "Ġbe": 889,
      "ç®Ĺ": 890,
      "åĭ": 891,
      "çİ°åľ¨": 892,
      "æ®": 893,
      "ãģ¾": 894,
      "ver": 895,
      "è¯¥": 896,
      "æ´»": 897,
      "èħ¿": 898,
      "âĢĶ": 899,
      "åıį": 900,
      "ä¿¡": 901,
      "æĴ": 902,
      "çł": 903,
      "çļĦèĤ": 904,
      "é¾": 905,
      "é¸": 906,
      "å½±": 907,
      "åĳ¢": 908,
      "å¼Ģå§ĭ": 909,
      "éľĢè¦ģ": 910,
      "ä»ĸä»¬": 911,
      "è¥": 912,
      "å¾®": 913,
      "est": 914,
      "éĺ´": 915,
      "éļı": 916,
      "æ¼": 917,
      "åįģ": 918,
      "us": 919,
      "æĪ¿": 920,
      "å°±æĺ¯": 921,
      "è·Ł": 922,
      "èĻ": 923,
      "æĬĢ": 924,
      "é¥": 925,
      "ow": 926,
      "èĩªå·±çļĦ": 927,
      "Ġy": 928,
      "åİŁ": 929,
      "ir": 930,
      "ation": 931,
      "èĦ¸": 932,
      "æĭī": 933,
      "éŃ": 934,
      "åıĬ": 935,
      "äºĮ": 936,
      "æĢİä¹Ī": 937,
      "åħĪ": 938,
      "åĩºæĿ¥": 939,
      "æ¨": 940,
      "æį®": 941,
      "æŃ»": 942,
      "æ¶²": 943,
      "å·´": 944,
      "è¥¿": 945,
      "çİĭ": 946,
      "am": 947,
      "éĵ": 948,
      "åĮħ": 949,
      "åľº": 950,
      "çĮ": 951,
      "å¸®": 952,
      "ç²¾": 953,
      "Ġ1": 954,
      "æĲ": 955,
      "çĶ·äºº": 956,
      "ä¸Ŀ": 957,
      "åĽłä¸º": 958,
      "ĠM": 959,
      "ĠW": 960,
      "ç±»": 961,
      "çļĦèº«": 962,
      "æĹ¶åĢĻ": 963,
      "åħ·": 964,
      "Ġfor": 965,
      "å¼ı": 966,
      "è±": 967,
      "ç¨ĭ": 968,
      "æ±Ĥ": 969,
      "è¿ĺæĺ¯": 970,
      "ç©´": 971,
      "è¶Ĭ": 972,
      "ly": 973,
      "ç³»": 974,
      "ä¸ļ": 975,
      "åı¯èĥ½": 976,
      "æĵ": 977,
      "æ·«": 978,
      "ãĥ³": 979,
      "ç»ĵ": 980,
      "æĢĿ": 981,
      "éĿŀ": 982,
      "ĠB": 983,
      "æº": 984,
      "äº²": 985,
      "ce": 986,
      "èĮ": 987,
      "é»ĳ": 988,
      "æģ¯": 989,
      "Ġst": 990,
      "åı«": 991,
      "ä»Ĭ": 992,
      "æ¯ı": 993,
      "æĮģ": 994,
      "èĬ±": 995,
      "èĩ³": 996,
      "è®¡": 997,
      "é£İ": 998,
      "ç«ĭ": 999,
      "æĸŃ": 1000,
      "æ¥": 1001,
      "æľ¯": 1002,
      "ç¬¬": 1003,
      "åŀ": 1004,
      "æıĴ": 1005,
      "å¹²": 1006,
      "æĺ¯ä¸Ģ": 1007,
      "ä»£": 1008,
      "æķ´": 1009,
      "ĠC": 1010,
      "ç¿": 1011,
      "éº": 1012,
      "ter": 1013,
      "éļ¾": 1014,
      "æķĻ": 1015,
      "æħ¢": 1016,
      "æľĽ": 1017,
      "åĵĪ": 1018,
      "æĦŁè§ī": 1019,
      "å®¹": 1020,
      "èĪ¬": 1021,
      "èĤ¡": 1022,
      "em": 1023,
      "è¿ŀ": 1024,
      "ãģ£": 1025,
      "ä¹Ĳ": 1026,
      "ãģĭ": 1027,
      "çĬ": 1028,
      "çı": 1029,
      "ä¼¼": 1030,
      "æ¿": 1031,
      "åĪ©": 1032,
      "ĠP": 1033,
      "å«": 1034,
      "çľĭçĿĢ": 1035,
      "Ġon": 1036,
      "åĬ©": 1037,
      "æĻº": 1038,
      "ãĢĢ": 1039,
      "ä½Ĩæĺ¯": 1040,
      "æ¬¢": 1041,
      "èĳĹ": 1042,
      "å»º": 1043,
      "ä¸Ķ": 1044,
      "ä¸ľ": 1045,
      "âĢ¦âĢ¦ãĢį": 1046,
      "th": 1047,
      "æµ·": 1048,
      "åĸľ": 1049,
      "ĠD": 1050,
      "çļĦå°ı": 1051,
      "å¸Ī": 1052,
      "å¦Īå¦Ī": 1053,
      "æŀĹ": 1054,
      "ç¡®": 1055,
      "æĹ¶éĹ´": 1056,
      "å¦Ĥæŀľ": 1057,
      "åĲĥ": 1058,
      "éĩĳ": 1059,
      "éĹ®é¢ĺ": 1060,
      "åŃ©": 1061,
      "ul": 1062,
      "ç©º": 1063,
      "çİ©": 1064,
      "se": 1065,
      "é©¬": 1066,
      "20": 1067,
      "æĢ»": 1068,
      "è¶³": 1069,
      "æ½": 1070,
      "Ġthat": 1071,
      "ï¼ģâĢĿ": 1072,
      "um": 1073,
      "å²": 1074,
      "ä¹İ": 1075,
      "ä½¿çĶ¨": 1076,
      "ay": 1077,
      "ä¸Ģä¸ĭ": 1078,
      "ä»¶": 1079,
      "è¡£": 1080,
      "éľ²": 1081,
      "ge": 1082,
      "ä¼ł": 1083,
      "Ġyou": 1084,
      "è¨Ģ": 1085,
      "å¾Ģ": 1086,
      "æľŁ": 1087,
      "åŃĹ": 1088,
      "è¯·": 1089,
      "Ġan": 1090,
      "è®¸": 1091,
      "åĲ¸": 1092,
      "åĹ¯": 1093,
      "å±ķ": 1094,
      "ä¹ł": 1095,
      "åĳ³": 1096,
      "çĦ¶åĲİ": 1097,
      "éĸ": 1098,
      "å½¢": 1099,
      "å¸Ĥ": 1100,
      "æĸ¯": 1101,
      "æ¯į": 1102,
      "ç®¡": 1103,
      "åĻ¨": 1104,
      "åł": 1105,
      "åĵ¥": 1106,
      "ï¼ļâĢľ": 1107,
      "Ġv": 1108,
      "ï¼ŁâĢĿ": 1109,
      "çļĦèĦ": 1110,
      "æī¾": 1111,
      "Ã¼": 1112,
      "äº§": 1113,
      "æĿİ": 1114,
      "çĻ": 1115,
      "Ġwh": 1116,
      "æ¿Ģ": 1117,
      "æŃ¥": 1118,
      "å°Ħ": 1119,
      "èı": 1120,
      "ad": 1121,
      "è¿Ļä¹Ī": 1122,
      "æĹ©": 1123,
      "åĬ¡": 1124,
      "çļĦä¸Ģ": 1125,
      "è¿ĻäºĽ": 1126,
      "æ¹": 1127,
      "ä¸įè¿ĩ": 1128,
      "æĬ½": 1129,
      "ĠĠĠ": 1130,
      "æ³¨": 1131,
      "ãĤĬ": 1132,
      "ers": 1133,
      "éĽª": 1134,
      "ä¸ĸ": 1135,
      "èĻ½": 1136,
      "é¦Ļ": 1137,
      "è®¤": 1138,
      "è½¬": 1139,
      "çīĩ": 1140,
      "äººçļĦ": 1141,
      "ĠF": 1142,
      "å°Ķ": 1143,
      "if": 1144,
      "è¿ĳ": 1145,
      "æĿ¡": 1146,
      "æľª": 1147,
      "ç¦»": 1148,
      "é£Ł": 1149,
      "åıĸ": 1150,
      "ç»Ĩ": 1151,
      "æł¼": 1152,
      "ç©¿": 1153,
      "ess": 1154,
      "é¸¡": 1155,
      "éĺ¿": 1156,
      "ç¢": 1157,
      "Ġr": 1158,
      "åģľ": 1159,
      "åįĬ": 1160,
      "ith": 1161,
      "è½¦": 1162,
      "çİ¯": 1163,
      "ï½ŀ": 1164,
      "ãĤĤ": 1165,
      "ĠE": 1166,
      "ä¹Łä¸į": 1167,
      "åĪ»": 1168,
      "çĥŃ": 1169,
      "çªģ": 1170,
      "è§Ĩ": 1171,
      "çİī": 1172,
      "åıĭ": 1173,
      "åĽĽ": 1174,
      "ãĤĮ": 1175,
      "å¡": 1176,
      "te": 1177,
      "æľīäºĽ": 1178,
      "å±±": 1179,
      "çĲĥ": 1180,
      "æĪĺ": 1181,
      "çļĦè¡": 1182,
      "è¯Ĩ": 1183,
      "åĩĨ": 1184,
      "ç»Ń": 1185,
      "ĠH": 1186,
      "ä¸½": 1187,
      "èĦļ": 1188,
      "æ¸©": 1189,
      "Ġal": 1190,
      "ä¸Ģæ¬¡": 1191,
      "åĵį": 1192,
      "Ġ(": 1193,
      "å¤±": 1194,
      "èº«ä½ĵ": 1195,
      "åĿĲ": 1196,
      "åĳ½": 1197,
      "Ġk": 1198,
      "ãģĨ": 1199,
      "åįķ": 1200,
      "çļĦèĤī": 1201,
      "ä¸Ģæł·": 1202,
      "ä»ĸçļĦ": 1203,
      "è·¯": 1204,
      "éĺ³": 1205,
      "èĲ½": 1206,
      "ãĤī": 1207,
      "æĶ¶": 1208,
      "å¤Ł": 1209,
      "ab": 1210,
      "Ġpro": 1211,
      "çļĦäºº": 1212,
      "æŀģ": 1213,
      "ä¾Ľ": 1214,
      "åı¸": 1215,
      "åĳ¨": 1216,
      "Ġit": 1217,
      "éĢī": 1218,
      "æİ¨": 1219,
      "and": 1220,
      "å¼Ħ": 1221,
      "ä¸ĢäºĽ": 1222,
      "Ġund": 1223,
      "èĻ½çĦ¶": 1224,
      "ĊĊĊĊ": 1225,
      "åį³": 1226,
      "ĊĊĊĊĠĠĠ": 1227,
      "çľĭåĪ°": 1228,
      "è¿Ļç§į": 1229,
      "åıªæĺ¯": 1230,
      "åĲĦ": 1231,
      "æŁĶ": 1232,
      "æĻºèĥ½": 1233,
      "æĸĻ": 1234,
      "åħĭ": 1235,
      "çĨ": 1236,
      "æīĢä»¥": 1237,
      "åºĬ": 1238,
      "ĠG": 1239,
      "ä¸ĬçļĦ": 1240,
      "åĮº": 1241,
      "ãĥ¼ãĥ": 1242,
      "åħ´": 1243,
      "ere": 1244,
      "åŁİ": 1245,
      "åĵª": 1246,
      "è¿Ľè¡Į": 1247,
      "å¥½çļĦ": 1248,
      "åºķ": 1249,
      "åĨ³": 1250,
      "åĪĻ": 1251,
      "å®¢": 1252,
      "å¨ĩ": 1253,
      "Ġas": 1254,
      "ãĤ¹": 1255,
      "åĳĺ": 1256,
      "èº": 1257,
      "çħ": 1258,
      "æĭ¿": 1259,
      "åı°": 1260,
      "æĻļ": 1261,
      "ä¸¤ä¸ª": 1262,
      "ç«Ł": 1263,
      "èĽ": 1264,
      "è¾¾": 1265,
      "æĺŁ": 1266,
      "éĿŀå¸¸": 1267,
      "æ¸¸": 1268,
      "Ġwith": 1269,
      "éĢŁ": 1270,
      "ä½İ": 1271,
      "é¾Ļ": 1272,
      "Ã¤": 1273,
      "ä¾ĭ": 1274,
      "å£«": 1275,
      "æ®µ": 1276,
      "å¤ĩ": 1277,
      "å±ģ": 1278,
      "ä¸įè¦ģ": 1279,
      "è®¾": 1280,
      "ãģı": 1281,
      "è®°": 1282,
      "od": 1283,
      "æĬ±": 1284,
      "ç»Ī": 1285,
      "Ġare": 1286,
      "çŀ": 1287,
      "çļĦå¤§": 1288,
      "å¦¹": 1289,
      "è½¯": 1290,
      "åĤ": 1291,
      "çģ«": 1292,
      "çº¿": 1293,
      "åİĭ": 1294,
      "å°½": 1295,
      "ä¸Ģèµ·": 1296,
      "åĳ¼": 1297,
      "ä¸ŃçļĦ": 1298,
      "åŀĭ": 1299,
      "ä¸ĭæĿ¥": 1300,
      "éŃĶ": 1301,
      "ä¸Ģè¾¹": 1302,
      "âĢĶâĢĶ": 1303,
      "å¥³äºº": 1304,
      "åķĬåķĬ": 1305,
      "è´¨": 1306,
      "è°ĥ": 1307,
      "é¢Ĩ": 1308,
      "åĢĴ": 1309,
      "ç»Ł": 1310,
      "ç«Ļ": 1311,
      "æĬĢæľ¯": 1312,
      "æĢģ": 1313,
      "åĪº": 1314,
      "ä½łçļĦ": 1315,
      "Ġcon": 1316,
      "èª": 1317,
      "ä¹Łæĺ¯": 1318,
      "ung": 1319,
      "éĺµ": 1320,
      "åĲĮæĹ¶": 1321,
      "å®¤": 1322,
      "åĵ¦": 1323,
      "æĪ·": 1324,
      "ãģĵ": 1325,
      "è¯ķ": 1326,
      "çķĮ": 1327,
      "éĢĤ": 1328,
      "åı¥": 1329,
      "åĸľæ¬¢": 1330,
      "æ¬²": 1331,
      "ist": 1332,
      "åª": 1333,
      "è§Ĵ": 1334,
      "éĨ": 1335,
      "ĠR": 1336,
      "çŃĶ": 1337,
      "åºĶè¯¥": 1338,
      "æıĲä¾Ľ": 1339,
      "åħĥ": 1340,
      "ãĤĵ": 1341,
      "åŁº": 1342,
      "ck": 1343,
      "åĳĬ": 1344,
      "æ¨¡": 1345,
      "çļĦæĹ¶åĢĻ": 1346,
      "ies": 1347,
      "ill": 1348,
      "Ġse": 1349,
      "æĺ¾": 1350,
      "å«©": 1351,
      "éĤ£ä¹Ī": 1352,
      "å¤«": 1353,
      "è¿ĺæľī": 1354,
      "èĪĴ": 1355,
      "å¸ĥ": 1356,
      "ĠL": 1357,
      "'s": 1358,
      "çĥĪ": 1359,
      "Ġor": 1360,
      "å¤į": 1361,
      "ãĤ¤": 1362,
      "èĤīæ£Ĵ": 1363,
      "ç¤º": 1364,
      "èĢĥ": 1365,
      "è®®": 1366,
      "éĤ£ä¸ª": 1367,
      "è¿Ĳ": 1368,
      "çĹĽ": 1369,
      "åĬŁ": 1370,
      "éĥ½æĺ¯": 1371,
      "å¿į": 1372,
      "æ½®": 1373,
      "å·¥ä½ľ": 1374,
      "end": 1375,
      "ä¸įæĸŃ": 1376,
      "pp": 1377,
      "ä¹ħ": 1378,
      "è£ħ": 1379,
      "è¯´éģĵ": 1380,
      "åĶĩ": 1381,
      "åĮ»": 1382,
      "ns": 1383,
      "å¾Į": 1384,
      "Ġ2": 1385,
      "ä¾Ĩ": 1386,
      "éĢģ": 1387,
      "ate": 1388,
      "ä¼¸": 1389,
      "å¸®åĬ©": 1390,
      "ç§ĳ": 1391,
      "åıĳçİ°": 1392,
      "åŃ¦ä¹ł": 1393,
      "åĩ»": 1394,
      "å¾·": 1395,
      "æĽ´åĬł": 1396,
      "æĳ¸": 1397,
      "æĮº": 1398,
      "ãĥĥ": 1399,
      "ç¤¾": 1400,
      "å¤§çļĦ": 1401,
      "--": 1402,
      "å¯¼": 1403,
      "è±¡": 1404,
      "....": 1405,
      "ãĢĭ": 1406,
      "éĿĻ": 1407,
      "éħĴ": 1408,
      "åĨĻ": 1409,
      "ä¾Ŀ": 1410,
      "ãĢĬ": 1411,
      "èİī": 1412,
      "os": 1413,
      "è®º": 1414,
      "å¼ķ": 1415,
      "å¢ĥ": 1416,
      "19": 1417,
      "ä¸įä¼ļ": 1418,
      "åĪĩ": 1419,
      "æ°ĳ": 1420,
      "ine": 1421,
      "è§īå¾Ĺ": 1422,
      "ä¹ĭåĲİ": 1423,
      "èĦĳ": 1424,
      "æķĪ": 1425,
      "éĢļè¿ĩ": 1426,
      "çļĦè¯Ŀ": 1427,
      "æĶ¹": 1428,
      "æĢķ": 1429,
      "op": 1430,
      "äºĶ": 1431,
      "èµĦ": 1432,
      "ä»¥ä¸ĭ": 1433,
      "iv": 1434,
      "ç»Ŀ": 1435,
      "ï¼Ľ": 1436,
      "æĻ¯": 1437,
      "ä»¤": 1438,
      "åĨ·": 1439,
      "è£¤": 1440,
      "è¿ľ": 1441,
      "å¸Į": 1442,
      "é£ŀ": 1443,
      "ãģł": 1444,
      "éĿĴ": 1445,
      "åĨĽ": 1446,
      "æĶ¯": 1447,
      "åı¦": 1448,
      "é¦ĸ": 1449,
      "ak": 1450,
      "åħ¬åı¸": 1451,
      "ãĥĪ": 1452,
      "èĥĮ": 1453,
      "ç½ĳ": 1454,
      "éĶĻ": 1455,
      "åĩºäºĨ": 1456,
      "qu": 1457,
      "èĩ´": 1458,
      "å£°éŁ³": 1459,
      "æĥĬ": 1460,
      "å¥¶": 1461,
      "ä¸įåĲĮ": 1462,
      "å®Įåħ¨": 1463,
      "åįĹ": 1464,
      "å¥ĩ": 1465,
      "å®³": 1466,
      "Â·": 1467,
      "æĬ¤": 1468,
      "ä¹¦": 1469,
      "çĳ": 1470,
      "Ġ\"": 1471,
      "ĠK": 1472,
      "ãģķ": 1473,
      "ach": 1474,
      "å¾ħ": 1475,
      "åŃĺ": 1476,
      "èĴ": 1477,
      "Ġex": 1478,
      "äºļ": 1479,
      "ãģį": 1480,
      "éĢł": 1481,
      "åĬ¿": 1482,
      "çĿ¡": 1483,
      "ç¼ĵ": 1484,
      "èĵ": 1485,
      "çķĻ": 1486,
      "æķ°æį®": 1487,
      "åĨµ": 1488,
      "ld": 1489,
      "åı¯æĺ¯": 1490,
      "Ġder": 1491,
      "ç´ł": 1492,
      "å°ĳå¥³": 1493,
      "Ġz": 1494,
      "æłĩ": 1495,
      "âĶ": 1496,
      "çªģçĦ¶": 1497,
      "èĨ": 1498,
      "çľŁçļĦ": 1499,
      "çº¦": 1500,
      "Ġcom": 1501,
      "ä¸įä½ı": 1502,
      "åįİ": 1503,
      "æºĲ": 1504,
      "èĥ¸": 1505,
      "ä¸ĩ": 1506,
      "äºĳ": 1507,
      "èĬĤ": 1508,
      "ĠThe": 1509,
      "çļĦèº«ä½ĵ": 1510,
      "é¼": 1511,
      "ĠN": 1512,
      "é¸¡å·´": 1513,
      "Ġdie": 1514,
      "å¤ľ": 1515,
      "ä½łä»¬": 1516,
      "åĨ²": 1517,
      "æ¸Ĳ": 1518,
      "éĻ¤": 1519,
      "Ġde": 1520,
      "hr": 1521,
      "åĬŀ": 1522,
      "æĶ¿": 1523,
      "æ¶Ī": 1524,
      "èĩªçĦ¶": 1525,
      "èĭ¥": 1526,
      "ãģ¾ãģĻ": 1527,
      "âĢ¦âĢ¦âĢĿ": 1528,
      "...": 1529,
      "æĢ¥": 1530,
      "æĿ¾": 1531,
      "æĮī": 1532,
      "ud": 1533,
      "è§Ĥ": 1534,
      "éĩįè¦ģ": 1535,
      "æ»ĳ": 1536,
      "å¿ħ": 1537,
      "ãģĤ": 1538,
      "é¡¶": 1539,
      "ç»§": 1540,
      "èĦ±": 1541,
      "åķĨ": 1542,
      "åĲ«": 1543,
      "ä¸įèĥ½": 1544,
      "é»Ħ": 1545,
      "ä¹ī": 1546,
      "è¿Ļæĺ¯": 1547,
      "çļĦèĥ": 1548,
      "ä¿®": 1549,
      "èĭ±": 1550,
      "Ġ=": 1551,
      "igh": 1552,
      "ä¸ĢçĤ¹": 1553,
      "åħħ": 1554,
      "çļ®": 1555,
      "åģ¥": 1556,
      "æĺĵ": 1557,
      "çĶļ": 1558,
      "ä»Ĭå¤©": 1559,
      "èĢĮä¸Ķ": 1560,
      "**": 1561,
      "èĸ": 1562,
      "ä¹±": 1563,
      "è¿ĻéĩĮ": 1564,
      "äººå·¥": 1565,
      "åĳľ": 1566,
      "ag": 1567,
      "å¨ľ": 1568,
      "éĢĻ": 1569,
      "å®«": 1570,
      "ç»Ħ": 1571,
      "è°¢": 1572,
      "åħ¶ä»ĸ": 1573,
      "çħ§": 1574,
      "ä¸ºäºĨ": 1575,
      "éħį": 1576,
      "å¿Ļ": 1577,
      "åĪĽ": 1578,
      "çģµ": 1579,
      "art": 1580,
      "Ġne": 1581,
      "æľĢåĲİ": 1582,
      "éĻĪ": 1583,
      "ind": 1584,
      "åħ±": 1585,
      "ort": 1586,
      "çĬ¶": 1587,
      "ber": 1588,
      "ä¸ĢçĽ´": 1589,
      "çļĦç²": 1590,
      "ant": 1591,
      "æİĴ": 1592,
      "ç½®": 1593,
      "éļıçĿĢ": 1594,
      "éªĮ": 1595,
      "é²": 1596,
      "æ¡Ī": 1597,
      "æĵį": 1598,
      "wer": 1599,
      "èº«ä¸Ĭ": 1600,
      "åĳĢ": 1601,
      "ity": 1602,
      "å¦Ĥä½ķ": 1603,
      "å¼Ł": 1604,
      "å±ģèĤ¡": 1605,
      "äºĭæĥħ": 1606,
      "æķħ": 1607,
      "ä¸ľè¥¿": 1608,
      "çĽ´æİ¥": 1609,
      "çĪ¸": 1610,
      "æĻĤ": 1611,
      "çĶŁæ´»": 1612,
      "æĬĵ": 1613,
      "æĿ¥çļĦ": 1614,
      "ãģĬ": 1615,
      "å±ħ": 1616,
      "ç±³": 1617,
      "äººå·¥æĻºèĥ½": 1618,
      "æĥ³è¦ģ": 1619,
      "æĭ¬": 1620,
      "ment": 1621,
      "èĥ½å¤Ł": 1622,
      "ä»½": 1623,
      "ive": 1624,
      "è¡Ģ": 1625,
      "åĽ¢": 1626,
      "åİĨ": 1627,
      "è®©æĪĳ": 1628,
      "æİ§": 1629,
      "äº«": 1630,
      "æĢª": 1631,
      "éĽĨ": 1632,
      "Ġsu": 1633,
      "æŃ¢": 1634,
      "ell": 1635,
      "åĪĹ": 1636,
      "ãģĹãģ¦": 1637,
      "10": 1638,
      "Ġhe": 1639,
      "Ġha": 1640,
      "ä¼ĺ": 1641,
      "çļĦæĺ¯": 1642,
      "ä¸įçŁ¥éģĵ": 1643,
      "æ¢¦": 1644,
      "çĭł": 1645,
      "åĮĹ": 1646,
      "çµ": 1647,
      "å·®": 1648,
      "ä¸ĢèĪ¬": 1649,
      "æ¹¿": 1650,
      "å¨ĺ": 1651,
      "pe": 1652,
      "å·¦": 1653,
      "ç§°": 1654,
      "çľ¼çĿ": 1655,
      "ç®Ģ": 1656,
      "å®ĺ": 1657,
      "è¯į": 1658,
      "èħ°": 1659,
      "çļĦè§": 1660,
      "æĹłæ³ķ": 1661,
      "ãĥ«": 1662,
      "éĽħ": 1663,
      "å¯Ĩ": 1664,
      "æĬ¥": 1665,
      "ä¼¼ä¹İ": 1666,
      "åıĳå±ķ": 1667,
      "å·¨": 1668,
      "åŁŁ": 1669,
      "å¼Ĥ": 1670,
      "èĪĮ": 1671,
      "ç¯": 1672,
      "éĽ¨": 1673,
      "çĭĹ": 1674,
      "åĽłæŃ¤": 1675,
      "äº®": 1676,
      "è¸": 1677,
      "Ġwe": 1678,
      "éĺŁ": 1679,
      "åĵĪåĵĪ": 1680,
      "è¿·": 1681,
      "ç½Ĺ": 1682,
      "çļĦæīĭ": 1683,
      "ãĤ¯": 1684,
      "å®Ŀ": 1685,
      "é¤": 1686,
      "éł": 1687,
      "åı³": 1688,
      "çļĦèĤīæ£Ĵ": 1689,
      "ç¡¬": 1690,
      "ç¾ŀ": 1691,
      "å½±åĵį": 1692,
      "æ¤": 1693,
      "å¤ı": 1694,
      "æĹģ": 1695,
      "çľ¼çĿĽ": 1696,
      "åĽ´": 1697,
      "è¾ĥ": 1698,
      "Ġat": 1699,
      "èŃ": 1700,
      "åıĮæīĭ": 1701,
      "ç«ł": 1702,
      "çĵ": 1703,
      "åĽ¾": 1704,
      "åĮħæĭ¬": 1705,
      "èĽĭ": 1706,
      "ç¿»": 1707,
      "ä¹ĭéĹ´": 1708,
      "æ´Ĺ": 1709,
      "æ¯Ľ": 1710,
      "é¡º": 1711,
      "æĿĲ": 1712,
      "éĩĮéĿ¢": 1713,
      "çĨŁ": 1714,
      "æł¡": 1715,
      "åį¡": 1716,
      "rom": 1717,
      "ç»§ç»Ń": 1718,
      "çİĩ": 1719,
      "ore": 1720,
      "æĭ©": 1721,
      "Ġein": 1722,
      "æĢĢ": 1723,
      "ï¼ĮãĢĮ": 1724,
      "æİī": 1725,
      "ä»·": 1726,
      "èĪĶ": 1727,
      "ä»ħ": 1728,
      "ä¾ĭå¦Ĥ": 1729,
      "çļĦåľ°": 1730,
      "è½»è½»": 1731,
      "uf": 1732,
      "æ¦": 1733,
      "æ²ī": 1734,
      "Ġle": 1735,
      "æľīä¸Ģ": 1736,
      "é«ĺæ½®": 1737,
      "å½ĵçĦ¶": 1738,
      "çĻ¾": 1739,
      "æį¢": 1740,
      "æ¼Ķ": 1741,
      "åĪĴ": 1742,
      "ain": 1743,
      "Ġim": 1744,
      "ä¸ĸçķĮ": 1745,
      "ri": 1746,
      "åĢ¼": 1747,
      "çł´": 1748,
      "éĢīæĭ©": 1749,
      "ç²Ĺ": 1750,
      "è¿ĩæĿ¥": 1751,
      "åºĹ": 1752,
      "åħ°": 1753,
      "æĪı": 1754,
      "èĩĢ": 1755,
      "ãģ£ãģ¦": 1756,
      "èľ": 1757,
      "Ġch": 1758,
      "å¿«æĦŁ": 1759,
      "çļĦç¾": 1760,
      "Ġby": 1761,
      "Ġcan": 1762,
      "åĪºæ¿Ģ": 1763,
      "çĶ¨åĬĽ": 1764,
      "æ²»": 1765,
      "åı·": 1766,
      "ten": 1767,
      "éĻ¢": 1768,
      "åı¤": 1769,
      "åı¶": 1770,
      "og": 1771,
      "éĢı": 1772,
      "ä¸ªäºº": 1773,
      "æĺ¥": 1774,
      "åĨ°": 1775,
      "estion": 1776,
      "æīĢæľī": 1777,
      "æ¥ļ": 1778,
      "æĥ³åĪ°": 1779,
      "çļĦèĦ¸": 1780,
      "æļĹ": 1781,
      "å¢ŀ": 1782,
      "å¹¿": 1783,
      "éĨĴ": 1784,
      "æŁ¥": 1785,
      "ĊãĢĢ": 1786,
      "ä¿¡æģ¯": 1787,
      "ĠU": 1788,
      "å¦ĤæŃ¤": 1789,
      "é¢¤": 1790,
      "ç©¶": 1791,
      "éŀ": 1792,
      "èĭı": 1793,
      "æħ¢æħ¢": 1794,
      "èĭ¦": 1795,
      "èĢ³": 1796,
      "çŁŃ": 1797,
      "åŃ©åŃĲ": 1798,
      "èĪĴæľį": 1799,
      "ãĥª": 1800,
      "åº·": 1801,
      "ãģĿ": 1802,
      "æĭį": 1803,
      "åįļ": 1804,
      "åıĤ": 1805,
      "æĹı": 1806,
      "Ġ3": 1807,
      "æĸ¹éĿ¢": 1808,
      "æł¹æį®": 1809,
      "è²": 1810,
      "åĪĺ": 1811,
      "ãĥ©": 1812,
      "åºĶçĶ¨": 1813,
      "æķ¢": 1814,
      "æİĮ": 1815,
      "ç´¢": 1816,
      "Ġ-": 1817,
      "Ġ\\": 1818,
      "çĪ½": 1819,
      "Ã¶": 1820,
      "ç»´": 1821,
      "ä¼Ĺ": 1822,
      "æĬķ": 1823,
      "Ġnot": 1824,
      "éªļ": 1825,
      "ï¼ĮâĢľ": 1826,
      "èĹ": 1827,
      "ĠO": 1828,
      "å§Ĳå§Ĳ": 1829,
      "æĸ¹å¼ı": 1830,
      "åıĳåĩº": 1831,
      "åĲ»": 1832,
      "äºĨèµ·æĿ¥": 1833,
      "ãĤĪ": 1834,
      "çĶ»": 1835,
      "æķ£": 1836,
      "ç»ĻæĪĳ": 1837,
      "Qu": 1838,
      "pt": 1839,
      "æľĭ": 1840,
      "æĮĳ": 1841,
      "æĳĩ": 1842,
      "æľĿ": 1843,
      "ä¼¤": 1844,
      "æµĭ": 1845,
      "ä»¥åıĬ": 1846,
      "ä¸°": 1847,
      "ç»ĥ": 1848,
      "å¥¹ä»¬": 1849,
      "ãģĳ": 1850,
      "æĹħ": 1851,
      "è¹": 1852,
      "å¥Ĺ": 1853,
      "all": 1854,
      "åĲŁ": 1855,
      "ä»»ä½ķ": 1856,
      "é¡¹": 1857,
      "åľ¨äºĨ": 1858,
      "åıªæľī": 1859,
      "ik": 1860,
      "è·³": 1861,
      "åİ»äºĨ": 1862,
      "æĥħåĨµ": 1863,
      "åľ¨æĪĳ": 1864,
      "äººç±»": 1865,
      "åĩı": 1866,
      "æŃ¦": 1867,
      "è¿°": 1868,
      "éĿł": 1869,
      "çŁ³": 1870,
      "åĪĿ": 1871,
      "æİ¢": 1872,
      "æĸĩç«ł": 1873,
      "Ġwas": 1874,
      "ï¼ģï¼ģ": 1875,
      "æģ¶": 1876,
      "å¿µ": 1877,
      "ff": 1878,
      "çĶļèĩ³": 1879,
      "éº»": 1880,
      "ust": 1881,
      "ĠV": 1882,
      "ost": 1883,
      "æĸ¹æ³ķ": 1884,
      "Ġab": 1885,
      "è°ģ": 1886,
      "åĲ¦": 1887,
      "pl": 1888,
      "ä¸»äºº": 1889,
      "ĠWh": 1890,
      "æıĲé«ĺ": 1891,
      "é¢Ħ": 1892,
      "ass": 1893,
      "å©Ĩ": 1894,
      "çĹħ": 1895,
      "å¼ĢäºĨ": 1896,
      "ãĤ¢": 1897,
      "ial": 1898,
      "çľŁæĺ¯": 1899,
      "æľĭåıĭ": 1900,
      "å±ŀ": 1901,
      "che": 1902,
      "ä¸Ģå®ļ": 1903,
      "æĦŁåĪ°": 1904,
      "çº§": 1905,
      "æµª": 1906,
      "æĩ": 1907,
      "ä¸ĵ": 1908,
      "å¦»": 1909,
      "ä½ıäºĨ": 1910,
      "é¤Ĳ": 1911,
      "è¯ī": 1912,
      "æĬĸ": 1913,
      "ĠJ": 1914,
      "æı¡": 1915,
      "å³": 1916,
      "åĢĭ": 1917,
      "ãģĹãģŁ": 1918,
      "æ²Ļ": 1919,
      "éĻ©": 1920,
      "å¾Īå¤ļ": 1921,
      "ç²ī": 1922,
      "æĬ¬": 1923,
      "Ġhave": 1924,
      "çİ¯å¢ĥ": 1925,
      "æĿĢ": 1926,
      "åıªèĥ½": 1927,
      "èī²çļĦ": 1928,
      "åĸĿ": 1929,
      "Ġfrom": 1930,
      "å°ĸ": 1931,
      "æĸ½": 1932,
      "åı²": 1933,
      "æīŃ": 1934,
      "æľ¨": 1935,
      "å¥½åĥı": 1936,
      "çĮĽ": 1937,
      "èģĶ": 1938,
      "ä¹ĭåīį": 1939,
      "è¯ģ": 1940,
      "çĭĤ": 1941,
      "éĴŁ": 1942,
      "ä½Ľ": 1943,
      "æ³¨æĦı": 1944,
      "è¿Ļä¸Ģ": 1945,
      "æŃ¤æĹ¶": 1946,
      "æĿ¥äºĨ": 1947,
      "éĴ±": 1948,
      "ä¸ŃåĽ½": 1949,
      "nswer": 1950,
      "æĿ¿": 1951,
      "çĪ¶": 1952,
      "èĤ²": 1953,
      "åįĥ": 1954,
      "é¾Ł": 1955,
      "è§¦": 1956,
      "ould": 1957,
      "æĪĳä¹Ł": 1958,
      "æł·åŃĲ": 1959,
      "èķ": 1960,
      "è¶£": 1961,
      "å¥ĭ": 1962,
      "éĸĭ": 1963,
      "åĩĨå¤ĩ": 1964,
      "Ġdo": 1965,
      "æĳ©": 1966,
      "è´¹": 1967,
      "æļ´": 1968,
      "æŃĮ": 1969,
      "è§Ħ": 1970,
      "ure": 1971,
      "æ¯«": 1972,
      "çĸĹ": 1973,
      "éĿ¢åīį": 1974,
      "æĽ²": 1975,
      "éļĲ": 1976,
      "çļĦç¾İ": 1977,
      "å¯¹äºİ": 1978,
      "æĵ¦": 1979,
      "åķ¦": 1980,
      "åĿı": 1981,
      "æ±Ł": 1982,
      "nt": 1983,
      "ight": 1984,
      "ä¸¤äºº": 1985,
      "é¡¾": 1986,
      "æķı": 1987,
      "çļĦéĺ´": 1988,
      "åħį": 1989,
      "åħ³ç³»": 1990,
      "Ġj": 1991,
      "å±Ĥ": 1992,
      "å¿ĥéĩĮ": 1993,
      "å®ĥä»¬": 1994,
      "æ³¢": 1995,
      "ä¹°": 1996,
      "orm": 1997,
      "é¡¿": 1998,
      "éĻħ": 1999,
      "æĦ¿": 2000,
      "æľīçĤ¹": 2001,
      "å¥½äºĨ": 2002,
      "åıĺå¾Ĺ": 2003,
      "åģĩ": 2004,
      "èĢģå¸Ī": 2005,
      "ãģ§ãģĻ": 2006,
      "ä¸ĬäºĨ": 2007,
      "çļĦç¬": 2008,
      "å¡ŀ": 2009,
      "åĿļ": 2010,
      "é½": 2011,
      "åº§": 2012,
      "ier": 2013,
      "è·ĳ": 2014,
      "Question": 2015,
      "æŃ£åľ¨": 2016,
      "Ġsh": 2017,
      "å·§": 2018,
      "Ġwor": 2019,
      "æĿ¨": 2020,
      "çļĦç²¾": 2021,
      "our": 2022,
      "ĠAnswer": 2023,
      "è®©å¥¹": 2024,
      "éĻĲ": 2025,
      "çļĦèħ": 2026,
      "çĩ": 2027,
      "è¶ħ": 2028,
      "Ġthis": 2029,
      "ear": 2030,
      "åĬ¨ä½ľ": 2031,
      "çĭ¬": 2032,
      "Ġãĥ": 2033,
      "uch": 2034,
      "ç£": 2035,
      "åľĨ": 2036,
      "èį¯": 2037,
      "ard": 2038,
      "è»": 2039,
      "åĶĶ": 2040,
      "å¥³åŃ©": 2041,
      "æĦŁåıĹ": 2042,
      "æĳĨ": 2043,
      "ãģ£ãģŁ": 2044,
      "ç§ģ": 2045,
      "ç§¯": 2046,
      "æıī": 2047,
      "éĩİ": 2048,
      "æ¶¦": 2049,
      "âĶħ": 2050,
      "éĤ£äºĽ": 2051,
      "æĬļ": 2052,
      "è¿ĩåİ»": 2053,
      "èį¡": 2054,
      "ction": 2055,
      "åĳµ": 2056,
      "äºĨä¸Ģä¸ĭ": 2057,
      "æĪ¿éĹ´": 2058,
      "åī§": 2059,
      "æĬĹ": 2060,
      "ä¸¾": 2061,
      "åºı": 2062,
      "ç»Īäºİ": 2063,
      "ç³»ç»Ł": 2064,
      "æ··": 2065,
      "åľ¨å¥¹": 2066,
      "å»ºè®®": 2067,
      "é¥Ń": 2068,
      "çłĶ": 2069,
      "èıľ": 2070,
      "ç§Ģ": 2071,
      "out": 2072,
      "æ´ģ": 2073,
      "Ġme": 2074,
      "iz": 2075,
      "çīĽ": 2076,
      "åįĩ": 2077,
      "ç¦ģ": 2078,
      "æİ§åĪ¶": 2079,
      "æĽ¾": 2080,
      "åħ¶ä¸Ń": 2081,
      "éĩĩ": 2082,
      "çļĦå£°éŁ³": 2083,
      "é¬": 2084,
      "å¤ĦçĲĨ": 2085,
      "ä¸įçŁ¥": 2086,
      "é¾Łå¤´": 2087,
      "åĥıæĺ¯": 2088,
      "ä¹³æĪ¿": 2089,
      "å¥´": 2090,
      "å¸ĮæľĽ": 2091,
      "Ã¼r": 2092,
      "åĸĺ": 2093,
      "è£Ļ": 2094,
      "per": 2095,
      "æīĭæĮĩ": 2096,
      "ib": 2097,
      "åģ¥åº·": 2098,
      "æĸĩåĮĸ": 2099,
      "éĥ¨åĪĨ": 2100,
      "ä¸Ģéĺµ": 2101,
      "æľįåĬ¡": 2102,
      "èİ·": 2103,
      "éĺ²": 2104,
      "äºĴ": 2105,
      "é¢ĨåŁŁ": 2106,
      "æ¥¼": 2107,
      "age": 2108,
      "æĪĳå°±": 2109,
      "ç«¯": 2110,
      "åĩłä¸ª": 2111,
      "æĿŁ": 2112,
      "æŀĲ": 2113,
      "ide": 2114,
      "ens": 2115,
      "è®¤ä¸º": 2116,
      "æ¯ķ": 2117,
      "ome": 2118,
      "ok": 2119,
      "åħ«": 2120,
      "ä»ĭ": 2121,
      "åĸĶ": 2122,
      "æĪĳæĥ³": 2123,
      "è®¸å¤ļ": 2124,
      "æ·¡": 2125,
      "åĳĬè¯ī": 2126,
      "ç¯ĩ": 2127,
      "æĽ´å¤ļ": 2128,
      "è¯Ĺ": 2129,
      "åĸ·": 2130,
      "Ġver": 2131,
      "æĪĸèĢħ": 2132,
      "è®¡ç®Ĺ": 2133,
      "åĽŀçŃĶ": 2134,
      "ãĤģ": 2135,
      "ä¸¥": 2136,
      "Ġso": 2137,
      "ä¸ºä»Ģä¹Ī": 2138,
      "ĠSt": 2139,
      "èĻĳ": 2140,
      "æĪĲäºĨ": 2141,
      "ãĤĦ": 2142,
      "è¢ĭ": 2143,
      "ãĢĤãĢĤ": 2144,
      "æ¾": 2145,
      "éģİ": 2146,
      "éĹ»": 2147,
      "å®īåħ¨": 2148,
      "äº«åıĹ": 2149,
      "ä¸Ģå£°": 2150,
      "åºĬä¸Ĭ": 2151,
      "ä¼ĳ": 2152,
      "èµµ": 2153,
      "å¦ĩ": 2154,
      "åıĳçĶŁ": 2155,
      "åŃ¦çĶŁ": 2156,
      "æŀĦ": 2157,
      "åªļ": 2158,
      "æĪĲä¸º": 2159,
      "Ġpl": 2160,
      "æĿĥ": 2161,
      "çļĦè¡¨": 2162,
      "ical": 2163,
      "åĲ¬åĪ°": 2164,
      "è¾ĵ": 2165,
      "ãģªãģĦ": 2166,
      "éģ¿": 2167,
      "éĩĬ": 2168,
      "åħ³äºİ": 2169,
      "čĊãĢĢ": 2170,
      "ç¾¤": 2171,
      "èµ·äºĨ": 2172,
      "ru": 2173,
      "ãģ©": 2174,
      "çĸĳ": 2175,
      "æ²¹": 2176,
      "æĮ¥": 2177,
      "å©ļ": 2178,
      "å¸¦çĿĢ": 2179,
      "è©": 2180,
      "``": 2181,
      "å¯Į": 2182,
      "å§¿": 2183,
      "äºĨè§£": 2184,
      "ĠIn": 2185,
      "ä½ľä¸º": 2186,
      "ç¶": 2187,
      "åºľ": 2188,
      "Ġus": 2189,
      "ä¿ĿæĬ¤": 2190,
      "æĻ®": 2191,
      "ne": 2192,
      "å°Ŀ": 2193,
      "æ´ŀ": 2194,
      "å¤¹": 2195,
      "æ´»åĬ¨": 2196,
      "æĺ¯ä¸Ģä¸ª": 2197,
      "ä¸įåģľ": 2198,
      "æ¡Į": 2199,
      "åĪļæīį": 2200,
      "åĿĹ": 2201,
      "ç¦ı": 2202,
      "èŃ¦": 2203,
      "Ġall": 2204,
      "æĿ¥è¶Ĭ": 2205,
      "åĪĨæŀĲ": 2206,
      "åĵ¼": 2207,
      "12": 2208,
      "ä»į": 2209,
      "åħ»": 2210,
      "ãģĪ": 2211,
      "ä½Ļ": 2212,
      "éĸĵ": 2213,
      "æĦıè¯Ĩ": 2214,
      "åĳ»": 2215,
      "ç§»": 2216,
      "çļĩ": 2217,
      "çĶŁæĪĲ": 2218,
      "æŁĲ": 2219,
      "ç·": 2220,
      "åĺĽ": 2221,
      "åŃĲçļĦ": 2222,
      "æľºåĻ¨": 2223,
      "ãĥ³ãĥ": 2224,
      "ä¼Ĭ": 2225,
      "The": 2226,
      "ãĥ»": 2227,
      "æģĲ": 2228,
      "icht": 2229,
      "Ġ|": 2230,
      "è¯Ńè¨Ģ": 2231,
      "åĳ»åĲŁ": 2232,
      "ä¸Ģåıª": 2233,
      "èĢģå©Ĩ": 2234,
      "éĵģ": 2235,
      "å¿Ĺ": 2236,
      "åģ·": 2237,
      "éĩĮçļĦ": 2238,
      "Ġwill": 2239,
      "æįı": 2240,
      "çıŃ": 2241,
      "å¹¸": 2242,
      "èĪŀ": 2243,
      "ents": 2244,
      "åĲĲ": 2245,
      "æ¢ħ": 2246,
      "çĴ": 2247,
      "æ¦Ĥ": 2248,
      "Ġyour": 2249,
      "èµ¶": 2250,
      "è´´": 2251,
      "æī¿": 2252,
      "ence": 2253,
      "ä»¿": 2254,
      "å½©": 2255,
      "ä¿ĿæĮģ": 2256,
      "éľ²åĩº": 2257,
      "å¨ģ": 2258,
      "è¶ĬæĿ¥è¶Ĭ": 2259,
      "ç´§ç´§": 2260,
      "èī¾": 2261,
      "å¾®å¾®": 2262,
      "ãĢĲ": 2263,
      "åħ´å¥ĭ": 2264,
      "âĢķ": 2265,
      "è¿½": 2266,
      "åĩºçİ°": 2267,
      "åħ¨èº«": 2268,
      "ä¹ĭä¸Ģ": 2269,
      "æĶ»": 2270,
      "å¯»": 2271,
      "ãĢĳ": 2272,
      "æĦıæĢĿ": 2273,
      "è¯Ħ": 2274,
      "æ¯įäº²": 2275,
      "çļĦæĦŁè§ī": 2276,
      "æķ´ä¸ª": 2277,
      "ç«ŁçĦ¶": 2278,
      "çļĦçĪ": 2279,
      "ãĤ¿": 2280,
      "åĨįæ¬¡": 2281,
      "è¿Ľåİ»": 2282,
      "ãģ¡": 2283,
      "çķ¥": 2284,
      "ä½³": 2285,
      "å§¨": 2286,
      "ä»¥åĲİ": 2287,
      "æĬ½æıĴ": 2288,
      "å¼¹": 2289,
      "åĴ¬": 2290,
      "ä¸»è¦ģ": 2291,
      "ä¸ĭåİ»": 2292,
      "è¢ľ": 2293,
      "åıĮèħ¿": 2294,
      "Ġte": 2295,
      "åį°": 2296,
      "ast": 2297,
      "éĹŃ": 2298,
      "çļĦèĪ": 2299,
      "AI": 2300,
      "äºī": 2301,
      "åħŃ": 2302,
      "ãĤ·": 2303,
      "åį«": 2304,
      "é»ĺ": 2305,
      "è¯´çĿĢ": 2306,
      "cc": 2307,
      "çºª": 2308,
      "Ġres": 2309,
      "gh": 2310,
      "du": 2311,
      "æĭħ": 2312,
      "åĩłä¹İ": 2313,
      "èĢģåħ¬": 2314,
      "å¾Īå¿«": 2315,
      "åĪļåĪļ": 2316,
      "ç»ĵæŀľ": 2317,
      "ç¤¾ä¼ļ": 2318,
      "rou": 2319,
      "å¿įä¸įä½ı": 2320,
      "ang": 2321,
      "éĢĲ": 2322,
      "éŀĭ": 2323,
      "ä»»åĬ¡": 2324,
      "der": 2325,
      "è´Ł": 2326,
      "åľ¨ä¸Ģèµ·": 2327,
      "å°¼": 2328,
      "å¯Ł": 2329,
      "Ġ5": 2330,
      "we": 2331,
      "èī³": 2332,
      "æ¸¸æĪı": 2333,
      "å²ģ": 2334,
      "å¿ĺ": 2335,
      "å¯¹æĸ¹": 2336,
      "fer": 2337,
      "åī¯": 2338,
      "ãĢİ": 2339,
      "åľ¨åľ°": 2340,
      "Ġun": 2341,
      "çłģ": 2342,
      "åĺ¿": 2343,
      "çĶµå½±": 2344,
      "ãģ¤": 2345,
      "èĤ¯": 2346,
      "æ´Ľ": 2347,
      "Ġen": 2348,
      "çŃĸ": 2349,
      "å³°": 2350,
      "çļĦè´": 2351,
      "æĿ¯": 2352,
      "ãĢı": 2353,
      "ä¸įåĪ°": 2354,
      "çĽĸ": 2355,
      "å¿ĥä¸Ń": 2356,
      "ç§ĺ": 2357,
      "çľ¼åīį": 2358,
      "ä¸įå¾Ĺ": 2359,
      "é²ľ": 2360,
      "äººä»¬": 2361,
      "åħ¶å®ŀ": 2362,
      "åīĳ": 2363,
      "åĨħå®¹": 2364,
      "å¾ĹåĪ°": 2365,
      "å¥Ī": 2366,
      "åįģåĪĨ": 2367,
      "è¡£æľį": 2368,
      "èĥ¡": 2369,
      "æĭ¥": 2370,
      "éģĩ": 2371,
      "åħµ": 2372,
      "ans": 2373,
      "èī¯": 2374,
      "ip": 2375,
      "ĠTh": 2376,
      "ãģĻãĤĭ": 2377,
      "ãģĭãĤī": 2378,
      "æĸĩæľ¬": 2379,
      "ç¼ĸ": 2380,
      "èĤ¤": 2381,
      "æľĥ": 2382,
      "åĽŃ": 2383,
      "ãģĽ": 2384,
      "çīĮ": 2385,
      "çŀ¬": 2386,
      "è¿ĽäºĨ": 2387,
      "èŀ": 2388,
      "Ġmit": 2389,
      "ice": 2390,
      "Ġ4": 2391,
      "ãĥ¬": 2392,
      "è¿İ": 2393,
      "åıįåºĶ": 2394,
      "åķª": 2395,
      "æĿ¥è¯´": 2396,
      "å¤§å®¶": 2397,
      "Ġman": 2398,
      "é±": 2399,
      "ä¸ĭçļĦ": 2400,
      "ect": 2401,
      "ç¤¼": 2402,
      "Ġcomp": 2403,
      "æİ¥çĿĢ": 2404,
      "ä»ĺ": 2405,
      "åıĶ": 2406,
      "å¾ĭ": 2407,
      "æĿĤ": 2408,
      "ä¸ĭéĿ¢": 2409,
      "æĪĳä¸į": 2410,
      "è¿ĲåĬ¨": 2411,
      "æĺ¯åľ¨": 2412,
      "æīĺ": 2413,
      "ä¾§": 2414,
      "Ġtheir": 2415,
      "ç¼©": 2416,
      "åıªè¦ģ": 2417,
      "éĢĢ": 2418,
      "ç§¦": 2419,
      "ä¸įäºĨ": 2420,
      "èĴĤ": 2421,
      "é¬¼": 2422,
      "èµĽ": 2423,
      "è®²": 2424,
      "ãģĵãģ¨": 2425,
      "å±ĭ": 2426,
      "èºº": 2427,
      "æŁĵ": 2428,
      "form": 2429,
      "åĲĦç§į": 2430,
      "æĻĥ": 2431,
      "é±¼": 2432,
      "èĮİ": 2433,
      "ult": 2434,
      "æµĵ": 2435,
      "ç¨į": 2436,
      "èĲ¥": 2437,
      "è¿Ľåħ¥": 2438,
      "çļĦçº": 2439,
      "é¹": 2440,
      "å°ıå§Ĳ": 2441,
      "ä¸ĥ": 2442,
      "æĪĳæĺ¯": 2443,
      "äº¬": 2444,
      "ap": 2445,
      "æıı": 2446,
      "çĸ¼": 2447,
      "å°¿": 2448,
      "çļĦå¥³": 2449,
      "ãĤı": 2450,
      "äº§çĶŁ": 2451,
      "Ġad": 2452,
      "çīĻ": 2453,
      "Ġpr": 2454,
      "Ġzu": 2455,
      "åºŃ": 2456,
      "å°ıç©´": 2457,
      "æľºä¼ļ": 2458,
      "è®¨": 2459,
      "å±Ģ": 2460,
      "èľľ": 2461,
      "Ġ20": 2462,
      "pr": 2463,
      "ç§ĭ": 2464,
      "éĻĨ": 2465,
      "ç®¡çĲĨ": 2466,
      "her": 2467,
      "åľŁ": 2468,
      "Ġ$": 2469,
      "åĺ´éĩĮ": 2470,
      "éĹª": 2471,
      "oc": 2472,
      "are": 2473,
      "Ġer": 2474,
      "éĽ·": 2475,
      "åĲĽ": 2476,
      "ç´«": 2477,
      "è®Ń": 2478,
      "æĭĽ": 2479,
      "æķĳ": 2480,
      "Ġden": 2481,
      "åĶĲ": 2482,
      "æĸĹ": 2483,
      "åĨħè£¤": 2484,
      "åİħ": 2485,
      "æ²³": 2486,
      "è£¸": 2487,
      "èĥ½åĬĽ": 2488,
      "one": 2489,
      "åľ£": 2490,
      "åĬ¨çĿĢ": 2491,
      "éª¨": 2492,
      "æĴŀ": 2493,
      "aus": 2494,
      "è§£åĨ³": 2495,
      "åŃĺåľ¨": 2496,
      "çļĦåľ°æĸ¹": 2497,
      "èĵĿ": 2498,
      "çĶ±äºİ": 2499,
      "ther": 2500,
      "çłĶç©¶": 2501,
      "eit": 2502,
      "æĪĳä»¬çļĦ": 2503,
      "è®¾è®¡": 2504,
      "æ©": 2505,
      "Ġdes": 2506,
      "è¿ĩç¨ĭ": 2507,
      "ä»Ļ": 2508,
      "ç¬ĳçĿĢ": 2509,
      "å¿½": 2510,
      "èİ«": 2511,
      "ç²¾æ¶²": 2512,
      "èĤ¥": 2513,
      "ack": 2514,
      "æīİ": 2515,
      "éĻį": 2516,
      "~~": 2517,
      "æ³Ľ": 2518,
      "æ¯Ķè¾ĥ": 2519,
      "äº§åĵģ": 2520,
      "èįī": 2521,
      "æĽ´å¥½": 2522,
      "æĹ¢": 2523,
      "çĲ³": 2524,
      "ä¹Ŀ": 2525,
      "æłĳ": 2526,
      "ä»¿ä½Ľ": 2527,
      "èĻİ": 2528,
      "è´Ŀ": 2529,
      "Ġgo": 2530,
      "Ġthey": 2531,
      "è³": 2532,
      "lich": 2533,
      "å¼±": 2534,
      "æł¹æľ¬": 2535,
      "äºĨåĩºæĿ¥": 2536,
      "çĥĪçļĦ": 2537,
      "èı²": 2538,
      "çļĦæł·åŃĲ": 2539,
      "éļĶ": 2540,
      "æ²Ĵ": 2541,
      "æļĸ": 2542,
      "è¯»": 2543,
      "çļĦèĥ¸": 2544,
      "å¾ģ": 2545,
      "æĻĵ": 2546,
      "ä¸Ģç§į": 2547,
      "çĿĢå¥¹": 2548,
      "ated": 2549,
      "èĦ¸ä¸Ĭ": 2550,
      "åĵŃ": 2551,
      "èīº": 2552,
      "æ±ī": 2553,
      "é¢ľ": 2554,
      "æµĳ": 2555,
      "çĺ": 2556,
      "å®Ī": 2557,
      "è®¡åĪĴ": 2558,
      "èµ¤": 2559,
      "äººå®¶": 2560,
      "æµ´": 2561,
      "åŁİå¸Ĥ": 2562,
      "ub": 2563,
      "åĿĲåľ¨": 2564,
      "ire": 2565,
      "åĦ¿åŃĲ": 2566,
      "æĢĴ": 2567,
      "è´µ": 2568,
      "éĶĢ": 2569,
      "000": 2570,
      "éĻ¤äºĨ": 2571,
      "xt": 2572,
      "åĲŀ": 2573,
      "çļĦäºĭ": 2574,
      "å¥½å¥½": 2575,
      "Ġmore": 2576,
      "act": 2577,
      "åįĪ": 2578,
      "å¦Ļ": 2579,
      "çĶľ": 2580,
      "éĵ¶": 2581,
      "èħ¹": 2582,
      "æ»¡è¶³": 2583,
      "11": 2584,
      "æ¬£": 2585,
      "ä¸ĬéĿ¢": 2586,
      "ï½ŀï½ŀ": 2587,
      "å®ĩ": 2588,
      "oll": 2589,
      "å¸Ŀ": 2590,
      "é¥®": 2591,
      "éĽĻ": 2592,
      "åıĺåĮĸ": 2593,
      "ãĤ«": 2594,
      "Ġals": 2595,
      "ame": 2596,
      "æľªæĿ¥": 2597,
      "åĪĢ": 2598,
      "äºİæĺ¯": 2599,
      "çļĦäºĭæĥħ": 2600,
      "æģ©": 2601,
      "ft": 2602,
      "çĶµè¯Ŀ": 2603,
      "éĢļå¸¸": 2604,
      "ary": 2605,
      "åĩıå°ĳ": 2606,
      "åĬª": 2607,
      "int": 2608,
      "çĪ·": 2609,
      "å¤ļå°ĳ": 2610,
      "ĠWhat": 2611,
      "å±ħçĦ¶": 2612,
      "åı¯ä»¥å¸®åĬ©": 2613,
      "å¹¶ä¸Ķ": 2614,
      "æľīä»Ģä¹Ī": 2615,
      "çĿĢæĪĳ": 2616,
      "æ»´": 2617,
      "èĢĥèĻĳ": 2618,
      "ä¸įå¥½": 2619,
      "av": 2620,
      "Ġsch": 2621,
      "è£¡": 2622,
      "å°±åľ¨": 2623,
      "çĦ¶èĢĮ": 2624,
      "ä¹³å¤´": 2625,
      "æ´¾": 2626,
      "é¼ĵ": 2627,
      "ç»Ļä½ł": 2628,
      "åĩĮ": 2629,
      "é¡»": 2630,
      "æĬĺ": 2631,
      "able": 2632,
      "ä¼Ļ": 2633,
      "æĬµ": 2634,
      "å°į": 2635,
      "é¢¤æĬĸ": 2636,
      "é¼»": 2637,
      "Ġbut": 2638,
      "çľĭçľĭ": 2639,
      "çĶ°": 2640,
      "ç¬¦": 2641,
      "ä¸ĢèĤ¡": 2642,
      "15": 2643,
      "ition": 2644,
      "åľĪ": 2645,
      "Ġper": 2646,
      "åĢĳ": 2647,
      "Ġhas": 2648,
      "ãģ¿": 2649,
      "sch": 2650,
      "èĹı": 2651,
      "åĳ¼åĲ¸": 2652,
      "æĬĬå¥¹": 2653,
      "ong": 2654,
      "æĹ§": 2655,
      "çľ¼ç¥ŀ": 2656,
      "ue": 2657,
      "ä¸´": 2658,
      "èģĬ": 2659,
      "å£ģ": 2660,
      "ild": 2661,
      "å©·": 2662,
      "ãĥķ": 2663,
      "æ³ª": 2664,
      "ook": 2665,
      "ick": 2666,
      "æĺ¯ä¸Ģç§į": 2667,
      "éľĩ": 2668,
      "æıĴåħ¥": 2669,
      "Ġinc": 2670,
      "éĥ½ä¸į": 2671,
      "éĤ£ç§į": 2672,
      "åĸĦ": 2673,
      "æĮ¤": 2674,
      "ç¬¬äºĮ": 2675,
      "åĩºåİ»": 2676,
      "æ´ĭ": 2677,
      "äºĨåĩł": 2678,
      "å¦¹å¦¹": 2679,
      "åŃ£": 2680,
      "æ±Ĺ": 2681,
      "æĴĳ": 2682,
      "éĤ£éĩĮ": 2683,
      "éŁ³ä¹Ĳ": 2684,
      "å´": 2685,
      "çļĦç²¾æ¶²": 2686,
      "æĭĶ": 2687,
      "èĶ": 2688,
      "æĺİçĻ½": 2689,
      "æ¬¾": 2690,
      "ç£¨": 2691,
      "çĶ¨æĪ·": 2692,
      "åĬĽçļĦ": 2693,
      "è¿Ļæł·çļĦ": 2694,
      "åī©": 2695,
      "18": 2696,
      "mer": 2697,
      "æķĻèĤ²": 2698,
      "æĺ¯åĲ¦": 2699,
      "çī¹åĪ«": 2700,
      "å°ıæĺİ": 2701,
      "Ġcl": 2702,
      "çŀ¬éĹ´": 2703,
      "è¿Ļæ¬¡": 2704,
      "èŀį": 2705,
      "çĬ¯": 2706,
      "ç¢°": 2707,
      "çĦ¡": 2708,
      "de": 2709,
      "ä¸Ģä¼ļ": 2710,
      "ãģĶ": 2711,
      "è´§": 2712,
      "ac": 2713,
      "ç»ĩ": 2714,
      "ä½įç½®": 2715,
      "é¢ĳ": 2716,
      "çĲĨè§£": 2717,
      "è¯´è¯Ŀ": 2718,
      "ann": 2719,
      "åĸĬ": 2720,
      "æŁ³": 2721,
      "æĥĳ": 2722,
      "ç½©": 2723,
      "æĪĳè¦ģ": 2724,
      "é¢Ĺ": 2725,
      "ç¬¬ä¸Ģæ¬¡": 2726,
      "éĤĦ": 2727,
      "ob": 2728,
      "Ġvon": 2729,
      "ä¼¦": 2730,
      "æ¯Ĵ": 2731,
      "åŃĲå®«": 2732,
      "è¯±": 2733,
      "ime": 2734,
      "Ġist": 2735,
      "ally": 2736,
      "ç¬¬ä¸Ģ": 2737,
      "èĪĮå¤´": 2738,
      "ä¹ĭä¸Ń": 2739,
      "åĪ©çĶ¨": 2740,
      "åħħæ»¡": 2741,
      "ä¸įè¡Į": 2742,
      "çļĦèĬ": 2743,
      "ry": 2744,
      "ãĤ³": 2745,
      "ä¼ģ": 2746,
      "ake": 2747,
      "åĵ¥åĵ¥": 2748,
      "è»Ĭ": 2749,
      "åĬ²": 2750,
      "åİĨåı²": 2751,
      "ä¸ĭäºĨ": 2752,
      "Ġone": 2753,
      "å·ŀ": 2754,
      "èģĮ": 2755,
      "æī¶": 2756,
      "ãĤ¸": 2757,
      "ãĤ°": 2758,
      "å®ĮæĪĲ": 2759,
      "æĿ°": 2760,
      "Ġauf": 2761,
      "èĢĲ": 2762,
      "æķıæĦŁ": 2763,
      "çľĭè§ģ": 2764,
      "ä¸Ĭåİ»": 2765,
      "èĩĤ": 2766,
      "èİİ": 2767,
      "çĹĴ": 2768,
      "ãģĦãĤĭ": 2769,
      "éĢĥ": 2770,
      "èĻļ": 2771,
      "æĸ¼": 2772,
      "è´£": 2773,
      "æĺ¨": 2774,
      "æ¬§": 2775,
      "åĩĢ": 2776,
      "éĽĦ": 2777,
      "è¦ĭ": 2778,
      "çĽĺ": 2779,
      "çľī": 2780,
      "å½ķ": 2781,
      "èĤĮ": 2782,
      "æĶ¯æĮģ": 2783,
      "ase": 2784,
      "ations": 2785,
      "çĮ«": 2786,
      "ä¼´": 2787,
      "ä»¥ä¸º": 2788,
      "ia": 2789,
      "ãĥĹ": 2790,
      "éº½": 2791,
      "hn": 2792,
      "'t": 2793,
      "Ġcont": 2794,
      "ĠfÃ¼r": 2795,
      "ç¦»å¼Ģ": 2796,
      "è®©ä»ĸ": 2797,
      "å®ģ": 2798,
      "çļĦæ·«": 2799,
      "è¿ĩäºĨ": 2800,
      "çļĦæĥħ": 2801,
      "åĿĩ": 2802,
      "æ¸ħæ¥ļ": 2803,
      "å¸Ĥåľº": 2804,
      "ä¸įåı¯": 2805,
      "è¯¾": 2806,
      "und": 2807,
      "è¿ĻæĹ¶": 2808,
      "çļĦè½": 2809,
      "ÃŁ": 2810,
      "vel": 2811,
      "ä¸ĭä½ĵ": 2812,
      "ll": 2813,
      "çĽĳ": 2814,
      "éĹ®éģĵ": 2815,
      "å®ŀçİ°": 2816,
      "Ġge": 2817,
      "è®©äºº": 2818,
      "åı¯èĥ½ä¼ļ": 2819,
      "ord": 2820,
      "ance": 2821,
      "Ġwhich": 2822,
      "ï¼īï¼Į": 2823,
      "å°¾": 2824,
      "éĶ®": 2825,
      "ç»¿": 2826,
      "æĸ°çļĦ": 2827,
      "æĮĤ": 2828,
      "è¿ĺåľ¨": 2829,
      "åģı": 2830,
      "åŃ¦æł¡": 2831,
      "çķª": 2832,
      "ign": 2833,
      "çĽ®æłĩ": 2834,
      "æĺ¯ä»Ģä¹Ī": 2835,
      "Ġint": 2836,
      "åı£æ°Ķ": 2837,
      "æĽ´å¥½åľ°": 2838,
      "åŃĻ": 2839,
      "çľĭäºĨ": 2840,
      "Ġ**": 2841,
      "å¤§éĩı": 2842,
      "éĢ²": 2843,
      "éĢ¼": 2844,
      "å¯¼èĩ´": 2845,
      "ĠâĢ": 2846,
      "ç®Ģåįķ": 2847,
      "åİŁæľ¬": 2848,
      "çļĦèĦļ": 2849,
      "åĭķ": 2850,
      "ä¿ĥ": 2851,
      "ous": 2852,
      "å®ļçļĦ": 2853,
      "gen": 2854,
      "ãĤµ": 2855,
      "åįł": 2856,
      "æĤ¨çļĦ": 2857,
      "ç¡®ä¿Ŀ": 2858,
      "ark": 2859,
      "iel": 2860,
      "æĺ¯æĪĳ": 2861,
      "èķ¾": 2862,
      "èº«åŃĲ": 2863,
      "æŀ¶": 2864,
      "æĻļä¸Ĭ": 2865,
      "çĪĨ": 2866,
      "æĺ¯ä¸įæĺ¯": 2867,
      "éŃĤ": 2868,
      "å°±ä¼ļ": 2869,
      "èº¯": 2870,
      "æĪĲåĬŁ": 2871,
      "±ä¹Ĳ": 2872,
      "æµİ": 2873,
      "Ġabout": 2874,
      "éº¼": 2875,
      "Ġsp": 2876,
      "å¥¥": 2877,
      "æ¯ķç«Ł": 2878,
      "æīĭæľº": 2879,
      "è¿«": 2880,
      "æĽ´æĺ¯": 2881,
      "èĮ¶": 2882,
      "å¹¶æ²¡æľī": 2883,
      "å£®": 2884,
      "å¤§èħ¿": 2885,
      "ç«ĭåĪ»": 2886,
      "è®©ä½ł": 2887,
      "ç©¿çĿĢ": 2888,
      "çĭłçĭł": 2889,
      "âĶĢ": 2890,
      "ãĥŃ": 2891,
      "æīįèĥ½": 2892,
      "ose": 2893,
      "åĪĨéĴŁ": 2894,
      "chen": 2895,
      "ä¸ģ": 2896,
      "å°±ç®Ĺ": 2897,
      "åĩºä¸Ģ": 2898,
      "è¡¨ç¤º": 2899,
      "Ġstud": 2900,
      "å¯¹çĿĢ": 2901,
      "æĮ£": 2902,
      "åĳľåĳľ": 2903,
      "éĢĲæ¸Ĳ": 2904,
      "æľĢè¿ĳ": 2905,
      "éĢŁåº¦": 2906,
      "åł´": 2907,
      "ĸåŃĲ": 2908,
      "åħ½": 2909,
      "çıł": 2910,
      "ä»Ķ": 2911,
      "ç³ĸ": 2912,
      "åłĤ": 2913,
      "çİ²": 2914,
      "åĮ»çĸĹ": 2915,
      "å§ĳ": 2916,
      "Ġ+": 2917,
      "æĥľ": 2918,
      "ite": 2919,
      "éķľ": 2920,
      "éľĢæ±Ĥ": 2921,
      "æ¶Į": 2922,
      "ãģĦãģŁ": 2923,
      "çº³": 2924,
      "Ġar": 2925,
      "æķħäºĭ": 2926,
      "è¿ĺæ²¡": 2927,
      "æĪĳè¯´": 2928,
      "å§Ķ": 2929,
      "å®¹æĺĵ": 2930,
      "çº¯": 2931,
      "Ġqu": 2932,
      "å¹´è½»": 2933,
      "æĿĳ": 2934,
      "çŃīçŃī": 2935,
      "æģĭ": 2936,
      "æ±ģ": 2937,
      "èĢĮæĺ¯": 2938,
      "çı¾": 2939,
      "å½»": 2940,
      "ä¹ĸ": 2941,
      "åĭ¾": 2942,
      "å¡Ķ": 2943,
      "æĶ¿åºľ": 2944,
      "ile": 2945,
      "è£¹": 2946,
      "çľģ": 2947,
      "è¤": 2948,
      "çľĭæĿ¥": 2949,
      "åħ¸": 2950,
      "æ³Ħ": 2951,
      "æī¾åĪ°": 2952,
      "å¦®": 2953,
      "é¦Ĩ": 2954,
      "ä¸ĢæŃ¥": 2955,
      "çļĦè¡£": 2956,
      "çĤ¹å¤´": 2957,
      "æĶ¾åľ¨": 2958,
      "åħ¨éĥ¨": 2959,
      "èªª": 2960,
      "åħ·ä½ĵ": 2961,
      "è½®": 2962,
      "æ»ļ": 2963,
      "åĳ³éģĵ": 2964,
      "çĸ¯": 2965,
      "æııè¿°": 2966,
      "éħ¸": 2967,
      "Ġout": 2968,
      "200": 2969,
      "åİŁæĿ¥": 2970,
      "å¢ŀåĬł": 2971,
      "Ġdis": 2972,
      "ä¹Łæľī": 2973,
      "ĠZ": 2974,
      "çļĦè£": 2975,
      "èµ°äºĨ": 2976,
      "å²Ľ": 2977,
      "åĪ°åºķ": 2978,
      "ä¸īä¸ª": 2979,
      "å®¢æĪ·": 2980,
      "æĽ¿": 2981,
      "Ġdas": 2982,
      "ãĢĤãĢĮ": 2983,
      "åĽŀæĿ¥": 2984,
      "èĸĩ": 2985,
      "æİ¥åıĹ": 2986,
      "å¦»åŃĲ": 2987,
      "çļĦè·": 2988,
      "å¹¶ä¸į": 2989,
      "æ£Ģ": 2990,
      "çļĦç¥": 2991,
      "åĬªåĬĽ": 2992,
      "çİ¯ä¿Ŀ": 2993,
      "è¯¯": 2994,
      "ail": 2995,
      "çĽ´åĪ°": 2996,
      "æ°¸": 2997,
      "ike": 2998,
      "æĳĦ": 2999,
      "ä¼°": 3000,
      "åįĸ": 3001,
      "30": 3002,
      "èĥľ": 3003,
      "è¯º": 3004,
      "æĻ´": 3005,
      "æĪĳä¼ļ": 3006,
      "éĺ´éģĵ": 3007,
      "é¢Ŀ": 3008,
      "çļĦç¬ĳ": 3009,
      "åľ°æĸ¹": 3010,
      "ram": 3011,
      "èĩŃ": 3012,
      "éłŃ": 3013,
      "éªĳ": 3014,
      "æ¡ĥ": 3015,
      "è¯´å®Į": 3016,
      "æĹ¥æľ¬": 3017,
      "æĪ´": 3018,
      "æĢ§çļĦ": 3019,
      "éĥ½ä¼ļ": 3020,
      "åı¯çĪ±": 3021,
      "è´Ń": 3022,
      "çļĦèħ°": 3023,
      "æŃ¤åĪ»": 3024,
      "ç³Ĭ": 3025,
      "çļĦç©": 3026,
      "ãĢĤâĢľ": 3027,
      "æķ°åŃĹ": 3028,
      "å¿ĥçļĦ": 3029,
      "Ġwork": 3030,
      "åĨ³å®ļ": 3031,
      "åħĦ": 3032,
      "èĸĦ": 3033,
      "å¿«éĢŁ": 3034,
      "èĮĥ": 3035,
      "Ġam": 3036,
      "æĭĴ": 3037,
      "åĬĽéĩı": 3038,
      "ç¾İåĽ½": 3039,
      "Ġapp": 3040,
      "æ®ĭ": 3041,
      "å°Ĭ": 3042,
      "å¹ķ": 3043,
      "çĽ®åħī": 3044,
      "æ§": 3045,
      "èĤ¯å®ļ": 3046,
      "åĩī": 3047,
      "åħ·æľī": 3048,
      "æľīäºº": 3049,
      "å°±åĥı": 3050,
      "åİļ": 3051,
      "è°Ī": 3052,
      "é½Ĳ": 3053,
      "å°¤": 3054,
      "å¥³åĦ¿": 3055,
      "æĲŃ": 3056,
      "æ¯ıä¸ª": 3057,
      "çĪ¸çĪ¸": 3058,
      "å½Ĵ": 3059,
      "æŁĶè½¯": 3060,
      "å®ŀåľ¨": 3061,
      "éĻ·": 3062,
      "æİª": 3063,
      "ä¸įçĶ±": 3064,
      "----": 3065,
      "èİ·å¾Ĺ": 3066,
      "åĲ´": 3067,
      "çīĪ": 3068,
      "ä»¥åīį": 3069,
      "çļĦå¿ĥ": 3070,
      "æīĵå¼Ģ": 3071,
      "éĤ£æł·": 3072,
      "åĮ»çĶŁ": 3073,
      "ç»į": 3074,
      "éĢĤåĲĪ": 3075,
      "èĵī": 3076,
      "50": 3077,
      "è®ĵ": 3078,
      "å¥¸": 3079,
      "ace": 3080,
      "ç¼ĵç¼ĵ": 3081,
      "è·ª": 3082,
      "è¶´": 3083,
      "éģį": 3084,
      "ä¼¯": 3085,
      "ä¸Ģä¸ªäºº": 3086,
      "âĢĻ": 3087,
      "ä½ľçĶ¨": 3088,
      "éĻĦ": 3089,
      "æ£®": 3090,
      "æ¼Ĥ": 3091,
      "åĬŀæ³ķ": 3092,
      "åľ¨è¿Ļ": 3093,
      "ä¸įæķ¢": 3094,
      "ç¬Ķ": 3095,
      "å¿ħé¡»": 3096,
      "å¹»": 3097,
      "åĽ½å®¶": 3098,
      "ä¸Ŀè¢ľ": 3099,
      "å°ļ": 3100,
      "ï¼İ": 3101,
      "åĽ°": 3102,
      "ä¾µ": 3103,
      "ç¶ĵ": 3104,
      "Ġi": 3105,
      "çĬ¹": 3106,
      "è¿ĺè¦ģ": 3107,
      "ä¹Łæ²¡æľī": 3108,
      "çļĦçģ": 3109,
      "çĽ¸ä¿¡": 3110,
      "å¾Ĳ": 3111,
      "å±Ħ": 3112,
      "èµ·èº«": 3113,
      "ĠSch": 3114,
      "ãĤŃ": 3115,
      "ep": 3116,
      "ä¹Łæ²¡": 3117,
      "å¨±ä¹Ĳ": 3118,
      "èĤ©": 3119,
      "çģ¯": 3120,
      "çļĦè¡¨æĥħ": 3121,
      "åİī": 3122,
      "åĳĨ": 3123,
      "æ¼«": 3124,
      "åĩºçļĦ": 3125,
      "ount": 3126,
      "ater": 3127,
      "é©¬ä¸Ĭ": 3128,
      "å¤§åŃ¦": 3129,
      "éķ¿çļĦ": 3130,
      "Ġ6": 3131,
      "çĶ¨äºİ": 3132,
      "èĤı": 3133,
      "ç»ª": 3134,
      "å½¼": 3135,
      "ĠY": 3136,
      "çĪ¬": 3137,
      "ç»ľ": 3138,
      "æ±¡": 3139,
      "éŁ©": 3140,
      "æ²Ł": 3141,
      "ä¸įåĲĮçļĦ": 3142,
      "ions": 3143,
      "ä¼ĳæģ¯": 3144,
      "å®Ĺ": 3145,
      "çĤº": 3146,
      "ä¸įä»ħ": 3147,
      "ä½ĵåĨħ": 3148,
      "äºĨä¸Ģä¸ª": 3149,
      "åı¹": 3150,
      "å¦ĤåĲĮ": 3151,
      "Ġpart": 3152,
      "æŃ¤å¤ĸ": 3153,
      "çļĦçĻ½": 3154,
      "é»ĳèī²": 3155,
      "ç¹": 3156,
      "è¦ģæ±Ĥ": 3157,
      "ä»ĸä»¬çļĦ": 3158,
      "èĿ": 3159,
      "èº«è¾¹": 3160,
      "Ġspe": 3161,
      "kt": 3162,
      "âĢķâĢķ": 3163,
      "åŃĲéĩĮ": 3164,
      "æĲŀ": 3165,
      "å¾Īå¥½": 3166,
      "åĺ´åĶĩ": 3167,
      "æī¯": 3168,
      "åı¦ä¸Ģ": 3169,
      "yth": 3170,
      "æĥ³æ³ķ": 3171,
      "çĥŁ": 3172,
      "åĺ´å·´": 3173,
      "æĪĳåĴĮ": 3174,
      "åı¥è¯Ŀ": 3175,
      "çļĦçĹ": 3176,
      "ä¸Ĭä¸ĭ": 3177,
      "èĩªåĬ¨": 3178,
      "ç¾½": 3179,
      "ĠãĢĮ": 3180,
      "ink": 3181,
      "çĽĽ": 3182,
      "éĽªçĻ½": 3183,
      "ely": 3184,
      "åĭĩ": 3185,
      "åĬ¨çī©": 3186,
      "å¼ĥ": 3187,
      "åĲĵ": 3188,
      "å¥ĸ": 3189,
      "åĲ¹": 3190,
      "ern": 3191,
      "åİŁåĽł": 3192,
      "æĮģç»Ń": 3193,
      "çļĦè¡Į": 3194,
      "æĬ¬èµ·": 3195,
      "è§£éĩĬ": 3196,
      "ä¸įéĶĻ": 3197,
      "åįı": 3198,
      "æ´²": 3199,
      "å®£": 3200,
      "çĥ§": 3201,
      "åĨĴ": 3202,
      "Ġup": 3203,
      "Ġinter": 3204,
      "å¤§äºº": 3205,
      "äºĨä¸ĭæĿ¥": 3206,
      "æĳ©æĵ¦": 3207,
      "ãĤ£": 3208,
      "åĺ»": 3209,
      "æħ§": 3210,
      "ç»ıæµİ": 3211,
      "åĵªéĩĮ": 3212,
      "lic": 3213,
      "åĲİéĿ¢": 3214,
      "å¿Ĩ": 3215,
      "æĺ¯ä¸ª": 3216,
      "åħ³éĶ®": 3217,
      "port": 3218,
      "ç¡®å®ļ": 3219,
      "æĹłæ¯Ķ": 3220,
      "éģ¿åħį": 3221,
      "èĢ»": 3222,
      "åĲ®": 3223,
      "è¦ģæĺ¯": 3224,
      "çļĦå¿«æĦŁ": 3225,
      "ph": 3226,
      "èµı": 3227,
      "åıĹåĪ°": 3228,
      "æ¸¯": 3229,
      "ah": 3230,
      "ĠâĢľ": 3231,
      "ç§ĳåŃ¦": 3232,
      "é»ŀ": 3233,
      "ç¼ł": 3234,
      "erm": 3235,
      "åĶ¯": 3236,
      "ç¾İä¸½": 3237,
      "æŀª": 3238,
      "è¼": 3239,
      "ãĥĥãĥĪ": 3240,
      "å¯Ĵ": 3241,
      ").": 3242,
      "åĽº": 3243,
      "é¦ĸåħĪ": 3244,
      "æľµ": 3245,
      "åĽŀå®¶": 3246,
      "èĤļ": 3247,
      "æľ¬æĿ¥": 3248,
      "éĶģ": 3249,
      "ä»ĭç»į": 3250,
      "ied": 3251,
      "Ġev": 3252,
      "æĬļæĳ¸": 3253,
      "æ·±å¤Ħ": 3254,
      "æľīçĿĢ": 3255,
      "çļĦçĶ·äºº": 3256,
      "åį±": 3257,
      "çĽ¸åħ³": 3258,
      "æĤ¦": 3259,
      "ç¨³": 3260,
      "å°ģ": 3261,
      "ĠSie": 3262,
      "ç§ĳæĬĢ": 3263,
      "ä¸įå°ĳ": 3264,
      "å§¿åĬ¿": 3265,
      "now": 3266,
      "Ġpre": 3267,
      "Ġpe": 3268,
      "åıĺæĪĲ": 3269,
      "16": 3270,
      "æ¸©æŁĶ": 3271,
      "å¦ĸ": 3272,
      "ä¿©": 3273,
      "æī£": 3274,
      "è¿ĽæĿ¥": 3275,
      "ç¼º": 3276,
      "ç¬ĳéģĵ": 3277,
      "âĢĿï¼Į": 3278,
      "åĪĨç±»": 3279,
      "éĤ£ä¸Ģ": 3280,
      "Ġsich": 3281,
      "æľĢç»Ī": 3282,
      "åĪ¤": 3283,
      "ä¸įçĶ¨": 3284,
      "åĬłä¸Ĭ": 3285,
      "æ¤ħ": 3286,
      "ç¼Ŀ": 3287,
      "ãĥĨ": 3288,
      "å¢Ļ": 3289,
      "éĺ»": 3290,
      "Ġno": 3291,
      "ä¼Ł": 3292,
      "Ġif": 3293,
      "æĦŁè§īåĪ°": 3294,
      "æĥ¯": 3295,
      "æ¤į": 3296,
      "åı¥åŃĲ": 3297,
      "çªĹ": 3298,
      "ings": 3299,
      "ä¸įèµ·": 3300,
      "Ġwho": 3301,
      "çĥ¦": 3302,
      "æĬ¹": 3303,
      "ew": 3304,
      "æ²¡æĥ³åĪ°": 3305,
      "ien": 3306,
      "Ġother": 3307,
      "å½ĵæĹ¶": 3308,
      "æ¹ĸ": 3309,
      "éĥİ": 3310,
      "çļĦç¥ŀ": 3311,
      "ãĤĪãģĨ": 3312,
      "å°ıæĹ¶": 3313,
      "Ġdem": 3314,
      "ç»ĵæĿŁ": 3315,
      "ãĥ¡": 3316,
      "èİ¹": 3317,
      "çº¤": 3318,
      "å¤ĸéĿ¢": 3319,
      "......": 3320,
      "ç»ķ": 3321,
      "æĽ¼": 3322,
      "äºĨæĪĳ": 3323,
      "æĺİæĺ¾": 3324,
      "æĹģè¾¹": 3325,
      "åħĪçĶŁ": 3326,
      "å½»åºķ": 3327,
      "äºĨåĲ§": 3328,
      "çĽ¯": 3329,
      "åĸī": 3330,
      "ãģĦãģ¾ãģĻ": 3331,
      "ĠSe": 3332,
      "ĠRe": 3333,
      "ä½ĵéªĮ": 3334,
      "èħ»": 3335,
      "èĲ§": 3336,
      "æĬĵä½ı": 3337,
      "äºĨä¸ª": 3338,
      "ors": 3339,
      "den": 3340,
      "çļĦçŁ": 3341,
      "Ġyear": 3342,
      "ä¸įæĥ³": 3343,
      "è·Ŀ": 3344,
      "ä¸ĭèº«": 3345,
      "ç´¯": 3346,
      "çļĦæĢ§": 3347,
      "åĩĿ": 3348,
      "å©ī": 3349,
      "æĿ¥åĪ°": 3350,
      "ool": 3351,
      "å·Ŀ": 3352,
      "ä¼ģä¸ļ": 3353,
      "æĻ¶": 3354,
      "è±Ĩ": 3355,
      "ä»°": 3356,
      "éķĩ": 3357,
      "å·¥åħ·": 3358,
      "ond": 3359,
      "çļĦçĪ±": 3360,
      "è¾±": 3361,
      "ces": 3362,
      "çĽĬ": 3363,
      "ä¸»é¢ĺ": 3364,
      "Ġsome": 3365,
      "æĪĳåľ¨": 3366,
      "14": 3367,
      "éĩįæĸ°": 3368,
      "åĽŀåĪ°": 3369,
      "åĲī": 3370,
      "ory": 3371,
      "åİ¿": 3372,
      "æµ®": 3373,
      "ä¼¸åĩº": 3374,
      "ä¸Ģç¯ĩ": 3375,
      "æ¨¡åŀĭ": 3376,
      "åĢŁ": 3377,
      "æĥł": 3378,
      "å¤ªéĺ³": 3379,
      "åį³ä½¿": 3380,
      "å¥ĩæĢª": 3381,
      "å¦³": 3382,
      "æĬķèµĦ": 3383,
      "è´±": 3384,
      "Ġes": 3385,
      "reat": 3386,
      "çĶŁåĳ½": 3387,
      "çļĦå¥³äºº": 3388,
      "ç»ıéªĮ": 3389,
      "æī¬": 3390,
      "æĪĳä»¬åı¯ä»¥": 3391,
      "ç¡®å®ŀ": 3392,
      "çļĦéĹ®é¢ĺ": 3393,
      "Ġsc": 3394,
      "æ¼Ĥäº®": 3395,
      "æĭ¥æľī": 3396,
      "åĩ¯": 3397,
      "é¡¿æĹ¶": 3398,
      "æł¸": 3399,
      "æģ¢": 3400,
      "ĠIt": 3401,
      "è®Ńç»ĥ": 3402,
      "ä»İèĢĮ": 3403,
      "æħ°": 3404,
      "åĲįåŃĹ": 3405,
      "ï¼ĳ": 3406,
      "au": 3407,
      "ä¼łæĿ¥": 3408,
      "ree": 3409,
      "å°ĳå¹´": 3410,
      "å¸¦æĿ¥": 3411,
      "èº«åĲİ": 3412,
      "æ¨±": 3413,
      "Ġthan": 3414,
      "åĬłåħ¥": 3415,
      "ren": 3416,
      "çĶ²": 3417,
      "è¯´çļĦ": 3418,
      "å¿½çĦ¶": 3419,
      "æ¯Ķå¦Ĥ": 3420,
      "éĿ¢å¯¹": 3421,
      "ï¼īãĢĤ": 3422,
      "çĪ¶äº²": 3423,
      "âĢĺ": 3424,
      "åĬŁèĥ½": 3425,
      "ãĤ¦": 3426,
      "Ġwould": 3427,
      "è¡Ĺ": 3428,
      "âĿ": 3429,
      "æĻķ": 3430,
      "erv": 3431,
      "ä½¿å¾Ĺ": 3432,
      "åĳµåĳµ": 3433,
      "Ġ19": 3434,
      "å»ºç«ĭ": 3435,
      "æĺı": 3436,
      "ä»£è¡¨": 3437,
      "æĨ": 3438,
      "ç¨ĭåºı": 3439,
      "æīĳ": 3440,
      "ä¼¼çļĦ": 3441,
      "åŁºæľ¬": 3442,
      "âĶħâĶħ": 3443,
      "Ġtra": 3444,
      "æĴŃ": 3445,
      "åıªè§ģ": 3446,
      "Ġbet": 3447,
      "çľĭèµ·æĿ¥": 3448,
      "ng": 3449,
      "çĻ»": 3450,
      "æĭ¼": 3451,
      "ä¼ı": 3452,
      "rit": 3453,
      "å¼Ģåıĳ": 3454,
      "åĶ®": 3455,
      "éħ¥": 3456,
      "çº¸": 3457,
      "è¿¹": 3458,
      "çļĦæĹ¶éĹ´": 3459,
      "æ»ĭ": 3460,
      "åĲĮåŃ¦": 3461,
      "è´¥": 3462,
      "çİĽ": 3463,
      "å¥¶åŃĲ": 3464,
      "æ±½": 3465,
      "com": 3466,
      "ise": 3467,
      "çĿĢä¸Ģ": 3468,
      "ple": 3469,
      "çĭ¼": 3470,
      "éļıåĲİ": 3471,
      "Ġalso": 3472,
      "æľ±": 3473,
      "ç¿ĺ": 3474,
      "å®¶åºŃ": 3475,
      "å¯¹è¯Ŀ": 3476,
      "ays": 3477,
      "æĢľ": 3478,
      "æĩĤ": 3479,
      "èģļ": 3480,
      "çļĦå°ıç©´": 3481,
      "å°Ŀè¯ķ": 3482,
      "ï¼Ĳ": 3483,
      "ert": 3484,
      "éĵ¾": 3485,
      "Ġwhat": 3486,
      "Ġtime": 3487,
      "å¯¸": 3488,
      "åħ´è¶£": 3489,
      "æĥ³çĿĢ": 3490,
      "çļĦä¸ľè¥¿": 3491,
      "ãģĺ": 3492,
      "```": 3493,
      "Ġwir": 3494,
      "ä¸Ī": 3495,
      "æī§": 3496,
      "æ¥Ń": 3497,
      "åįļå£«": 3498,
      "æ¸Ĳæ¸Ĳ": 3499,
      "æĦ¿æĦı": 3500,
      "Ġ0": 3501,
      "åĩ¤": 3502,
      "Ġthem": 3503,
      "ä¸»åĬ¨": 3504,
      "æŀľçĦ¶": 3505,
      "è£Ĥ": 3506,
      "å¨ħ": 3507,
      "æĹłè®º": 3508,
      "è²Į": 3509,
      "å¥³æĢ§": 3510,
      "èĴĻ": 3511,
      "ä¸¹": 3512,
      "æ°Ĺ": 3513,
      "èĬ³": 3514,
      "æĸ¹åĲĳ": 3515,
      "å¹½": 3516,
      "âĿ¤": 3517,
      "ä»¥ä¸Ĭ": 3518,
      "å°±è¦ģ": 3519,
      "ople": 3520,
      "æ¬²æľĽ": 3521,
      "Ġthere": 3522,
      "æģ¢å¤į": 3523,
      "åľ¨åľ°ä¸Ĭ": 3524,
      "éĺ³åħ·": 3525,
      "ä¹Łä¼ļ": 3526,
      "åı£ä¸Ń": 3527,
      "éļ¾éģĵ": 3528,
      "å°ĩ": 3529,
      "å·¦åı³": 3530,
      "åķĨåĵģ": 3531,
      "ç»³": 3532,
      "ç½ª": 3533,
      "ä¸Ģçľ¼": 3534,
      "çĻ½èī²": 3535,
      "éĴĪ": 3536,
      "âĻ": 3537,
      "æķĪæŀľ": 3538,
      "13": 3539,
      "åħ¨çĲĥ": 3540,
      "é¥°": 3541,
      "Ġ8": 3542,
      "å§¬": 3543,
      "Ġhow": 3544,
      "éĺ´èĮİ": 3545,
      "æĲĤ": 3546,
      "åıįèĢĮ": 3547,
      "è¯ĳ": 3548,
      "èĥĢ": 3549,
      "èĪį": 3550,
      "æŃ»äºĨ": 3551,
      "âĢĿãĢĤ": 3552,
      "çĶ¨æīĭ": 3553,
      "æĪĳçŁ¥éģĵ": 3554,
      "åļ": 3555,
      "Ġnum": 3556,
      "èįĲ": 3557,
      "ish": 3558,
      "éĻª": 3559,
      "çĳ¶": 3560,
      "ss": 3561,
      "èµĦæºĲ": 3562,
      "åĨľ": 3563,
      "åĪ¶ä½ľ": 3564,
      "åŀĤ": 3565,
      "çĲ´": 3566,
      "çİ©å¼Ħ": 3567,
      "åģ¶": 3568,
      "æĢĿèĢĥ": 3569,
      "äº¤éĢļ": 3570,
      "ä¸ĭä¸Ģ": 3571,
      "åĺī": 3572,
      "èĦı": 3573,
      "ç»ĳ": 3574,
      "æĶ¹åıĺ": 3575,
      "æģ¨": 3576,
      "çļĦå½±åĵį": 3577,
      "çļĦçĥ": 3578,
      "æµĳèº«": 3579,
      "ãĥŀ": 3580,
      "åĴķ": 3581,
      "åĽŀåİ»": 3582,
      "å±ģçľ¼": 3583,
      "çļĦèĪĮ": 3584,
      "ä¸įåĨį": 3585,
      "æ¯ıå¤©": 3586,
      "åºĵ": 3587,
      "ons": 3588,
      "æ²Ī": 3589,
      "çļĦæ°´": 3590,
      "ç«Ļåľ¨": 3591,
      "çľŁæŃ£": 3592,
      "ä½łæĺ¯": 3593,
      "éĥ½æ²¡æľī": 3594,
      "åĳ¨åĽ´": 3595,
      "ont": 3596,
      "ç»Ħç»ĩ": 3597,
      "ä¹ĭä¸ĭ": 3598,
      "æ³¡": 3599,
      "ates": 3600,
      "ãĥĲ": 3601,
      "wo": 3602,
      "æ¨¡æł·": 3603,
      "ound": 3604,
      "åĻ¢": 3605,
      "æľ«": 3606,
      "çļ±": 3607,
      "è¿ª": 3608,
      "åı¦å¤ĸ": 3609,
      "åĲ¯": 3610,
      "éĨī": 3611,
      "éģĹ": 3612,
      "ĠPro": 3613,
      "æİ¨èįĲ": 3614,
      "æĮ£æīİ": 3615,
      "åĪ«äºº": 3616,
      "ãĤ·ãĥ": 3617,
      "æĲĵ": 3618,
      "men": 3619,
      "Ġaus": 3620,
      "åĵİ": 3621,
      "çĤ¼": 3622,
      "åĩ¡": 3623,
      "é¥±": 3624,
      "ç§Ĵ": 3625,
      "æķĪçİĩ": 3626,
      "æ¸´": 3627,
      "Â·Â·": 3628,
      "çķ¶": 3629,
      "ãģ¾ãģĹãģŁ": 3630,
      "è¡¥": 3631,
      "åĬ³": 3632,
      "å¥³åıĭ": 3633,
      "Ġneed": 3634,
      "ç»ıè¿ĩ": 3635,
      "Ġ10": 3636,
      "Ġcomm": 3637,
      "äº¦": 3638,
      "ç¥¨": 3639,
      "åŃĶ": 3640,
      "éĤª": 3641,
      "è´¨éĩı": 3642,
      "ãĤį": 3643,
      "æĺ¾å¾Ĺ": 3644,
      "çĶŁçī©": 3645,
      "ãģ§ãģį": 3646,
      "çļĦèĬ±": 3647,
      "çļĦèĥ½": 3648,
      "ãĤª": 3649,
      "ä¸Ģä¸Ŀ": 3650,
      "è¯¢": 3651,
      "çļĦæ°Ķ": 3652,
      "éĢĹ": 3653,
      "å§Ĩ": 3654,
      "èħĶ": 3655,
      "æħķ": 3656,
      "éĥ½æľī": 3657,
      "ãģĤãĤĭ": 3658,
      "è°·": 3659,
      "Ġlike": 3660,
      "åħļ": 3661,
      "æĤĦ": 3662,
      "Ġwhen": 3663,
      "ãĥĥãĤ¯": 3664,
      "be": 3665,
      "è°¢è°¢": 3666,
      "ä¹Łåı¯ä»¥": 3667,
      "åľ°åĮº": 3668,
      "åĭĴ": 3669,
      "Ġeine": 3670,
      "æħĮ": 3671,
      "å®ŀéĻħ": 3672,
      "Ġits": 3673,
      "çļĦé«ĺ": 3674,
      "åĬ±": 3675,
      "åį·": 3676,
      "å°ıçļĦ": 3677,
      "ä¸įå¤ļ": 3678,
      "ãģķãĤĮ": 3679,
      "è¯´ä¸į": 3680,
      "å®ĭ": 3681,
      "æĿĲæĸĻ": 3682,
      "Ġnicht": 3683,
      "ç¾İçļĦ": 3684,
      "å¥ı": 3685,
      "ä¼łç»Ł": 3686,
      "æĢ»ä¹ĭ": 3687,
      "æĢ¡": 3688,
      "åĲĮæł·": 3689,
      "ä¸ĢæĬĬ": 3690,
      "çĽĪ": 3691,
      "å¤§æ¦Ĥ": 3692,
      "ãģ®ãģ§": 3693,
      "èĲ¨": 3694,
      "Ġ7": 3695,
      "éļ¾ä»¥": 3696,
      "æĢİä¹Īæł·": 3697,
      "ĠUn": 3698,
      "Ġtr": 3699,
      "17": 3700,
      "ãĤº": 3701,
      "$$": 3702,
      "åį´æĺ¯": 3703,
      "æ²»çĸĹ": 3704,
      "èĢĮå·²": 3705,
      "æĹ©å°±": 3706,
      "èµ°åĪ°": 3707,
      "éģŃ": 3708,
      "äºĮåįģ": 3709,
      "æĹ©å·²": 3710,
      "Ġacc": 3711,
      "åľ¨ä»ĸ": 3712,
      "å»¶": 3713,
      "å°ıå¿ĥ": 3714,
      "ä¸ĢåĪĩ": 3715,
      "ç»Ŀå¯¹": 3716,
      "ä½ľåĵģ": 3717,
      "ç¾İå¥³": 3718,
      "é²ģ": 3719,
      "ãģ°": 3720,
      "æĬ±çĿĢ": 3721,
      "è¿ĺä¸į": 3722,
      "æĤł": 3723,
      "ä¸Ģæ®µ": 3724,
      "åŃĲä¸Ĭ": 3725,
      "åĻĹ": 3726,
      "ãģĦãģ¦": 3727,
      "èĨĢ": 3728,
      "æĶ¾æĿ¾": 3729,
      "è¿ħ": 3730,
      "è±ª": 3731,
      "å®¶ä¼Ļ": 3732,
      "æ²¾": 3733,
      "ç¢İ": 3734,
      "æĺł": 3735,
      "Ġro": 3736,
      "å°±è¿Ļæł·": 3737,
      "ough": 3738,
      "ç½ĳç»ľ": 3739,
      "çļĦçĲ": 3740,
      "Ġpeople": 3741,
      "çĦ¦": 3742,
      "ual": 3743,
      "Ġhis": 3744,
      "ating": 3745,
      "è¡¨çİ°": 3746,
      "è¡¨è¾¾": 3747,
      "æĮĳæĪĺ": 3748,
      "çļĦåıĮ": 3749,
      "åĴĸ": 3750,
      "æķ¬": 3751,
      "ãĤĬãģ¾ãģĻ": 3752,
      "èİ±": 3753,
      "é«ĺåħ´": 3754,
      "å¤®": 3755,
      "ä¸Ģä½į": 3756,
      "åĲ¸å¼ķ": 3757,
      "æĸ¹æ¡Ī": 3758,
      "ãĥĩ": 3759,
      "èħ¾": 3760,
      "èµ¶ç´§": 3761,
      "é¢Ī": 3762,
      "é£Łçī©": 3763,
      "yst": 3764,
      "å¼łå¼Ģ": 3765,
      "åĩ½": 3766,
      "ood": 3767,
      "æ¯ıæ¬¡": 3768,
      "æĹĭ": 3769,
      "å±ŀäºİ": 3770,
      "ç®±": 3771,
      "åĮħè£¹": 3772,
      "æ±ł": 3773,
      "ific": 3774,
      "Ġover": 3775,
      "è¡Įä¸º": 3776,
      "çļĦèľ": 3777,
      "éģ®": 3778,
      "ç®Ĺæ³ķ": 3779,
      "æ·«èį¡": 3780,
      "ä»¤äºº": 3781,
      "Ġwere": 3782,
      "èº²": 3783,
      "äºĪ": 3784,
      "çıį": 3785,
      "æĮĩæĮ¥": 3786,
      ".\"": 3787,
      "äºĨåĲĹ": 3788,
      "åıĤåĬł": 3789,
      "ãĥī": 3790,
      "ject": 3791,
      "åĩĨç¡®": 3792,
      "ãĥģ": 3793,
      "ys": 3794,
      "è¡¡": 3795,
      "æŃ£å¸¸": 3796,
      "çŃĳ": 3797,
      "éŃĶæ³ķ": 3798,
      "çĹĽèĭ¦": 3799,
      "æĬĬæĪĳ": 3800,
      "åľ¨åºĬä¸Ĭ": 3801,
      "å¼¯": 3802,
      "çĥ«": 3803,
      "é£İéĻ©": 3804,
      "æİ¥ä¸ĭæĿ¥": 3805,
      "è¾Ī": 3806,
      "ä½łåı¯ä»¥": 3807,
      "ä¸ĢèĦ¸": 3808,
      "ãģ«ãģª": 3809,
      "å®½": 3810,
      "æĢ§æĦŁ": 3811,
      "æ»¡æĦı": 3812,
      "Ġuse": 3813,
      "eb": 3814,
      "æ³½": 3815,
      "å¹ħ": 3816,
      "çĸ¯çĭĤ": 3817,
      "çĥ¤": 3818,
      "è©±": 3819,
      "é¸Ł": 3820,
      "ä¹łæĥ¯": 3821,
      "éĥ½åľ¨": 3822,
      "ä¸¦": 3823,
      "Ġget": 3824,
      "ä¸ĢæĿ¡": 3825,
      "è¯ļ": 3826,
      "èĥ¯": 3827,
      "æ¹¾": 3828,
      "les": 3829,
      "irst": 3830,
      "æĹħæ¸¸": 3831,
      "Ġnew": 3832,
      "é¢Ĭ": 3833,
      "ĠCh": 3834,
      "ä¸Ģåıªæīĭ": 3835,
      "åĭĥ": 3836,
      "çĶĺ": 3837,
      "å¿ĥçĲĨ": 3838,
      "åĺ¿åĺ¿": 3839,
      "å¥³åŃĲ": 3840,
      "çĶµè§Ĩ": 3841,
      "ä¸įç®¡": 3842,
      "ä»įçĦ¶": 3843,
      "èĩªçĶ±": 3844,
      "iss": 3845,
      "æķĮ": 3846,
      "æĥħçļĦ": 3847,
      "ze": 3848,
      "æĹħè¡Į": 3849,
      "æĥ¨": 3850,
      "ahr": 3851,
      "æĺ¯ä¸ĢäºĽ": 3852,
      "éªĤ": 3853,
      "Ġ'": 3854,
      "å¾Ħ": 3855,
      "çľł": 3856,
      "æĦĪ": 3857,
      "æ¶²ä½ĵ": 3858,
      "åĤ²": 3859,
      "ä¾ĿçĦ¶": 3860,
      "Ġinto": 3861,
      "æĭħå¿ĥ": 3862,
      "è¯¦": 3863,
      "Ġdif": 3864,
      "è½½": 3865,
      "æĹ¢çĦ¶": 3866,
      "Ġknow": 3867,
      "iver": 3868,
      "éĢĶ": 3869,
      "å¾Ĵ": 3870,
      "ause": 3871,
      "å¤«äºº": 3872,
      "é£ĺ": 3873,
      "olog": 3874,
      "æľīäºĨ": 3875,
      "è¿Ķ": 3876,
      "çĶŁäº§": 3877,
      "æĦŁåıĹåĪ°": 3878,
      "å¿«ä¹Ĳ": 3879,
      "çļĦè¯´": 3880,
      "çļĦåıĳå±ķ": 3881,
      "åĴ±": 3882,
      "ãĢįï¼Į": 3883,
      "Th": 3884,
      "ç½¢": 3885,
      "æĭľ": 3886,
      "åį§": 3887,
      "ĠAn": 3888,
      "æĽ´å¤ļçļĦ": 3889,
      "åĨħå¿ĥ": 3890,
      "ä¸¢": 3891,
      "å¯¹æĪĳ": 3892,
      "éĩįè¦ģçļĦ": 3893,
      "çļĦç¬¬": 3894,
      "In": 3895,
      "cial": 3896,
      "ian": 3897,
      "åĽłç´ł": 3898,
      "çĮ®": 3899,
      "row": 3900,
      "ä¹ĭéĹ´çļĦ": 3901,
      "å±Ī": 3902,
      "ä¹Į": 3903,
      "åľ°çĲĥ": 3904,
      "æİªæĸ½": 3905,
      "è«": 3906,
      "åĲĪä½ľ": 3907,
      "èĥ¸åīį": 3908,
      "ãĤ¨": 3909,
      "æľºåĻ¨åŃ¦ä¹ł": 3910,
      "éŃħ": 3911,
      "æĢ»æĺ¯": 3912,
      "nen": 3913,
      "ĠBe": 3914,
      "åķ¡": 3915,
      "å¹´çļĦ": 3916,
      "å®¶éĩĮ": 3917,
      "åĴ½": 3918,
      "ov": 3919,
      "æĥħæĦŁ": 3920,
      "æīĵç®Ĺ": 3921,
      "Ġke": 3922,
      "åħ¥äºĨ": 3923,
      "çĩķ": 3924,
      "çĿģ": 3925,
      "ank": 3926,
      "ä¼¸æīĭ": 3927,
      "ython": 3928,
      "èĪª": 3929,
      "çĳŀ": 3930,
      "æ²Ļåıĳ": 3931,
      "çļĦçĭ": 3932,
      "åĳĬè¯īæĪĳ": 3933,
      "æĺİæĺİ": 3934,
      "å¹¿æ³Ľ": 3935,
      "èĤ¢": 3936,
      "å¯»æī¾": 3937,
      "è¯ĨåĪ«": 3938,
      "åı¯ä»¥éĢļè¿ĩ": 3939,
      "25": 3940,
      "äº¡": 3941,
      "ä»ª": 3942,
      "æĺ¯çļĦ": 3943,
      "éĹ¨åı£": 3944,
      "åľ¨è¿Ļä¸ª": 3945,
      "Ġfe": 3946,
      "ç»ıåİĨ": 3947,
      "åıªå¥½": 3948,
      "æĻ¨": 3949,
      "çº¢èī²": 3950,
      "æĭ³": 3951,
      "Ġsuch": 3952,
      "æ·«æ°´": 3953,
      "ungen": 3954,
      "åĴĸåķ¡": 3955,
      "its": 3956,
      "å¸®æĪĳ": 3957,
      "çĵ¶": 3958,
      "æĦī": 3959,
      "åĸĤ": 3960,
      "ä¸°æ»¡": 3961,
      "Ġprov": 3962,
      "##": 3963,
      "çĽ®åīį": 3964,
      "ä»£çłģ": 3965,
      "æ·ĭ": 3966,
      "éĢĴ": 3967,
      "åªĴ": 3968,
      "ç´§å¼ł": 3969,
      "å°Ħç²¾": 3970,
      "åĽ¢éĺŁ": 3971,
      "éĥ½è¢«": 3972,
      "ä¸Ģçīĩ": 3973,
      "èİ²": 3974,
      "å½¢æĪĲ": 3975,
      "å°½ç®¡": 3976,
      "Ġcons": 3977,
      "æ¯«æĹł": 3978,
      "ä¿Ĭ": 3979,
      "åĵĢ": 3980,
      "ä¸Ńå¿ĥ": 3981,
      "æĤ£": 3982,
      "éĵĥ": 3983,
      "åĵ¦åĵ¦": 3984,
      "Ġgen": 3985,
      "æµħ": 3986,
      "èĪ¬çļĦ": 3987,
      "Ġhel": 3988,
      "æĤī": 3989,
      "ä½łè¯´": 3990,
      "å¿ħè¦ģ": 3991,
      "æ±¤": 3992,
      "çĬ¶æĢģ": 3993,
      "æī©": 3994,
      "æ¶¨": 3995,
      "æľīæķĪ": 3996,
      "åı³æīĭ": 3997,
      "ange": 3998,
      "æĬĢå·§": 3999,
      "æĿ¡ä»¶": 4000,
      "lud": 4001,
      "åĤ¬": 4002,
      "è®¤è¯Ĩ": 4003,
      "åİĮ": 4004,
      "æľīçļĦ": 4005,
      "éĿ©": 4006,
      "æ½ľ": 4007,
      "åİīå®³": 4008,
      "å®ľ": 4009,
      "ä¾ĿæĹ§": 4010,
      "çļĦèģ": 4011,
      "æ»¡äºĨ": 4012,
      "ä»·åĢ¼": 4013,
      "Ġbec": 4014,
      "åľ¨èĩªå·±": 4015,
      "çĸ¾": 4016,
      "ner": 4017,
      "ä½łå¥½": 4018,
      "ãĥ¼ãĥ«": 4019,
      "ç«¥": 4020,
      "çĿ£": 4021,
      "çļĦæĪĳ": 4022,
      "),": 4023,
      "Ġ9": 4024,
      "âĪ": 4025,
      "Ġrec": 4026,
      "åĩ½æķ°": 4027,
      "å¼Ģåı£": 4028,
      "çļĦæĥħåĨµ": 4029,
      "æĬĢèĥ½": 4030,
      "çļĦåĬ¨ä½ľ": 4031,
      "igen": 4032,
      "åĽ½éĻħ": 4033,
      "ãģ¨ãģĦ": 4034,
      "çĿĢèĩªå·±": 4035,
      "21": 4036,
      "æ¯įçĭĹ": 4037,
      "æ¯«ä¸į": 4038,
      "åºŁ": 4039,
      "æİ©": 4040,
      "çļĦç¼": 4041,
      "ä¹Łå¾Ī": 4042,
      "æĮ¡": 4043,
      "oss": 4044,
      "å¦Ĥæŀľä½ł": 4045,
      "éĺ¶": 4046,
      "ç¼ĺ": 4047,
      "ä¹¡": 4048,
      "ãĤ»": 4049,
      "æŃī": 4050,
      "ystem": 4051,
      "æĽ¾ç»ı": 4052,
      "éĩĩåıĸ": 4053,
      "ç²¾ç¥ŀ": 4054,
      "çº·": 4055,
      "æ·±æ·±": 4056,
      "åķĬåķĬåķĬ": 4057,
      "åĢ¾": 4058,
      "ts": 4059,
      "éĹ¹": 4060,
      "ç«¹": 4061,
      "ä»·æł¼": 4062,
      "å¤įæĿĤ": 4063,
      "çļĦè¡£æľį": 4064,
      "å°ıåĺ´": 4065,
      "å¤´åıĳ": 4066,
      "çĴĥ": 4067,
      "è®¡ç®Ĺæľº": 4068,
      "æ¨ª": 4069,
      "åĲİçļĦ": 4070,
      "æ²¿": 4071,
      "ning": 4072,
      "åĶ±": 4073,
      "ç»µ": 4074,
      "ä¸ĵä¸ļ": 4075,
      "ĠThis": 4076,
      "Ġem": 4077,
      "Ġour": 4078,
      "äºĨä¸Ģå£°": 4079,
      "çļĦç´": 4080,
      "æ·±åħ¥": 4081,
      "çļĦæĸĩç«ł": 4082,
      "åľ°ä¸Ĭ": 4083,
      "ug": 4084,
      "è´¢": 4085,
      "å¹¸ç¦ı": 4086,
      "è§ģåĪ°": 4087,
      "åºĦ": 4088,
      "Ġdoes": 4089,
      "åŁ¹": 4090,
      "çļĦèľľ": 4091,
      "é¢ĸ": 4092,
      "è¿ĩçļĦ": 4093,
      "èĤł": 4094,
      "éħįåĲĪ": 4095,
      "åĢ©": 4096,
      "ç»ıå¸¸": 4097,
      "å¹²åĩĢ": 4098,
      "å¸Ń": 4099,
      "å¤©çļĦ": 4100,
      "ä¹ĥ": 4101,
      "æ·»": 4102,
      "æ¶Ĥ": 4103,
      "ä¸°å¯Į": 4104,
      "å¢¨": 4105,
      "å·²ç»ıè¢«": 4106,
      "ç§¯æŀģ": 4107,
      "å°º": 4108,
      "åĪ¶å®ļ": 4109,
      "åĪĳ": 4110,
      "çļĦè¶": 4111,
      "éª¤": 4112,
      "åľ¨è¿ĻéĩĮ": 4113,
      "åĪĻæĺ¯": 4114,
      "çĶ¨çļĦ": 4115,
      "å»ºçŃĳ": 4116,
      "çĮª": 4117,
      "çĵ£": 4118,
      "åħ³æ³¨": 4119,
      "èļ": 4120,
      "åĨ¬": 4121,
      "è¯´äºĨ": 4122,
      "ä¸ŃéĹ´": 4123,
      "ational": 4124,
      "åĲİæĿ¥": 4125,
      "åģļçĪ±": 4126,
      "ä¸įç¦ģ": 4127,
      "æĮīçħ§": 4128,
      "çľ¸": 4129,
      "é¡ºçĿĢ": 4130,
      "æĻ®éĢļ": 4131,
      "22": 4132,
      "æľīåħ³": 4133,
      "Ġag": 4134,
      "åİĭåĬĽ": 4135,
      "Ġbl": 4136,
      "ric": 4137,
      "Ġauch": 4138,
      "itt": 4139,
      "æĢ§åĴĮ": 4140,
      "çī¢": 4141,
      "éĤ£æĺ¯": 4142,
      "è¡«": 4143,
      "å¤©æ°Ķ": 4144,
      "è®¾å¤ĩ": 4145,
      "Ġany": 4146,
      "è¡ĮåĬ¨": 4147,
      "ä¸¤åıª": 4148,
      "çļĦä¹³æĪ¿": 4149,
      "è¿ħéĢŁ": 4150,
      "çģĮ": 4151,
      "çĲª": 4152,
      "çģ°": 4153,
      "ĠâĢĵ": 4154,
      "Ġsa": 4155,
      "åĸĺæģ¯": 4156,
      "è¢Ń": 4157,
      "å¤§äºĨ": 4158,
      "éĹ·": 4159,
      "çİ°ä»£": 4160,
      "ãģĿãģ®": 4161,
      "åľ¨ä¸Ģ": 4162,
      "é¡¹çĽ®": 4163,
      "æĭŁ": 4164,
      "Ġmy": 4165,
      "ç½ļ": 4166,
      "åĪĨå¼Ģ": 4167,
      "Ġass": 4168,
      "åĤ»": 4169,
      "ient": 4170,
      "çļĦçľĭçĿĢ": 4171,
      "ä¾į": 4172,
      "æ³ī": 4173,
      "æµ©": 4174,
      "ç¡ķ": 4175,
      "gram": 4176,
      "ä¹ĺ": 4177,
      "é¢ľèī²": 4178,
      "Ġhelp": 4179,
      "ä»Ķç»Ĩ": 4180,
      "æĤ²": 4181,
      "åĵªäºĽ": 4182,
      "ç¿¼": 4183,
      "æĤ¨åı¯ä»¥": 4184,
      "åģļåĩº": 4185,
      "åŃķ": 4186,
      "ãĥĸ": 4187,
      "æĢĢéĩĮ": 4188,
      "å¹¼": 4189,
      "å°¤åħ¶": 4190,
      "åĴĮæĪĳ": 4191,
      "ç±»åŀĭ": 4192,
      "ç»ĵæŀĦ": 4193,
      "æıĲåıĸ": 4194,
      "ä¹Ķ": 4195,
      "Ġact": 4196,
      "æ¶Īå¤±": 4197,
      "åħ¬ä¸»": 4198,
      "çĶ·åŃ©": 4199,
      "çļĦå¨ĩ": 4200,
      "ä¸Īå¤«": 4201,
      "ä½łå°±": 4202,
      "åı£æ°´": 4203,
      "ove": 4204,
      "äºĨä¸ĢäºĽ": 4205,
      "å²³": 4206,
      "åłª": 4207,
      "èĥĨ": 4208,
      "éĥ½æ²¡": 4209,
      "åĿ¦": 4210,
      "é«Ķ": 4211,
      "ities": 4212,
      "Ġ\\(": 4213,
      "æĭ¨": 4214,
      "èµ¤è£¸": 4215,
      "å¥³çĶŁ": 4216,
      "è·ŁçĿĢ": 4217,
      "è°ĵ": 4218,
      "åºĨ": 4219,
      "æī«": 4220,
      "èĲĿ": 4221,
      "äºĨå¥¹": 4222,
      "å·²ç¶ĵ": 4223,
      "éķ·": 4224,
      "ä¸Ģä¸ĭåŃĲ": 4225,
      "çĶ·åŃĲ": 4226,
      "çĹķ": 4227,
      "hen": 4228,
      "ç¿»è¯ĳ": 4229,
      "å¼Łå¼Ł": 4230,
      "èīºæľ¯": 4231,
      "è°ĥæķ´": 4232,
      "¦ģ": 4233,
      "æĪĳåı¯ä»¥": 4234,
      "éĿ¢çļĦ": 4235,
      "çĨĬ": 4236,
      "çŃĶåºĶ": 4237,
      "æ²¡äºĭ": 4238,
      "ãĤĥ": 4239,
      "æŃ£ç¡®": 4240,
      "ãģļ": 4241,
      "æĪĳè¿ĺ": 4242,
      "ä¿ı": 4243,
      "çĿĢçļĦ": 4244,
      "åĬŀåħ¬": 4245,
      "çĶµåŃĲ": 4246,
      "å°¸": 4247,
      "Ġbeen": 4248,
      "éĴ»": 4249,
      "å®³æĢķ": 4250,
      "çĶ·çĶŁ": 4251,
      "çļĦåĳ»åĲŁ": 4252,
      "âĢ¦ãĢį": 4253,
      "æ¢ģ": 4254,
      "è¶¾": 4255,
      "åŁĭ": 4256,
      "çļ®èĤ¤": 4257,
      "ãĥ¼ãĥĪ": 4258,
      "æ©Ł": 4259,
      "ç©ºæ°Ķ": 4260,
      "å¹¾": 4261,
      "çļĦèĪĮå¤´": 4262,
      "æľĹ": 4263,
      "rough": 4264,
      "ãĥĭ": 4265,
      "chn": 4266,
      "Ġmay": 4267,
      "çŁ¥è¯Ĩ": 4268,
      "æĪĳå¾Ī": 4269,
      "ath": 4270,
      "ble": 4271,
      "ä¸Ńå¤®": 4272,
      "åĺ´è§Ĵ": 4273,
      "¹æŀľ": 4274,
      "é¥®é£Ł": 4275,
      "Ġent": 4276,
      "Ġdur": 4277,
      "lect": 4278,
      "çļĦèĤĮ": 4279,
      "èĢģæĿ¿": 4280,
      "Ġfirst": 4281,
      "èĪ¹": 4282,
      "âĶĢâĶĢ": 4283,
      "çļĦèĥĮ": 4284,
      "eth": 4285,
      "äººåĳĺ": 4286,
      "æĶ»åĩ»": 4287,
      "Ġfind": 4288,
      "æļĤ": 4289,
      "ax": 4290,
      "ãģŃ": 4291,
      "å¾¡": 4292,
      "æ¤įçī©": 4293,
      "Ġmany": 4294,
      "éĢłæĪĲ": 4295,
      "äºĮäºº": 4296,
      "ãģķãģĦ": 4297,
      "çļĦèĦĳ": 4298,
      "æ°ı": 4299,
      "åĪĽéĢł": 4300,
      "çļĦå¥½": 4301,
      "è¯·éĹ®": 4302,
      "çļĦçº¢": 4303,
      "åĢĴæĺ¯": 4304,
      "æĭĸ": 4305,
      "æĢ¨": 4306,
      "èĦĳè¢ĭ": 4307,
      "Ġ/": 4308,
      "å¼Ģå¿ĥ": 4309,
      "åħ§": 4310,
      "çģŃ": 4311,
      "old": 4312,
      "éĸĢ": 4313,
      "æī®": 4314,
      "å¨ĥ": 4315,
      "é½¿": 4316,
      "çĩĥ": 4317,
      "éŁµ": 4318,
      "åºŀ": 4319,
      "éĽ¶": 4320,
      "é»ı": 4321,
      "æķħæĦı": 4322,
      "é¦¨": 4323,
      "éļĨ": 4324,
      "è¿Ļæīį": 4325,
      "å®¿": 4326,
      "è¦Ĩ": 4327,
      "éĽĻæīĭ": 4328,
      "æĺ¯åĽłä¸º": 4329,
      "èµĮ": 4330,
      "éĹ²": 4331,
      "100": 4332,
      "è¾£": 4333,
      "å¤ļäºĨ": 4334,
      "åĩĳ": 4335,
      "èĭ±è¯Ń": 4336,
      "äºĭä»¶": 4337,
      "æĦ£": 4338,
      "æĪĸè®¸": 4339,
      "èĪ°": 4340,
      "çļĦéĤ£": 4341,
      "ãģķãĤĵ": 4342,
      "éħ±": 4343,
      "åħĥç´ł": 4344,
      "als": 4345,
      "æ¾¡": 4346,
      "çļĦçĸ": 4347,
      "cess": 4348,
      "iet": 4349,
      "ä¸«": 4350,
      "ä¸²": 4351,
      "åĳ½ä»¤": 4352,
      "ä¸Ģçľĭ": 4353,
      "ower": 4354,
      "çĤİ": 4355,
      "ä½łè¿Ļ": 4356,
      "ä¸įåıĬ": 4357,
      "åĪĨåĪ«": 4358,
      "åŁºäºİ": 4359,
      "Ġadd": 4360,
      "åľºæĻ¯": 4361,
      "æľŁå¾ħ": 4362,
      "äºĨä¸Ģä¼ļ": 4363,
      "æĺ¨å¤©": 4364,
      "ä¹Łè®¸": 4365,
      "Ġind": 4366,
      "æ¸©åº¦": 4367,
      "uss": 4368,
      "ä¸ĬæĿ¥": 4369,
      "æĦıä¹ī": 4370,
      "èĽĩ": 4371,
      "Ġshould": 4372,
      "ĠAr": 4373,
      "å¼ºçĥĪ": 4374,
      "è¿ĩç¨ĭä¸Ń": 4375,
      "ä¸Ģæīĭ": 4376,
      "Ġdiffer": 4377,
      "èĩ³å°ĳ": 4378,
      "Ġform": 4379,
      "å¦Ĥä»Ĭ": 4380,
      "Ġonly": 4381,
      "è®°å¾Ĺ": 4382,
      "Ġjust": 4383,
      "è¶ģ": 4384,
      "å¹³æĹ¶": 4385,
      "åĢį": 4386,
      "çļĦå¤§èħ¿": 4387,
      "åķªåķª": 4388,
      "çļĦä¹³": 4389,
      "Ġthese": 4390,
      "æķ°éĩı": 4391,
      "åĶ¯ä¸Ģ": 4392,
      "åĨł": 4393,
      "æļ´éľ²": 4394,
      "çļĦç©º": 4395,
      "æ¨£": 4396,
      "æ±¡æŁĵ": 4397,
      "Ġmost": 4398,
      "é©¾": 4399,
      "éĽ»": 4400,
      "ãĢĤ\"": 4401,
      "Ġdies": 4402,
      "èĦĨ": 4403,
      "erson": 4404,
      "ohn": 4405,
      "è¾ĳ": 4406,
      "over": 4407,
      "çļĦå¥¹": 4408,
      "Ġob": 4409,
      "èĩ³äºİ": 4410,
      "çļĦå±ģèĤ¡": 4411,
      "ãģ«ãģ¯": 4412,
      "è±«": 4413,
      "å§ĳå¨ĺ": 4414,
      "ä¸ĢåĲį": 4415,
      "å®ĥçļĦ": 4416,
      "ä¸įçĦ¶": 4417,
      "æºľ": 4418,
      "éĺ¿å§¨": 4419,
      "èį£": 4420,
      "å°Ĩå¥¹": 4421,
      "pro": 4422,
      "oy": 4423,
      "ãĥ£": 4424,
      "Ġtwo": 4425,
      "è¿Ł": 4426,
      "æĿľ": 4427,
      "æī¹": 4428,
      "ãĥĳ": 4429,
      "Ġher": 4430,
      "Ġwer": 4431,
      "ãĥł": 4432,
      "oth": 4433,
      "Ã¼ber": 4434,
      "æİ¢ç´¢": 4435,
      "è¿Ļä½į": 4436,
      "è¸©": 4437,
      "æ£ĢæŁ¥": 4438,
      "çĤ¸": 4439,
      "åħ±åĲĮ": 4440,
      "çļĦèī": 4441,
      "Ġra": 4442,
      "æĻ°": 4443,
      "é«ĺçļĦ": 4444,
      "ãģ§ãģ¯": 4445,
      "ä¸Ģä¼ļåĦ¿": 4446,
      "èıĬ": 4447,
      "çĽ¸å½ĵ": 4448,
      "é£İæł¼": 4449,
      "ress": 4450,
      "éº¦": 4451,
      "åĨĻä¸Ģç¯ĩ": 4452,
      "Ġfl": 4453,
      "æľĢå¤§": 4454,
      "ĠĠĠĠ": 4455,
      "æľīä¸Ģä¸ª": 4456,
      "åħĦå¼Ł": 4457,
      "ï¼İï¼İ": 4458,
      "é¢Ħæµĭ": 4459,
      "imes": 4460,
      "æĭĴç»Ŀ": 4461,
      "ock": 4462,
      "ãĢįãĢĤ": 4463,
      "è·¨": 4464,
      "oint": 4465,
      "èĩĢéĥ¨": 4466,
      "æľīè¶£": 4467,
      "ä¸Ģç¬ĳ": 4468,
      "è¿ŀå¿Ļ": 4469,
      "éĥ½è¦ģ": 4470,
      "èĢĮåĩº": 4471,
      "æ®¿": 4472,
      "åªĴä½ĵ": 4473,
      "è¯Ĭ": 4474,
      "ç²ĺ": 4475,
      "æĬĳ": 4476,
      "å¬": 4477,
      "çļĦåºĶçĶ¨": 4478,
      "èĢ¸": 4479,
      "æ¸©æļĸ": 4480,
      "é¸£": 4481,
      "ful": 4482,
      "çļĦç¤": 4483,
      "æµ¸": 4484,
      "æĺİå¤©": 4485,
      "å·¨å¤§": 4486,
      "è¾¾åĪ°": 4487,
      "ä¹Łåľ¨": 4488,
      "60": 4489,
      "Ġunder": 4490,
      "ics": 4491,
      "ste": 4492,
      "æĴķ": 4493,
      "æ¬º": 4494,
      "çĽ¯çĿĢ": 4495,
      "çİĦ": 4496,
      "åı°æ¹¾": 4497,
      "æĦ¤": 4498,
      "ç¨įå¾®": 4499,
      "åĩłå¤©": 4500,
      "é©¶": 4501,
      "å°±åı¯ä»¥": 4502,
      "ç¨ĭåº¦": 4503,
      "è¾Ľ": 4504,
      "ä¸įè§ģ": 4505,
      "æĪĳä»¬éľĢè¦ģ": 4506,
      "Ġoff": 4507,
      "èį·": 4508,
      "é¢¨": 4509,
      "äººæ°ĳ": 4510,
      "æ®Ĭ": 4511,
      "çĸ²": 4512,
      "çļĦçĬ": 4513,
      "Ġsie": 4514,
      "è¿ĺèĥ½": 4515,
      "ç¥Ŀ": 4516,
      "åĹ¯åĹ¯": 4517,
      "çļĦç¡": 4518,
      "è·Ŀç¦»": 4519,
      "å¯¹ä¸įèµ·": 4520,
      "éĥģ": 4521,
      "çĥĤ": 4522,
      "æİ¥è§¦": 4523,
      "ä½łèĥ½": 4524,
      "æ±ĩ": 4525,
      "è¢«æĪĳ": 4526,
      "âĢ¦âĢ¦âĢ¦âĢ¦": 4527,
      "uc": 4528,
      "åĴ³": 4529,
      "çļĦèĭ": 4530,
      "æįŁ": 4531,
      "åĮħåĲ«": 4532,
      "ç©ºéĹ´": 4533,
      "çļĦèº«ä¸Ĭ": 4534,
      "ï¼Ĵ": 4535,
      "æµ´å®¤": 4536,
      "ãģ§ãĤĤ": 4537,
      "å®īæİĴ": 4538,
      "å¥¹åľ¨": 4539,
      "èµŀ": 4540,
      "40": 4541,
      "åŃ¤": 4542,
      "åĳĪ": 4543,
      "ç®ĢçĽ´": 4544,
      "éĢĤåºĶ": 4545,
      "ible": 4546,
      "åĲįçļĦ": 4547,
      "ç§°ä¸º": 4548,
      "æĿ¥èĩª": 4549,
      "ãģ¨ãģĦãģĨ": 4550,
      "èł": 4551,
      "çİ°å®ŀ": 4552,
      "tern": 4553,
      "ç¸": 4554,
      "å°±èĥ½": 4555,
      "éĢıæĺİ": 4556,
      "æ³°": 4557,
      "æĤĶ": 4558,
      "çļĦè¦ģ": 4559,
      "äº¤æµģ": 4560,
      "èĬĻ": 4561,
      "ute": 4562,
      "ben": 4563,
      "åıĹä¸įäºĨ": 4564,
      "çľĭåĲĳ": 4565,
      "èĬ¸": 4566,
      "ç½ĳç«Ļ": 4567,
      "å½ĵåľ°": 4568,
      "çļĦèĦ¸ä¸Ĭ": 4569,
      "Ġinclud": 4570,
      "æĥ§": 4571,
      "æĴĴ": 4572,
      "è¯¦ç»Ĩ": 4573,
      "åĵģçīĮ": 4574,
      "ments": 4575,
      "çļĦå·¥ä½ľ": 4576,
      "è§Ĵèī²": 4577,
      "åĩŃ": 4578,
      "æĻĤéĸĵ": 4579,
      "åıĤä¸İ": 4580,
      "æĮĩæĮ¥å®ĺ": 4581,
      "å¹³åı°": 4582,
      "ility": 4583,
      "èĻ«": 4584,
      "Ġhigh": 4585,
      "ins": 4586,
      "çļĦçĲĨ": 4587,
      "æĳĩå¤´": 4588,
      "æ¶©": 4589,
      "ious": 4590,
      "ä½łè¦ģ": 4591,
      "çĽ®çļĦ": 4592,
      "ç¤¾äº¤": 4593,
      "å¤º": 4594,
      "æĺ¾çĦ¶": 4595,
      "å°ĺ": 4596,
      "è¾ĵåħ¥": 4597,
      "è¢«äºº": 4598,
      "çļĦéĩįè¦ģ": 4599,
      "æ¯ĶèµĽ": 4600,
      "ç»Ļå¥¹": 4601,
      "ãĥ³ãĤ°": 4602,
      "æ°§": 4603,
      "Ġeff": 4604,
      "ĠSp": 4605,
      "æĥ³èµ·": 4606,
      "formation": 4607,
      "ä¸¤ä¸ªäºº": 4608,
      "å±ı": 4609,
      "own": 4610,
      "éĢ¸": 4611,
      "åĩºæĿ¥çļĦ": 4612,
      "çĮľ": 4613,
      "ative": 4614,
      "è¯´æĺ¯": 4615,
      "åıĪæĺ¯": 4616,
      "é¾Ħ": 4617,
      "ä½łäºĨ": 4618,
      "Ġreg": 4619,
      "ãģ¾ãģĽ": 4620,
      "æ¸ħæĻ°": 4621,
      "Ġph": 4622,
      "æĪĲçĨŁ": 4623,
      "çĿĢå¥¹çļĦ": 4624,
      "çķĻä¸ĭ": 4625,
      "ç¬¬ä¸ī": 4626,
      "èĤĨ": 4627,
      "å¾ŀ": 4628,
      "Ġever": 4629,
      "æĢİæł·": 4630,
      "åĬĽæ°Ķ": 4631,
      "éĺħ": 4632,
      "velop": 4633,
      "çº¹": 4634,
      "âĪ¶": 4635,
      "Ġrel": 4636,
      "èĥ½æºĲ": 4637,
      "çĶ·äººçļĦ": 4638,
      "ĠÃ": 4639,
      "ä¸įæĹ¶": 4640,
      "çĨŁæĤī": 4641,
      "éĿ¢ä¸Ĭ": 4642,
      "Ġstudents": 4643,
      "åıĮçľ¼": 4644,
      "ĠVer": 4645,
      "åĲĬ": 4646,
      "åħģ": 4647,
      "éĶĻè¯¯": 4648,
      "éļľ": 4649,
      "ä¹ĭå¤ĸ": 4650,
      "æłĩåĩĨ": 4651,
      "éĥŃ": 4652,
      "è¡Įä¸ļ": 4653,
      "ĠDe": 4654,
      "ĠÂ": 4655,
      "Ġmake": 4656,
      "çĪ±çļĦ": 4657,
      "è¹Ń": 4658,
      "Ġprodu": 4659,
      "åĬ¨çļĦ": 4660,
      "æĬ±ä½ı": 4661,
      "Ġthrough": 4662,
      "ä¼ļæľī": 4663,
      "ular": 4664,
      "å·¦æīĭ": 4665,
      "çĶ©": 4666,
      "çļĦè§Ĩ": 4667,
      "çĶ³": 4668,
      "äººå·¥æĻºèĥ½æĬĢæľ¯": 4669,
      "éĽ¯": 4670,
      "80": 4671,
      "ä¸įæĸŃçļĦ": 4672,
      "éĤĬ": 4673,
      "åı¯èĥ½æĺ¯": 4674,
      "æĶ¾å¿ĥ": 4675,
      "çŀª": 4676,
      "ased": 4677,
      "ade": 4678,
      "ä¹ĭå¾Į": 4679,
      "Ġhab": 4680,
      "è¾ī": 4681,
      "åıįæŃ£": 4682,
      "çļĦèı": 4683,
      "æī°": 4684,
      "fter": 4685,
      "ãģªãģ©": 4686,
      "é¥¶": 4687,
      "åĪ·": 4688,
      "æİĪ": 4689,
      "éĺ´åĶĩ": 4690,
      "ç¡Ģ": 4691,
      "ĠAl": 4692,
      "åıįæĬĹ": 4693,
      "åľ¨éĤ£": 4694,
      "fra": 4695,
      "ä¸Ĭä¸Ģ": 4696,
      "çļĦèį": 4697,
      "æĵįä½ľ": 4698,
      "æĪĳæĬĬ": 4699,
      "åĪĹè¡¨": 4700,
      "åĮĹäº¬": 4701,
      "ä½©": 4702,
      "ps": 4703,
      "ç¹ģ": 4704,
      "æľīæ²¡æľī": 4705,
      "è¡¨æĥħ": 4706,
      "ä¹Łè¢«": 4707,
      "å·®ä¸įå¤ļ": 4708,
      "é¤Ĳåİħ": 4709,
      "åŁºç¡Ģ": 4710,
      "ä¸įåľ¨": 4711,
      "ork": 4712,
      "çĶŁæ°Ķ": 4713,
      "çļĦçł": 4714,
      "ãĥ¥": 4715,
      "me": 4716,
      "âĢĶâĢĶâĢĶâĢĶ": 4717,
      "get": 4718,
      "å¦ĤæŀľæĤ¨": 4719,
      "~âĢĿ": 4720,
      "è®¿": 4721,
      "ãĤ¤ãĥ³": 4722,
      "æĳĺ": 4723,
      "Ġchild": 4724,
      "æ°ĶåĢĻ": 4725,
      "å¤ļä¹ħ": 4726,
      "å¹¶ä¸įæĺ¯": 4727,
      "åĩ¶": 4728,
      "enn": 4729,
      "çļĦè°": 4730,
      "æŁ±": 4731,
      "çĻ¼": 4732,
      "æķ°åŃ¦": 4733,
      "ily": 4734,
      "è·¯ä¸Ĭ": 4735,
      "åŀĥ": 4736,
      "è®¶": 4737,
      "éħĴåºĹ": 4738,
      "ä»ĬæĻļ": 4739,
      "å°±è¢«": 4740,
      "ä»Ģéº½": 4741,
      "æĲľ": 4742,
      "åķı": 4743,
      "éģĩåĪ°": 4744,
      "Ġaut": 4745,
      "Ġinv": 4746,
      "èĦī": 4747,
      "çĶµèĦĳ": 4748,
      "åģľæŃ¢": 4749,
      "åľ¾": 4750,
      "ĠTe": 4751,
      "Ã¶n": 4752,
      "åĮĸçļĦ": 4753,
      "urn": 4754,
      "çĹĩ": 4755,
      "åŀĥåľ¾": 4756,
      "ä»¥ä¾¿": 4757,
      "ene": 4758,
      "Ġcol": 4759,
      "Ġoder": 4760,
      "æĸ°éĹ»": 4761,
      "ä»¥ä¸ĭæĺ¯ä¸ĢäºĽ": 4762,
      "åħ©": 4763,
      "ç¾İäºº": 4764,
      "æĪĳæīį": 4765,
      "æľĽçĿĢ": 4766,
      "èĹ¤": 4767,
      "å¼·": 4768,
      "éĥĳ": 4769,
      "ä¸¤æĿ¡": 4770,
      "åķĬåķĬåķĬåķĬ": 4771,
      "ç«ŀ": 4772,
      "è¿ĺåı¯ä»¥": 4773,
      "å°Ĩåħ¶": 4774,
      "æľīå¾Īå¤ļ": 4775,
      "æ¶ī": 4776,
      "ãĤ¹ãĥĪ": 4777,
      "Ġuns": 4778,
      "çļĦéķ¿": 4779,
      "æĸ¹ä¾¿": 4780,
      "å¤±åİ»": 4781,
      "è´Ńä¹°": 4782,
      "çŃīå¾ħ": 4783,
      "ä»¶äºĭ": 4784,
      "è¿ĺæ²¡æľī": 4785,
      "ãģĹãģĦ": 4786,
      "ĠHe": 4787,
      "ä¸»ä¹ī": 4788,
      "Ġ200": 4789,
      "çĤ¹äºĨ": 4790,
      "è¯Ńæ°Ķ": 4791,
      "çļĦçŃ": 4792,
      "æĦıçļĦ": 4793,
      "ĠWe": 4794,
      "å«£": 4795,
      "æľ¬èĥ½": 4796,
      "æĥħç»ª": 4797,
      "äººåı£": 4798,
      "æŃ¥éª¤": 4799,
      "æīŃåĬ¨": 4800,
      "éĶĢåĶ®": 4801,
      "Ġhad": 4802,
      "å½¼æŃ¤": 4803,
      "çļĦçİī": 4804,
      "io": 4805,
      "ä¸Ģéģĵ": 4806,
      "å§Ĭ": 4807,
      "åĳĺå·¥": 4808,
      "Ġx": 4809,
      "Ġum": 4810,
      "OS": 4811,
      "å¼ºçĥĪçļĦ": 4812,
      "çļĦæĸ¹æ³ķ": 4813,
      "ãģĿãĤĮ": 4814,
      "Ġwerden": 4815,
      "esch": 4816,
      "è®¯": 4817,
      "Ġused": 4818,
      "åĴĻ": 4819,
      "çĬ¹è±«": 4820,
      "ä¸įå¯¹": 4821,
      "çľĭåĪ°äºĨ": 4822,
      "Ġeach": 4823,
      "è§Ĩé¢ĳ": 4824,
      "Wh": 4825,
      "æĹłåĬĽ": 4826,
      "ä¾¿æĺ¯": 4827,
      "æľºåĻ¨äºº": 4828,
      "æº¢": 4829,
      "åºĶè¯¥æĺ¯": 4830,
      "24": 4831,
      "åĤ¨": 4832,
      "åĸīåĴĻ": 4833,
      "éĺ³åħī": 4834,
      "å·¨å¤§çļĦ": 4835,
      "å½¢å¼ı": 4836,
      "ãģĵãģ®": 4837,
      "çļĦç«": 4838,
      "ç¨®": 4839,
      "ä»ģ": 4840,
      "å¥¹éĤ£": 4841,
      "éªĹ": 4842,
      "æĦŁæĥħ": 4843,
      "å¼Ĥå¸¸": 4844,
      "æ°¸è¿ľ": 4845,
      "å®¾": 4846,
      "æĹĹ": 4847,
      "çµĲ": 4848,
      "é»İ": 4849,
      "çļĦè¾": 4850,
      "Ġwar": 4851,
      "å½¢çĬ¶": 4852,
      "åİ¨": 4853,
      "ä½įäºİ": 4854,
      "åĿļæĮģ": 4855,
      "çĶ»éĿ¢": 4856,
      "ience": 4857,
      "è¶³å¤Ł": 4858,
      "199": 4859,
      "æĪĳåĢĳ": 4860,
      "çĭĲ": 4861,
      "ãĥŁ": 4862,
      "çī¹å¾ģ": 4863,
      "åĩºä¾Ĩ": 4864,
      "fl": 4865,
      "æľīæīĢ": 4866,
      "æŃ£æĺ¯": 4867,
      "åī©ä¸ĭ": 4868,
      "ced": 4869,
      "ungs": 4870,
      "åĲ¼": 4871,
      "ract": 4872,
      "ç»ĦæĪĲ": 4873,
      "æ±½è½¦": 4874,
      "å·¾": 4875,
      "æīĭä¸Ń": 4876,
      "åľ°è¯´": 4877,
      "ãĥĬ": 4878,
      "éŀŃ": 4879,
      "ä¸įåı¯èĥ½": 4880,
      "hl": 4881,
      "ife": 4882,
      "å¤§å£°": 4883,
      "éļ¾åıĹ": 4884,
      "ht": 4885,
      "æ°Ľ": 4886,
      "æ³³": 4887,
      "è¯Ħä¼°": 4888,
      "éĻĦè¿ĳ": 4889,
      "çļĦéĿ¢": 4890,
      "ä¸įèĩª": 4891,
      "ç®Ĺæĺ¯": 4892,
      "å®ŀéªĮ": 4893,
      "ä¸Ģæł¹": 4894,
      "æĥ³è±¡": 4895,
      "æ¬£èµı": 4896,
      "çıĬ": 4897,
      "ger": 4898,
      "ãĤ±": 4899,
      "ç¾Ĭ": 4900,
      "Ġdec": 4901,
      "åı¦ä¸Ģä¸ª": 4902,
      "ãģĹãģ¾ãģĻ": 4903,
      "çī¹æ®Ĭ": 4904,
      "å¤Ħå¥³": 4905,
      "ãģ¾ãģĽãĤĵ": 4906,
      "ç»·": 4907,
      "ä»İæĿ¥": 4908,
      "åĶ¤": 4909,
      "èĤĽ": 4910,
      "Ġnumber": 4911,
      "åĴ±ä»¬": 4912,
      "å®ł": 4913,
      "å¤§é¸¡å·´": 4914,
      "çŃĶæ¡Ī": 4915,
      "res": 4916,
      "çķħ": 4917,
      "èģĶç³»": 4918,
      "çī©è´¨": 4919,
      "æĲħ": 4920,
      "çļĦèĤ©": 4921,
      "åį±éĻ©": 4922,
      "çľĭå¾Ĺ": 4923,
      "å¿ĥæĥħ": 4924,
      "éĽ¾": 4925,
      "ä¸ĢåıĮ": 4926,
      "éļ¶": 4927,
      "å¯¦": 4928,
      "ãģıãģł": 4929,
      "æ¢¯": 4930,
      "çļĦè§Ĵ": 4931,
      "æ¶µ": 4932,
      "è½¬èº«": 4933,
      "çīµ": 4934,
      "æĦŁè°¢": 4935,
      "__": 4936,
      "åĳĥ": 4937,
      "Ġ[": 4938,
      "red": 4939,
      "æĹ¶æľŁ": 4940,
      "çĶŁæĢģ": 4941,
      "æ¬¢è¿İ": 4942,
      "ĠÃ¼ber": 4943,
      "çļĦä¸į": 4944,
      "ãĤĮãĤĭ": 4945,
      "Ġdet": 4946,
      "è®°å¿Ĩ": 4947,
      "çļĦä¸Ģä¸ª": 4948,
      "åłĨ": 4949,
      "çļĦéĺ´éģĵ": 4950,
      "alth": 4951,
      "ç²Ĵ": 4952,
      "èĨĿ": 4953,
      "å¥½èĪĴæľį": 4954,
      "èĢħçļĦ": 4955,
      "æ»©": 4956,
      "å¦Īå¦ĪçļĦ": 4957,
      "æİ¥èĳĹ": 4958,
      "åĴ¯": 4959,
      "Ġsind": 4960,
      "æ³ķå¾ĭ": 4961,
      "éĶĭ": 4962,
      "ä¸įæĸŃåľ°": 4963,
      "å¦ĥ": 4964,
      "æµģåĩº": 4965,
      "æ¹¿æ¶¦": 4966,
      "å¿«è¦ģ": 4967,
      "è¯´æĺİ": 4968,
      "åĺ»åĺ»": 4969,
      "ä½łæĢİä¹Ī": 4970,
      "ç´Ħ": 4971,
      "ä¿Ŀè¯ģ": 4972,
      "å¥¹ä¹Ł": 4973,
      "ç¬ĳäºĨ": 4974,
      "èĪĩ": 4975,
      "æĪĲåĳĺ": 4976,
      "æĭ¿èµ·": 4977,
      "ç»ĥä¹ł": 4978,
      "ä¸¥éĩį": 4979,
      "round": 4980,
      "å°Ĩä¼ļ": 4981,
      "åĩºæĿ¥äºĨ": 4982,
      "æĿ¥åĽŀ": 4983,
      "èĻĲ": 4984,
      "è¾Ĩ": 4985,
      "ä¸ĸçºª": 4986,
      "å¥Ķ": 4987,
      "ata": 4988,
      "å¸ģ": 4989,
      "è½»æĿ¾": 4990,
      "é¦Ļæ¸¯": 4991,
      "pport": 4992,
      "èĢ¶": 4993,
      "ãĥ¼ãĥī": 4994,
      "ula": 4995,
      "éĤ£å°±": 4996,
      "ä¼ļè®®": 4997,
      "text": 4998,
      "Ġbest": 4999,
      "åıĺæĪĲäºĨ": 5000,
      "ox": 5001,
      "éĩĩçĶ¨": 5002,
      "åĭī": 5003,
      "åĩ¸": 5004,
      "æĪĳå·²ç»ı": 5005,
      "åľ°çľĭçĿĢ": 5006,
      "çļĦçľ¼ç¥ŀ": 5007,
      "land": 5008,
      "å®¡": 5009,
      "èĢ³è¾¹": 5010,
      "éĥ½å¾Ī": 5011,
      "äº²åĲ»": 5012,
      "ä¸Ģå¤©": 5013,
      "æĪĳåıĪ": 5014,
      "ãĢĮâĢ¦âĢ¦": 5015,
      "ĠHow": 5016,
      "æľŁéĹ´": 5017,
      "å¯¹å¥¹": 5018,
      "ures": 5019,
      "Ġwhere": 5020,
      "è¹²": 5021,
      "éĥ½èĥ½": 5022,
      "è¿Ľä¸ĢæŃ¥": 5023,
      "èĻķ": 5024,
      "è´Łè´£": 5025,
      "èĤ¿": 5026,
      "æ··åĲĪ": 5027,
      "æĹłæķ°": 5028,
      "æĬ¢": 5029,
      "ä½İå¤´": 5030,
      "çļĦè§¦": 5031,
      "å¾®ç¬ĳ": 5032,
      "è¸ı": 5033,
      "23": 5034,
      "çĶ·æĢ§": 5035,
      "ween": 5036,
      "èĦĤ": 5037,
      "æĦıåĳ³": 5038,
      "é«ĺè·Ł": 5039,
      "ç·Ĭ": 5040,
      "ĠEr": 5041,
      "è¯´ä»Ģä¹Ī": 5042,
      "ç³ķ": 5043,
      "æĪĺæĸĹ": 5044,
      "Ġbu": 5045,
      "Ġprogram": 5046,
      "çĿĢå¤´": 5047,
      "inal": 5048,
      "åĲ¬è¯´": 5049,
      "ä¸ºæĤ¨": 5050,
      "èĭ¹æŀľ": 5051,
      "åªĽ": 5052,
      "çĶ¨æĿ¥": 5053,
      "è®°å½ķ": 5054,
      "æ³¥": 5055,
      "çļĦè¢": 5056,
      "çĸ¾çĹħ": 5057,
      "éĩĳèŀį": 5058,
      "ows": 5059,
      "Ġset": 5060,
      "Ġhat": 5061,
      "ãĤ§": 5062,
      "èµĸ": 5063,
      "å¥³äººçļĦ": 5064,
      "æķ²": 5065,
      "ãĤĮãģ¦": 5066,
      "Ġmod": 5067,
      "åīįéĿ¢": 5068,
      "ç«ĭåį³": 5069,
      "Ġschool": 5070,
      "è¿Ļæ®µ": 5071,
      "åįķè¯į": 5072,
      "Ġcould": 5073,
      "ä¸įåģľçļĦ": 5074,
      "æĮĳéĢĹ": 5075,
      "ç©ºä¸Ń": 5076,
      "åĬĽåĴĮ": 5077,
      "äºĨä»ĸ": 5078,
      "éľľ": 5079,
      "ĠDie": 5080,
      "ç¥ŀç§ĺ": 5081,
      "çĶŁçļĦ": 5082,
      "çŃ¾": 5083,
      "æİĮæı¡": 5084,
      "ĠæĪĳ": 5085,
      "ä½łåľ¨": 5086,
      "ä½łä¹Ł": 5087,
      "Ġatt": 5088,
      "ç§»åĬ¨": 5089,
      "æĹłå¥Ī": 5090,
      "çļĦçĥŃ": 5091,
      "è¸ª": 5092,
      "ä»Ĩ": 5093,
      "èĢĢ": 5094,
      "ä¸įå¤ª": 5095,
      "æ¡£": 5096,
      "å«Ĥ": 5097,
      "æµĭè¯ķ": 5098,
      "å¡ĳ": 5099,
      "ä¸ĭåįĪ": 5100,
      "Ġdevelop": 5101,
      "çļĦæīĭæĮĩ": 5102,
      "èĩªæĪĳ": 5103,
      "ãģĿãģĨ": 5104,
      "æĦ§": 5105,
      "åīĤ": 5106,
      "çĵľ": 5107,
      "èº«æĿĲ": 5108,
      "éĻ¶": 5109,
      "Ġyears": 5110,
      "æ´¥": 5111,
      "æħ¢æħ¢çļĦ": 5112,
      "æī§è¡Į": 5113,
      "çĿĢæĪĳçļĦ": 5114,
      "åĲĥé¥Ń": 5115,
      "çĵ¦": 5116,
      "åģļä»Ģä¹Ī": 5117,
      "cri": 5118,
      "ãĤĩ": 5119,
      "è·ŁæĪĳ": 5120,
      "æİīäºĨ": 5121,
      "çļĦçĬ¶": 5122,
      "aw": 5123,
      "ä»¥ä¸ĭæĺ¯": 5124,
      "çº¢çļĦ": 5125,
      "æĥĬè®¶": 5126,
      "æĬ«": 5127,
      "ä¸įå¦Ĥ": 5128,
      "ãĥĵ": 5129,
      "çº±": 5130,
      "è®©æĪĳä»¬": 5131,
      "Ġsub": 5132,
      "ãģłãģĳ": 5133,
      "Ġlear": 5134,
      "çļĦç½": 5135,
      "ç»Ļä»ĸ": 5136,
      "çļĦç¬ĳå®¹": 5137,
      "æĭ¼åĳ½": 5138,
      "ek": 5139,
      "åģļäºĨ": 5140,
      "ring": 5141,
      "å±ķç¤º": 5142,
      "åľ¨å¥¹çļĦ": 5143,
      "çĿĢä»ĸ": 5144,
      "ãģıãģłãģķãģĦ": 5145,
      "Ġway": 5146,
      "è¨ĺ": 5147,
      "å®Ŀè´Ŀ": 5148,
      "ãĥĿ": 5149,
      "æ°£": 5150,
      "åĪĽæĸ°": 5151,
      "ä½ĨæĪĳ": 5152,
      "Ġthen": 5153,
      "å¿ł": 5154,
      "Ġsystem": 5155,
      "æķ´ä¸ªäºº": 5156,
      "line": 5157,
      "æı¡ä½ı": 5158,
      "æŃ£å¥½": 5159,
      "å¿Į": 5160,
      "Ġbei": 5161,
      "ä½łä¸į": 5162,
      "æŁľ": 5163,
      "å°ĦäºĨ": 5164,
      "æĪª": 5165,
      "ä¹Łå°±": 5166,
      "ç¨ł": 5167,
      "åĨĨ": 5168,
      "èĬ¬": 5169,
      "çļĦèĲ": 5170,
      "å°ıè¯´": 5171,
      "åĵĩ": 5172,
      "å¿«çĤ¹": 5173,
      "å®¶çļĦ": 5174,
      "éĴ¢": 5175,
      "äºĴçĽ¸": 5176,
      "aking": 5177,
      "ãĢĤãĢĤãĢĤ": 5178,
      "å¹³åĿĩ": 5179,
      "èº«ä¸ĬçļĦ": 5180,
      "èµ·çļĦ": 5181,
      "å§ĵ": 5182,
      "gan": 5183,
      "æ§ĺ": 5184,
      "çļĦç®": 5185,
      "å¸¸è§ģ": 5186,
      "az": 5187,
      "å¦į": 5188,
      "æĮ¯": 5189,
      "åĬłå¼º": 5190,
      "çĻº": 5191,
      "åĨ²åĩ»": 5192,
      "Ġbetween": 5193,
      "è®¨è®º": 5194,
      "å¹³è¡¡": 5195,
      "omm": 5196,
      "æĦıå¤ĸ": 5197,
      "æĶ¿æ²»": 5198,
      "éļıåį³": 5199,
      "æĶ¾å¼ĥ": 5200,
      "ä¸įåĩº": 5201,
      "çĻ½çļĦ": 5202,
      "æĭ¾": 5203,
      "çļĦçĶŁæ´»": 5204,
      "å¡«": 5205,
      "cy": 5206,
      "çĳľ": 5207,
      "åĪĨäº«": 5208,
      "åı¯æĥľ": 5209,
      "é£Łåĵģ": 5210,
      "èĩªä¸»": 5211,
      "ines": 5212,
      "ä¸Ģå¼ł": 5213,
      "éĥ¨ä½į": 5214,
      "ä¼Ĺäºº": 5215,
      "å¾ª": 5216,
      "åĨħéĥ¨": 5217,
      "æĴŀåĩ»": 5218,
      "æ´ª": 5219,
      "ige": 5220,
      "pect": 5221,
      "ä¸Ģä»½": 5222,
      "åŃ¸": 5223,
      "æīĭéĩĮ": 5224,
      "èª¿": 5225,
      "å¼µ": 5226,
      "çļĦåı£": 5227,
      "æ·±åº¦": 5228,
      "æ²¡ä»Ģä¹Ī": 5229,
      "è¾°": 5230,
      "Ġbecause": 5231,
      "è§Ĥå¯Ł": 5232,
      "éļıæĹ¶": 5233,
      "Ġvor": 5234,
      "æĢģåº¦": 5235,
      "çļĦåħī": 5236,
      "æĪĳçľĭ": 5237,
      "alt": 5238,
      "ize": 5239,
      "åģļçļĦ": 5240,
      "å¾Ĺå¾Ī": 5241,
      "Ġval": 5242,
      "æ²ŁéĢļ": 5243,
      "Ġtrans": 5244,
      "Ġsim": 5245,
      "ä¹Łå°±æĺ¯": 5246,
      "ä¹Łä¸įä¼ļ": 5247,
      "ä½ĵçļĦ": 5248,
      "èĮľ": 5249,
      "åĩºçİ°åľ¨": 5250,
      "ç¾ŀèĢ»": 5251,
      "æ¶Īæģ¯": 5252,
      "èĢ³æľµ": 5253,
      "å®Įç¾İ": 5254,
      "åĪ°å¥¹": 5255,
      "Ġthink": 5256,
      "åį«çĶŁ": 5257,
      "æıĲåĩº": 5258,
      "éĽ²": 5259,
      "ç¥ŀç»ı": 5260,
      "èĢĹ": 5261,
      "ices": 5262,
      "ãĤµãĤ¤": 5263,
      "âĢ¦âĢĿ": 5264,
      "çļĦè¯´éģĵ": 5265,
      "yp": 5266,
      "åı«å£°": 5267,
      "åĨ³çŃĸ": 5268,
      "å·®çĤ¹": 5269,
      "åħ¬åı¸çļĦ": 5270,
      "çļĦç¨": 5271,
      "æºª": 5272,
      "ĠIf": 5273,
      "åĽŀåºĶ": 5274,
      "è¾ĵåĩº": 5275,
      "èº«ä½ĵçļĦ": 5276,
      "æĢĸ": 5277,
      "Ġplay": 5278,
      "åįĬèº«": 5279,
      "ä¸Ģåı£": 5280,
      "å²¸": 5281,
      "çļĦé»ĳ": 5282,
      "çİ©åħ·": 5283,
      "çľĭäºĨçľĭ": 5284,
      "è®©èĩªå·±": 5285,
      "åłµ": 5286,
      "||": 5287,
      "äºĨå¥½": 5288,
      "èĩªçĦ¶è¯Ńè¨Ģ": 5289,
      "æıīæįı": 5290,
      "Ġnach": 5291,
      "iven": 5292,
      "çļĦé¸¡å·´": 5293,
      "çļĦæĸ¹å¼ı": 5294,
      "åĪ¥": 5295,
      "éĤ£æł¹": 5296,
      "çļĦè¡Įä¸º": 5297,
      "åĿĢ": 5298,
      "çļĦä½įç½®": 5299,
      "ä¸įå®ī": 5300,
      "ç¥ĸ": 5301,
      "ting": 5302,
      "bers": 5303,
      "éĮ": 5304,
      "åĮĻ": 5305,
      "æįĤ": 5306,
      "åĲĪéĢĤ": 5307,
      "è¿ĩå¤´": 5308,
      "éľŀ": 5309,
      "ç»ĺ": 5310,
      "è§¦æīĭ": 5311,
      "fe": 5312,
      "é¢Ĩå¯¼": 5313,
      "å¥¹æĺ¯": 5314,
      "ï¼īãĢģ": 5315,
      "å®ļä¹ī": 5316,
      "fore": 5317,
      "æĢİä¹ĪåĬŀ": 5318,
      "æĶ¶ç¼©": 5319,
      "æ²Ĳ": 5320,
      "æīĢè°ĵ": 5321,
      "æİ¥è¿ĳ": 5322,
      "èĥģ": 5323,
      "åĲ¬è§ģ": 5324,
      "éĻĮ": 5325,
      "äºĨä¸¤": 5326,
      "åī²": 5327,
      "ãģĴ": 5328,
      "çļĦèº«åŃĲ": 5329,
      "èº«ä¸ĭ": 5330,
      "ç¢į": 5331,
      "ä¸Ĭåīį": 5332,
      "å½¤": 5333,
      "ãĥ¼ãĤ¹": 5334,
      "çļĻ": 5335,
      "çľŁå®ŀ": 5336,
      "Ġed": 5337,
      "äºĨè¿Ľåİ»": 5338,
      "è·ĥ": 5339,
      "éĻįä½İ": 5340,
      "æ£į": 5341,
      "çļĦç²ī": 5342,
      "åĴĮå°ı": 5343,
      "è¦º": 5344,
      "å²©": 5345,
      "èµ«": 5346,
      "éº»çĥ¦": 5347,
      "æŁĲäºĽ": 5348,
      "æĮīæĳ©": 5349,
      "æ³Į": 5350,
      "iew": 5351,
      "ä¸īäºº": 5352,
      "åĨįä¹Ł": 5353,
      "å¥ī": 5354,
      "åľ¨æĪĳçļĦ": 5355,
      "stand": 5356,
      "ç³»åĪĹ": 5357,
      "çĭ±": 5358,
      "éĶħ": 5359,
      "elf": 5360,
      "hor": 5361,
      "èĥĮåĲİ": 5362,
      "ption": 5363,
      "å®¶äºº": 5364,
      "å¹´åīį": 5365,
      "ç¼ļ": 5366,
      "çļĦä¸¤": 5367,
      "çļĦåĲĮæĹ¶": 5368,
      "åı¯æĢľ": 5369,
      "å¨±ä¹ĲåŁİ": 5370,
      "æĹ¥åŃĲ": 5371,
      "Ã¤t": 5372,
      "Ġexam": 5373,
      "è®¢": 5374,
      "ç¢º": 5375,
      "Ġac": 5376,
      "Ġrem": 5377,
      "çĽ¸äºĴ": 5378,
      "ider": 5379,
      "åĬŀåħ¬å®¤": 5380,
      "æ¯ıä¸ªäºº": 5381,
      "è¿Ļåı¥è¯Ŀ": 5382,
      "éģ¸": 5383,
      "ç»ĵåĲĪ": 5384,
      "ä¾µçĬ¯": 5385,
      "æĭ¿çĿĢ": 5386,
      "èĮĥåĽ´": 5387,
      "çĳŁ": 5388,
      "çµĤ": 5389,
      "çĽĲ": 5390,
      "çĥŃçļĦ": 5391,
      "ä¹Łèĥ½": 5392,
      "åĽŀå¤´": 5393,
      "åĲįç§°": 5394,
      "çĬ¬": 5395,
      "çľ¼ä¸Ń": 5396,
      "ä¼ĺåĮĸ": 5397,
      "ix": 5398,
      "ident": 5399,
      "é³": 5400,
      "æ¼ı": 5401,
      "earch": 5402,
      "å·¥ç¨ĭ": 5403,
      "çºł": 5404,
      "çĽ¸å¯¹": 5405,
      "åĲĳä¸Ĭ": 5406,
      "Ġread": 5407,
      "å¨ĩå«©": 5408,
      "âĢ¢": 5409,
      "æ·ĳ": 5410,
      "è¢«ä»ĸ": 5411,
      "åŁĥ": 5412,
      "Ġspec": 5413,
      "åį§å®¤": 5414,
      "åĽ°éļ¾": 5415,
      "çĤ®": 5416,
      "ution": 5417,
      "è¯¸": 5418,
      "å¹´é¾Ħ": 5419,
      "èĥ¶": 5420,
      "è°ĥæķĻ": 5421,
      "---": 5422,
      "ĠLe": 5423,
      "å¤´ä¸Ĭ": 5424,
      "è¯ĬæĸŃ": 5425,
      "éľ²åĩºäºĨ": 5426,
      "çĹ´": 5427,
      "è£¤åŃĲ": 5428,
      "æĹ©ä¸Ĭ": 5429,
      "ä¸Ģåī¯": 5430,
      "è½¯ä»¶": 5431,
      "æľīå¤ļ": 5432,
      "è¿½æ±Ĥ": 5433,
      "çŀ§": 5434,
      "èĥ¸éĥ¨": 5435,
      "ä¼°è®¡": 5436,
      "å¼Ħå¾Ĺ": 5437,
      "ä¼½": 5438,
      "å¤§å¤ļ": 5439,
      "å§ľ": 5440,
      "èªį": 5441,
      "è³ª": 5442,
      "ç»¼": 5443,
      "å¯¾": 5444,
      "æľĢä½³": 5445,
      "å¾Īæľī": 5446,
      "æĶ¿çŃĸ": 5447,
      "âĪ¶âĢľ": 5448,
      "æ´Ĵ": 5449,
      "å®ĮäºĨ": 5450,
      "æıĴè¿Ľ": 5451,
      "ä¸ªæĢ§": 5452,
      "Ġwell": 5453,
      "ä½łæĥ³": 5454,
      "èĢģèĻİ": 5455,
      "æĸĩåŃ¦": 5456,
      "è´ŀ": 5457,
      "é«ĺé«ĺ": 5458,
      "Ġbel": 5459,
      "let": 5460,
      "auf": 5461,
      "Ġmuch": 5462,
      "èĬĴ": 5463,
      "æĥ©": 5464,
      "Ġwant": 5465,
      "åĩłæ¬¡": 5466,
      "ischen": 5467,
      "ä¹Łä¸įçŁ¥éģĵ": 5468,
      "Ġexper": 5469,
      "å½¢è±¡": 5470,
      "orn": 5471,
      "æ°´æŀľ": 5472,
      "åĲĳåīį": 5473,
      "è¸¢": 5474,
      "å¤ķ": 5475,
      "æįķ": 5476,
      "ãģĤãĤĬ": 5477,
      "æ¨¡å¼ı": 5478,
      "åĬ¨äºĨ": 5479,
      "isch": 5480,
      "çļĦçĹĽ": 5481,
      "åĨħçļĦ": 5482,
      "çī¹çĤ¹": 5483,
      "åıªä¸įè¿ĩ": 5484,
      "åĵĪåĵĪåĵĪåĵĪ": 5485,
      "èĲ±": 5486,
      "ãģ»": 5487,
      "ãģªãģı": 5488,
      "æĪĳéĥ½": 5489,
      "èµ·ä¾Ĩ": 5490,
      "!!": 5491,
      "æĹ¦": 5492,
      "èģĬå¤©": 5493,
      "å¤§å°ı": 5494,
      "å¥ĳ": 5495,
      "åĪ¶éĢł": 5496,
      "ĬåŃĲ": 5497,
      "ĭåĬ¿": 5498,
      "çļĦæ¨¡æł·": 5499,
      "æģ¼": 5500,
      "å¸¦æĿ¥çļĦ": 5501,
      "åĵªä¸ª": 5502,
      "çļĦåĳ³éģĵ": 5503,
      "Ġsm": 5504,
      "èĨľ": 5505,
      "å¿ĺè®°": 5506,
      "è½»è½»çļĦ": 5507,
      "éĤ£è¾¹": 5508,
      "èģª": 5509,
      "æľªæĿ¥çļĦ": 5510,
      "ç±į": 5511,
      "çºµ": 5512,
      "åĬłå¿«": 5513,
      "é¥±æ»¡": 5514,
      "å«Į": 5515,
      "åķ¥": 5516,
      "äºķ": 5517,
      "å°±ä¸į": 5518,
      "Ġgood": 5519,
      "åħħæ»¡äºĨ": 5520,
      "åīĩ": 5521,
      "ãģŁãĤģ": 5522,
      "å®³ç¾ŀ": 5523,
      "åĪ°æĪĳ": 5524,
      "å®ħ": 5525,
      "ï¼ĵ": 5526,
      "æľĢé«ĺ": 5527,
      "çĽŁ": 5528,
      "Ġfoll": 5529,
      "çĶŁæĪĲä¸Ģä¸ª": 5530,
      "ä¸ĢæĹ¶": 5531,
      "å¹²ä»Ģä¹Ī": 5532,
      "æ±ª": 5533,
      "èĩ£": 5534,
      "Ġdisc": 5535,
      "çĭ¬çī¹": 5536,
      "the": 5537,
      "çļĦèħ¿": 5538,
      "Ġsol": 5539,
      "ict": 5540,
      "çĪ¹": 5541,
      "åĨįåº¦": 5542,
      "çļĦè§£": 5543,
      "çļĦçĤ": 5544,
      "Ġdass": 5545,
      "åįļå½©": 5546,
      "è®¨åİĮ": 5547,
      "å¾Ģä¸ĭ": 5548,
      "æ¶Ľ": 5549,
      "æĪĳåİ»": 5550,
      "Ġdid": 5551,
      "å¥´éļ¶": 5552,
      "åĪĽä½ľ": 5553,
      "èħķ": 5554,
      "æĢĿæĥ³": 5555,
      "æ¡Įä¸Ĭ": 5556,
      "æ°´å¹³": 5557,
      "éĶ»": 5558,
      "é»Ħèĵī": 5559,
      "ä¸įåģľåľ°": 5560,
      "åģ·åģ·": 5561,
      "zen": 5562,
      "Ġins": 5563,
      "å®Ł": 5564,
      "å¯¹äºĨ": 5565,
      "æŃ£å¼ı": 5566,
      "Ġ12": 5567,
      "æª": 5568,
      "çļĦåĪºæ¿Ģ": 5569,
      "çļĦè¡Ģ": 5570,
      "å¿§": 5571,
      "éĨĴäºĨ": 5572,
      "æ·¡æ·¡": 5573,
      "âĹ": 5574,
      "Ġinst": 5575,
      "çħ®": 5576,
      "æĹ¶ä»£": 5577,
      "}{": 5578,
      "ç²īå«©": 5579,
      "æīĭä¸Ĭ": 5580,
      "æıĲåįĩ": 5581,
      "ä¹Łè¦ģ": 5582,
      "æ¾³": 5583,
      "åıĺæĢģ": 5584,
      "å¥½å¥ĩ": 5585,
      "ãģ¾ãģ§": 5586,
      "è¿Ŀ": 5587,
      "ues": 5588,
      "éļĶçĿĢ": 5589,
      "æī¿åıĹ": 5590,
      "åŃ¦éĻ¢": 5591,
      "èµ°åİ»": 5592,
      "ç§Ł": 5593,
      "èĥŀ": 5594,
      "æĺĤ": 5595,
      "ä»ĸåľ¨": 5596,
      "70": 5597,
      "å°¬": 5598,
      "ç»Ļåĩº": 5599,
      "æĪĳçİ°åľ¨": 5600,
      "ä¸Ģäºº": 5601,
      "éĻĲåĪ¶": 5602,
      "Ġdon": 5603,
      "æĬ½åĩº": 5604,
      "çļĦå¯¹": 5605,
      "åŃĹç¬¦": 5606,
      "Ġdifferent": 5607,
      "æĺ¯è°ģ": 5608,
      "éĿ¡": 5609,
      "ãĤĵãģª": 5610,
      "çĮĽåľ°": 5611,
      "ãĥ³ãĥĪ": 5612,
      "éģĵå¾·": 5613,
      "ä¾ł": 5614,
      "ale": 5615,
      "éĺħè¯»": 5616,
      "éĤ¦": 5617,
      "ãĥĢ": 5618,
      "å¥½åĲ§": 5619,
      "Ġfun": 5620,
      "æĬ¥åĳĬ": 5621,
      "æĩī": 5622,
      "ç¯ĩæĸĩç«ł": 5623,
      "å§Ĳå¦¹": 5624,
      "è¯ķåĽ¾": 5625,
      "æĬµæĬĹ": 5626,
      "åİķ": 5627,
      "éĽĨä¸Ń": 5628,
      "èľľç©´": 5629,
      "äº¿": 5630,
      "å¸ħ": 5631,
      "æĺ¾ç¤º": 5632,
      "åĸĥ": 5633,
      "æľºæŀĦ": 5634,
      "æ¦Ĥå¿µ": 5635,
      "è¯ŃéŁ³": 5636,
      "èĤļåŃĲ": 5637,
      "çļĨ": 5638,
      "Ġinformation": 5639,
      "æįĨ": 5640,
      "æĥ¹": 5641,
      "åĮ»éĻ¢": 5642,
      "ä¿Ĺ": 5643,
      "æīĶ": 5644,
      "Ġåľ¨": 5645,
      "åĲ¸åĲ®": 5646,
      "çļĦèĦĸåŃĲ": 5647,
      "æĬ¬å¤´": 5648,
      "æĩĴ": 5649,
      "æ²Ļåıĳä¸Ĭ": 5650,
      "blem": 5651,
      "Ġcur": 5652,
      "ä½łçľĭ": 5653,
      "ç»Ļå®ļ": 5654,
      "è½ī": 5655,
      "æĶ¹åĸĦ": 5656,
      "ivers": 5657,
      "ement": 5658,
      "Ġwird": 5659,
      "ually": 5660,
      "ãĥĥãĥĹ": 5661,
      "ï¸": 5662,
      "å°±è¿ŀ": 5663,
      "æ»¡èĦ¸": 5664,
      "æŃ»æŃ»": 5665,
      "èµ¢": 5666,
      "åĪ¤æĸŃ": 5667,
      "å¯Ĥ": 5668,
      "Ġeven": 5669,
      "æģĴ": 5670,
      "ãĥ¯": 5671,
      "å¨ģèĥģ": 5672,
      "æ¡¥": 5673,
      "æĹ¥å¸¸": 5674,
      "Ġsec": 5675,
      "å¼¥": 5676,
      "Ġrequ": 5677,
      "ç¢§": 5678,
      "ä¸Ģä»¶": 5679,
      "èĪĲ": 5680,
      "å¤ļä¸ª": 5681,
      "éĵº": 5682,
      "ä¸¸": 5683,
      "çĿĢå°ı": 5684,
      "èĪĴéĢĤ": 5685,
      "ives": 5686,
      "çªĦ": 5687,
      "éĩĳå±ŀ": 5688,
      "è¿Ļä¹Īå¤ļ": 5689,
      "æľĢå¥½": 5690,
      "ke": 5691,
      "ische": 5692,
      "èĿ¶": 5693,
      "å°¤åħ¶æĺ¯": 5694,
      "åķĨä¸ļ": 5695,
      "ä¸Ģå®ļè¦ģ": 5696,
      "ically": 5697,
      "åĨħè¡£": 5698,
      "frac": 5699,
      "Python": 5700,
      "ä¿®éķ¿": 5701,
      "ç°": 5702,
      "wn": 5703,
      "gy": 5704,
      "èĥĸ": 5705,
      "å¤¸": 5706,
      "éĤ£å¤©": 5707,
      "ä¸įéģİ": 5708,
      "sh": 5709,
      "æĪĸæĺ¯": 5710,
      "Ġworld": 5711,
      "è¯±æĥĳ": 5712,
      "é¼ĵåĬ±": 5713,
      "è¯±äºº": 5714,
      "Ġstart": 5715,
      "çļĦåĲİ": 5716,
      "è¿Ļå°±æĺ¯": 5717,
      "iert": 5718,
      "Ġ18": 5719,
      "AIæĬĢæľ¯": 5720,
      "åĭĻ": 5721,
      "è®¤çľŁ": 5722,
      "æĪĳè§īå¾Ĺ": 5723,
      "èĥĮæĻ¯": 5724,
      "ä¸įä¸Ĭ": 5725,
      "çļĦä¿¡æģ¯": 5726,
      "éĢ£": 5727,
      "åĬ©äºİ": 5728,
      "çµ¦": 5729,
      "Ġvery": 5730,
      "åŃŁ": 5731,
      "ä¸ĢæĹģ": 5732,
      "ä»ĩ": 5733,
      "éļĲç§ģ": 5734,
      "æŀ«": 5735,
      "äºĭå®ŀ": 5736,
      "att": 5737,
      "åħīæ»ĳ": 5738,
      "åħĶ": 5739,
      "éŃı": 5740,
      "--------": 5741,
      "âĻ¥": 5742,
      "éĶ»çĤ¼": 5743,
      "æĸ·": 5744,
      "æĢ¥å¿Ļ": 5745,
      "æ£®æŀĹ": 5746,
      "å°´": 5747,
      "ãĤ·ãĥ§": 5748,
      "é©¾é©¶": 5749,
      "ä¸Ńæĸĩ": 5750,
      "çļĦèĥ¸éĥ¨": 5751,
      "è§ģè¿ĩ": 5752,
      "å°±åĥıæĺ¯": 5753,
      "çļĦä¸ĭ": 5754,
      "è¯ģæĺİ": 5755,
      "çľ¯": 5756,
      "æĴ©": 5757,
      "dition": 5758,
      "æĬĺç£¨": 5759,
      "å°´å°¬": 5760,
      "è¶³çĲĥ": 5761,
      "ä¸Ģå®ļä¼ļ": 5762,
      "æģĲæĥ§": 5763,
      "çº¤ç»Ĩ": 5764,
      "æĺ¯æĮĩ": 5765,
      "è¢«å¥¹": 5766,
      "ww": 5767,
      "åĤħ": 5768,
      "èĨĽ": 5769,
      "Ġmin": 5770,
      "æł·çļĦ": 5771,
      "br": 5772,
      "çĺ¦": 5773,
      "èµĦæĸĻ": 5774,
      "éªĳå£«": 5775,
      "äºĨä¸Ģçľ¼": 5776,
      "å´©": 5777,
      "å¦Ĥä¸ĭ": 5778,
      "Ġbeing": 5779,
      "çļĦå¤´": 5780,
      "æľīä¸ª": 5781,
      "åħ¬åĽŃ": 5782,
      "æĪĺäºī": 5783,
      "éªļè´§": 5784,
      "ä¸§": 5785,
      "çļĦçĮ": 5786,
      "ages": 5787,
      "å¯¿": 5788,
      "åł´åĲĪ": 5789,
      "æĭ¿åĩº": 5790,
      "con": 5791,
      "éłĤ": 5792,
      "æīĭèĩĤ": 5793,
      "åĪĨæ³Į": 5794,
      "Ġwie": 5795,
      "åĽŀäºĭ": 5796,
      "Ġperson": 5797,
      "ä½łè¿ĺ": 5798,
      "ãģĵãģ¨ãģĮ": 5799,
      "çļĦèĥ½åĬĽ": 5800,
      "éģ¥": 5801,
      "æİı": 5802,
      "ç§ĺå¯Ĩ": 5803,
      "ä¹Łä¸įæĺ¯": 5804,
      "Al": 5805,
      "ãĤĮãģŁ": 5806,
      "put": 5807,
      "éĹľ": 5808,
      "æĪĲæľ¬": 5809,
      "åı¯ä»¥åľ¨": 5810,
      "çĿ¡è§ī": 5811,
      "åī§çĥĪ": 5812,
      "é«ĺè·Łéŀĭ": 5813,
      "St": 5814,
      "ï½ħ": 5815,
      "æģĲæĢķ": 5816,
      "ited": 5817,
      "çĻ½çļĻ": 5818,
      "çĿĢèĩªå·±çļĦ": 5819,
      "Ġbook": 5820,
      "çļĦèľľç©´": 5821,
      "Ġback": 5822,
      "ï¼ģï¼ģï¼ģ": 5823,
      "åĵ¡": 5824,
      "Ġlong": 5825,
      "æģĲæĢĸ": 5826,
      "çļĦèĤĮèĤ¤": 5827,
      "å¢ŀå¼º": 5828,
      "æĸĩä»¶": 5829,
      "other": 5830,
      "ever": 5831,
      "Ġich": 5832,
      "å¤§éĥ¨åĪĨ": 5833,
      "èĳ£": 5834,
      "Ġeinen": 5835,
      "ä¹¾": 5836,
      "å®Ļ": 5837,
      "iter": 5838,
      "Ġmain": 5839,
      "28": 5840,
      "ä¸įå¥½æĦıæĢĿ": 5841,
      "åĪ°è¾¾": 5842,
      "Ġtext": 5843,
      "å°±æĬĬ": 5844,
      "ĠFor": 5845,
      "æĽ´å¥½çļĦ": 5846,
      "é¹ı": 5847,
      "ç»©": 5848,
      "çĽ¸åĲĮ": 5849,
      "Ġusing": 5850,
      "åĲ®åĲ¸": 5851,
      "Ġshe": 5852,
      "éļĻ": 5853,
      "els": 5854,
      "çĿĢèĦ¸": 5855,
      "ism": 5856,
      "æĬ½éĢģ": 5857,
      "for": 5858,
      "çļĦå°ĳå¥³": 5859,
      "åĴĮå¥¹": 5860,
      "æ»¡æĺ¯": 5861,
      "ç¾İåĳ³": 5862,
      "æĪĴ": 5863,
      "Ġsame": 5864,
      "æĹ©é¤Ĳ": 5865,
      "åĽĽåĳ¨": 5866,
      "Ġend": 5867,
      "Ġpoint": 5868,
      "å¸ķ": 5869,
      "è§£å¼Ģ": 5870,
      "åł¡": 5871,
      "Ġret": 5872,
      "çļĦçŀ": 5873,
      "èĤĮèĤī": 5874,
      "å°ıèħ¹": 5875,
      "åĵ²": 5876,
      "ä¸ĳ": 5877,
      "æĴ¸": 5878,
      "çŃĸçķ¥": 5879,
      "èĥ¸ç½©": 5880,
      "å¹³éĿĻ": 5881,
      "ward": 5882,
      "çľĭçļĦ": 5883,
      "ãĤĤãģ®": 5884,
      "åĴª": 5885,
      "ãģ³": 5886,
      "æŀĿ": 5887,
      "æįī": 5888,
      "éļıä¾¿": 5889,
      "ãĤ¿ãĥ¼": 5890,
      "ä¿¯": 5891,
      "elt": 5892,
      "Ġfollow": 5893,
      "çĮİ": 5894,
      "æĶ¾å¼Ģ": 5895,
      "Ġart": 5896,
      "äºĨä¸ĭåİ»": 5897,
      "å¤§åĪ©": 5898,
      "å¤ªå¤ļ": 5899,
      "Ġtechn": 5900,
      "ä¸įå¾Ĺä¸į": 5901,
      "Ġsee": 5902,
      "æĦĽ": 5903,
      "å¤§èĦĳ": 5904,
      "arb": 5905,
      "åĶī": 5906,
      "éĿłè¿ĳ": 5907,
      "ä¸įå·²": 5908,
      "æĢİä¹ĪäºĨ": 5909,
      "æĶ¶æĭ¾": 5910,
      "ĠĠĊ": 5911,
      "èĭ±åĽ½": 5912,
      "ĠSex": 5913,
      "åĴĮä½ł": 5914,
      "ç¢Ĺ": 5915,
      "å¤ļç§į": 5916,
      "åĥµ": 5917,
      "çļĦç¡®": 5918,
      "æĮĸ": 5919,
      "åĲ¬çĿĢ": 5920,
      "èĦ¸èī²": 5921,
      "å®ŀåľ¨æĺ¯": 5922,
      "Ġsur": 5923,
      "è£ı": 5924,
      "åĲĮæĦı": 5925,
      "è¿ĻæĹ¶åĢĻ": 5926,
      "è¿Ļè¾¹": 5927,
      "çīĩåĪ»": 5928,
      "ãĥį": 5929,
      "æĥ©ç½ļ": 5930,
      "çĸ¼çĹĽ": 5931,
      "çľ¼æ³ª": 5932,
      "ĠkÃ¶n": 5933,
      "ä¿Ĥ": 5934,
      "è´ª": 5935,
      "æ¢¨": 5936,
      "åĢ¼å¾Ĺ": 5937,
      "æĪĳè·Ł": 5938,
      "è¯´åĪ°": 5939,
      "ç¨Ģ": 5940,
      "æ¯ıä¸Ģ": 5941,
      "çĶ¨åĬĽçļĦ": 5942,
      "éģµ": 5943,
      "Ġpar": 5944,
      "ention": 5945,
      "ctions": 5946,
      "æı´": 5947,
      "çģ¾": 5948,
      "gest": 5949,
      "éĤ®": 5950,
      "çī©çļĦ": 5951,
      "Ġ15": 5952,
      "Ġgra": 5953,
      "è¶ħè¿ĩ": 5954,
      "èģĮä¸ļ": 5955,
      "åĵįèµ·": 5956,
      "Ġafter": 5957,
      "åīĽ": 5958,
      "çŃĭ": 5959,
      "æĶ¾ä¸ĭ": 5960,
      "æĸ¥": 5961,
      "ĠSte": 5962,
      "é»Ľ": 5963,
      "ç©Ĩ": 5964,
      "åį¿": 5965,
      "æ¶Īè´¹": 5966,
      "è½»è½»åľ°": 5967,
      "ä½¿åĬ²": 5968,
      "¬èıľ": 5969,
      "æĺ¨æĻļ": 5970,
      "éĻ£": 5971,
      "ĊĠĠĠ": 5972,
      "åıī": 5973,
      "ç¬¦åĲĪ": 5974,
      "èĢĮè¨Ģ": 5975,
      "å®¢åİħ": 5976,
      "æ°ĶçļĦ": 5977,
      "æķ´çĲĨ": 5978,
      "å§Ķåĳĺ": 5979,
      "éĩĬæĶ¾": 5980,
      "ãģ¹": 5981,
      "éĹĨ": 5982,
      "cm": 5983,
      "å¨ĩèº¯": 5984,
      "èİīèİī": 5985,
      ",\"": 5986,
      "ãģ¨ãģĹãģ¦": 5987,
      "any": 5988,
      "æŃ»äº¡": 5989,
      "æķ£åıĳ": 5990,
      "up": 5991,
      "cl": 5992,
      "çļĦåīį": 5993,
      "å¹´ä»£": 5994,
      "çļĦä¸Ģå£°": 5995,
      "Ġgener": 5996,
      "çĽĴ": 5997,
      "ology": 5998,
      "ä¸įä¹ħ": 5999,
      "è°ĥæŁ¥": 6000,
      "çĬ¶åĨµ": 6001,
      "åį´åıĪ": 6002,
      "ä¸ĢçĤ¹çĤ¹": 6003,
      "ä¿ĥè¿Ľ": 6004,
      "ature": 6005,
      "èĢģéĹĨ": 6006,
      "Ġevery": 6007,
      "ãģĭãģ£ãģŁ": 6008,
      "ãĥ¢": 6009,
      "åģľä¸ĭ": 6010,
      "Ġcre": 6011,
      "æĦıè¯ĨåĪ°": 6012,
      "çļĦå¤©": 6013,
      "èįĴ": 6014,
      "çļĦéĺ´èĮİ": 6015,
      "åıĶåıĶ": 6016,
      "æĤ£èĢħ": 6017,
      "æ²¡æľīä»»ä½ķ": 6018,
      "Ġclass": 6019,
      "ãĥ¼ãĤ¸": 6020,
      "è¿ŀæİ¥": 6021,
      "åı£äº¤": 6022,
      "å±Ĭ": 6023,
      "æ±º": 6024,
      "cent": 6025,
      "Ġcount": 6026,
      "Ġmon": 6027,
      "è¿Ļä¸ªéĹ®é¢ĺ": 6028,
      "zt": 6029,
      "æĹ¥æľŁ": 6030,
      "æĲĲ": 6031,
      "éĽ²æ¢ħ": 6032,
      "æ²«": 6033,
      "æľĢå¤§çļĦ": 6034,
      "è£ĻåŃĲ": 6035,
      "è¡¬": 6036,
      "èĦĸåŃĲ": 6037,
      "Ġquestion": 6038,
      "åĮĢ": 6039,
      "åıĸå¾Ĺ": 6040,
      "ç¼ĸç¨ĭ": 6041,
      "æ¿ĢçĥĪ": 6042,
      "å¨Ł": 6043,
      "ç»ıçĲĨ": 6044,
      "Ġboth": 6045,
      "ç´°": 6046,
      "ä¸Ģçķª": 6047,
      "åĲķ": 6048,
      "çħ§çīĩ": 6049,
      "åĽºå®ļ": 6050,
      "ĠYou": 6051,
      "âĸ": 6052,
      "éĩįçļĦ": 6053,
      "ä½Ĩå¥¹": 6054,
      "èĥ¯ä¸ĭ": 6055,
      "å¦ĪçļĦ": 6056,
      "æ¯ģ": 6057,
      "é£ŀæľº": 6058,
      "ä¹ĭä¸Ĭ": 6059,
      "åºĶå¯¹": 6060,
      "çĶ·å¥³": 6061,
      "æĮ¤åİĭ": 6062,
      "æµ·æ´ĭ": 6063,
      "ãĤ½": 6064,
      "æĬĽ": 6065,
      "èĩªçĦ¶è¯Ńè¨Ģå¤ĦçĲĨ": 6066,
      "ä¸Ńåįİ": 6067,
      "Ġco": 6068,
      "æĺŁæľŁ": 6069,
      "æħ¢æħ¢åľ°": 6070,
      "çİ»": 6071,
      "åĮĨ": 6072,
      "bs": 6073,
      "åľ¨çº¿": 6074,
      "è£½": 6075,
      "èĭį": 6076,
      "æĽ¸": 6077,
      "ä»ħä»ħ": 6078,
      "åĿļç¡¬": 6079,
      "ven": 6080,
      "æĬ½æĲĲ": 6081,
      "èĭĹ": 6082,
      "çŁŃè£Ļ": 6083,
      "ä¼¤å®³": 6084,
      "ä¸īè§Ĵ": 6085,
      "æ²īé»ĺ": 6086,
      "è¡ĮäºĨ": 6087,
      "å¸½": 6088,
      "æ¼ī": 6089,
      "ãĤĪãĤĬ": 6090,
      "ists": 6091,
      "åį³å°Ĩ": 6092,
      "å¼ĦçĿĢ": 6093,
      "éĤĢ": 6094,
      "ç»ĻäºĨ": 6095,
      "èķĬ": 6096,
      "èº«ä»½": 6097,
      "æ³£": 6098,
      "af": 6099,
      "çļĦé¦Ļ": 6100,
      "Ġpres": 6101,
      "äºĨåı£æ°Ķ": 6102,
      "Ġincre": 6103,
      "Ġsein": 6104,
      "çļĦèĢģ": 6105,
      "45": 6106,
      "éĥ½åı¯ä»¥": 6107,
      "åĽĽä¸ª": 6108,
      "'re": 6109,
      "äººçĶŁ": 6110,
      "Ġexpl": 6111,
      "Ġeiner": 6112,
      "éĢĻåĢĭ": 6113,
      "mm": 6114,
      "åĺ¶": 6115,
      "çļĦèĤīä½ĵ": 6116,
      "ãģ¨æĢĿ": 6117,
      "Ġzum": 6118,
      "åĩºå£°": 6119,
      "ode": 6120,
      "çī©çĲĨ": 6121,
      "ãĥĻ": 6122,
      "å¾ĹæĦı": 6123,
      "æĸĩåŃĹ": 6124,
      "æ¿ĢåĬ¨": 6125,
      "çļĦåİŁåĽł": 6126,
      "æĪĲä¸ºäºĨ": 6127,
      "é©±": 6128,
      "Ġvar": 6129,
      "Ġstr": 6130,
      "å¸®ä½ł": 6131,
      "æĪĳæ²¡æľī": 6132,
      "çİ«": 6133,
      "èººåľ¨": 6134,
      "çĸ«": 6135,
      "æ¢°": 6136,
      "æĸľ": 6137,
      "ä»ķ": 6138,
      "çļĦèĤļ": 6139,
      "çĭ¬ç«ĭ": 6140,
      "æĬĬèĩªå·±": 6141,
      "ä¿¡ä»»": 6142,
      "æ¡¶": 6143,
      "åº¦çļĦ": 6144,
      "åıĬæĹ¶": 6145,
      "åıł": 6146,
      "è¯´åĩº": 6147,
      "åı¯æĮģç»Ń": 6148,
      "å°ıåŃĲ": 6149,
      "ç¦»å¼ĢäºĨ": 6150,
      "åĨ¥": 6151,
      "æµĨ": 6152,
      "èĢģåŃĲ": 6153,
      "æĬ±æŃī": 6154,
      "âĢ»": 6155,
      "Ġsk": 6156,
      "å¦Ĩ": 6157,
      "Ġequ": 6158,
      "Ġlook": 6159,
      "ãĥ¼ãĥł": 6160,
      "å·²ç»ıæĺ¯": 6161,
      "æ¸´æľĽ": 6162,
      "è¿ĺä¼ļ": 6163,
      "è¯¾ç¨ĭ": 6164,
      "åª½": 6165,
      "è§Ĥä¼Ĺ": 6166,
      "éĺ»æŃ¢": 6167,
      "çļĦçĽ®åħī": 6168,
      "num": 6169,
      "ãĥ»ãĥ»": 6170,
      "æĪĳå°Ĩ": 6171,
      "æŃ§": 6172,
      "ãģ¸": 6173,
      "å¾Īä¹ħ": 6174,
      "å°ıçº¢": 6175,
      "é»ĳæļĹ": 6176,
      "æ®ĸ": 6177,
      "åįµ": 6178,
      "å¤±åİ»äºĨ": 6179,
      "äºĨåĩłä¸ĭ": 6180,
      "å¹«": 6181,
      "Ġmark": 6182,
      "çľīå¤´": 6183,
      "æĬĬæīĭ": 6184,
      "åĮĸåŃ¦": 6185,
      "é¼»åŃĲ": 6186,
      "æĤ¬": 6187,
      "Ġchar": 6188,
      "åĵģå°Ŀ": 6189,
      "éĺ´èĴĤ": 6190,
      "æ¤Ĵ": 6191,
      "çļĦçĬ¶æĢģ": 6192,
      "æĺ¯ä¸į": 6193,
      "Ġthose": 6194,
      "ãĤĵãģł": 6195,
      "ä¼´éļıçĿĢ": 6196,
      "æĪĳäºĨ": 6197,
      "å°±è¿Ļä¹Ī": 6198,
      "æĮł": 6199,
      "åĽ¾åĥı": 6200,
      "ï¼ļ\"": 6201,
      "æµĬ": 6202,
      "ges": 6203,
      "Ġkann": 6204,
      "ç»ĵå©ļ": 6205,
      "è¿Ī": 6206,
      "å¥¹ä¸į": 6207,
      "èĽ®": 6208,
      "çŁ¥éģĵäºĨ": 6209,
      "ĠPl": 6210,
      "ER": 6211,
      "äºĨè¿ĩåİ»": 6212,
      "ä»¥æĿ¥": 6213,
      "è¢į": 6214,
      "å¤§èĤīæ£Ĵ": 6215,
      "Ġprocess": 6216,
      "åİķæīĢ": 6217,
      "çļĦéĢŁåº¦": 6218,
      "99": 6219,
      "åĮºåŁŁ": 6220,
      "Ġdef": 6221,
      "Ġresult": 6222,
      "ãģĹãģ¾": 6223,
      "Ġimport": 6224,
      "å¥³ç¥ŀ": 6225,
      "ç¨İ": 6226,
      "èŃĺ": 6227,
      "çī©åĵģ": 6228,
      "åĮ»åŃ¦": 6229,
      "och": 6230,
      "ä»Ģä¹ĪæĹ¶åĢĻ": 6231,
      "èĲį": 6232,
      "ä¸įçĶ±å¾Ĺ": 6233,
      "è§Ī": 6234,
      "åīįå¾Ģ": 6235,
      "çļĦç¤¾": 6236,
      "æį§": 6237,
      "Ġloc": 6238,
      "æīĢæľīçļĦ": 6239,
      "å¿ĺäºĨ": 6240,
      "ãĤ¬": 6241,
      "Ġpartic": 6242,
      "çļĦç´§": 6243,
      "Ġserv": 6244,
      "åıĳåĩºäºĨ": 6245,
      "åĪ®": 6246,
      "éľį": 6247,
      "æĢĢçĸĳ": 6248,
      "å¾Īå¿«å°±": 6249,
      "å¼ĵ": 6250,
      "ç³Ł": 6251,
      "Ġcommun": 6252,
      "å½ĵçĦ¶åı¯ä»¥": 6253,
      "Ġsaid": 6254,
      "èµ°åĲĳ": 6255,
      "æį·": 6256,
      "ession": 6257,
      "é¦Ī": 6258,
      "æıĲéĨĴ": 6259,
      "çĺ«": 6260,
      "é¡µ": 6261,
      "Ġeinem": 6262,
      "ä¸ĺ": 6263,
      "ä¸¤ä½į": 6264,
      "æľīåĬ©äºİ": 6265,
      "æįħ": 6266,
      "ä¹ı": 6267,
      "æĪĳæľī": 6268,
      "è´¼": 6269,
      "åĵªæĢķ": 6270,
      "ãĥķãĤ": 6271,
      "ural": 6272,
      "æīįæĺ¯": 6273,
      "ï½ģ": 6274,
      "âĺ": 6275,
      "ä»İæľª": 6276,
      "ï¼ķ": 6277,
      "ä¸įåłª": 6278,
      "air": 6279,
      "åĴĮä»ĸ": 6280,
      "åıĪä¸Ģæ¬¡": 6281,
      "éĺµéĺµ": 6282,
      "å®īéĿĻ": 6283,
      "çļĦè·¯": 6284,
      "alk": 6285,
      "çļĦèº«ä»½": 6286,
      "è¿ŀç»Ń": 6287,
      "Ġ`": 6288,
      "çĸĳæĥĳ": 6289,
      "ä»ĸæĺ¯": 6290,
      "å¾Ģåīį": 6291,
      "Ġproblem": 6292,
      "åĪ°çļĦ": 6293,
      "åı¬": 6294,
      "èŃ¦å¯Ł": 6295,
      "uro": 6296,
      "åĲįä¸º": 6297,
      "Ġear": 6298,
      "çĪµ": 6299,
      "çļĦèĤ©èĨĢ": 6300,
      "åİĤ": 6301,
      "Ġdist": 6302,
      "æīĩ": 6303,
      "ç¡®è®¤": 6304,
      "å¤§åĵ¥": 6305,
      "æ¬²çģ«": 6306,
      "åľ¨å°ı": 6307,
      "cht": 6308,
      "å®ĩå®Ļ": 6309,
      "çļĦçģ«": 6310,
      "ince": 6311,
      "ather": 6312,
      "åħ¬åħ±": 6313,
      "ç»´æĮģ": 6314,
      "çļĦä½ĵ": 6315,
      "æĢ¥ä¿ĥ": 6316,
      "åĻ¢åĻ¢": 6317,
      "ä¸Ŀæ¯«": 6318,
      "çħ§é¡¾": 6319,
      "Ġfact": 6320,
      "èĦĳæµ·": 6321,
      "åĪĽå»º": 6322,
      "å·¨ä¹³": 6323,
      "åĵĪåĵĪåĵĪ": 6324,
      "å¤§çº¦": 6325,
      "æĬĬä½ł": 6326,
      "æ¶īåıĬ": 6327,
      "çļĦæĦıæĢĿ": 6328,
      "æĪĲç«ĭ": 6329,
      "è¿Ļæĺ¯ä¸Ģä¸ª": 6330,
      "ä¸ºä½ķ": 6331,
      "ä¸įæ¸ħ": 6332,
      "æģ°": 6333,
      "çļĦç¿": 6334,
      "åĭīå¼º": 6335,
      "###": 6336,
      "27": 6337,
      "è¢ĸ": 6338,
      "èº«ä¸º": 6339,
      "çļĦä¸ĢåĪĩ": 6340,
      "è¡ĮçļĦ": 6341,
      "èħ¥": 6342,
      "çĻ½å«©": 6343,
      "çŃīæĸ¹éĿ¢": 6344,
      "æĺİçĻ½äºĨ": 6345,
      "ç¾İé£Ł": 6346,
      "åĨĮ": 6347,
      "Ġsign": 6348,
      "çļĦçħ": 6349,
      "çķľ": 6350,
      "å°½éĩı": 6351,
      "åĶĶåĶĶ": 6352,
      "äººçī©": 6353,
      "åħ¨åĽ½": 6354,
      "ters": 6355,
      "æĪĳä¸Ģ": 6356,
      "Ã¼ck": 6357,
      "æĺİç¡®": 6358,
      "ç¼ĸåĨĻ": 6359,
      "ds": 6360,
      "Ġ*": 6361,
      "åĽŀå¿Ĩ": 6362,
      "of": 6363,
      "Ġdata": 6364,
      "John": 6365,
      "Ġpol": 6366,
      "è¿ĽæŃ¥": 6367,
      "åĺŁ": 6368,
      "èĮ¹": 6369,
      "ĠÂł": 6370,
      "ä»¥ç¡®ä¿Ŀ": 6371,
      "æĢİä¹Īä¼ļ": 6372,
      "æĳĩæĻĥ": 6373,
      "å®¢äºº": 6374,
      "led": 6375,
      "liche": 6376,
      "æīįä¼ļ": 6377,
      "åĭ¤": 6378,
      "æ´Ĺæ¾¡": 6379,
      "ç©¿ä¸Ĭ": 6380,
      "æŃ¦åĻ¨": 6381,
      "éĤ£ä½ł": 6382,
      "ï¼Łï¼Ł": 6383,
      "æĥħåĨµä¸ĭ": 6384,
      "å¤ĸçļĦ": 6385,
      "éľ¸": 6386,
      "èªŀ": 6387,
      "ãĥ³ãĥī": 6388,
      "rent": 6389,
      "æĶ¾è¿ĩ": 6390,
      "åıĳçĶŁäºĨ": 6391,
      "Ġdire": 6392,
      "å®Ľ": 6393,
      "Ġsom": 6394,
      "ç»¿èī²": 6395,
      "å©ĬåŃĲ": 6396,
      "Ġans": 6397,
      "day": 6398,
      "è½»å£°": 6399,
      "åĲĪçĲĨ": 6400,
      "ãĥ©ãĤ¤": 6401,
      "æĪ¿éĹ´éĩĮ": 6402,
      "åıĳæĮ¥": 6403,
      "çļĦçĶŁ": 6404,
      "åĸĺçĿĢ": 6405,
      "æĭ¢": 6406,
      "éĢıè¿ĩ": 6407,
      "Ġresp": 6408,
      "ç¢³": 6409,
      "ï¸ı": 6410,
      "çĭłçĭłåľ°": 6411,
      "Ġmed": 6412,
      "ä¸»è§Ĵ": 6413,
      "åĴĮåħ¶ä»ĸ": 6414,
      "ä¸ĭæĦıè¯Ĩ": 6415,
      "ets": 6416,
      "æĪĳå¯¹": 6417,
      "æīĭæİĮ": 6418,
      "å¾ĹåĪ°äºĨ": 6419,
      "ä¸Ģå¯¹": 6420,
      "åĶ¾": 6421,
      "çļĦè§Ĥ": 6422,
      "Ġsex": 6423,
      "å¸®å¿Ļ": 6424,
      "æ²¡éĶĻ": 6425,
      "ç´§ç´§çļĦ": 6426,
      "Ġtake": 6427,
      "å¸ĿåĽ½": 6428,
      "å½ĵä¸Ń": 6429,
      "ä¹ĸä¹ĸ": 6430,
      "æ·»åĬł": 6431,
      "å¸¶": 6432,
      "Ġcor": 6433,
      "åħ¬éĩĮ": 6434,
      "é¡Į": 6435,
      "å¤§éĩıçļĦ": 6436,
      "åį»": 6437,
      "ä¸ĸçķĮä¸Ĭ": 6438,
      "è¾ŀ": 6439,
      "90": 6440,
      "æĺ¯ä½ł": 6441,
      "å¼ºè°ĥ": 6442,
      "ç®ĢåįķçļĦ": 6443,
      "ä¾ĭåŃĲ": 6444,
      "è¶´åľ¨": 6445,
      "Ġche": 6446,
      "ars": 6447,
      "Ġright": 6448,
      "app": 6449,
      "ä»İå°ı": 6450,
      "åĨĻä¸Ģç¯ĩåħ³äºİ": 6451,
      "Ġhand": 6452,
      "çĤ¹äºĨçĤ¹å¤´": 6453,
      "èĩªèº«": 6454,
      "hal": 6455,
      "åı¯ä»¥ä½¿çĶ¨": 6456,
      "è¶ĭåĬ¿": 6457,
      "æ¡ĳ": 6458,
      "ä¸ļåĬ¡": 6459,
      "åĨįè¯´": 6460,
      "åı«çĿĢ": 6461,
      "è¿Ļç¯ĩæĸĩç«ł": 6462,
      "ĠãĢį": 6463,
      "çļĦåħ³ç³»": 6464,
      "è·µ": 6465,
      "åħ¬åŃĲ": 6466,
      "æĶ¹è¿Ľ": 6467,
      "è¿ĶåĽŀ": 6468,
      "æ°ĶåĢĻåıĺåĮĸ": 6469,
      "ä½łä¼ļ": 6470,
      "éģ©": 6471,
      "ublic": 6472,
      "aut": 6473,
      "çļĦåŃĲå®«": 6474,
      "èħĲ": 6475,
      "æĤĦæĤĦ": 6476,
      "éĽ¢": 6477,
      "çĪª": 6478,
      "éĴĪå¯¹": 6479,
      "ãĢĤ\\": 6480,
      "Ġhealth": 6481,
      "åħģè®¸": 6482,
      "ä¸Ģå®¶": 6483,
      "ãģĪãĤĭ": 6484,
      "ä»ĸåĢĳ": 6485,
      "Ġhaben": 6486,
      "å·¥ä¸ļ": 6487,
      "èĥ¸åı£": 6488,
      "amp": 6489,
      "çİ»çĴĥ": 6490,
      "ãģĹãĤĩ": 6491,
      "å¤ªè¿ĩ": 6492,
      "äººéĥ½": 6493,
      "åĪĨä¸º": 6494,
      "çļĦçłĶ": 6495,
      "å®īæħ°": 6496,
      "è°±": 6497,
      "çļĦä¹³å¤´": 6498,
      "Ġless": 6499,
      "æİ¨å¼Ģ": 6500,
      "åĲĦèĩª": 6501,
      "ants": 6502,
      "ä¾¯": 6503,
      "Ġlar": 6504,
      "èªī": 6505,
      "èĶ¬èıľ": 6506,
      "OSS": 6507,
      "26": 6508,
      "åĽĬ": 6509,
      "æĸ°é²ľ": 6510,
      "çļĦåıĳ": 6511,
      "çļĦä¸»è¦ģ": 6512,
      "ä¸īåįģ": 6513,
      "äº¤æĺĵ": 6514,
      "ãģ«ãĤĤ": 6515,
      "Ġlife": 6516,
      "åł±": 6517,
      "å°Ĭéĩį": 6518,
      "æĲŃéħį": 6519,
      "iqu": 6520,
      "èĩªä¿¡": 6521,
      "å½¹": 6522,
      "æľ¬èº«": 6523,
      "æ³¨æĦıåĪ°": 6524,
      "æ°Ķæģ¯": 6525,
      "çļĦå§¿åĬ¿": 6526,
      "éĩįå¤į": 6527,
      "éĸ¢": 6528,
      "ivid": 6529,
      "NA": 6530,
      "åİ¨æĪ¿": 6531,
      "ç¨³å®ļ": 6532,
      "åĻľ": 6533,
      "è¨Ń": 6534,
      "ym": 6535,
      "36": 6536,
      "ä»»çĶ±": 6537,
      "çļĦè£¤": 6538,
      "hre": 6539,
      "Ġown": 6540,
      "è½©": 6541,
      "cept": 6542,
      "ify": 6543,
      "å¤§éĻĨ": 6544,
      "æĶ¶éĽĨ": 6545,
      "rt": 6546,
      "æĿ¥æºĲ": 6547,
      "è°ĭ": 6548,
      "èħ°éĥ¨": 6549,
      "å¯Łè§ī": 6550,
      "æŀķ": 6551,
      "æŀļ": 6552,
      "å°Ĩèĩªå·±": 6553,
      "æŁĲä¸ª": 6554,
      "å¾Īå¤§": 6555,
      "ä¸Ĭæ¬¡": 6556,
      "å¼Ģå§ĭäºĨ": 6557,
      "åħ¼": 6558,
      "ç»Ļå®ļçļĦ": 6559,
      "Ġ.": 6560,
      "å¯¹åĩĨ": 6561,
      "çĿ¡çľł": 6562,
      "ieren": 6563,
      "akes": 6564,
      "èĤĮèĤ¤": 6565,
      "åħħåĪĨ": 6566,
      "ãģĪãģ¦": 6567,
      "æĮĩå¯¼": 6568,
      "æ¯ķä¸ļ": 6569,
      "çĤĴ": 6570,
      "äºĨè¿ĩæĿ¥": 6571,
      "Ġchildren": 6572,
      "Ġwhile": 6573,
      "åĵŁ": 6574,
      "ï¼Łï¼ģ": 6575,
      "åįĬä¸ª": 6576,
      "è§ĦåĪĻ": 6577,
      "å¤ļçļĦ": 6578,
      "ash": 6579,
      "çļĦåıĮèħ¿": 6580,
      "åįķä½į": 6581,
      "éĽķ": 6582,
      "èĲĮ": 6583,
      "çļĦè°ĥ": 6584,
      "è¡¨éĿ¢": 6585,
      "ĠEx": 6586,
      "æ¬§æ´²": 6587,
      "Ġmus": 6588,
      "çİ°è±¡": 6589,
      "åģ¥èº«": 6590,
      "åķ§": 6591,
      "ä¸Ģè·¯": 6592,
      "å¾ĹæĽ´": 6593,
      "åºĶçĶ¨ç¨ĭåºı": 6594,
      "ç»³åŃĲ": 6595,
      "çº¢èī²çļĦ": 6596,
      "çĦ°": 6597,
      "æĦıè§ģ": 6598,
      "Ġet": 6599,
      "éĢĤå½ĵ": 6600,
      "ãĢĭãĢģ": 6601,
      "Ġcall": 6602,
      "æĿ¥åĪ°äºĨ": 6603,
      "hip": 6604,
      "ä½łè¿Ļä¸ª": 6605,
      "Ġposs": 6606,
      "å¯»æ±Ĥ": 6607,
      "ç«ŀäºī": 6608,
      "iness": 6609,
      "This": 6610,
      "uen": 6611,
      "å®¶æĹı": 6612,
      "Ġappro": 6613,
      "âĻ¡": 6614,
      "35": 6615,
      "éĶĲ": 6616,
      "åıĳçİ°äºĨ": 6617,
      "reff": 6618,
      "ç±»ä¼¼": 6619,
      "çĪ¶æ¯į": 6620,
      "æĬ¬èµ·å¤´": 6621,
      "çļĦèĦĳè¢ĭ": 6622,
      "èĩªæħ°": 6623,
      "çİ°åĩº": 6624,
      "åº¦åĴĮ": 6625,
      "å§ĭç»Ī": 6626,
      "ç»ĨèĬĤ": 6627,
      "ĠThey": 6628,
      "to": 6629,
      "çľ¼éĩĮ": 6630,
      "åħ¶ä»ĸçļĦ": 6631,
      "çļĦçŁŃ": 6632,
      "çī¹å®ļ": 6633,
      "Ġteach": 6634,
      "ä¸Ģä¸ªå°ı": 6635,
      "ä¸ĢçĽ´åľ¨": 6636,
      "æİĢ": 6637,
      "èĤĸ": 6638,
      "èĻ¹": 6639,
      "ä½Ĳ": 6640,
      "ä¸ĬçıŃ": 6641,
      "Ġgl": 6642,
      "åı«æĪĳ": 6643,
      "Ġ30": 6644,
      "Ġcost": 6645,
      "enden": 6646,
      "çĩ¥": 6647,
      "çĲĨè®º": 6648,
      "ret": 6649,
      "å¯¹æīĭ": 6650,
      "çį": 6651,
      "å¹¿åĳĬ": 6652,
      "æ²¡åĬŀæ³ķ": 6653,
      "çĲ¼": 6654,
      "å¹¶åľ¨": 6655,
      "æ»ļçĥ«": 6656,
      "Ġfound": 6657,
      "éĶ¦": 6658,
      "åĲĦä¸ª": 6659,
      "è´¯": 6660,
      "ä¸Ģæł·çļĦ": 6661,
      "ãģĵãĤĮ": 6662,
      "ä¸Ģé¦ĸ": 6663,
      "å¼Ĺ": 6664,
      "çļĦçª": 6665,
      "åĲ¬äºĨ": 6666,
      "Ġday": 6667,
      "åīª": 6668,
      "ä¸¤èħ¿": 6669,
      "çļĦæľºä¼ļ": 6670,
      "éĿ´": 6671,
      "**ï¼ļ": 6672,
      "ï¼į": 6673,
      "æ¼ł": 6674,
      "ä»ĬæĹ¥": 6675,
      "ital": 6676,
      "åıįé¦Ī": 6677,
      "åľ¨æĦı": 6678,
      "åĭĥèµ·": 6679,
      "å°ıå£°": 6680,
      "é¢¤æĬĸçĿĢ": 6681,
      "å®ŀéĻħä¸Ĭ": 6682,
      "è¡¨æ¼Ķ": 6683,
      "æīŃåĬ¨çĿĢ": 6684,
      "éĻ·åħ¥": 6685,
      "å¼ķèµ·": 6686,
      "è£ģ": 6687,
      "äºĨä¸Ģåı£æ°Ķ": 6688,
      "çªĿ": 6689,
      "ä¹ĭå¤Ħ": 6690,
      "åįĵ": 6691,
      "Ġresearch": 6692,
      "è¯¢éĹ®": 6693,
      "å°ĨåĨĽ": 6694,
      "åľ°éĿ¢": 6695,
      "åį¢": 6696,
      "ç¬¼": 6697,
      "å®ļæľŁ": 6698,
      "èµ·æĿ¥äºĨ": 6699,
      "å½ĵæĪĳ": 6700,
      "åĲµ": 6701,
      "é¢ĩ": 6702,
      "å¼ĢæĶ¾": 6703,
      "å¯¹ä»ĸ": 6704,
      "æĢ»ç»ĵ": 6705,
      "æĮª": 6706,
      "Ġfam": 6707,
      "rib": 6708,
      "pos": 6709,
      "åĴ¿": 6710,
      "ç³ĸæŀľ": 6711,
      "è¢ģ": 6712,
      "çļĦè¢«": 6713,
      "ä¸»ä»»": 6714,
      "èĢģèĻİæľº": 6715,
      "å®īå¨ľ": 6716,
      "è®¾ç½®": 6717,
      "åĵİåĳĢ": 6718,
      "ç¤¾äº¤åªĴä½ĵ": 6719,
      "anz": 6720,
      "meric": 6721,
      "Ġgr": 6722,
      "åĸĶåĸĶ": 6723,
      "ä¼º": 6724,
      "çģ¼": 6725,
      "å¥¹å°±": 6726,
      "çī§": 6727,
      "å¹³å¸¸": 6728,
      "çľŁçļĦæĺ¯": 6729,
      "ç©¶ç«Ł": 6730,
      "æĬķåħ¥": 6731,
      "èĥ½éĩı": 6732,
      "ãĢĭï¼Į": 6733,
      "å¹»æĥ³": 6734,
      "è¿Ļä¸¤ä¸ª": 6735,
      "ä¸Ĭæµ·": 6736,
      "Ġnow": 6737,
      "ç®Ń": 6738,
      "éķ¿æľŁ": 6739,
      "èĤīä½ĵ": 6740,
      "èĭ±æĸĩ": 6741,
      "ãĥªãĥ¼": 6742,
      "ex": 6743,
      "åİĺ": 6744,
      "å¢ŀéķ¿": 6745,
      "Ġav": 6746,
      "éĢļçº¢": 6747,
      "ĠBl": 6748,
      "åĲ¦åĪĻ": 6749,
      "æĦ¤æĢĴ": 6750,
      "Ġeffect": 6751,
      "å¸ĺ": 6752,
      "å¹²åĺĽ": 6753,
      "ç´ħ": 6754,
      "ahl": 6755,
      "ãĥı": 6756,
      "èħ³": 6757,
      "çĪ±æĥħ": 6758,
      "éĹ´çļĦ": 6759,
      "æĨĭ": 6760,
      "æľĢå¾Į": 6761,
      "ç¥Ń": 6762,
      "æĺ¯åķĬ": 6763,
      "Ġnur": 6764,
      "ness": 6765,
      "å¤§å¤§": 6766,
      "åı¯æĢķ": 6767,
      "ç¬¬ä¸Ģä¸ª": 6768,
      "èĨĬ": 6769,
      "èĲ½åľ¨": 6770,
      "ty": 6771,
      "...âĢĿ": 6772,
      "ä¿º": 6773,
      "èģĶç½ĳ": 6774,
      "è¦ĨçĽĸ": 6775,
      "èĪħ": 6776,
      "Ã¤nd": 6777,
      "Ġlevel": 6778,
      "29": 6779,
      "ium": 6780,
      "Ġgu": 6781,
      "æ¥½": 6782,
      "åĨ·éĿĻ": 6783,
      "çĴĲ": 6784,
      "èµ·ä¼ı": 6785,
      "éħ·": 6786,
      "é¢ĺçĽ®": 6787,
      "æ¯ıä¸Ģæ¬¡": 6788,
      "aft": 6789,
      "æĪĳè¿Ļ": 6790,
      "ä½İå£°": 6791,
      "Ġtest": 6792,
      "å¤§åı£": 6793,
      "ential": 6794,
      "çľĭèĳĹ": 6795,
      "ĠEin": 6796,
      "å«©èĤī": 6797,
      "æļĤæĹ¶": 6798,
      "Ġgrou": 6799,
      "çĽ¸æ¯Ķ": 6800,
      "åį°è±¡": 6801,
      "æķ¦": 6802,
      "æ¥ł": 6803,
      "çł´åĿı": 6804,
      "æĪĳåı¯": 6805,
      "åĩłä¸ĭ": 6806,
      "ull": 6807,
      "è¾ħ": 6808,
      "çĻ½èī²çļĦ": 6809,
      "ÃĹ": 6810,
      "åľ°è¯´éģĵ": 6811,
      "æħĪ": 6812,
      "åİĭåľ¨": 6813,
      "æĭĽåĳ¼": 6814,
      "Ġ&": 6815,
      "ãĤĮãģ°": 6816,
      "ï¼ĮãĢį": 6817,
      "çº½": 6818,
      "Ġlang": 6819,
      "é¥¼": 6820,
      "å¿įåıĹ": 6821,
      "é«ĺæ½®äºĨ": 6822,
      "çľ¨": 6823,
      "Ġcour": 6824,
      "è¿ľå¤Ħ": 6825,
      "Ġadv": 6826,
      "ãĤĢ": 6827,
      "åĩºéĹ¨": 6828,
      "ruct": 6829,
      "åľ°çĤ¹": 6830,
      "æĤŁ": 6831,
      "æŃĮæĽ²": 6832,
      "ç¿Ķ": 6833,
      "éĿĸ": 6834,
      "Ġwater": 6835,
      "åĸ·å°Ħ": 6836,
      "éĹŃä¸Ĭ": 6837,
      "æĿ¥çľĭ": 6838,
      "ãĥľ": 6839,
      "å¸Ĳ": 6840,
      "çĽĨ": 6841,
      "è´¤": 6842,
      "åŀ«": 6843,
      "æī¿è®¤": 6844,
      "å±ıå¹ķ": 6845,
      "æĲ¬": 6846,
      "ody": 6847,
      "çļĦåĬĽéĩı": 6848,
      "è¾¦": 6849,
      "åĸľæ¬¢çļĦ": 6850,
      "çĶ¨æīĭæĮĩ": 6851,
      "çķĻåľ¨": 6852,
      "ç´«èī²": 6853,
      "ç¾İä¸½çļĦ": 6854,
      "éĿ¢ä¸´": 6855,
      "æĢĿç»´": 6856,
      "è¿ĺå¥½": 6857,
      "æıīæĲĵ": 6858,
      "ä½Ĩä»ĸ": 6859,
      "çģ«çĥŃ": 6860,
      "ides": 6861,
      "çīĽå¥¶": 6862,
      "print": 6863,
      "äºĨä¸Ĭåİ»": 6864,
      "çļĦè¦ģæ±Ĥ": 6865,
      "Ġcent": 6866,
      "ä¸įå®¹æĺĵ": 6867,
      "åĲĳä¸ĭ": 6868,
      "ç¿ł": 6869,
      "è¤²": 6870,
      "é¨": 6871,
      "å¿ĥæĥ³": 6872,
      "æĺ¯çĶ±": 6873,
      "Ġzur": 6874,
      "å®Įæķ´": 6875,
      "çľĭåĪ°å¥¹": 6876,
      "ä¸įè¶³": 6877,
      "èĪĶèĪĲ": 6878,
      "ãĤĪãģĨãģ«": 6879,
      "å¤ī": 6880,
      "çĽĹ": 6881,
      "âĢ¦âĢ¦âĢ¦": 6882,
      "æĪĲéķ¿": 6883,
      "read": 6884,
      "Ġreal": 6885,
      "å¿įèĢĲ": 6886,
      "ä¸Ģå¼Ģå§ĭ": 6887,
      "ãĢģãĢĮ": 6888,
      "åīįåĲİ": 6889,
      "éķ¿æĹ¶éĹ´": 6890,
      "èĳ±": 6891,
      "æµªè´¹": 6892,
      "æĺ¯å¥¹": 6893,
      "æĹ¶åĪ»": 6894,
      "åıĽ": 6895,
      "iron": 6896,
      "ãĥĶ": 6897,
      "åĲĳåĲİ": 6898,
      "æĪĳå¥½": 6899,
      "åĮ¹": 6900,
      "è½¬æį¢": 6901,
      "Ġlet": 6902,
      "å¾Īéļ¾": 6903,
      "äººç±»çļĦ": 6904,
      "å®ĥä»¬çļĦ": 6905,
      "pen": 6906,
      "éĢĨ": 6907,
      "ãģ£ãģ¨": 6908,
      "æ¶¦æ»ĳ": 6909,
      "ĠkÃ¶nnen": 6910,
      "å¹´çºª": 6911,
      "Ġprof": 6912,
      "ç§ģå¤Ħ": 6913,
      "88": 6914,
      "çĿĢéĤ£": 6915,
      "çİ°åľ¨çļĦ": 6916,
      "æĮ¨": 6917,
      "åĽŀäºĨ": 6918,
      "èĢģå¤´": 6919,
      "éĢĻè£¡": 6920,
      "Ġauthor": 6921,
      "éĺģ": 6922,
      "åŃ¦ä¼ļ": 6923,
      "æĿŁç¼ļ": 6924,
      "ĠâĢŀ": 6925,
      "èĢĮä¸įæĺ¯": 6926,
      "åĲĥäºĨ": 6927,
      "è¯Ħä»·": 6928,
      "åĲ¾": 6929,
      "çľĭä¸Ĭåİ»": 6930,
      "Ġbefore": 6931,
      "gt": 6932,
      "arm": 6933,
      ".....": 6934,
      "ãģĸ": 6935,
      "ĠAb": 6936,
      "ç´§ç´§åľ°": 6937,
      "æ·Į": 6938,
      "çī©ä½ĵ": 6939,
      "Ġpos": 6940,
      "æ²Ĵæľī": 6941,
      "èĦ«": 6942,
      "ä¸»äººçļĦ": 6943,
      "çļĦèıĬ": 6944,
      "³èĨĬ": 6945,
      "çļĦèĦ¸é¢Ĭ": 6946,
      "åĲģ": 6947,
      "ä½łçŁ¥éģĵ": 6948,
      "Ġtot": 6949,
      "å¤Ħäºİ": 6950,
      "é¥¿": 6951,
      "æ³¨æĦıåĬĽ": 6952,
      "ason": 6953,
      "åĵĪåķĬ": 6954,
      "æŃ§è§Ĩ": 6955,
      "ç»«": 6956,
      "ä¼ĺåĬ¿": 6957,
      "æ¸¡": 6958,
      "ä¸Ģå¹´": 6959,
      "æĪĳæĿ¥": 6960,
      "æ¸ħæ´ģ": 6961,
      "Ġext": 6962,
      "ï½ŀâĢĿ": 6963,
      "åħ³éĶ®è¯į": 6964,
      "æ¸Ĺ": 6965,
      "èĲ¥åħ»": 6966,
      "å¤ıå¤©": 6967,
      "å¦©": 6968,
      "ized": 6969,
      "æģŃ": 6970,
      "ĠTo": 6971,
      "ãģĤãĤĬãģ¾ãģĻ": 6972,
      "è¯ĹæŃĮ": 6973,
      "Ġsupport": 6974,
      "è¡¨æĺİ": 6975,
      "åħ¶æ¬¡": 6976,
      "æıĲä¾ĽäºĨ": 6977,
      "æĬĬä»ĸ": 6978,
      "Ġlead": 6979,
      "èĬĿ": 6980,
      "âĨ": 6981,
      "ç©·": 6982,
      "ä¼ļè¢«": 6983,
      "Ġdown": 6984,
      "å¯¹èĩªå·±": 6985,
      "åľĵ": 6986,
      "ï½ī": 6987,
      "æĺ¯è¦ģ": 6988,
      "æ©Ļ": 6989,
      "hed": 6990,
      "Ġbr": 6991,
      "æĪĳè¿ĺæĺ¯": 6992,
      "fÃ¼": 6993,
      "çļĦå»ºè®®": 6994,
      "ä¸ĭå¤´": 6995,
      "çŃīåĪ°": 6996,
      "æ®µèĲ½": 6997,
      "åħ¶ä»ĸäºº": 6998,
      "ä¸ĢæĹ¦": 6999,
      "é«ĺæķĪ": 7000,
      "æĻ¶èİ¹": 7001,
      "å°ıåŃ©": 7002,
      "èĩī": 7003,
      "åĲĮæĹ¶ä¹Ł": 7004,
      "åĴĴ": 7005,
      "çļĦèģĮ": 7006,
      "å¾Ģä¸Ĭ": 7007,
      "Ġpur": 7008,
      "å¥³åŃ©åŃĲ": 7009,
      "æľĢå¥½çļĦ": 7010,
      "å¸¸å¸¸": 7011,
      "éĨĴæĿ¥": 7012,
      "çļĦå¾Ī": 7013,
      "åħ±åĴĮ": 7014,
      "é»ĺé»ĺ": 7015,
      "å°±å·²ç»ı": 7016,
      "æĽ¹": 7017,
      "åĴ¬çĿĢ": 7018,
      "ving": 7019,
      "è¿Ļä¹Īè¯´": 7020,
      "äº«åıĹçĿĢ": 7021,
      "æ³ªæ°´": 7022,
      "çļĦçľ¼çĿĽ": 7023,
      "æľīæĹ¶": 7024,
      "ave": 7025,
      "Die": 7026,
      "ï¼¡": 7027,
      "ĠAnd": 7028,
      "è¨Ī": 7029,
      "lichen": 7030,
      "ä¸įåĬ¨": 7031,
      "ãģ£ãģ¦ãģĦãĤĭ": 7032,
      "å¯Ħ": 7033,
      "Ġser": 7034,
      "æľīäºĽä¸į": 7035,
      "è¼ķ": 7036,
      "MOSS": 7037,
      "Ġ100": 7038,
      "èį¯çī©": 7039,
      "äºĨåĳ¢": 7040,
      "åĬłéĢŁ": 7041,
      "æĳĶ": 7042,
      "ask": 7043,
      "åĨįä¸Ģæ¬¡": 7044,
      "âĿ¤ï¸ı": 7045,
      "Ġunter": 7046,
      "éĻĮçĶŁ": 7047,
      "æ¯Ķä¾ĭ": 7048,
      "æĲľç´¢": 7049,
      "ãģ«ãģ¤": 7050,
      "æĬĵçĿĢ": 7051,
      "æĦīå¿«": 7052,
      "¡çĮ®": 7053,
      "æĪĳä¹Łä¸į": 7054,
      "ãģĦãģĦ": 7055,
      "ç¼ĵè§£": 7056,
      "ãĤĵãģ§": 7057,
      "èĦ±ä¸ĭ": 7058,
      "ãģĹãģ¦ãģĦãĤĭ": 7059,
      "æ£ī": 7060,
      "Ġmem": 7061,
      "èĵĿèī²": 7062,
      "æĳĺè¦ģ": 7063,
      "rain": 7064,
      "Ġdesign": 7065,
      "å°±æľī": 7066,
      "è¿Ļä¸¤": 7067,
      "åĲĳæĪĳ": 7068,
      "åıĳæ³Ħ": 7069,
      "Ġmade": 7070,
      "æ£ĭ": 7071,
      "è¦ĸ": 7072,
      "èĪĪ": 7073,
      "ä¸«å¤´": 7074,
      "çļĦæĸ°": 7075,
      "æ³ķåĽ½": 7076,
      "åĨįåĬłä¸Ĭ": 7077,
      "çľĭçĿĢæĪĳ": 7078,
      "æĭ½": 7079,
      "ãĢĭãĢģãĢĬ": 7080,
      "çĢ": 7081,
      "çļĦçĶ¨": 7082,
      "ä»Ģéº¼": 7083,
      "çļĦä¸»": 7084,
      "è¯·ä½ł": 7085,
      "ç¾İèħ¿": 7086,
      "çļĦçħ§": 7087,
      "ä¸Ĭèº«": 7088,
      "çĿģå¼Ģ": 7089,
      "çļĦçĪ¶": 7090,
      "ç»Ĩèĥŀ": 7091,
      "æ°ĳæĹı": 7092,
      "keit": 7093,
      "è½»æĺĵ": 7094,
      "ä¸įè¡ĮäºĨ": 7095,
      "äºĨä¸Ģåı£": 7096,
      "éħ¥éº»": 7097,
      "éŃĶåĬĽ": 7098,
      "åľ¨å¤§": 7099,
      "ames": 7100,
      "è¾ĪåŃĲ": 7101,
      "æŃª": 7102,
      "é¼ł": 7103,
      "è§ĦåĪĴ": 7104,
      "ãģĹãĤĩãģĨ": 7105,
      "çļĦçłĶç©¶": 7106,
      "çļĦçģµ": 7107,
      "ç¾İåħĥ": 7108,
      "èİ·åıĸ": 7109,
      "æĭĶåĩº": 7110,
      "çŃ±": 7111,
      "What": 7112,
      "ende": 7113,
      "ron": 7114,
      "åħ¹": 7115,
      "ç´§äºĨ": 7116,
      "åĲĲåĩº": 7117,
      "æ·±åº¦åŃ¦ä¹ł": 7118,
      "æµģç¨ĭ": 7119,
      "é¡ºåĪ©": 7120,
      "ç½¢äºĨ": 7121,
      "æīĭæ®µ": 7122,
      "éĿĴå¹´": 7123,
      "Ġnoch": 7124,
      "ãĢħ": 7125,
      "ä¼ĺç§Ģ": 7126,
      "Ġprovide": 7127,
      "äºı": 7128,
      "å½¢å®¹": 7129,
      "ä¸ĢéĿ¢": 7130,
      "ä¸ĢåĬ¨": 7131,
      "å¯º": 7132,
      "ä¸ºæĪĳ": 7133,
      "è½¨": 7134,
      "äºĽä»Ģä¹Ī": 7135,
      "åŃĹæ¯į": 7136,
      "è¿Ļä»¶äºĭ": 7137,
      "èĪĮå°ĸ": 7138,
      "çŀ³": 7139,
      "ches": 7140,
      "è´¾": 7141,
      "èĨ¨": 7142,
      "ãģ¡ãĤĥ": 7143,
      "çļĦæĥ³æ³ķ": 7144,
      "Ġmat": 7145,
      "æĪ¿éĹ¨": 7146,
      "è¿Ļä¸ĢåĪĩ": 7147,
      "å¿ľ": 7148,
      "ision": 7149,
      "èĦļè¶¾": 7150,
      "èĬĤçĽ®": 7151,
      "æ¼Ĩ": 7152,
      "çļĦæĬ½æıĴ": 7153,
      "åķ¾": 7154,
      "å»Ĭ": 7155,
      "çĽ¾": 7156,
      "ĠSo": 7157,
      "ç²Ĺæļ´": 7158,
      "ãĥļ": 7159,
      "Ġdurch": 7160,
      "):": 7161,
      "ä¼ļä¸įä¼ļ": 7162,
      "åĲ¬èµ·æĿ¥": 7163,
      "çļĦæ·«æ°´": 7164,
      "å¾ģæľį": 7165,
      "åıĺå¾ĹæĽ´åĬł": 7166,
      "Ġide": 7167,
      "åı¯è§ģ": 7168,
      "èĭ¥æĺ¯": 7169,
      "ï¼Ķ": 7170,
      "æĮĽ": 7171,
      "ĠAd": 7172,
      "Ġterm": 7173,
      "ases": 7174,
      "lex": 7175,
      "èµ°è¿Ľ": 7176,
      "ãģ§ãģįãĤĭ": 7177,
      "åŃĹç¬¦ä¸²": 7178,
      "èĩªåĬ¨åĮĸ": 7179,
      "äºĨä¸ĭ": 7180,
      "è½°": 7181,
      "éĽĮ": 7182,
      "Ġeduc": 7183,
      "æķĻå®¤": 7184,
      "è¯ķè¯ķ": 7185,
      "å°ĳå¦ĩ": 7186,
      "æºĥ": 7187,
      "åĦ¿çļĦ": 7188,
      "çĪĨåıĳ": 7189,
      "å¥³çİĭ": 7190,
      "åĺ²": 7191,
      "åĲ¸æĶ¶": 7192,
      "æİ¨å¹¿": 7193,
      "ä¸½èİİ": 7194,
      "æĦīæĤ¦": 7195,
      "éī": 7196,
      "ording": 7197,
      "Ġduring": 7198,
      "çļĦæĥħåĨµä¸ĭ": 7199,
      "å¬Į": 7200,
      "æ¬ºè´Ł": 7201,
      "å½·": 7202,
      "åĨ°åĨ·": 7203,
      "éģĭ": 7204,
      "èłķ": 7205,
      "æĿ±": 7206,
      "ä¹Łæ²Ĵ": 7207,
      "èĢģå®ŀ": 7208,
      "è²»": 7209,
      "ï¼ĸ": 7210,
      "ĠAs": 7211,
      "è³ĩ": 7212,
      "æĿ¿ä¸Ĭ": 7213,
      "åĿļæĮº": 7214,
      "è¡ĵ": 7215,
      "åľ¨åĮ»çĸĹ": 7216,
      "æīĴ": 7217,
      "ç«Ļèµ·æĿ¥": 7218,
      "formula": 7219,
      "rag": 7220,
      "èĢĮåľ¨": 7221,
      "é»Ħèī²": 7222,
      "åĿĽ": 7223,
      "èģªæĺİ": 7224,
      "ä¿ĿçķĻ": 7225,
      "ãģłãģ£ãģŁ": 7226,
      "æ¡Ĥ": 7227,
      "çļĦéľĢæ±Ĥ": 7228,
      "ä¸ŃæıĲåıĸ": 7229,
      "ĠGe": 7230,
      "æĢĢä¸Ń": 7231,
      "Ġmehr": 7232,
      "éĤĦæĺ¯": 7233,
      "īæĮĽ": 7234,
      "èĮ«": 7235,
      "æĶ¶åħ¥": 7236,
      "æĽ¦": 7237,
      "éĺ²æŃ¢": 7238,
      "æºħ": 7239,
      "ãģŁãģĦ": 7240,
      "Ġstand": 7241,
      "å¸«": 7242,
      "Ĥèº": 7243,
      "ator": 7244,
      "ĠAus": 7245,
      "åıĮèĦļ": 7246,
      "åľĭ": 7247,
      "é¡¯": 7248,
      "åĲĮäºĭ": 7249,
      "æĪĳä»¬åºĶè¯¥": 7250,
      "æŀģéĻĲ": 7251,
      "åı°ä¸Ĭ": 7252,
      "å±Į": 7253,
      "ç·ļ": 7254,
      "ç¬ĳå®¹": 7255,
      "çĦ¦èĻĳ": 7256,
      "è®©ä»ĸä»¬": 7257,
      "æĽ´æĸ°": 7258,
      "æħķå®¹": 7259,
      "æĸ¹çļĦ": 7260,
      "è¿Ľåĩº": 7261,
      "çªģçł´": 7262,
      "'m": 7263,
      "åľ¨å®¶": 7264,
      "å¤§åĬĽ": 7265,
      "æ¸ħçĲĨ": 7266,
      "çļĦçŃĶ": 7267,
      "Ġbus": 7268,
      "æ¹¿äºĨ": 7269,
      "å¯¹è¯ĿåĨħå®¹": 7270,
      "çĶļéº¼": 7271,
      "è®ĵå¥¹": 7272,
      "ãĥĦ": 7273,
      "åľ¨ä¸Ģä¸ª": 7274,
      "ãĤ¶": 7275,
      "æ»ĭåĳ³": 7276,
      "ved": 7277,
      "æĮºç«ĭ": 7278,
      "å¥½çĪ½": 7279,
      "ä¿Ħ": 7280,
      "Ġlist": 7281,
      "å¼ºè¡Į": 7282,
      "Ġsmall": 7283,
      "éĶĻäºĨ": 7284,
      "è®²è¿°": 7285,
      "éĽĻèħ¿": 7286,
      "ç¼ĸè¾ĳ": 7287,
      "æ·«éĿ¡": 7288,
      "å«©ç©´": 7289,
      "æĦŁåıĹçĿĢ": 7290,
      "500": 7291,
      "Ġmust": 7292,
      "ĠãģĬ": 7293,
      "éĢĿ": 7294,
      "åĪĨéħį": 7295,
      "ç¿°": 7296,
      "çļĦé¾Łå¤´": 7297,
      "ote": 7298,
      "åĿĲä¸ĭ": 7299,
      "éĿĴæĺ¥": 7300,
      "çļĩå¸Ŀ": 7301,
      "æĪ³": 7302,
      "ä¼į": 7303,
      "æĭĮ": 7304,
      "å®¢æ°Ķ": 7305,
      "ĠOn": 7306,
      "åŃ£èĬĤ": 7307,
      "äºĨä¸įå°ĳ": 7308,
      "éĤ»": 7309,
      "gin": 7310,
      "ĠAmeric": 7311,
      "æĪĳåĸľæ¬¢": 7312,
      "Ġfre": 7313,
      "å®´": 7314,
      "Ġpower": 7315,
      "èĩªè¡Į": 7316,
      "äºĨä¸Ģä¼ļåĦ¿": 7317,
      "å°±å¥½": 7318,
      "æĥ³ä¸įåĪ°": 7319,
      "è¾¼": 7320,
      "å½ĵåĪĿ": 7321,
      "ĠFr": 7322,
      "æĬĹæĭĴ": 7323,
      "èĢĮå¥¹": 7324,
      "åĵĢæ±Ĥ": 7325,
      "çļĦåıĮæīĭ": 7326,
      "åĪ«çļĦ": 7327,
      "æ¿Ģæĥħ": 7328,
      "çļĦçĤ¹": 7329,
      "ç»ĦåĲĪ": 7330,
      "ä¸Ģåı¥": 7331,
      "sten": 7332,
      "æķĻåŃ¦": 7333,
      "åĨ²åĬ¨": 7334,
      "Ġpat": 7335,
      "å®ŀåĬĽ": 7336,
      "ç¥Ī": 7337,
      "æ¸ħéĨĴ": 7338,
      "Ġinterest": 7339,
      "çŁ©": 7340,
      "æĽ²çº¿": 7341,
      "åıªè§īå¾Ĺ": 7342,
      "æĭīçĿĢ": 7343,
      "iving": 7344,
      "å©´": 7345,
      "æ³¨éĩį": 7346,
      "å¤±è´¥": 7347,
      "æİ¨åĬ¨": 7348,
      "We": 7349,
      "æ¬ł": 7350,
      "çļĦè¡¨çİ°": 7351,
      "å»·": 7352,
      "å°¾å·´": 7353,
      "æľĿçĿĢ": 7354,
      "è«ĩ": 7355,
      "æĿı": 7356,
      "åª³": 7357,
      "å«ģ": 7358,
      "çĶ·åıĭ": 7359,
      "Ġorgan": 7360,
      "ä¸įå¤Ł": 7361,
      "èĩªåĪĨ": 7362,
      "æĹ¶çļĦ": 7363,
      "è¿Ļæĺ¯ä¸Ģ": 7364,
      "è¾¹çļĦ": 7365,
      "é¸¡èĽĭ": 7366,
      "åı¦ä¸Ģåıªæīĭ": 7367,
      "Ġtotal": 7368,
      "ç¬¨": 7369,
      "æİĴæĶ¾": 7370,
      "åĪ©äºļ": 7371,
      "åĪĽæĦı": 7372,
      "æĭĵ": 7373,
      "å·«": 7374,
      "åī¥": 7375,
      "æľīä¸Ģç§į": 7376,
      "è¿ĩèº«": 7377,
      "èĴ¸": 7378,
      "å¹´æĿ¥": 7379,
      "æ¦¨": 7380,
      "Ã¶r": 7381,
      "å¯¹è±¡": 7382,
      "ãĥĽ": 7383,
      "éĢĽ": 7384,
      "çļĦçĸ¼": 7385,
      "éĺ´æĪ·": 7386,
      "çļĦèĤĽ": 7387,
      "åĲĦä½į": 7388,
      "ãģĲ": 7389,
      "éĻµ": 7390,
      "ãģ®ãģ¯": 7391,
      "å¤ªå¤ª": 7392,
      "æĹłéĻĲ": 7393,
      "Ġproject": 7394,
      "äº§çĶŁäºĨ": 7395,
      "ãĤŃãĥ£": 7396,
      "èĩªä»İ": 7397,
      "éĿĻéĿĻ": 7398,
      "ãĢĤ-": 7399,
      "Ġwrit": 7400,
      "ä¸įè§ī": 7401,
      "åĨ¯": 7402,
      "æĴ¤": 7403,
      "æŀģä¸º": 7404,
      "çĻ¾å®¶": 7405,
      "Re": 7406,
      "XX": 7407,
      "çŁ¿": 7408,
      "è§Ħæ¨¡": 7409,
      "çļĦè£Ļ": 7410,
      "par": 7411,
      "æĪĳæĬĬå¥¹": 7412,
      "ä»ĸä¹Ł": 7413,
      "èľĤ": 7414,
      "ãģ²": 7415,
      "èĬ·": 7416,
      "å®¶å±ħ": 7417,
      "åĨĴéĻ©": 7418,
      "ral": 7419,
      "ä¾¿å®ľ": 7420,
      "äºĨåķĬ": 7421,
      "Ġstudy": 7422,
      "é»ĳèī²çļĦ": 7423,
      "èī¯å¥½çļĦ": 7424,
      "æķĻæİĪ": 7425,
      "è¿·äºº": 7426,
      "éĺ¶æ®µ": 7427,
      "so": 7428,
      "Ġmight": 7429,
      "èĥĥ": 7430,
      "åĭ¢": 7431,
      "åľ°çļĦ": 7432,
      "éĿ¢ç§¯": 7433,
      "lish": 7434,
      "çļĦéªļ": 7435,
      "çİ°åľº": 7436,
      "é¥¥": 7437,
      "çİ©ç¬ĳ": 7438,
      "çļĦæķħäºĭ": 7439,
      "èĴĭ": 7440,
      "75": 7441,
      "ç¿Ĵ": 7442,
      "æİĲ": 7443,
      "åĵĦ": 7444,
      "rol": 7445,
      "Ġhum": 7446,
      "å¼ºå¥¸": 7447,
      "æīĵå¼ĢäºĨ": 7448,
      "éĵ¶è¡Į": 7449,
      "éĤ®ä»¶": 7450,
      "Ġfin": 7451,
      "It": 7452,
      "åį³åı¯": 7453,
      "Ġanswer": 7454,
      "çļĦéģĵ": 7455,
      "å¤«å¦»": 7456,
      "æµĳåľĨ": 7457,
      "ä½Ĩåľ¨": 7458,
      "æ¨¡ç³Ĭ": 7459,
      "way": 7460,
      "ï¼ı": 7461,
      "ãģ¨ãģª": 7462,
      "wh": 7463,
      "eng": 7464,
      "Ġmach": 7465,
      "æ¯ıä¸Ģä¸ª": 7466,
      "åį³ä¾¿": 7467,
      "è®ĵæĪĳ": 7468,
      "ï¼ļ-": 7469,
      "ï¼ļ```": 7470,
      "å®ŀè·µ": 7471,
      "å¡ĳæĸĻ": 7472,
      "ä¼Ĳ": 7473,
      "ĠNew": 7474,
      "åģ¶å°Ķ": 7475,
      "çº·çº·": 7476,
      "æĺ¯è¢«": 7477,
      "reen": 7478,
      "äººåľ¨": 7479,
      "èĬ½": 7480,
      "æıĲçĿ£": 7481,
      "çļĦå¤ĸ": 7482,
      "å®ı": 7483,
      "ellen": 7484,
      "æĦıåĳ³çĿĢ": 7485,
      "net": 7486,
      "åĴ¦": 7487,
      "Ġactiv": 7488,
      "åĽĽèĤ¢": 7489,
      "çļĦç¨ĭ": 7490,
      "ves": 7491,
      "viron": 7492,
      "æĿĨ": 7493,
      "ats": 7494,
      "éĥ¨éĹ¨": 7495,
      "æĶ¯æĴĳ": 7496,
      "æĥ³æĥ³": 7497,
      "æīĢåľ¨": 7498,
      "ä¹±çļĦ": 7499,
      "Ġhapp": 7500,
      "èµ°åĩº": 7501,
      "å¸¦æĿ¥äºĨ": 7502,
      "ç»ĿæľĽ": 7503,
      "é¤¨": 7504,
      "è¿ĩåĲİ": 7505,
      "Ġstill": 7506,
      "çĸı": 7507,
      "éĴ¥": 7508,
      "Ġthough": 7509,
      "geb": 7510,
      "çµĤæĸ¼": 7511,
      "è§ĨçĿĢ": 7512,
      "çļĦå°ıèħ¹": 7513,
      "åĽŀæĿ¥äºĨ": 7514,
      "æĪĳæ²¡": 7515,
      "éĩįçĤ¹": 7516,
      "ler": 7517,
      "çļĦèĮ": 7518,
      "æī¶çĿĢ": 7519,
      "å¤´çļĦ": 7520,
      "è¯Ŀé¢ĺ": 7521,
      "èģ½": 7522,
      "ä¸Ģåľº": 7523,
      "è´£ä»»": 7524,
      "èĤĽéĹ¨": 7525,
      "Ġdr": 7526,
      "Ġcare": 7527,
      "è¿Ļä¸Ģæ¬¡": 7528,
      "å¥¹çļĦèħ°": 7529,
      "ä¸ĵéĹ¨": 7530,
      "198": 7531,
      "åħ³å¿ĥ": 7532,
      "çļĦçŁ¥": 7533,
      "å¥¹çļĦèº«ä½ĵ": 7534,
      "æģį": 7535,
      "æģ¶éŃĶ": 7536,
      "Ġpass": 7537,
      "çľ¼åīįçļĦ": 7538,
      "ãĤµãĤ¤ãĤº": 7539,
      "æĢ»ç»Ł": 7540,
      "ä¸įèĪĴæľį": 7541,
      "eld": 7542,
      "çĤ¹çĤ¹å¤´": 7543,
      "å¦ĵ": 7544,
      "åĩºçİ°äºĨ": 7545,
      "man": 7546,
      "åį´æ²¡æľī": 7547,
      "ined": 7548,
      "Ġpop": 7549,
      "éĢĤéĩı": 7550,
      "éŃħåĬĽ": 7551,
      "Ġthree": 7552,
      "éĤ£ä¹Īå¤ļ": 7553,
      "çļĦåĴĮ": 7554,
      "æĺ¯æľī": 7555,
      "æĻºæħ§": 7556,
      "æĴħ": 7557,
      "å¾ĹäºĨ": 7558,
      "Ġexample": 7559,
      "æ¡ĮåŃĲ": 7560,
      "çļĦè½¦": 7561,
      "å¥¹è¯´": 7562,
      "å±ķå¼Ģ": 7563,
      "çļĦå¤§é¸¡å·´": 7564,
      "Ġest": 7565,
      "Ġbis": 7566,
      "çĦ¡æĸĻ": 7567,
      "ä¿ıèĦ¸": 7568,
      "Ġcar": 7569,
      "ãĤ¹ãĥĨ": 7570,
      "Ġel": 7571,
      "åľ°å°Ĩ": 7572,
      "çļĦå°ıåĺ´": 7573,
      "Ġunderstand": 7574,
      "éĩįéĩı": 7575,
      "åįĬå¤©": 7576,
      "cul": 7577,
      "ç½ĳä¸Ĭ": 7578,
      "ãģ¾ãģŁ": 7579,
      "å¾Īæĺ¯": 7580,
      "çļĦä¸ĢäºĽ": 7581,
      "éĽĨåĽ¢": 7582,
      "æŁĲç§į": 7583,
      "Ġbetter": 7584,
      "Ġrequire": 7585,
      "ç»ıåħ¸": 7586,
      "æĸ¯çī¹": 7587,
      "çģµæ´»": 7588,
      "å¹¾åĢĭ": 7589,
      "è£Ĩ": 7590,
      "çļĦè´¨": 7591,
      "ï½ģï½": 7592,
      "èĩªå·±çļĦèº«ä½ĵ": 7593,
      "æĢ§æ¬²": 7594,
      "çļĦæĥħæĦŁ": 7595,
      "èĲĿèİī": 7596,
      "çļĦèĽ": 7597,
      "Ġsl": 7598,
      "Ġbelie": 7599,
      "Ġimportant": 7600,
      "å»ºè®¾": 7601,
      "çīĻé½¿": 7602,
      "çĭłçĭłçļĦ": 7603,
      "aterial": 7604,
      "ç²¾çģµ": 7605,
      "æľīä¸Ģæ®µ": 7606,
      "\\\"": 7607,
      "ä¸Ģèº«": 7608,
      "åħ¨éĥ½": 7609,
      "Ġgrow": 7610,
      "Ġagain": 7611,
      "åĬĿ": 7612,
      "çĳľä¼½": 7613,
      "Ġaround": 7614,
      "èĥİ": 7615,
      "ouse": 7616,
      "çŃĴ": 7617,
      "æĢİéº½": 7618,
      "ãģ©ãģĨ": 7619,
      "è¯¶": 7620,
      "å¼¦": 7621,
      "æĭŃ": 7622,
      "æ·±åĪ»": 7623,
      "æİĴåºı": 7624,
      "å¦©åªļ": 7625,
      "ä¹Łå¼Ģå§ĭ": 7626,
      "ä¸¤æł¹": 7627,
      "æµģè¡Į": 7628,
      "éĽ£": 7629,
      "çļĦèº«å½±": 7630,
      "æ¸¸æ³³": 7631,
      "å«ĤåŃĲ": 7632,
      "ä¸ĢæĹ¶éĹ´": 7633,
      "èģ²": 7634,
      "ĠCl": 7635,
      "ç»´æĬ¤": 7636,
      "ĠJahr": 7637,
      "æĺ¯æľĢ": 7638,
      "è´¦": 7639,
      "æĪ¿åŃĲ": 7640,
      "çĴĩ": 7641,
      "ä»¥å¤ĸ": 7642,
      "å¼ºå¤§": 7643,
      "To": 7644,
      "ä¸Ńå¹´": 7645,
      "å½ĵåīį": 7646,
      "ç»Ļèĩªå·±": 7647,
      "åİĺç±³": 7648,
      "çļĦæķ°æį®": 7649,
      "ãģĹãģĭ": 7650,
      "å°ıèħ¿": 7651,
      "åįģäºĮ": 7652,
      "é¥®æĸĻ": 7653,
      "æĬļæĳ¸çĿĢ": 7654,
      "ç¬¬äºĮå¤©": 7655,
      "à¤": 7656,
      "ä¼ºåĢĻ": 7657,
      "ĠSh": 7658,
      "Ġgreat": 7659,
      "å®łçī©": 7660,
      "ä¸įä½Ĩ": 7661,
      "Ġsay": 7662,
      "Ġ16": 7663,
      "çĶŁæ´»ä¸Ń": 7664,
      "æĦŁåħ´è¶£": 7665,
      "ills": 7666,
      "åħ±åĴĮåĽ½": 7667,
      "vers": 7668,
      "ä¸Ģå¤§": 7669,
      "è·Į": 7670,
      "Ġele": 7671,
      "æ¯Ķèµ·": 7672,
      "åĲ¬è¯Ŀ": 7673,
      "éĵŃ": 7674,
      "ĠMar": 7675,
      "èĮµ": 7676,
      "ieder": 7677,
      "çļĦè¯Ŀè¯Ń": 7678,
      "èµĭ": 7679,
      "æłĩé¢ĺ": 7680,
      "æĦıå¤§åĪ©": 7681,
      "è¡ĮæĺŁ": 7682,
      "æĽ´ä¸º": 7683,
      "ross": 7684,
      "ç¾İå¦Ļ": 7685,
      "ä¸¤äººçļĦ": 7686,
      "çļĦèº«æĿĲ": 7687,
      "åı¯ä»¥å¸®åĬ©æĤ¨": 7688,
      "âĢ¢âĢ¢": 7689,
      "äºĶä¸ª": 7690,
      "ç¼ĵæħ¢": 7691,
      "æ±Ĥæ±Ĥ": 7692,
      "çĿ¡çĿĢ": 7693,
      "oun": 7694,
      "åĽŀåĪ°äºĨ": 7695,
      "ãĤ¿ãĤ¤": 7696,
      "Ġcurrent": 7697,
      "å²ļ": 7698,
      "ä¸ĢåĢĭ": 7699,
      "èĲ¥éĶĢ": 7700,
      "åĪĨåŃĲ": 7701,
      "åĪĥ": 7702,
      "åı£èħĶ": 7703,
      "ĠIs": 7704,
      "çľŁçļĦå¾Ī": 7705,
      "conom": 7706,
      "äº¤åĲĪ": 7707,
      "å¥ĸåĬ±": 7708,
      "å¥³çļĦ": 7709,
      "ç¢°åĪ°": 7710,
      "AN": 7711,
      "ä½ľèĢħ": 7712,
      "éľĢè¦ģæ³¨æĦı": 7713,
      "æī¾åĪ°äºĨ": 7714,
      "rie": 7715,
      "çļĦèĤ¥": 7716,
      "çı¾åľ¨": 7717,
      "ãĤ®": 7718,
      "çļĦç³": 7719,
      "åı¯ä»¥è®©": 7720,
      "æģ¶å¿ĥ": 7721,
      "èĤĥ": 7722,
      "è¯Ħè®º": 7723,
      "çŃīçĿĢ": 7724,
      "è¿Ļä¸ªæĹ¶åĢĻ": 7725,
      "ãĤģãģ¦": 7726,
      "æĪĳèĥ½": 7727,
      "ä¸įæ»¡": 7728,
      "åħ¬å¼ı": 7729,
      "åı¤ä»£": 7730,
      "è¹Ī": 7731,
      "åĪļå¥½": 7732,
      "Ġname": 7733,
      "ä¸įæĸ·": 7734,
      "èĬĤå¥ı": 7735,
      "çļĦè½¯": 7736,
      "aj": 7737,
      "ï½ŀãĢį": 7738,
      "Ġfollowing": 7739,
      "çļĦçľ¼": 7740,
      "Ġbuild": 7741,
      "ality": 7742,
      "èĲĦ": 7743,
      "åĩıè½»": 7744,
      "atz": 7745,
      "ãģ®ãģĭ": 7746,
      "åģ´": 7747,
      "çĽ¸åºĶ": 7748,
      "ãģªãĤī": 7749,
      "éļĲçº¦": 7750,
      "åľ°ä¸ĭ": 7751,
      "ä¸įåİ»": 7752,
      "åŁ¹è®Ń": 7753,
      "Tom": 7754,
      "æł¹éĥ¨": 7755,
      "¡èĲĦ": 7756,
      "çº¢äºĨ": 7757,
      "æİ°": 7758,
      "æŃ»çļĦ": 7759,
      "rÃ¤": 7760,
      "å°Ħåĩº": 7761,
      "æĭįæĳĦ": 7762,
      "ething": 7763,
      "ä½ķåĨµ": 7764,
      "èł¢": 7765,
      "iversity": 7766,
      "åħ®": 7767,
      "å°ıå°ı": 7768,
      "eter": 7769,
      "è¯ģæį®": 7770,
      "æĺ¯ä¸ºäºĨ": 7771,
      "Ġiss": 7772,
      "èģĶåĲĪ": 7773,
      "äºĨè®¸å¤ļ": 7774,
      "å¨ĩåĸĺ": 7775,
      "è§Ĩè§ī": 7776,
      "ãģķãĤĮãģ¦": 7777,
      "æĹ¶å°ļ": 7778,
      "ĠEng": 7779,
      "ç²¾èĩ´": 7780,
      "æĹłäºº": 7781,
      "Ġihr": 7782,
      "çĲĨçĶ±": 7783,
      "çł¸": 7784,
      "çİ©å®¶": 7785,
      "å¾Ģå¾Ģ": 7786,
      "å°½åı¯èĥ½": 7787,
      "åŁºåĽł": 7788,
      "åħ¨åĬĽ": 7789,
      "çĨĻ": 7790,
      "éļĲèĹı": 7791,
      "å°¿æ¶²": 7792,
      "ðŁ": 7793,
      "éĤĢè¯·": 7794,
      "å¯¹ä½ł": 7795,
      "31": 7796,
      "ä¸ĢåĿĹ": 7797,
      "æĪĳä¸įçŁ¥éģĵ": 7798,
      "æĻĭ": 7799,
      "ä½łåĪ«": 7800,
      "ä¸ľæĸ¹": 7801,
      "ãģĳãģ¦": 7802,
      "å¼¹æĢ§": 7803,
      "Ġconsider": 7804,
      "åĹİ": 7805,
      "oney": 7806,
      "æĳĩäºĨ": 7807,
      "å¹´è½»äºº": 7808,
      "çļĦæĬĢæľ¯": 7809,
      "æĢªçī©": 7810,
      "ä¸ĵæ³¨": 7811,
      "éĢ»": 7812,
      "æĹĭè½¬": 7813,
      "ä¸įçĶ±èĩªä¸»": 7814,
      "æł¸å¿ĥ": 7815,
      "è¿ĩåº¦": 7816,
      "æĢ§æł¼": 7817,
      "ä¾¿åĪ©": 7818,
      "ä¸Ģåı£æ°Ķ": 7819,
      "å¾ªçİ¯": 7820,
      "çļĦæĮĩ": 7821,
      "ä½ĵèĤ²": 7822,
      "çĭ¸": 7823,
      "éļıæĦı": 7824,
      "Ġeng": 7825,
      "é¡ŀ": 7826,
      "èĦ¸é¢Ĭ": 7827,
      "çľŁæŃ£çļĦ": 7828,
      "åľ¨éĤ£éĩĮ": 7829,
      "Ġste": 7830,
      "ä¼łæĿ¥çļĦ": 7831,
      "ç»Ĩç»Ĩ": 7832,
      "çļĦåĨħå®¹": 7833,
      "ä½łåı¯": 7834,
      "èº«æĹģ": 7835,
      "ç¯®": 7836,
      "Ġener": 7837,
      "çļĦèº": 7838,
      "Ã©": 7839,
      "è¿ĩäºİ": 7840,
      "æ¡Ĳ": 7841,
      "çļĦèĤīç©´": 7842,
      "Ã¤hr": 7843,
      "çļĦå¥³åŃ©": 7844,
      "èĮĦ": 7845,
      "å£«åħµ": 7846,
      "éĿ©åĳ½": 7847,
      "âĸł": 7848,
      "æĪĲç»©": 7849,
      "è¯Ńæ³ķ": 7850,
      "æľĢæĸ°": 7851,
      "ype": 7852,
      "inc": 7853,
      "Ġalle": 7854,
      "æĥħæ¬²": 7855,
      "lt": 7856,
      "Ġtyp": 7857,
      "éĿłåľ¨": 7858,
      "çĻ¾å®¶ä¹Ĳ": 7859,
      "work": 7860,
      "å°ıæīĭ": 7861,
      "åĪĨå¸ĥ": 7862,
      "å¿ĥå¤´": 7863,
      "itive": 7864,
      "\",": 7865,
      "å¤§æīĭ": 7866,
      "Ġoften": 7867,
      "æĶĢ": 7868,
      "è¬": 7869,
      "èĢį": 7870,
      "ĠBut": 7871,
      "åŃ¦ä¹łåĴĮ": 7872,
      "æľ¬ä¹¦": 7873,
      "å¼ºå¤§çļĦ": 7874,
      "ä»Ĭå¹´": 7875,
      "ç¶ļ": 7876,
      "bl": 7877,
      "Ġwur": 7878,
      "çļĦè§Ħ": 7879,
      "Ġaber": 7880,
      "åħįè´¹": 7881,
      "ä¸Ĭè¡£": 7882,
      "æĳĬ": 7883,
      "Ġredu": 7884,
      "ends": 7885,
      "é¹¿": 7886,
      "ä¼ļåľ¨": 7887,
      "æ¯ħ": 7888,
      "ç©¿è¿ĩ": 7889,
      "æĪĳè®¤ä¸º": 7890,
      "éĤ£å¯¹": 7891,
      "isk": 7892,
      "æĢ§èĥ½": 7893,
      "æĭ¦": 7894,
      "Ġimp": 7895,
      "33": 7896,
      "çļĦå°Ĩ": 7897,
      "ä»ĵ": 7898,
      "æŁĦ": 7899,
      "å¹¶éĿŀ": 7900,
      "çĬ¹å¦Ĥ": 7901,
      "LE": 7902,
      "lear": 7903,
      "åĩĽ": 7904,
      "éĢīé¡¹": 7905,
      "æ²¿çĿĢ": 7906,
      "å¥¹å·²ç»ı": 7907,
      "åį´è¢«": 7908,
      "æħĭ": 7909,
      "åıĤèĢĥ": 7910,
      "æĹ¨": 7911,
      "ĠMe": 7912,
      "ument": 7913,
      "ä¸¤çīĩ": 7914,
      "ä¿Ŀåģ¥": 7915,
      "è¸Ŀ": 7916,
      "ãģªãģĮ": 7917,
      "æĸŃäºĨ": 7918,
      "ç®ĹäºĨ": 7919,
      "è¿ŀè¿ŀ": 7920,
      "è©¦": 7921,
      "Ġ50": 7922,
      "Ġ/>": 7923,
      "ç§įæĹı": 7924,
      "èĨ¨èĥĢ": 7925,
      "æ°§åĮĸ": 7926,
      "ners": 7927,
      "sp": 7928,
      "ĠçļĦ": 7929,
      "å£²": 7930,
      "raph": 7931,
      "å®£å¸ĥ": 7932,
      "åĶ¾æ¶²": 7933,
      "Ġrun": 7934,
      "ĠSc": 7935,
      "æĭħä»»": 7936,
      "å¤ļæł·": 7937,
      "ãģĳãĤĭ": 7938,
      "Ġsecond": 7939,
      "æĤ¨éľĢè¦ģ": 7940,
      "Ġconf": 7941,
      "ãģĹãģı": 7942,
      "åıĳçİ°èĩªå·±": 7943,
      "éĺĶ": 7944,
      "å¹³æĸ¹": 7945,
      "è·Łä½ł": 7946,
      "ä¾£": 7947,
      "æĪĳçļĦæīĭ": 7948,
      "åıĪè¦ģ": 7949,
      "è¯´ä¸įå®ļ": 7950,
      "å®¤åĨħ": 7951,
      "åĬ©æīĭ": 7952,
      "åĬ¨èµ·æĿ¥": 7953,
      "èī°": 7954,
      "ĠFl": 7955,
      "å¤±æľĽ": 7956,
      "éĦ": 7957,
      "æĪĳåıªæĺ¯": 7958,
      "äºĨä¸Ģåı¥": 7959,
      "åĭĩæ°Ķ": 7960,
      "å·®å¼Ĥ": 7961,
      "åĴ¨": 7962,
      "ä¸įéľĢè¦ģ": 7963,
      "æŃĩ": 7964,
      "ä½ıæĪĳ": 7965,
      "çļĦèº«èº¯": 7966,
      "ĠDas": 7967,
      "Ġwithout": 7968,
      "åı£åĳ³": 7969,
      "æŃ£éĿ¢": 7970,
      "çķ¶çĦ¶": 7971,
      "çµĲå©ļ": 7972,
      "æĶ¾åĪ°": 7973,
      "æ¨¡æĭŁ": 7974,
      "ĠWhich": 7975,
      "Ġindivid": 7976,
      "ç¤ºæĦı": 7977,
      "çļĦèĬĤ": 7978,
      "ï¼ĮâĢĿ": 7979,
      "æĹ¶ä¸įæĹ¶": 7980,
      "æĭīå¼Ģ": 7981,
      "æķĻå¸Ī": 7982,
      "æ²¡äºº": 7983,
      "ĠUS": 7984,
      "ä¸įå¤§": 7985,
      "Ġhist": 7986,
      "çĭ®": 7987,
      "å¤§å¤ļæķ°": 7988,
      "å§Ķåĳĺä¼ļ": 7989,
      "å¤©ä¸ĭ": 7990,
      "è¡ĮæĶ¿": 7991,
      "æīĵçĶµè¯Ŀ": 7992,
      "è§Ĩçº¿": 7993,
      "ä¸¤è¾¹": 7994,
      "èĭ±éĽĦ": 7995,
      "ccess": 7996,
      "ä»Ģä¹Īäºĭ": 7997,
      "ãĤ·ãĥ§ãĥ³": 7998,
      "ä»ĸå°±": 7999,
      "å¿ĥèĦı": 8000,
      "æĢĢåŃķ": 8001,
      "è´º": 8002,
      "çŁ®": 8003,
      "åĸ·åĩº": 8004,
      "æĪĲçļĦ": 8005,
      "çĭŃ": 8006,
      "æ¢¦æĥ³": 8007,
      "ç»¯": 8008,
      "çļĦç²Ĺ": 8009,
      "å´ĩ": 8010,
      "æ§½": 8011,
      "æĲĵæıī": 8012,
      "vironment": 8013,
      "å²³æ¯į": 8014,
      "ä¸Ľ": 8015,
      "ploy": 8016,
      "åĿıäºĨ": 8017,
      "ining": 8018,
      "hes": 8019,
      "éģĶ": 8020,
      "æĭįäºĨ": 8021,
      "åħ·ä½ĵçļĦ": 8022,
      "ç¬ĳäºĨç¬ĳ": 8023,
      "å°ĳå¥³çļĦ": 8024,
      "ç²Ĺå£®": 8025,
      "åıĪæĺ¯ä¸Ģ": 8026,
      "Ġgiven": 8027,
      "çļĦèĥ¯": 8028,
      "Ġproduct": 8029,
      "ç½²": 8030,
      "ability": 8031,
      "Ġvalue": 8032,
      "times": 8033,
      "ç±»çļĦ": 8034,
      "è¤ª": 8035,
      "Ġdeterm": 8036,
      "èŁ": 8037,
      "çľĭæĪĳ": 8038,
      "Ġfr": 8039,
      "æĲº": 8040,
      "æĵħ": 8041,
      "Ã¤r": 8042,
      "å®ĹæķĻ": 8043,
      "AR": 8044,
      "view": 8045,
      "åĨĻä½ľ": 8046,
      "è¯¡": 8047,
      "çļĦç©´": 8048,
      "æī®æ¼Ķ": 8049,
      "ç»ĻäºĪ": 8050,
      "çĪ±ä½ł": 8051,
      "æ½Ķ": 8052,
      "ãĤĪãģĨãģª": 8053,
      "ways": 8054,
      "çĨ±": 8055,
      "çļĦè§Ĩçº¿": 8056,
      "çļĦçĹĽèĭ¦": 8057,
      "æ¸Ĭ": 8058,
      "çĳ°": 8059,
      "åı¯éĿł": 8060,
      "åıĮæĸ¹": 8061,
      "é£ŀè¡Į": 8062,
      "åįĳ": 8063,
      "è§īå¾Ĺèĩªå·±": 8064,
      "ethod": 8065,
      "æĢİéº¼": 8066,
      "å¥¶å¥¶": 8067,
      "omen": 8068,
      "æ¸ħæ´Ĺ": 8069,
      "æĸ©": 8070,
      "å¤ļä¹Ī": 8071,
      "åĹ¤": 8072,
      "ç¤¾åĮº": 8073,
      "Ġsug": 8074,
      "ware": 8075,
      "äººå£«": 8076,
      "éĥ¨çļĦ": 8077,
      "æ¼ĵ": 8078,
      "illion": 8079,
      "äºĴåĬ¨": 8080,
      "ãģ¶": 8081,
      "çļĦåİŁ": 8082,
      "ç¾ŀæ¶©": 8083,
      "Ġsum": 8084,
      "æĸ¯åį¡": 8085,
      "è¿Ļå¯¹": 8086,
      "å¤©å¤©": 8087,
      "åĲĳçĿĢ": 8088,
      "åľĨæ¶¦": 8089,
      "çļĦæ°Ķæģ¯": 8090,
      "èµĲ": 8091,
      "çĽ¸ä¼¼": 8092,
      "æĻ¯çĤ¹": 8093,
      "æĬ¼": 8094,
      "Ġfunction": 8095,
      "Ġsomething": 8096,
      "å¥¹ä¸Ģ": 8097,
      "èĤīç©´": 8098,
      "é«ĺä¸Ń": 8099,
      "æīĵæī®": 8100,
      "ä»²": 8101,
      "ä¹Łå¥½": 8102,
      "ãĤĴè¦ĭ": 8103,
      "ocus": 8104,
      "å®£ä¼ł": 8105,
      "æķĮäºº": 8106,
      "å¾Įä¾Ĩ": 8107,
      "çī¹åĪ«æĺ¯": 8108,
      "çļĦè½»": 8109,
      "48": 8110,
      "ä½İä¸ĭå¤´": 8111,
      "ibt": 8112,
      "äºĨèĩªå·±": 8113,
      "ãĥİ": 8114,
      "ä½łåİ»": 8115,
      "Ġreally": 8116,
      "é£ŁæĿĲ": 8117,
      "çļĦèĭ±": 8118,
      "æľīä¸ĢäºĽ": 8119,
      "åĲĥå®Į": 8120,
      "Ġvis": 8121,
      "çļĦèĦ¸èĽĭ": 8122,
      "ä»ĻåŃĲ": 8123,
      "ä»İå¥¹": 8124,
      "çĮĽçĥĪ": 8125,
      "è¶ķ": 8126,
      "èıĮ": 8127,
      "äºĴèģĶç½ĳ": 8128,
      "è¿ģ": 8129,
      "åı£æĦŁ": 8130,
      "ãģĽãģ¦": 8131,
      "æŁ¯": 8132,
      "åŃ¦å®¶": 8133,
      "ole": 8134,
      "éļĽ": 8135,
      "ina": 8136,
      "åĩºçĶŁ": 8137,
      "æľĢéĩįè¦ģ": 8138,
      "è§ģéĿ¢": 8139,
      "åıįå¯¹": 8140,
      "å¥Ĺå¼Ħ": 8141,
      "è§Ħå®ļ": 8142,
      "èĥĸåŃĲ": 8143,
      "è¶Ĭåıĳ": 8144,
      "ĠÂłĠÂł": 8145,
      "åĪ¹": 8146,
      "äºĨä¸Ģç§į": 8147,
      "æħİ": 8148,
      "ä¸ĢèĪ¬çļĦ": 8149,
      "åľ°ä½į": 8150,
      "å»ī": 8151,
      "Ġexp": 8152,
      "èĻļæĭŁ": 8153,
      "ĠX": 8154,
      "å¤©ç©º": 8155,
      "çļĦç¾ŀ": 8156,
      "åĴ¨è¯¢": 8157,
      "ä¸įæĪĲ": 8158,
      "éĩįéĩį": 8159,
      "æľºæ¢°": 8160,
      "åħ±æľī": 8161,
      "ç²Ĺå¤§": 8162,
      "è´Ńçī©": 8163,
      "æŃ¡": 8164,
      "ister": 8165,
      "ä¹Łä¸įèĥ½": 8166,
      "éĢĻéº¼": 8167,
      "æı¡çĿĢ": 8168,
      "osten": 8169,
      "åı¦ä¸Ģæĸ¹éĿ¢": 8170,
      "æĢ§äº¤": 8171,
      "ared": 8172,
      "ãĥĩãĤ£": 8173,
      "min": 8174,
      "éĥ½å·²ç»ı": 8175,
      "çļĦä¸Ģç§į": 8176,
      "ains": 8177,
      "ä½łçİ°åľ¨": 8178,
      "Ġsent": 8179,
      "è®¿éĹ®": 8180,
      "IN": 8181,
      "åıªä¼ļ": 8182,
      "èĤ©èĨĢ": 8183,
      "æīĭä¸ŃçļĦ": 8184,
      "è½¬å¤´": 8185,
      "çļĦéĹ¨": 8186,
      "Ġchange": 8187,
      "'ve": 8188,
      "æĶ¾åħ¥": 8189,
      "iger": 8190,
      "åĹħ": 8191,
      "55": 8192,
      "å¥½åĲĹ": 8193,
      "ä¸Ģæ¨£": 8194,
      "Ġeas": 8195,
      "~~~": 8196,
      "æĺ¯è¿Ļæł·": 8197,
      "èĢĮåıĪ": 8198,
      "èª°": 8199,
      "Ġthings": 8200,
      "æĸĳ": 8201,
      "Ġhere": 8202,
      "Ġbeh": 8203,
      "è®¾æĸ½": 8204,
      "åĬŁå¤«": 8205,
      "åı¯ä»¥å¸®åĬ©ä½ł": 8206,
      "è¦ģåİ»": 8207,
      "æĢ»çļĦ": 8208,
      "æĬĢæľ¯çļĦ": 8209,
      "åĳķ": 8210,
      "å©ª": 8211,
      "çİĽä¸½": 8212,
      "less": 8213,
      "å£¶": 8214,
      "Ġtop": 8215,
      "æ°´çļĦ": 8216,
      "åįģè¶³": 8217,
      "åĲĵå¾Ĺ": 8218,
      "ä¸ĢåįĬ": 8219,
      "åİĭæĬĳ": 8220,
      "çĶŁçĲĨ": 8221,
      "çļĦåľ¨": 8222,
      "å¤ľæĻļ": 8223,
      "å¥½å¤Ħ": 8224,
      "èĤª": 8225,
      "å¦ĩäºº": 8226,
      "èºģ": 8227,
      "çļĦè§Ĵèī²": 8228,
      "Ġweek": 8229,
      "ãģ§ãģĻãģĮ": 8230,
      "å°ºå¯¸": 8231,
      "ï¼³": 8232,
      "vern": 8233,
      "åĵ¼åĵ¼": 8234,
      "Ġenergy": 8235,
      "åıĹæ¬¢è¿İ": 8236,
      "æĢİä¹ĪåĽŀäºĭ": 8237,
      "æĻĤåĢĻ": 8238,
      "è¦ģä¸į": 8239,
      "åıĳå¸ĥ": 8240,
      "çļĦéĤ£ä¸ª": 8241,
      "ä¸ŃåįĪ": 8242,
      "èĦļæŃ¥": 8243,
      "çļĦç½ĳ": 8244,
      "æķ¸": 8245,
      "æ»¡æ»¡": 8246,
      "æ¿ĢçĥĪçļĦ": 8247,
      "æħ¾": 8248,
      "ertain": 8249,
      "çľĭåĩº": 8250,
      "éĴĵ": 8251,
      "´ä½ĵ": 8252,
      "æľīç§į": 8253,
      "å¼ĢæĿ¥": 8254,
      "åĮĸä¸º": 8255,
      "æľīæĹ¶åĢĻ": 8256,
      "åĪ°æĹ¶åĢĻ": 8257,
      "åĲ¬åĪ°äºĨ": 8258,
      "å°ĸåı«": 8259,
      "æķĪçİĩåĴĮ": 8260,
      "äºĽè®¸": 8261,
      "åĨįæĿ¥": 8262,
      "ĠDer": 8263,
      "èĺ": 8264,
      "gr": 8265,
      "Ġ||": 8266,
      "èĳĽ": 8267,
      "èĽĭç³ķ": 8268,
      "æŃ£ç¡®çļĦ": 8269,
      "è¿Ļä¸ĭ": 8270,
      "èĥ½ä¸įèĥ½": 8271,
      "åŁ¹åħ»": 8272,
      "ãĤ´": 8273,
      "æ²¡äºĨ": 8274,
      "Ġpot": 8275,
      "é»ĳä¸Ŀ": 8276,
      "Ġstat": 8277,
      "Ġplace": 8278,
      "æĬ¥éģĵ": 8279,
      "çļĦéĺ´åĶĩ": 8280,
      "oad": 8281,
      "çī¹èī²": 8282,
      "\\)": 8283,
      "åıĪè¢«": 8284,
      "æ¶ĪèĢĹ": 8285,
      "éĤ£æĪĳ": 8286,
      "èĤº": 8287,
      "ä¸ĭæ¬¡": 8288,
      "æīĵçĿĢ": 8289,
      "inder": 8290,
      "çĨŁç»ĥ": 8291,
      "Ġpract": 8292,
      "çĶ·æľĭåıĭ": 8293,
      "åĩłåĪĨ": 8294,
      "Ġanal": 8295,
      "Ã¼n": 8296,
      "éĹŃçĿĢ": 8297,
      "æľĢåĪĿ": 8298,
      "å±ķçİ°": 8299,
      "ours": 8300,
      "ä¸įè¯´": 8301,
      "æ»¿": 8302,
      "é¦¬": 8303,
      "æ®·": 8304,
      "åĤĻ": 8305,
      "ä¿®æĶ¹": 8306,
      "Ġjed": 8307,
      "Ġplan": 8308,
      "èººåľ¨åºĬä¸Ĭ": 8309,
      "Ġfood": 8310,
      "è¿ĽæĶ»": 8311,
      "ï¼īï¼ļ": 8312,
      "æľĪçļĦ": 8313,
      "çļĦçĸ¼çĹĽ": 8314,
      "ä¼ļåĦ¿": 8315,
      "ç´§æİ¥çĿĢ": 8316,
      "åĲ«ä½ı": 8317,
      "ä½łä¸įæĺ¯": 8318,
      "éĢĬ": 8319,
      "çĥģ": 8320,
      "ĠEuro": 8321,
      "ç¿»è¯ĳæĪĲ": 8322,
      "bar": 8323,
      "ä»ĸè¯´": 8324,
      "çľĭçĿĢå¥¹": 8325,
      "åŃĺåĤ¨": 8326,
      "éĢıäºĨ": 8327,
      "ĠNe": 8328,
      "Ġdu": 8329,
      "éĴ¥åĮĻ": 8330,
      "ä¸įæŃ¢": 8331,
      "ield": 8332,
      "æĸĮ": 8333,
      "å°½æĥħ": 8334,
      "ãĢĭãĢĤ": 8335,
      "ãģ®ãģĬ": 8336,
      "Ġpossible": 8337,
      "()": 8338,
      "è´«": 8339,
      "æĶ¯ä»ĺ": 8340,
      "åĿĩåĮĢ": 8341,
      "åĿł": 8342,
      "å°¿éģĵ": 8343,
      "ãģµ": 8344,
      "åľ¨æŃ¤": 8345,
      "å¥½ä¸įå®¹æĺĵ": 8346,
      "Ġdep": 8347,
      "ä½łè®¤ä¸º": 8348,
      "è¿Ļä»½": 8349,
      "ä½łéľĢè¦ģ": 8350,
      "æĪĲåĪĨ": 8351,
      "åĹĶ": 8352,
      "ãģİ": 8353,
      "çŃīé¢ĨåŁŁ": 8354,
      "Ġå°Ĩ": 8355,
      "Ġcal": 8356,
      "Ġlot": 8357,
      "èĥĮä¸Ĭ": 8358,
      "Ġmean": 8359,
      "Ġlearning": 8360,
      "éĤ£åıĮ": 8361,
      "ãģªãĤĵ": 8362,
      "çĽ¸åħ³çļĦ": 8363,
      "åĨľä¸ļ": 8364,
      "çĶ¨èĪĮå¤´": 8365,
      "å·´æİĮ": 8366,
      "èĳĹåĲįçļĦ": 8367,
      "é¹°": 8368,
      "Ġprev": 8369,
      "çļĦå¨ĩèº¯": 8370,
      "aff": 8371,
      "äºĨä½ł": 8372,
      "æīŃæĽ²": 8373,
      "ãģ«ãģ¤ãģĦãģ¦": 8374,
      "ĸé¢Ī": 8375,
      "æĿ¾å¼Ģ": 8376,
      "ä¸įä¸Ģæł·": 8377,
      "æł¡éķ¿": 8378,
      "çŃīæĪĳ": 8379,
      "é»ĳäºº": 8380,
      "ä¸ºæŃ¢": 8381,
      "å§¿æĢģ": 8382,
      "çļĦåĲĹ": 8383,
      "roÃŁ": 8384,
      "äºµ": 8385,
      "å¤§å°ıå§Ĳ": 8386,
      "å¥¹èĢģéĹĨ": 8387,
      "è¡°": 8388,
      "An": 8389,
      "çļĦçİ¯å¢ĥ": 8390,
      "Ġsoll": 8391,
      "imm": 8392,
      "èĢĥè¯ķ": 8393,
      "ï½ı": 8394,
      "ior": 8395,
      "åľ¨å¤ĸéĿ¢": 8396,
      "eren": 8397,
      "ç¼ķ": 8398,
      "åıĹä¼¤": 8399,
      "éĹ¨å¤ĸ": 8400,
      "ç«ĭé©¬": 8401,
      "èĢĮæĪĳ": 8402,
      "ĠThere": 8403,
      "aten": 8404,
      "èĸĽ": 8405,
      "ä¸Ģéĺµéĺµ": 8406,
      "çļĦå®īåħ¨": 8407,
      "è¿ĻèĪ¬": 8408,
      "ä¼ª": 8409,
      "çĲī": 8410,
      "éľĩåĬ¨": 8411,
      "è¿ĺçľŁ": 8412,
      "âĨĴ": 8413,
      "ä¸Ģå¤´": 8414,
      "èµļ": 8415,
      "Ġfil": 8416,
      "å¤ļæ¬¡": 8417,
      "å®īå¿ĥ": 8418,
      "é²ľè¡Ģ": 8419,
      "åľ°åľ¨": 8420,
      "ä¹ĭæĹ¶": 8421,
      "å¼ºçļĦ": 8422,
      "å¤ļå¹´": 8423,
      "èħº": 8424,
      "ä½¿åħ¶": 8425,
      "äºĨä¸ĢçĤ¹": 8426,
      "ç»½": 8427,
      "æīĵéĩı": 8428,
      "åĳľåĳľåĳľ": 8429,
      "å¤ıåŃ£": 8430,
      "ç¨įç¨į": 8431,
      "å·¡": 8432,
      "éĻ°": 8433,
      "åºķä¸ĭ": 8434,
      "æĪĳå¦Ī": 8435,
      "è±¹": 8436,
      "è¿Ļè¯Ŀ": 8437,
      "ä»ĸäºº": 8438,
      "æĭĺ": 8439,
      "ãĤĭãģ¨": 8440,
      "çĶ¨åĬĽä¸Ģ": 8441,
      "è¿İåĲĪ": 8442,
      "ä¸įåı¯ä»¥": 8443,
      "æľĢå¤ļ": 8444,
      "æıĲåīį": 8445,
      "ĠHer": 8446,
      "è§ĤçĤ¹": 8447,
      "è¯´è¿ĩ": 8448,
      "åľ¨ä½ł": 8449,
      "çļĦçķ": 8450,
      "Ġdirect": 8451,
      "æĢ§åĪ«": 8452,
      "è°ħ": 8453,
      "Ġ14": 8454,
      "2021": 8455,
      "è®°èĢħ": 8456,
      "ãĢĭï¼Ī": 8457,
      "å®Ŀå®Ŀ": 8458,
      "åºĶçĶ¨äºİ": 8459,
      "å¿µå¤´": 8460,
      "Ġold": 8461,
      "æ¬¡æķ°": 8462,
      "çĹīæĮĽ": 8463,
      "æĳĦå½±": 8464,
      "ç¾İå¥½": 8465,
      "æĦŁè§īèĩªå·±": 8466,
      "Ã¶g": 8467,
      "è«ĭ": 8468,
      "åµ": 8469,
      "åģļå¥½": 8470,
      "æİ¢è®¨": 8471,
      "åĪ©çĽĬ": 8472,
      "è¿Ļä¸įæĺ¯": 8473,
      "Ġchang": 8474,
      "ĠAll": 8475,
      "Ġperform": 8476,
      "ä¸įèĩªè§ī": 8477,
      "éļıä¹ĭ": 8478,
      "ç§ĳåŃ¦å®¶": 8479,
      "å¥³æľĭåıĭ": 8480,
      "éĿ¢åĮħ": 8481,
      "ãģĭãģª": 8482,
      "åį°åº¦": 8483,
      "çļĦæ¬²æľĽ": 8484,
      "ä¸¤é¢Ĺ": 8485,
      "éķ¿åıĳ": 8486,
      "çĪ±æ¶²": 8487,
      "ems": 8488,
      "å¥¶å¤´": 8489,
      "'ll": 8490,
      "æĥ³äºĨ": 8491,
      "ä¸ºä½ł": 8492,
      "åºĬåįķ": 8493,
      "çĶŁåŃĺ": 8494,
      "........": 8495,
      "éĹľä¿Ĥ": 8496,
      "ãģªãģĮãĤī": 8497,
      "äº²å¯Ĩ": 8498,
      "197": 8499,
      "ç»¼åĲĪ": 8500,
      "å°ıå§¨": 8501,
      "ished": 8502,
      "åĩłå¹´": 8503,
      "å®Ľå¦Ĥ": 8504,
      "éĽĢ": 8505,
      "stit": 8506,
      "æĦĪåıĳ": 8507,
      "ä¸įæĩĤ": 8508,
      "åĲİæĤĶ": 8509,
      "çĲĨæĻº": 8510,
      "æ¡Ĩ": 8511,
      "åıĸãĤĬ": 8512,
      "åĳĬè¯īä½ł": 8513,
      "Ĥèºı": 8514,
      "Ġhome": 8515,
      "èİ«åĲį": 8516,
      "ãĤįãģĨ": 8517,
      "ä¸įå¼Ģ": 8518,
      "äººäºĨ": 8519,
      "è¿Ļä¹Ł": 8520,
      "åĦª": 8521,
      "è¿Ĳè¡Į": 8522,
      "å¥³ä»Ĩ": 8523,
      "ä¸ĭè½½": 8524,
      "åħ§è¤²": 8525,
      "å¥½ä¸įå¥½": 8526,
      "é¢ł": 8527,
      "ä½Ĩåį´": 8528,
      "èĽĭçĻ½": 8529,
      "æĳĦåħ¥": 8530,
      "å®¶ä¸Ń": 8531,
      "æ»¥": 8532,
      "ä¸»æĮģ": 8533,
      "èĦ±æİī": 8534,
      "ĠVor": 8535,
      "æĺ¯éĿŀå¸¸": 8536,
      "str": 8537,
      "Ġreport": 8538,
      "éĸĭå§ĭ": 8539,
      "é¢Ŀå¤´": 8540,
      "Ġbusiness": 8541,
      "å®Įåħ¨æ²¡æľī": 8542,
      "çļĦèį¯": 8543,
      "èªĵ": 8544,
      "è¯±äººçļĦ": 8545,
      "ç¼ºä¹ı": 8546,
      "Ġsing": 8547,
      "åĬ«": 8548,
      "åħĪæĺ¯": 8549,
      "Ġimpro": 8550,
      "èº«åīį": 8551,
      "å½ĵå¹´": 8552,
      "ç´§èĩ´": 8553,
      "é©¬çľ¼": 8554,
      "çļĦæĬĬ": 8555,
      "ãĢģâĢľ": 8556,
      "å¿įçĿĢ": 8557,
      "å®¿èĪį": 8558,
      "æ¾³éĹ¨": 8559,
      "You": 8560,
      "lease": 8561,
      "åģļåĪ°": 8562,
      "åıįåºĶè¿ĩæĿ¥": 8563,
      "åĴļ": 8564,
      "åľ¨è¿Ļç§į": 8565,
      "Ġnat": 8566,
      "å®ŀæĸ½": 8567,
      "ĠInd": 8568,
      "åıĺéĩı": 8569,
      "éĨĭ": 8570,
      "çļĦè·Ŀ": 8571,
      "å°ıé¾Ļ": 8572,
      "éĤ£ä½į": 8573,
      "ç«Ļèµ·èº«": 8574,
      "Ġ\\)": 8575,
      "é¢ĳçİĩ": 8576,
      "å¦¾": 8577,
      "ä¸ĢåĲĮ": 8578,
      "æĥ³çļĦ": 8579,
      "é«ĺåº¦": 8580,
      "ĠMit": 8581,
      "Ġpublic": 8582,
      "äº¤æį¢": 8583,
      "çİ©çļĦ": 8584,
      "çĹħæ¯Ĵ": 8585,
      "ä»İæĿ¥æ²¡æľī": 8586,
      "ĠCom": 8587,
      "Ġshow": 8588,
      "çİ«çĳ°": 8589,
      "cing": 8590,
      "åĽ½åĨħ": 8591,
      "åįģå¹´": 8592,
      "è·Łå¥¹": 8593,
      "Ġlangu": 8594,
      "è¿ĩç¥ŀ": 8595,
      "åīįæĸ¹": 8596,
      "Ġincluding": 8597,
      "å°±å¥½äºĨ": 8598,
      "Ġmet": 8599,
      "ately": 8600,
      "äººæķ°": 8601,
      "è¿·ç¦»": 8602,
      "ĠOr": 8603,
      "Ġgovern": 8604,
      "åĲĳäºĨ": 8605,
      "ä¸įåĥı": 8606,
      "åĪ°å¤Ħ": 8607,
      "ids": 8608,
      "æł¼å¤ĸ": 8609,
      "æķ£åıĳçĿĢ": 8610,
      "çļĦæ¶²ä½ĵ": 8611,
      "è¿Ļä¹Łæĺ¯": 8612,
      "åıªåī©ä¸ĭ": 8613,
      "Ġmult": 8614,
      "äº²èĩª": 8615,
      "èĢĮæĿ¥": 8616,
      "åħĭæĸ¯": 8617,
      "å¾·åĽ½": 8618,
      "çļĦä»ĸ": 8619,
      "æŁı": 8620,
      "Ġlast": 8621,
      "ling": 8622,
      "å°¸ä½ĵ": 8623,
      "åįľ": 8624,
      "çļĦç¦": 8625,
      "çĮĽçĥĪçļĦ": 8626,
      "ä¸½ä¸Ŀ": 8627,
      "éŀĭåŃĲ": 8628,
      "å¢Ļå£ģ": 8629,
      "co": 8630,
      "Ġ#": 8631,
      "äºĨå¾Īå¤ļ": 8632,
      "æ²¡åħ³ç³»": 8633,
      "æĢ§çĪ±": 8634,
      "æľĢåĲİçļĦ": 8635,
      "çļĦæĸ¹åĲĳ": 8636,
      "åŃ¦èĢħ": 8637,
      "éĥ¡": 8638,
      "æŀģåħ¶": 8639,
      "è§£åĨ³éĹ®é¢ĺ": 8640,
      "æīĢéľĢ": 8641,
      "æĹº": 8642,
      "çļĦçĻ": 8643,
      "ãģ«ãĤĪ": 8644,
      "å½±çīĩ": 8645,
      "ç¢Į": 8646,
      "rect": 8647,
      "åıįå¤į": 8648,
      "åı«åģļ": 8649,
      "è´ªå©ª": 8650,
      "ç¾İå¥½çļĦ": 8651,
      "ä¼ĺéĽħ": 8652,
      "å·§åħĭ": 8653,
      "Ġelect": 8654,
      "éĵľ": 8655,
      "å¤§å®¶éĥ½": 8656,
      "by": 8657,
      "å¤ªç©º": 8658,
      "æ£Ģæµĭ": 8659,
      "åĩºåı£": 8660,
      "å£°åĵį": 8661,
      "å¹³çŃī": 8662,
      "ä¸ŃæľĢ": 8663,
      "çĶŁæĹ¥": 8664,
      "Ġpost": 8665,
      "è¶³ä»¥": 8666,
      "å±ħæ°ĳ": 8667,
      "çļĦèĪĶ": 8668,
      "å²Ĥ": 8669,
      "çĽ¸åıį": 8670,
      "æķ´æķ°": 8671,
      "Ġ25": 8672,
      "enef": 8673,
      "çļĦå¹´": 8674,
      "è¿Ļåľº": 8675,
      "Ġgoing": 8676,
      "è®Ĭ": 8677,
      "è¿ĺéľĢè¦ģ": 8678,
      "äºĨä¸Ģæ¬¡": 8679,
      "è¯·æ±Ĥ": 8680,
      "éĤĦæľī": 8681,
      "åĴĮæĸĩåĮĸ": 8682,
      "æĹ¶åħī": 8683,
      "å°±å¼Ģå§ĭ": 8684,
      "Ġask": 8685,
      "æ²īæµ¸": 8686,
      "åĹĵ": 8687,
      "Ġtoo": 8688,
      "åįĥä¸ĩ": 8689,
      "Ġbo": 8690,
      "yn": 8691,
      "ä¿ĿéĻ©": 8692,
      "å¥¹çļĦæīĭ": 8693,
      "æĻĥåĬ¨": 8694,
      "ization": 8695,
      "åŃĿ": 8696,
      "**:": 8697,
      "AP": 8698,
      "éĹº": 8699,
      "å¤§èĥĨ": 8700,
      "ç»Ĩèħ»": 8701,
      "èİīäºļ": 8702,
      "æĦŁæŁĵ": 8703,
      "ä¿ĿåŃĺ": 8704,
      "è¿Ľåħ¥äºĨ": 8705,
      "æĺ¯ä»ĸ": 8706,
      "ç»ĵå®ŀ": 8707,
      "åī§çĥĪçļĦ": 8708,
      "çļĦè§¦æĦŁ": 8709,
      "å¤§åŀĭ": 8710,
      "éĢ¢": 8711,
      "é£ŁæĮĩ": 8712,
      "æĪĳä¹Łå¾Ī": 8713,
      "åİ»æī¾": 8714,
      "æ¼Ķåĳĺ": 8715,
      "è¼ĥ": 8716,
      "çĶŁæĢģç³»ç»Ł": 8717,
      "çĶµæµģ": 8718,
      "çļĦè·Ŀç¦»": 8719,
      "åĩºçīĪ": 8720,
      "ä¸¤ä¾§": 8721,
      "ä¹¦ç±į": 8722,
      "éĤ£å¼ł": 8723,
      "å¤©ä½¿": 8724,
      "çķ°": 8725,
      "èĳ¡èĲĦ": 8726,
      "ç¨ļ": 8727,
      "Ġ11": 8728,
      "åĬ¨åĬĽ": 8729,
      "196": 8730,
      "ï¼Ń": 8731,
      "Ġcap": 8732,
      "ĠAuf": 8733,
      "Ġcho": 8734,
      "IT": 8735,
      "å¦¥": 8736,
      "agen": 8737,
      "æµĵéĥģ": 8738,
      "ĠCon": 8739,
      "çĮĽçĦ¶": 8740,
      "AT": 8741,
      "å¤§åıĶ": 8742,
      "åĨįçĶŁ": 8743,
      "è§Ĵåº¦": 8744,
      "éĹ¯": 8745,
      "æķ°æį®åĪĨæŀĲ": 8746,
      "ä½łæľī": 8747,
      "Ġmov": 8748,
      "Ġhim": 8749,
      "çļĦè±": 8750,
      "å©·å©·": 8751,
      "ĠAm": 8752,
      "çļĦçĻ½èī²": 8753,
      "åķıé¡Į": 8754,
      "æĹłèģĬ": 8755,
      "èĪ°éķ¿": 8756,
      "fahr": 8757,
      "æĪĲå°±": 8758,
      "çľĭäºĨä¸Ģçľ¼": 8759,
      "è¯Ŀè¯´": 8760,
      "ott": 8761,
      "æĢ»çļĦæĿ¥è¯´": 8762,
      "zeit": 8763,
      "éķ¿åº¦": 8764,
      "Ġpercent": 8765,
      "èĪŁ": 8766,
      "æ²¡æľīäºº": 8767,
      "æĺ¯ä¸Ģä½į": 8768,
      "èĳĹåĲį": 8769,
      "ON": 8770,
      "æ·«æ¶²": 8771,
      "æĹłè®ºæĺ¯": 8772,
      "If": 8773,
      "å©¶": 8774,
      "åıĤæķ°": 8775,
      "è¯ŀ": 8776,
      "ï¼ĺ": 8777,
      "Ġeconom": 8778,
      "Ġstep": 8779,
      "ulation": 8780,
      "æĶ¹éĢł": 8781,
      "ĠRes": 8782,
      "ec": 8783,
      "å¿ĥæĢĿ": 8784,
      "ãģŁãģ¡": 8785,
      "Ġteam": 8786,
      "Ġopt": 8787,
      "AS": 8788,
      "ipp": 8789,
      "æĪĳéľĢè¦ģ": 8790,
      "åĵĳ": 8791,
      "éļıæľº": 8792,
      "åĬ¨æīĭ": 8793,
      "çĶ¨äºĨ": 8794,
      "åıªå¾Ĺ": 8795,
      "é¸¡é¸¡": 8796,
      "èĨĿçĽĸ": 8797,
      "å¾Īå¤§çļĦ": 8798,
      "ä¼łè¯´": 8799,
      "çļĦç¢": 8800,
      "ç¥¥": 8801,
      "åĺ´ä¸Ĭ": 8802,
      "å®īè£ħ": 8803,
      "æĸ¹éĿ¢çļĦ": 8804,
      "å®µ": 8805,
      "è¿Ļä»¶": 8806,
      "çĽĳæµĭ": 8807,
      "æĿ¥å¾Ĺ": 8808,
      "ense": 8809,
      "Ġmoney": 8810,
      "Ġconc": 8811,
      "inter": 8812,
      "è®¸ä¹ħ": 8813,
      "ards": 8814,
      "ç§Ģåıĳ": 8815,
      "åľ¨éĩĮéĿ¢": 8816,
      "å¯¹å¾ħ": 8817,
      "èħ´": 8818,
      "åĳ¼åĳ¼": 8819,
      "çĶ£": 8820,
      "ç³Ļ": 8821,
      "é©»": 8822,
      "äº§ä¸ļ": 8823,
      "ĠQu": 8824,
      "å¥¸æ·«": 8825,
      "Ġoper": 8826,
      "Ġbre": 8827,
      "ä¼¼ä¹İæĺ¯": 8828,
      "kl": 8829,
      "à¸": 8830,
      "æ²¦": 8831,
      "ï½Į": 8832,
      "çº¦ç¿°": 8833,
      "rue": 8834,
      "æĺ¯åĲĹ": 8835,
      "åĩĦ": 8836,
      "å¿ĥåºķ": 8837,
      "æĸ¹ç¨ĭ": 8838,
      "çĭŀ": 8839,
      "çº¢çĿĢèĦ¸": 8840,
      "æĪĳä¸įæĺ¯": 8841,
      "Ġdi": 8842,
      "çļĦèĪĴ": 8843,
      "æ°ĽåĽ´": 8844,
      "éŃĦ": 8845,
      "éĸī": 8846,
      "åĳ½è¿Ĳ": 8847,
      "âĢĶâĢĶãĢį": 8848,
      "çļĦä¸Ĭ": 8849,
      "å¥¹åıĪ": 8850,
      "æĭĤ": 8851,
      "å®ļäºĨ": 8852,
      "elle": 8853,
      "ĠGr": 8854,
      "Ġcontin": 8855,
      "Ġpay": 8856,
      "é«ĺçº§": 8857,
      "ä½Ĩä¹Ł": 8858,
      "é£İæĻ¯": 8859,
      "iele": 8860,
      "Ġanother": 8861,
      "çļĦèĤĮèĤī": 8862,
      "Ġ,": 8863,
      "ä¸ĭå·´": 8864,
      "åģıåģı": 8865,
      "æĳĩäºĨæĳĩå¤´": 8866,
      "åİ¢": 8867,
      "åºĬè¾¹": 8868,
      "æ¤ħåŃĲä¸Ĭ": 8869,
      "ä¸ĢåĪ»": 8870,
      "æľīéĻĲ": 8871,
      "å°±å¥½åĥı": 8872,
      "å¯¹éĿ¢": 8873,
      "çļĦç»ĵæŀľ": 8874,
      "è¿Ļåıª": 8875,
      "è¦ģä¸įè¦ģ": 8876,
      "éĻ½": 8877,
      "åĽłçĤº": 8878,
      "æľįè£ħ": 8879,
      "å¹³æĹ¥": 8880,
      "åĲĥçļĦ": 8881,
      "Ġdescri": 8882,
      "Ġfocus": 8883,
      "èĦ¯": 8884,
      "å¿įä¸įä½ıäºĨ": 8885,
      "å¥½åķĬ": 8886,
      "æĪĳèĩªå·±": 8887,
      "çł°": 8888,
      "è¾Ľèĭ¦": 8889,
      "//": 8890,
      "è¦ª": 8891,
      "éĢģæĸĻ": 8892,
      "Ġkeep": 8893,
      "åı½": 8894,
      "ãģĭãĤĬ": 8895,
      "æĬĵä½ıäºĨ": 8896,
      "neh": 8897,
      "åıĸä»£": 8898,
      "Ġindividual": 8899,
      "æĽ´æľī": 8900,
      "èĢģå¤§": 8901,
      "Ġref": 8902,
      "atch": 8903,
      "=\"": 8904,
      "ç§½": 8905,
      "çŃīäºİ": 8906,
      "æ²ĥ": 8907,
      "åı¯èĥ½æĢ§": 8908,
      "æ¬§éĺ³": 8909,
      "è¥¯": 8910,
      "32": 8911,
      "åĴ§": 8912,
      "å§ļ": 8913,
      "æ°´ä¸Ń": 8914,
      "ãĤ¯ãĥª": 8915,
      "åįķçº¯": 8916,
      "å¹²èĦĨ": 8917,
      "å·²æĺ¯": 8918,
      "Ġlearn": 8919,
      "ä¸įé¡¾": 8920,
      "heit": 8921,
      "ä¸¾åĬ¨": 8922,
      "çļĦçŃĶæ¡Ī": 8923,
      "è¿ĩåİ»äºĨ": 8924,
      "ä½ĵä¼ļ": 8925,
      "Ġstate": 8926,
      "è´´åľ¨": 8927,
      "å¸¦æľī": 8928,
      "åº§ä½į": 8929,
      "å°ıå·§": 8930,
      "Ġgame": 8931,
      "Ġgroup": 8932,
      "off": 8933,
      "å¤¹ä½ı": 8934,
      "Âł": 8935,
      "ä¹ŀ": 8936,
      "inen": 8937,
      "éłĨ": 8938,
      "å¥½çľĭ": 8939,
      "åħĪåīį": 8940,
      "åįļçī©": 8941,
      "Ġlight": 8942,
      "æĪĳçļĦå°ı": 8943,
      "unden": 8944,
      "åħľ": 8945,
      "æĦŁè¦º": 8946,
      "ently": 8947,
      "Ġcommon": 8948,
      "éĻ£åŃĲ": 8949,
      "Ġbased": 8950,
      "å¼ĢéĹ¨": 8951,
      "æŁĶå«©": 8952,
      "åĨ³å¿ĥ": 8953,
      "ideo": 8954,
      "ãģķãĤĮãģŁ": 8955,
      "æ²¡æľīä»Ģä¹Ī": 8956,
      "çĺ¾": 8957,
      "è°¨": 8958,
      "olle": 8959,
      "ĠPh": 8960,
      "ources": 8961,
      "æ´ģçĻ½": 8962,
      "apt": 8963,
      "195": 8964,
      "èĦ±äºĨ": 8965,
      "ĠÐ": 8966,
      "Ġtry": 8967,
      "çļĦèĻ": 8968,
      "èĢģçĪ·": 8969,
      "IS": 8970,
      "çĿĢä¸Ģä¸ª": 8971,
      "éĹ®æĪĳ": 8972,
      "Ġarea": 8973,
      "Ġbenef": 8974,
      "æĦıå¿Ĺ": 8975,
      "ĠAt": 8976,
      "ateg": 8977,
      "çļĦå·¨": 8978,
      "çļĦæĪ¿éĹ´": 8979,
      "æķ´å¤©": 8980,
      "èĵĦ": 8981,
      "49": 8982,
      "ä¼łéĢĴ": 8983,
      "åĴĲ": 8984,
      "Ġbas": 8985,
      "çŁ¥éģĵèĩªå·±": 8986,
      "ĠFra": 8987,
      "çļĦåĺ´åĶĩ": 8988,
      "è¿Ļä¸ĢçĤ¹": 8989,
      "Ġwithin": 8990,
      "å¤§ç¬ĳ": 8991,
      "åĵģè´¨": 8992,
      "å²ģçļĦ": 8993,
      "åĲ±": 8994,
      "å¿ĥè·³": 8995,
      "ember": 8996,
      "åħħè¡Ģ": 8997,
      "æµªåı«": 8998,
      "éĺ¿å°Ķ": 8999,
      "é¹ħ": 9000,
      "éĢ»è¾ĳ": 9001,
      "è¥¯è¡«": 9002,
      "åĿ¡": 9003,
      "æī¾æĪĳ": 9004,
      "çļĦç¥ŀæĥħ": 9005,
      "æŁ¥çľĭ": 9006,
      "ãĤ²": 9007,
      "æıŃ": 9008,
      "æĪĲä¸Ģ": 9009,
      "çķı": 9010,
      "çłį": 9011,
      "ä¸įåıĬå¾ħ": 9012,
      "Ġrece": 9013,
      "ule": 9014,
      "åĩ¹": 9015,
      "bur": 9016,
      "å¥½ä¼¼": 9017,
      "reffen": 9018,
      "æ½ĩ": 9019,
      "è¿ľè¿ľ": 9020,
      "æ±Ĺæ°´": 9021,
      "çĽĳæİ§": 9022,
      "Ġmonth": 9023,
      "ma": 9024,
      "æ·«ä¹±": 9025,
      "Ġviel": 9026,
      "å®ĺæĸ¹": 9027,
      "æ½ĺ": 9028,
      "æĵ¦æĭŃ": 9029,
      "ES": 9030,
      "Ġdam": 9031,
      "çļĦèĲ¥": 9032,
      "ination": 9033,
      "åĮºåĪ«": 9034,
      "èĶĵ": 9035,
      "è¿Ļä¸ªå°ı": 9036,
      "è¥¿äºļ": 9037,
      "Ġspecific": 9038,
      "åĩºä¸Ģä¸ª": 9039,
      "æľĢä¸º": 9040,
      "ĠPart": 9041,
      "åª³å¦ĩ": 9042,
      "æĺĬ": 9043,
      "ĠFre": 9044,
      "éĤ£åıª": 9045,
      "åīįè¾Ī": 9046,
      "ä¸»æĦı": 9047,
      "Ġorig": 9048,
      "è©²": 9049,
      "åħ¬åĪĨ": 9050,
      "åĹ¯åķĬ": 9051,
      "çµĦ": 9052,
      "çĴ°": 9053,
      "çĿĢæĢ¥": 9054,
      "å£³": 9055,
      "ãģĮãģĤãĤĭ": 9056,
      "åĳĲ": 9057,
      "çĩĥçĥ§": 9058,
      "çļĦæµ·": 9059,
      "onder": 9060,
      "å¼Ģè½¦": 9061,
      "irc": 9062,
      "é¢Ħç®Ĺ": 9063,
      "ãĥĨãĤ£": 9064,
      "æĮ½": 9065,
      "æŀģäºĨ": 9066,
      "æĭ³å¤´": 9067,
      "æĪĳä¹Łæĺ¯": 9068,
      "æĥħåł±": 9069,
      "å¹¶å°Ĩ": 9070,
      "ommen": 9071,
      "ãģ¨ãģ¯": 9072,
      "ç¼łç»ķ": 9073,
      "python": 9074,
      "éĩĮæĸ¯": 9075,
      "åĪ¶åº¦": 9076,
      "verage": 9077,
      "çĦ¶å¾Į": 9078,
      "æĹ¶éĹ´åĴĮ": 9079,
      "åĨĽéĺŁ": 9080,
      "éķľå¤´": 9081,
      "èµĶ": 9082,
      "çºĮ": 9083,
      "ster": 9084,
      "ç£ģ": 9085,
      "ontak": 9086,
      "æĳ©æĵ¦çĿĢ": 9087,
      "è¦ģè¢«": 9088,
      "Ġkey": 9089,
      "çļĦåĲ§": 9090,
      "è¾¾åĪ°äºĨ": 9091,
      "æĳ¸äºĨ": 9092,
      "éļĲéļĲ": 9093,
      "pres": 9094,
      "Ġinvol": 9095,
      "è´¡çĮ®": 9096,
      "æıĲåĪ°": 9097,
      "ĠPr": 9098,
      "æĽ´å¥½åľ°çĲĨè§£": 9099,
      "åģ¿": 9100,
      "åĿĳ": 9101,
      "æµģæ·Į": 9102,
      "å§Ķå±Ī": 9103,
      "çº½çº¦": 9104,
      "æ¢³": 9105,
      "æĬ±èµ·": 9106,
      "ãģĺãĤĥ": 9107,
      "Ġphys": 9108,
      "Ch": 9109,
      "å¤§çīĩ": 9110,
      "éģĵæŃī": 9111,
      "åĩ¯å°Ķ": 9112,
      "çļĦè¾¹": 9113,
      "æķŀ": 9114,
      "aster": 9115,
      "éķ¿å¾Ĺ": 9116,
      "Ġ13": 9117,
      "çĦ¡æ³ķ": 9118,
      "Â°": 9119,
      "åħ¶ä¸ŃçļĦ": 9120,
      "utsch": 9121,
      "å¢ħ": 9122,
      "æ¯įçĮª": 9123,
      "åħ¶å®ĥ": 9124,
      "æ¸©çĥŃ": 9125,
      "å¤¹ç´§": 9126,
      "éļ¾å¾Ĺ": 9127,
      "è¿ĻçĤ¹": 9128,
      "ä¸ºä¸»": 9129,
      "oci": 9130,
      "box": 9131,
      "åĸ»": 9132,
      "åłķ": 9133,
      "åįĹå®«": 9134,
      "Ġmaking": 9135,
      "çĪĨçĤ¸": 9136,
      "èĤĨæĦı": 9137,
      "çļĦåĲįåŃĹ": 9138,
      "çļĦè¥": 9139,
      "çĶ¨åĵģ": 9140,
      "ĠMan": 9141,
      "å¾ĢåĲİ": 9142,
      "Ġcomput": 9143,
      "ä½łåħĪ": 9144,
      "Ġmethod": 9145,
      "Ġrest": 9146,
      "éĹªçĥģ": 9147,
      "è¿ĻæĿ¡": 9148,
      "icro": 9149,
      "çļĦèĤĽéĹ¨": 9150,
      "ä¸Ģé¢Ĺ": 9151,
      "æľīä¸Ģå¤©": 9152,
      "æ¤ħåŃĲ": 9153,
      "çļĦä¸ĭä½ĵ": 9154,
      "åĹ¦": 9155,
      "çł´äºĨ": 9156,
      "Ġaff": 9157,
      "éŁ¦": 9158,
      "åĲ«çĿĢ": 9159,
      "çļĦèī²": 9160,
      "å¸¸è§ģçļĦ": 9161,
      "ä»Ĭå¤©çļĦ": 9162,
      "çļĦä¸Ģéĥ¨åĪĨ": 9163,
      "å¼§": 9164,
      "å¸ĪåĤħ": 9165,
      "è§Ĩä¸º": 9166,
      "æĸĩåĮĸåĴĮ": 9167,
      "ãģĵãģ¨ãĤĴ": 9168,
      "æĪĳçľĭåĪ°": 9169,
      "å¿«çļĦ": 9170,
      "ä¿Ŀéļľ": 9171,
      "åĬ¨å¼¹": 9172,
      "ãģĶãģĸ": 9173,
      "ĠUnter": 9174,
      "æ²¡éĹ®é¢ĺ": 9175,
      "æīĵäºĨ": 9176,
      "éĺ´éĥ¨": 9177,
      "è´ŁéĿ¢": 9178,
      "âĺħ": 9179,
      "æĪĳæĢİä¹Ī": 9180,
      "ä¼ĺæĥł": 9181,
      "Ġcharact": 9182,
      "èĢģäºº": 9183,
      "ä»Ģä¹ĪçļĦ": 9184,
      "å¢ĵ": 9185,
      "èµĦéĩĳ": 9186,
      "Ġenvironment": 9187,
      "æĺĮ": 9188,
      "é§": 9189,
      "ä½Ĩè¿ĺæĺ¯": 9190,
      "çļĦåİĨåı²": 9191,
      "orld": 9192,
      "åİŁå§ĭ": 9193,
      "Ġ17": 9194,
      "ĠStep": 9195,
      "å°±ç®Ĺæĺ¯": 9196,
      "ä½łè§īå¾Ĺ": 9197,
      "çĽ¼": 9198,
      "ä¸¤æīĭ": 9199,
      "è¨±": 9200,
      "æľīåĵªäºĽ": 9201,
      "Ġsit": 9202,
      "é«®": 9203,
      "åģľä¸ĭæĿ¥": 9204,
      "åı°åĮĹ": 9205,
      "å·§åħĭåĬĽ": 9206,
      "å¥¹åĴĮ": 9207,
      "è¯įæ±ĩ": 9208,
      "çİ¯å¢ĥä¿ĿæĬ¤": 9209,
      "çļĦç©ºéĹ´": 9210,
      "ï¼Ŀ": 9211,
      "åĨĽäºĭ": 9212,
      "ything": 9213,
      "åĵ§": 9214,
      "éĤ£å°±æĺ¯": 9215,
      "ãĥ¼ãĤ¯": 9216,
      "èĤīæ£ĴçļĦ": 9217,
      "è¹¦": 9218,
      "ively": 9219,
      "å±Īè¾±": 9220,
      "Ġavail": 9221,
      "37": 9222,
      "åľ¨ä»ĸçļĦ": 9223,
      "å£°éģĵ": 9224,
      "èĩĢèĤī": 9225,
      "Ġ:": 9226,
      "ä¸įæĦ§": 9227,
      "ä¸įçŁ¥ä¸įè§ī": 9228,
      "ä¿¡åı·": 9229,
      "åĳ¨æľ«": 9230,
      "æĥĬåĸľ": 9231,
      "Ġcourse": 9232,
      "å¯Ŀ": 9233,
      "è½¬ç§»": 9234,
      "ä¸įåıĹ": 9235,
      "åıĪæľī": 9236,
      "æľ´": 9237,
      "åľ°æĬĬ": 9238,
      "æĬ½åĬ¨": 9239,
      "Ġleg": 9240,
      "æµĩ": 9241,
      "è²·": 9242,
      "åĤ¬çľł": 9243,
      "oot": 9244,
      "éĲ": 9245,
      "å´©æºĥ": 9246,
      "ä¸įåĸľæ¬¢": 9247,
      "èµ°å»Ĭ": 9248,
      "è¿«ä¸įåıĬå¾ħ": 9249,
      "çļĦåħ³éĶ®": 9250,
      "æĥ«": 9251,
      "åĨ²çªģ": 9252,
      "æĿĥåĪ©": 9253,
      "ä¸ĢæĿ¯": 9254,
      "Ġonline": 9255,
      "éĽªåĦ¿": 9256,
      "ä¸ĭéĻį": 9257,
      "ç¯·": 9258,
      "å¸ĥæĸĻ": 9259,
      "èĴľ": 9260,
      "agement": 9261,
      "ç¬ĳçĿĢè¯´": 9262,
      "ãģ§ãģįãģ¾ãģĻ": 9263,
      "è¿Ļæł¹": 9264,
      "åıĳæĥħ": 9265,
      "éĩįè§Ĩ": 9266,
      "åıĹä¸įäºĨäºĨ": 9267,
      "èĦ¾": 9268,
      "ender": 9269,
      "æĺİçļĦ": 9270,
      "ä¸įä½ıçļĦ": 9271,
      "çļĦèĦ¸åºŀ": 9272,
      "æ³Ĭ": 9273,
      "èĦĤèĤª": 9274,
      "æĺŃ": 9275,
      "allen": 9276,
      "è§¸": 9277,
      "åĵĹ": 9278,
      "èķ¾ä¸Ŀ": 9279,
      "åı¹äºĨåı£æ°Ķ": 9280,
      "æĭīæī¯": 9281,
      "Ġvers": 9282,
      "å·²ç»ıå®Įåħ¨": 9283,
      "ift": 9284,
      "çĭ¬èĩª": 9285,
      "Ġprim": 9286,
      "çĭ¬çī¹çļĦ": 9287,
      "äºŃ": 9288,
      "Ġwenn": 9289,
      "åĲ¬å¾Ĺ": 9290,
      "å·¦èħ¿": 9291,
      "ä¸ĵå®¶": 9292,
      "Ġcreat": 9293,
      "æŀģåº¦": 9294,
      "ç½Ĺæĸ¯": 9295,
      "ç»ĵæĿŁäºĨ": 9296,
      "war": 9297,
      "çļĦè¯Ńæ°Ķ": 9298,
      "ane": 9299,
      "åħ¥åı£": 9300,
      "çĥŃæĥħ": 9301,
      "è£ħé¥°": 9302,
      "éģİä¾Ĩ": 9303,
      "éģķ": 9304,
      "indows": 9305,
      "beit": 9306,
      "åħĴ": 9307,
      "âĢĿãĢģâĢľ": 9308,
      "ä½ĵåĬĽ": 9309,
      "çĶµæ¢¯": 9310,
      "éķľåŃĲ": 9311,
      "38": 9312,
      "çļĦç±": 9313,
      "åį«çĶŁéĹ´": 9314,
      "çļĦè¶³": 9315,
      "åĪ«å¢ħ": 9316,
      "æĪĳçĽ¸ä¿¡": 9317,
      "åľ¨å¤ĸ": 9318,
      "çľĭä¸įåĪ°": 9319,
      "åĪ¶æľį": 9320,
      "é¸Ń": 9321,
      "è§Ħå¾ĭ": 9322,
      "å´İ": 9323,
      "icle": 9324,
      "ãģ«ãģĬ": 9325,
      "éĤ£æĹ¶": 9326,
      "æıĴè¿Ľåİ»": 9327,
      "Ġprote": 9328,
      "å¨ĩç¾ŀ": 9329,
      "å¦Ĥåħ¶": 9330,
      "è®©å°ı": 9331,
      "éłĺ": 9332,
      "éģŃåıĹ": 9333,
      "å°ĨæĪĳ": 9334,
      "åľ¨å¥¹èº«ä¸Ĭ": 9335,
      "åĴ¬çīĻ": 9336,
      "çŃīäºº": 9337,
      "éªĦ": 9338,
      "ĠCan": 9339,
      "ãĤ¹ãĤ¿": 9340,
      "Ġgive": 9341,
      "çļĦå¤§èĤīæ£Ĵ": 9342,
      "æ··èĽĭ": 9343,
      "åıĳåĩºä¸Ģå£°": 9344,
      "æĪĪ": 9345,
      "ï¼Ł\"": 9346,
      "Ġpa": 9347,
      "Ġprovid": 9348,
      "åı¯ä»¥æł¹æį®": 9349,
      "2020": 9350,
      "åĲĪéĢĤçļĦ": 9351,
      "ãĥķãĤ¡": 9352,
      "æĪĳåħĪ": 9353,
      "æĹŃ": 9354,
      "åĩºåıĳ": 9355,
      "è¿ĺæĥ³": 9356,
      "çļĦçĪ±æ¶²": 9357,
      "ï¼ģâĢ¦âĢ¦": 9358,
      "åįģåĩł": 9359,
      "ĠMus": 9360,
      "å¼ŁåŃĲ": 9361,
      "ĠIm": 9362,
      "ĠStud": 9363,
      "ai": 9364,
      "çļĦåĺ´": 9365,
      "ified": 9366,
      "sc": 9367,
      "äºĭä¸ļ": 9368,
      "ç¨¿": 9369,
      "çļĦå¿ĥæĥħ": 9370,
[...]
